<pad>	0
<unk>	0
<s>	0
</s>	0
.	-2.71301
,	-3.64802
▁the	-3.94721
▁	-4.54829
▁of	-4.65118
s	-4.68751
▁to	-4.70757
▁and	-4.7289
▁in	-4.87441
▁is	-4.97833
▁a	-5.04541
?	-5.10862
▁The	-5.29134
▁ಈ	-5.48604
▁ಮತ್ತು	-5.51369
:	-5.59964
▁for	-5.74005
▁was	-5.8383
-	-5.84345
▁are	-5.85058
▁that	-5.86749
▁has	-5.88001
▁be	-5.91414
▁ಎಂದು	-5.91981
ದ	-5.93316
▁not	-5.98939
▁on	-5.9964
▁have	-6.05997
▁I	-6.10818
▁it	-6.14851
▁this	-6.15102
▁will	-6.16287
ing	-6.17014
'	-6.18406
▁(	-6.20457
▁with	-6.20508
)	-6.26853
▁ಆದರೆ	-6.28491
ಗಳು	-6.34691
▁ಅವರು	-6.3751
▁by	-6.40131
ಯ	-6.4145
▁ಇದು	-6.45556
▁been	-6.45678
ಗಳನ್ನು	-6.4642
ed	-6.46923
ು	-6.48914
▁It	-6.49906
ವನ್ನು	-6.5135
▁at	-6.51793
▁said	-6.53611
▁you	-6.5422
▁were	-6.55684
▁as	-6.566
ಗೆ	-6.5752
▁This	-6.57799
▁But	-6.5827
▁from	-6.58451
▁he	-6.58993
▁He	-6.59071
ಕ್ಕೆ	-6.61449
▁his	-6.65977
▁India	-6.66151
▁ಹಾಗೂ	-6.68288
▁also	-6.70135
ಿ	-6.7162
ಗಳ	-6.75961
ಯನ್ನು	-6.76346
▁A	-6.77762
!	-6.7976
ರ	-6.82295
▁ಅವರ	-6.83676
ವು	-6.8549
▁no	-6.8631
▁ಒಂದು	-6.88313
▁an	-6.88415
▁all	-6.888
ದಲ್ಲಿ	-6.89626
▁had	-6.9121
ನ	-6.91213
."	-6.91591
▁ಆ	-6.91788
▁ಬಗ್ಗೆ	-6.91803
ರು	-6.91836
d	-6.94208
▁What	-6.95906
▁There	-6.99732
▁ನಾನು	-7.01504
▁BJP	-7.03528
ನ್ನು	-7.04001
t	-7.04483
▁can	-7.05731
ಸ್	-7.06553
▁their	-7.08201
▁"	-7.08693
▁do	-7.09038
▁We	-7.09113
▁ನಾವು	-7.09323
▁Minister	-7.09386
▁"""	-7.11867
▁we	-7.12179
ಿದ್ದಾರೆ	-7.16066
▁one	-7.16196
ಲು	-7.16254
▁them	-7.1646
▁your	-7.18318
▁they	-7.18772
▁police	-7.2109
▁They	-7.21309
▁people	-7.21771
▁-	-7.2189
್	-7.22352
▁ಮೇಲೆ	-7.2341
ly	-7.26613
▁‘	-7.27804
▁should	-7.27879
▁or	-7.2821
▁government	-7.28413
▁ಇಲ್ಲ	-7.2895
ುವ	-7.30638
▁Congress	-7.30929
ಾ	-7.30991
▁ಬಿಜೆಪಿ	-7.31363
’	-7.31914
▁about	-7.32773
▁ನಮ್ಮ	-7.33043
▁In	-7.33366
▁who	-7.33684
ಯಲ್ಲಿ	-7.34253
▁ಯಾವುದೇ	-7.35845
▁“	-7.35966
▁ಕಾಂಗ್ರೆಸ್	-7.38017
▁ಅದು	-7.38489
ಿದೆ	-7.38528
▁time	-7.38823
▁there	-7.39267
▁ನ	-7.3971
▁Rs	-7.39756
a	-7.41533
▁ನಲ್ಲಿ	-7.41545
▁case	-7.41805
▁ನೀವು	-7.43737
ವಾಗಿ	-7.44067
▁Modi	-7.44773
▁ತನ್ನ	-7.46254
▁ನಿಮ್ಮ	-7.46405
▁our	-7.4677
▁out	-7.47229
ನ್	-7.48897
ೆ	-7.49565
▁what	-7.50228
▁him	-7.50624
▁against	-7.5072
ದಿಂದ	-7.51748
▁ಮೋದಿ	-7.52175
▁film	-7.52651
▁1	-7.5354
▁two	-7.53779
e	-7.53791
▁ಪೊಲೀಸರು	-7.5434
▁up	-7.55195
▁How	-7.57117
er	-7.57133
▁Indian	-7.57674
▁ಏನು	-7.58386
ನು	-7.58407
ಗಳಲ್ಲಿ	-7.59051
ಗಳಿಗೆ	-7.59629
▁more	-7.59925
▁first	-7.59972
▁ತಮ್ಮ	-7.60009
ಕ	-7.60332
▁over	-7.60384
▁ಹೇಗೆ	-7.61825
ಲ್ಲಿ	-7.62263
y	-7.63568
▁”	-7.63956
ವಾಗಿದೆ	-7.63995
▁so	-7.64181
▁its	-7.64199
▁ನಂತರ	-7.64731
ಿಗೆ	-7.64929
▁her	-7.64998
▁ಮೂಲಕ	-7.65174
ಲ್	-7.65223
▁other	-7.6537
ಯು	-7.66166
▁ಭಾರತ	-7.66327
ಯೂ	-7.6658
▁ಪ್ರಕರಣ	-7.67448
▁which	-7.678
▁ಹೆಚ್ಚು	-7.67863
▁ವಿರುದ್ಧ	-7.68431
▁2	-7.68486
ೂ	-7.70806
▁did	-7.71623
▁ಅಥವಾ	-7.72159
▁ಎಂಬ	-7.72317
▁ಕೂಡ	-7.73566
ರ್	-7.73586
▁So	-7.74235
▁ಎಂದರು	-7.74292
ವಾದ	-7.74516
▁would	-7.75285
▁ಹೊಸ	-7.76108
▁""	-7.76697
▁ರೂ	-7.76788
▁ಇದೆ	-7.76983
▁ಸರ್ಕಾರ	-7.77111
▁ಗೆ	-7.7766
▁You	-7.78421
ಯೇ	-7.78477
ಬೇಕು	-7.78645
▁'	-7.78898
▁However	-7.79163
▁us	-7.79504
ುವುದು	-7.80012
▁ನನಗೆ	-7.80157
▁God	-7.80331
▁after	-7.80397
▁ಪ್ರಧಾನಿ	-7.80512
▁No	-7.81078
▁me	-7.81118
ಟ್	-7.81586
▁state	-7.81705
▁new	-7.81921
▁into	-7.82002
al	-7.8256
▁ಅವರಿಗೆ	-7.82764
ೇ	-7.82843
S	-7.83028
▁very	-7.84214
▁need	-7.84386
▁Police	-7.85174
ವ	-7.85511
▁ಅ	-7.8561
n	-7.85849
▁S	-7.85881
ವೇ	-7.86178
▁being	-7.86991
▁any	-7.87105
▁10	-7.87114
ುತ್ತದೆ	-7.87444
ಯಿಂದ	-7.87888
ಸಿ	-7.87905
ದೆ	-7.88163
▁ಅದನ್ನು	-7.88241
▁ಯಾವ	-7.88617
▁many	-7.89658
▁ಮೊದಲ	-7.89829
▁Prime	-7.89953
ಸ	-7.90816
▁water	-7.90955
▁work	-7.91313
ಕ್	-7.91597
▁Its	-7.91663
▁know	-7.91992
▁such	-7.92233
▁ಕೇಂದ್ರ	-7.92424
▁made	-7.92795
ಲ್ಲ	-7.92945
▁ಸಹ	-7.93171
▁ಕೆಲಸ	-7.93684
▁ಎಸ್	-7.93757
▁but	-7.94404
▁ಇದನ್ನು	-7.94539
▁good	-7.94984
▁some	-7.9546
▁ಪೊಲೀಸ್	-7.95724
▁ಅವರನ್ನು	-7.95916
▁country	-7.9607
▁5	-7.9652
▁like	-7.96574
▁She	-7.96621
ಿರುವ	-7.97044
▁day	-7.97963
▁ಎಲ್ಲಾ	-7.98097
▁ಹೇಳಿದರು	-7.98393
ಲಿ	-7.98917
▁my	-7.98981
▁life	-7.99012
▁Singh	-7.99065
▁And	-7.99106
ವೂ	-7.99781
ಿಲ್ಲ	-7.99995
▁take	-8.00292
▁ಭಾರತದ	-8.00743
""	-8.00787
▁ಎರಡು	-8.0134
▁taken	-8.01732
ಿತ್ತು	-8.02116
ರಿ	-8.02719
▁registered	-8.02904
▁when	-8.03003
es	-8.03265
I	-8.03463
▁ರಾಜ್ಯ	-8.03499
▁ಮಾಡಿ	-8.0367
▁am	-8.04266
▁Jehovah	-8.05528
▁here	-8.0597
▁these	-8.06227
▁ಕೆಲವು	-8.07439
ಿದ್ದರು	-8.07684
▁ಕುರಿತು	-8.07869
▁Why	-8.07999
▁Delhi	-8.08282
▁3	-8.08331
▁Narendra	-8.0851
▁than	-8.08918
ಲ	-8.0893
▁present	-8.09386
▁children	-8.09555
▁ಸಚಿವ	-8.09746
▁ಇದರಿಂದ	-8.09814
ಾಗ	-8.1011
▁That	-8.10559
▁well	-8.11737
▁ಇಲ್ಲಿ	-8.11895
▁only	-8.1197
▁ಹೇಳಿದ್ದಾರೆ	-8.12176
▁ಕಾರಣ	-8.12219
(	-8.12287
▁ಕೋಟಿ	-8.12296
ಿತು	-8.12409
▁ಅಧ್ಯಕ್ಷ	-8.12865
▁ಉತ್ತರ	-8.13931
▁dont	-8.1428
ಗ	-8.14287
▁come	-8.14533
▁ಕೆ	-8.14895
▁ಬಿ	-8.15409
▁too	-8.1543
▁ಸಿಂಗ್	-8.15983
▁ಅಲ್ಲ	-8.16067
),	-8.16135
▁ಇನ್ನೂ	-8.16358
▁ಇದಕ್ಕೆ	-8.16713
▁ಅದರ	-8.16797
ತ	-8.17418
▁Gandhi	-8.1758
▁ಎಲ್ಲ	-8.17861
▁Chief	-8.17946
▁ಮಾಹಿತಿ	-8.18124
▁ಬಳಿಕ	-8.18148
▁20	-8.18174
▁under	-8.18204
ಿದ	-8.18261
▁ಭಾರತೀಯ	-8.18392
ರೆ	-8.18645
ಡ್	-8.18978
▁:	-8.19125
▁she	-8.19132
ಡಿ	-8.19324
i	-8.20287
▁ನನ್ನ	-8.20446
▁three	-8.20483
ಮ	-8.20549
ುತ್ತಾರೆ	-8.20582
ಿದ್ದು	-8.20664
▁between	-8.20747
▁ಹೆಚ್ಚಿನ	-8.20763
r	-8.20907
/	-8.20932
▁ಆರ್	-8.20939
▁15	-8.2119
▁B	-8.21433
▁ಮಾತ್ರ	-8.21535
ಿಂದ	-8.21706
▁get	-8.21953
▁incident	-8.2209
▁ದೊಡ್ಡ	-8.22758
▁ಉತ್ತಮ	-8.22795
▁ಲಕ್ಷ	-8.23339
ಿದ್ದ	-8.23363
ದು	-8.23432
▁ಸಿ	-8.23486
▁ವಿ	-8.23493
▁ಮಾಜಿ	-8.23561
▁ನರೇಂದ್ರ	-8.23673
▁ಆಗ	-8.23787
▁4	-8.23871
▁party	-8.24562
▁does	-8.24928
▁All	-8.255
▁per	-8.25593
▁ಇದರ	-8.25819
▁ಚಿತ್ರ	-8.25869
▁crore	-8.2632
▁just	-8.26329
re	-8.26369
th	-8.26375
▁Kumar	-8.26458
in	-8.26563
ನಾ	-8.26599
ಿದರು	-8.2694
▁ಜನರು	-8.2719
▁Karnataka	-8.27218
."""	-8.27407
▁ಅನೇಕ	-8.27571
ವಿ	-8.27669
▁ಮುಖ್ಯಮಂತ್ರಿ	-8.27737
▁ಕ್ರಮ	-8.27834
▁ನಮಗೆ	-8.27841
▁T	-8.27885
▁ಮುಖ್ಯ	-8.2813
ಬಹುದು	-8.28199
m	-8.28205
▁make	-8.28244
▁then	-8.2827
▁place	-8.28334
ನೇ	-8.28408
▁lakh	-8.28517
▁ಮಾಡಲು	-8.28554
▁For	-8.2862
▁New	-8.28911
▁ತಿಳಿಸಿದ್ದಾರೆ	-8.29071
▁world	-8.2908
▁ಎ	-8.29104
▁ಅವನು	-8.29137
▁ಅನ್ನು	-8.2914
▁minister	-8.29303
ಲಾಗಿದೆ	-8.2977
▁how	-8.31178
▁must	-8.3128
▁K	-8.31395
▁ಇ	-8.31448
▁ಡಿ	-8.32083
▁help	-8.33075
▁ಘಟನೆ	-8.33211
ೋ	-8.33845
▁ಕುಮಾರ್	-8.34537
▁Jesus	-8.34661
▁ತನಿಖೆ	-8.34878
▁family	-8.3501
▁ಪ್ರಮುಖ	-8.35056
ಕ್ಕೂ	-8.35538
▁those	-8.35989
▁19	-8.3649
▁go	-8.36548
▁ಗಾಂಧಿ	-8.36961
▁Pakistan	-8.3776
▁12	-8.37804
ುವುದಿಲ್ಲ	-8.37984
▁hospital	-8.38275
▁—	-8.38321
ಂ	-8.38485
▁accused	-8.38711
▁if	-8.38959
▁could	-8.39287
▁ಸಂಬಂಧ	-8.39346
▁ಮಂದಿ	-8.39463
ಟ	-8.39521
▁ಅವನ	-8.40381
ುವಂತೆ	-8.4083
▁others	-8.40856
▁C	-8.40964
▁way	-8.41173
▁’	-8.41174
ನಿ	-8.41214
o	-8.41475
,""	-8.41506
▁man	-8.41806
ವೆ	-8.41956
▁done	-8.41967
▁arrested	-8.42847
ವರು	-8.42968
▁ಇನ್ನು	-8.43147
▁ರಾಹುಲ್	-8.43436
▁ದೇವರ	-8.43591
▁Do	-8.4374
▁6	-8.43774
]	-8.44078
▁P	-8.44589
▁given	-8.44877
▁yet	-8.45004
▁ಆರೋಗ್ಯ	-8.45079
▁Rahul	-8.45105
▁love	-8.45171
▁much	-8.45252
▁ವೇಳೆ	-8.4537
▁ಸಿನಿಮಾ	-8.45699
▁most	-8.45765
▁shall	-8.4586
▁number	-8.45896
ಮ್	-8.46236
▁ಇದೇ	-8.46237
▁ಹಲವು	-8.46238
▁ಮಾಡುವ	-8.46272
▁ಭೇಟಿ	-8.46614
ಳ	-8.47045
ಟಿ	-8.47147
▁ಒಬ್ಬ	-8.47168
▁President	-8.47455
▁home	-8.47618
▁ಆಯ್ಕೆ	-8.477
▁ನಾಯಕ	-8.47975
▁PM	-8.48037
ರಾ	-8.48171
▁ಕಡಿಮೆ	-8.48249
ರೂ	-8.48425
ತೆ	-8.48748
▁ಪಿ	-8.48802
▁president	-8.49131
ers	-8.493
▁different	-8.49555
▁ದಿನ	-8.49559
ಗಳಿಂದ	-8.49614
ಕೆ	-8.4999
▁during	-8.50084
▁ಅದಕ್ಕೆ	-8.5014
▁ತುಂಬಾ	-8.5056
ದ್ದು	-8.50717
ಹ	-8.50946
▁50	-8.50962
▁same	-8.50972
an	-8.51091
▁As	-8.5161
▁ದೇಶದ	-8.51657
▁[	-8.51728
▁chief	-8.51775
▁took	-8.51968
▁ಪ್ರತಿ	-8.51987
ವರ	-8.52023
▁ಬೇರೆ	-8.52533
▁ವಿವಿಧ	-8.52547
▁ಹೊಂದಿದೆ	-8.52655
▁ಮೂರು	-8.52702
▁ಇತರ	-8.52855
▁while	-8.5305
▁health	-8.53088
▁ಬಾರಿ	-8.53703
▁Khan	-8.5375
▁ವಿಶೇಷ	-8.53783
▁ಜೊತೆ	-8.53798
▁even	-8.53831
▁before	-8.53941
▁R	-8.53956
▁ಕೇವಲ	-8.54125
▁?	-8.54132
▁power	-8.54246
▁ಎನ್	-8.54438
▁injured	-8.54683
▁ಮಾಡಿದ್ದಾರೆ	-8.54689
ಲಿಲ್ಲ	-8.54822
ಿವೆ	-8.54844
▁ನಡೆದ	-8.54929
▁ನಿಮಗೆ	-8.54945
ಕ್ಕಾಗಿ	-8.55085
able	-8.55346
▁ಆಗಿದೆ	-8.55371
▁say	-8.55414
ಡ	-8.5552
▁back	-8.55658
▁going	-8.55938
1	-8.56174
▁important	-8.5621
ುತ್ತಿದ್ದಾರೆ	-8.56585
▁Court	-8.5666
▁ರ	-8.56677
▁ಮಾಡ	-8.56805
ಪ್	-8.57047
or	-8.5707
▁won	-8.57255
▁students	-8.573
ನೆ	-8.57369
‍	-8.57764
▁both	-8.57913
▁court	-8.57955
▁ಶ್ರೀ	-8.58046
▁down	-8.58148
▁G	-8.58321
ic	-8.58326
▁State	-8.58403
▁Bible	-8.58417
ುತ್ತಿದೆ	-8.5857
▁ನಡುವೆ	-8.58946
▁ಬಹಳ	-8.58966
▁through	-8.59063
▁Government	-8.59131
▁action	-8.59283
▁100	-8.59284
ರಲ್ಲಿ	-8.5953
ತ್	-8.59659
▁ನೀರು	-8.5984
▁ಮಾಡಿದ	-8.60005
ಯಾಗಿದೆ	-8.60098
▁ಯಾರು	-8.60424
▁ಹೀಗೆ	-8.60447
▁see	-8.60451
▁last	-8.60513
▁ಸೇರಿದಂತೆ	-8.60597
ಗಾಗಿ	-8.60728
ar	-8.60833
ುತ್ತವೆ	-8.60884
▁meeting	-8.61003
▁ಮುಂದೆ	-8.61242
▁ರೀತಿಯ	-8.61253
▁ಸ	-8.61536
▁ಇಂಡಿಯಾ	-8.61576
▁ಸುಮಾರು	-8.61855
▁D	-8.62087
▁8	-8.62103
▁ನಟ	-8.62437
▁son	-8.62467
▁ಸಮಯ	-8.62507
ಳು	-8.62614
▁want	-8.62704
▁ಮುಂದಿನ	-8.63078
l	-8.63087
▁ಜೊತೆಗೆ	-8.63128
▁part	-8.63309
▁ಕ	-8.63439
▁death	-8.63553
▁ರಾಜಕೀಯ	-8.63572
ಯಾಗಿ	-8.63698
▁His	-8.63794
ಯಾ	-8.63869
▁women	-8.63929
▁25	-8.64297
▁If	-8.64451
▁district	-8.64618
▁ಹಣ	-8.64717
▁ಜನರ	-8.64845
▁ಸಾಕಷ್ಟು	-8.65054
▁V	-8.65067
▁regard	-8.65127
ರಿಗೆ	-8.65223
▁ಆದ್ದರಿಂದ	-8.65383
▁ಇಬ್ಬರು	-8.65519
▁ಬೆಲೆ	-8.65833
C	-8.66052
ಂತೆ	-8.66212
▁former	-8.66239
ation	-8.66383
ಮಾ	-8.66454
▁ಅಗತ್ಯ	-8.66468
▁ಅತ್ಯಂತ	-8.66549
2	-8.66609
▁matter	-8.66652
▁18	-8.66706
▁right	-8.66745
ದ್ದ	-8.66817
▁wife	-8.66974
▁ರಾಷ್ಟ್ರೀಯ	-8.67129
ion	-8.67329
▁ಹಿಂದೆ	-8.67377
▁ಅಲ್ಲಿ	-8.67381
ವಾ	-8.67554
▁ಆಸ್ಪತ್ರೆಗೆ	-8.67581
▁may	-8.67651
A	-8.67678
▁off	-8.6777
▁never	-8.6784
▁spot	-8.67919
ಪ	-8.68034
▁social	-8.68235
▁Who	-8.69032
▁ಬ್ಯಾಂಕ್	-8.69295
▁30	-8.69331
▁team	-8.69355
ಜಿ	-8.69358
▁ಠಾಣೆಯಲ್ಲಿ	-8.69358
▁decision	-8.69438
▁ಸಂದರ್ಭದಲ್ಲಿ	-8.69453
▁Is	-8.69582
b	-8.698
▁far	-8.69899
▁ಖಾನ್	-8.6994
▁leader	-8.70121
▁media	-8.70173
▁7	-8.70183
▁16	-8.70233
▁leaders	-8.70301
▁ತಿಳಿಸಿದರು	-8.70556
▁Mumbai	-8.70597
▁says	-8.70608
▁name	-8.7075
▁Pradesh	-8.70884
▁movie	-8.7101
▁second	-8.7141
▁ಡಾ	-8.71515
ಲಿದೆ	-8.71604
▁ಏಕೆ	-8.71646
▁house	-8.72009
▁among	-8.72025
▁ಸಮಸ್ಯೆ	-8.72233
▁every	-8.72297
▁each	-8.72643
ನಲ್ಲಿ	-8.72773
▁ನಿನ್ನ	-8.7322
▁/	-8.73268
g	-8.73286
▁Thats	-8.73381
ಿರಿ	-8.73443
▁things	-8.73708
▁where	-8.7383
h	-8.73841
▁next	-8.7398
le	-8.7403
▁ಅವಕಾಶ	-8.74264
▁ನೋಡಿ	-8.7431
▁came	-8.74329
▁situation	-8.74365
▁ಶೇ	-8.74384
▁problem	-8.74412
ೊಂದಿಗೆ	-8.74482
▁ಕಾಲ	-8.74629
▁ಸಹಾಯ	-8.7474
▁died	-8.7476
▁ಬರ	-8.74982
▁use	-8.75034
▁ಟಿ	-8.75072
▁Sabha	-8.75337
c	-8.75344
▁ಸಾಮಾಜಿಕ	-8.75394
ve	-8.75594
▁ಆತನ	-8.7562
▁To	-8.75722
ುತ್ತೇವೆ	-8.75835
▁Some	-8.75997
▁un	-8.76063
ಿನ	-8.76131
▁city	-8.7615
▁ಮತ್ತೆ	-8.76223
▁These	-8.76258
▁ಹೀಗಾಗಿ	-8.76286
▁ಯೆಹೋವನ	-8.7652
▁another	-8.76577
▁days	-8.76643
▁ಹೇಳ	-8.76722
ತ್ತ	-8.76755
▁ಚಿಕಿತ್ಸೆ	-8.76788
▁Sharma	-8.76902
▁four	-8.76965
ನ್ನೂ	-8.77126
ಬ್	-8.77143
ುತ್ತಾ	-8.77209
▁ಪಕ್ಷದ	-8.77273
▁station	-8.7747
▁ಹಾಗೆ	-8.77498
▁set	-8.77732
▁ಈಗಾಗಲೇ	-8.77743
li	-8.7781
▁When	-8.779
▁farmers	-8.77918
ಲಾ	-8.77949
▁ಬಿಡುಗಡೆ	-8.77976
▁ತಂಡ	-8.7804
▁ಹಲವಾರು	-8.78106
ri	-8.78154
ಬ	-8.78287
▁ಅಧಿಕಾರಿಗಳು	-8.78335
▁ಕಾರ್ಯ	-8.78515
▁ಬಂದ	-8.7852
▁ಇದರಲ್ಲಿ	-8.78595
st	-8.78711
ಅ	-8.78756
▁elections	-8.78828
ಮಿ	-8.78945
▁ದೂರು	-8.79133
▁ಪ್ರಕಾರ	-8.79201
▁found	-8.79352
K	-8.79382
▁question	-8.79516
▁still	-8.79616
ಗಳಿವೆ	-8.7973
▁used	-8.79855
▁several	-8.79948
▁great	-8.80086
▁long	-8.8021
▁money	-8.8033
▁asked	-8.80351
ra	-8.80493
▁re	-8.80664
▁ಇಂತಹ	-8.8073
▁away	-8.81068
▁ಬೆಂಗಳೂರು	-8.81475
ವಿದೆ	-8.81609
▁13	-8.81733
▁Then	-8.81886
▁14	-8.82011
▁ನೀಡಿದ್ದಾರೆ	-8.82039
▁give	-8.82251
▁few	-8.8241
▁including	-8.82429
▁ವಿಷಯ	-8.82661
▁Here	-8.82685
▁ಆದರೂ	-8.82732
u	-8.82817
▁already	-8.82899
k	-8.82951
ಪ್ಪ	-8.8319
▁ಗಳ	-8.83271
▁ಮಕ್ಕಳ	-8.83474
▁ನಗರ	-8.83513
▁ಐ	-8.83619
▁ತುಂಬ	-8.83639
▁soon	-8.83736
▁ಕೈ	-8.83811
▁ಸಂಖ್ಯೆ	-8.83877
▁ಮೊದಲು	-8.83884
▁Gods	-8.83972
ಕಾ	-8.84026
▁ಭಾರತದಲ್ಲಿ	-8.84234
▁again	-8.84318
▁killed	-8.84411
la	-8.84455
▁An	-8.8452
▁development	-8.84586
ಜ	-8.84853
”	-8.84977
▁ಕಳೆದ	-8.85002
▁ವರದಿ	-8.85062
ಪಿ	-8.85133
▁ಸತ್ಯ	-8.85154
ಬಿ	-8.85178
▁got	-8.85237
▁cases	-8.85355
▁ನಟಿ	-8.85876
▁ಕನ್ನಡ	-8.85901
▁held	-8.85955
▁due	-8.86288
ುತ್ತೇನೆ	-8.86317
ತಿ	-8.86318
▁ಇರುವ	-8.86379
▁ಹಿರಿಯ	-8.864
G	-8.86432
P	-8.86499
ಯಾದ	-8.86608
▁ದಾಖಲಾಗಿದೆ	-8.86659
▁ಜಿ	-8.86825
6	-8.86902
5	-8.87096
▁N	-8.8711
on	-8.87114
▁high	-8.87129
▁own	-8.87248
▁ಅದೇ	-8.87311
▁issue	-8.8738
▁ಪಕ್ಷ	-8.87443
▁ಚುನಾವಣೆ	-8.87496
ಲೇ	-8.87589
▁Tamil	-8.87883
▁ಕಾರು	-8.87915
ಂದು	-8.8805
▁available	-8.88092
ಣ	-8.88162
▁later	-8.88206
ಲೆ	-8.8827
▁lot	-8.88299
▁On	-8.88328
R	-8.88364
▁Shah	-8.88385
D	-8.88428
ತಾ	-8.88522
▁ಸ್ವಲ್ಪ	-8.88526
▁years	-8.88541
▁car	-8.88713
▁ಚಿತ್ರದ	-8.88717
▁M	-8.88776
▁ಮಕ್ಕಳು	-8.89135
▁ಸರ್ಕಾರದ	-8.89291
▁called	-8.89296
▁didnt	-8.89333
f	-8.89336
▁ಬಾಲಿವುಡ್	-8.89347
ಗೂ	-8.89398
▁ನೋಡ	-8.894
M	-8.8952
"	-8.89639
▁ಶಿಕ್ಷಣ	-8.89648
▁ಮಾಡಬೇಕು	-8.89757
▁ಮಾಡಿದೆ	-8.89883
▁why	-8.89917
▁ಆಹಾರ	-8.8996
▁special	-8.90022
▁Kohli	-8.90233
ೀ	-8.90323
▁ಎಂ	-8.9035
▁win	-8.90424
▁ಎಂಬುದು	-8.90685
▁video	-8.90908
▁Not	-8.90936
3	-8.90991
▁members	-8.91205
▁ಕರ್ನಾಟಕ	-8.91234
ದೇ	-8.91319
▁support	-8.91326
ಾಗಿ	-8.91389
▁People	-8.91499
▁ಸರಕಾರ	-8.91605
▁ಒಟ್ಟು	-8.91628
▁40	-8.91699
▁ಪ್ರಶಸ್ತಿ	-8.91717
▁F	-8.91886
▁ಗಳು	-8.91957
▁Bengaluru	-8.92068
▁become	-8.92094
▁ಕೊಹ್ಲಿ	-8.921
ಿಗೂ	-8.92115
ವಲ್ಲ	-8.92184
▁Jehovahs	-8.92186
▁true	-8.92315
ಜ್	-8.92324
▁ಮ	-8.92424
▁because	-8.92531
▁11	-8.92682
▁ರಾಜ್ಯದ	-8.92707
▁men	-8.92707
▁ಅಂತ	-8.92869
ುತ್ತಿರುವ	-8.93221
▁ಕ್ರಿಕೆಟ್	-8.93237
▁ಪ್ರಶ್ನೆ	-8.93274
▁Kannada	-8.93359
▁ದಕ್ಷಿಣ	-8.93449
▁ಅಭಿವೃದ್ಧಿ	-8.93493
▁ಶಾ	-8.93614
▁Union	-8.93626
4	-8.93708
▁Ram	-8.93732
▁cannot	-8.93734
ಸು	-8.93796
el	-8.93911
--	-8.93924
▁father	-8.93959
▁One	-8.94033
▁At	-8.941
▁went	-8.94178
▁ಅತಿ	-8.94325
B	-8.94366
▁woman	-8.94403
▁body	-8.94423
▁b	-8.94439
▁various	-8.94442
▁ಯೇಸು	-8.94493
en	-8.94751
▁National	-8.94853
▁ರನ್	-8.94861
▁law	-8.94965
▁de	-8.95192
▁ಪ್ರಧಾನ	-8.9526
▁World	-8.95272
▁happened	-8.9538
▁ಹೋಗ	-8.9542
▁cent	-8.95561
ity	-8.95685
▁Dont	-8.9572
▁ಗಳನ್ನು	-8.95726
ಶ್	-8.95749
ಾದ	-8.95944
ಲಾಯಿತು	-8.95988
▁ಸಾಧ್ಯವಿಲ್ಲ	-8.96098
ಇ	-8.96263
it	-8.96379
▁ಪರಿಸ್ಥಿತಿ	-8.96462
▁ಸು	-8.9655
▁complaint	-8.96603
▁ಆಫ್	-8.96611
ವಾಗಿತ್ತು	-8.97066
▁Kashmir	-8.97107
am	-8.97197
ುತ್ತಾನೆ	-8.97546
ವಿಲ್ಲ	-8.97708
▁needs	-8.97928
ಿತ	-8.98086
▁17	-8.98101
▁Many	-8.9861
▁heart	-8.98868
▁occasion	-8.98893
▁Lok	-8.98948
▁look	-8.99039
▁ಕಾನೂನು	-8.99148
▁200	-8.99357
▁ಮಳೆ	-8.99377
▁ಪರಿಣಾಮ	-8.99383
▁fire	-8.99486
▁ನಿಂದ	-8.99504
▁ಯಾರೂ	-8.99516
ರನ್ನು	-8.99526
ರುವ	-8.99582
ನೂ	-8.99586
▁food	-8.99618
▁investigation	-8.99712
▁ನೀಡ	-8.99735
▁ಹ	-8.99839
▁land	-8.99903
▁together	-8.99936
ಿರಲಿಲ್ಲ	-9.00565
▁officials	-9.00746
The	-9.00762
ಸಾ	-9.00876
▁known	-9.01006
▁ವಾಹನ	-9.01009
▁end	-9.01069
▁ಪರಿಹಾರ	-9.01077
▁ನಿರ್ಧಾರ	-9.01099
▁actor	-9.01137
20	-9.01238
▁ರೀತಿ	-9.01266
▁ರಸ್ತೆ	-9.01298
▁ಬ	-9.01388
ಬಾರದು	-9.01457
▁After	-9.01554
▁ಮಾಡಲಾಗಿದೆ	-9.01563
▁Bank	-9.01599
sh	-9.01674
ment	-9.0168
▁started	-9.01932
▁ಕೊಡ	-9.01949
▁ಅರ್ಜಿ	-9.02028
▁mother	-9.02086
▁reason	-9.02186
ಎಸ್	-9.02204
▁school	-9.02206
▁ದೇವರು	-9.02283
▁nothing	-9.02353
▁around	-9.02379
▁temple	-9.02506
▁seats	-9.02516
▁immediately	-9.02546
▁ದೇಶ	-9.02771
▁Home	-9.02778
▁ಮನೆ	-9.0285
▁ತೀವ್ರ	-9.02853
▁ಸ್ಥಾನ	-9.02976
▁ಹೆಸರು	-9.03286
▁ಇವೆ	-9.03392
▁political	-9.03441
▁ಸಾವು	-9.03456
▁24	-9.03725
ness	-9.03781
▁however	-9.038
▁attack	-9.03908
▁across	-9.04114
▁role	-9.04149
ಕಿ	-9.04159
▁ಸಂಪರ್ಕ	-9.04569
▁Re	-9.04626
▁ಕೇಳ	-9.04893
▁ಕೋರ್ಟ್	-9.04894
▁times	-9.05006
▁ಎಷ್ಟು	-9.05049
▁ನೀನು	-9.05165
▁Bollywood	-9.05318
▁public	-9.05536
p	-9.05652
ಿಸುವ	-9.05744
ul	-9.05813
▁ಯಾಕೆ	-9.05842
na	-9.05951
▁ಜಿಲ್ಲಾ	-9.05993
▁best	-9.06052
▁parents	-9.06094
▁ಅಲ್ಲದೆ	-9.06098
ಗ್	-9.06162
▁ಎರಡನೇ	-9.06321
▁ಪ್ರತಿಭಟನೆ	-9.06384
ದಂತೆ	-9.06404
▁Dr	-9.06799
▁Shri	-9.06848
ಿದ್ದೇವೆ	-9.06861
ta	-9.06866
▁ಎರಡೂ	-9.06886
ೊ	-9.07017
ರೋ	-9.07021
ಎ	-9.07155
▁order	-9.07292
▁ಸಂಪೂರ್ಣ	-9.0746
▁ಪತ್ನಿ	-9.07494
▁news	-9.07582
▁ಫೋನ್	-9.07598
▁year	-9.07615
▁ಪಾತ್ರ	-9.07765
▁ಜ	-9.07781
▁ಜೀವನ	-9.07782
ನ್ನ	-9.07791
▁ಸಂಗೀತ	-9.07885
▁ಹಾಕಿ	-9.07912
ರಷ್ಟು	-9.07929
▁L	-9.08031
▁ಆರೋಪ	-9.08049
▁person	-9.08068
▁story	-9.08123
▁seen	-9.08316
ಯೋ	-9.08418
▁ಯೋಜನೆ	-9.08455
▁ಹೇಳಿಕೆ	-9.08594
▁doing	-9.08646
ur	-9.08754
▁hand	-9.08809
ಗಳೂ	-9.08955
▁ನೀಡಿ	-9.08997
▁ಬೆಂಬಲ	-9.09196
▁information	-9.09267
▁ಎಂದಿದ್ದಾರೆ	-9.09386
▁ಓದಿ	-9.09441
ಶ	-9.09845
▁road	-9.1005
▁Im	-9.10499
▁child	-9.10558
▁ಸುದ್ದಿ	-9.10582
▁Man	-9.10588
▁21	-9.10589
▁ಸ್ಥಳಕ್ಕೆ	-9.1071
▁ಯಾರ	-9.10809
▁ಹಾಕ	-9.10869
▁answer	-9.10906
ರಿಂದ	-9.11
w	-9.11049
ಿದ್ದೇನೆ	-9.11131
▁ಪರೀಕ್ಷೆ	-9.11156
▁ಸದ್ಯ	-9.11224
ವಾಗ	-9.11318
▁Virat	-9.11355
▁9	-9.11401
▁ಪಾಕಿಸ್ತಾನ	-9.11509
▁ವಿಶ್ವ	-9.11592
▁problems	-9.11751
▁US	-9.11801
8	-9.11842
ವನ್ನೂ	-9.11845
ಯಾಗ	-9.12429
▁ಇಲಾಖೆ	-9.12517
▁ಸಮಯದಲ್ಲಿ	-9.1253
▁ಚಿತ್ರದಲ್ಲಿ	-9.12531
▁ಎಂಬುದನ್ನು	-9.12666
▁change	-9.12755
▁E	-9.12758
▁ನೀಡಿದ	-9.12766
▁ನಡೆದಿದೆ	-9.12823
-19	-9.12922
ರೇ	-9.12968
E	-9.13005
▁five	-9.1305
▁2020	-9.13105
▁ಕಾ	-9.13141
▁treatment	-9.13445
▁example	-9.13456
▁system	-9.1346
▁Supreme	-9.13643
▁ಒಂದೇ	-9.13739
▁further	-9.1391
▁ಇರ	-9.13947
▁daughter	-9.13995
▁process	-9.14123
▁ಹಾಗಾಗಿ	-9.14391
9	-9.14426
7	-9.14493
▁ಆರ್ಥಿಕ	-9.14507
▁ಒ	-9.14513
ರಾದ	-9.14547
▁lead	-9.14936
▁Both	-9.14937
ne	-9.15062
▁left	-9.15123
ma	-9.15359
▁ವಿಚಾರಣೆ	-9.15432
ಿದನು	-9.15567
▁Two	-9.15599
▁added	-9.15611
ಂತ	-9.15624
▁ಸಿಬ್ಬಂದಿ	-9.15692
▁always	-9.15735
▁ನಾಲ್ಕು	-9.15749
▁ನಿರ್ಮಾಣ	-9.1587
▁told	-9.1587
▁ವ್ಯವಸ್ಥೆ	-9.16003
▁ಪ್ರಯತ್ನ	-9.16045
▁CM	-9.16199
▁ಉಪಸ್ಥಿತರಿದ್ದರು	-9.16284
▁p	-9.16326
ುತ್ತಿಲ್ಲ	-9.16343
man	-9.16492
▁ಹೊರ	-9.16682
▁ಮುಂಬೈ	-9.16701
▁ಶರ್ಮಾ	-9.16718
▁put	-9.16738
▁election	-9.16781
▁lost	-9.16835
▁ಕಷ್ಟ	-9.1688
▁Whats	-9.16933
ya	-9.16974
ಲಾಗುತ್ತದೆ	-9.16981
▁face	-9.17057
us	-9.1714
▁include	-9.1717
▁released	-9.17171
▁ಜೆಡಿಎಸ್	-9.1728
▁ಸಣ್ಣ	-9.17384
il	-9.17434
▁report	-9.17542
ಫ್	-9.17584
▁ದರ	-9.17621
ent	-9.17723
▁O	-9.1777
▁ಚೆನ್ನಾಗಿ	-9.17817
▁ವಿರಾಟ್	-9.17822
▁ಯೆಹೋವನು	-9.17836
ive	-9.17847
▁ತಂದೆ	-9.17928
▁ಗೌರವ	-9.17946
▁ಮು	-9.17968
▁ನಿರ್ದೇಶಕ	-9.18127
We	-9.18208
▁truth	-9.1822
▁Maharashtra	-9.18376
▁ವ್ಯಕ್ತಿ	-9.18492
▁ತಂಡದ	-9.1855
▁ಸಭೆಯಲ್ಲಿ	-9.18641
▁ಕಾರ್ಯದರ್ಶಿ	-9.18653
▁ಮಾತು	-9.18848
▁area	-9.18857
▁ಬಾ	-9.1904
▁Where	-9.19244
▁Read	-9.19284
▁ಜನರಿಗೆ	-9.19441
▁ಟೆಸ್ಟ್	-9.19489
▁easy	-9.19557
z	-9.19581
▁anything	-9.19583
▁without	-9.19907
▁Be	-9.19942
▁ದಾಳಿ	-9.20041
▁ಮಾ	-9.2006
▁ಮೂಲ	-9.20127
▁politics	-9.20146
▁persons	-9.20167
ಲಾಗಿತ್ತು	-9.20201
▁ತಾಯಿ	-9.20219
ಿದ್ದಾನೆ	-9.2028
▁ಸಭೆ	-9.20351
▁now	-9.20521
▁ನೀಡಿದೆ	-9.20558
ಲ್ಲೇ	-9.20728
▁ಸೂಕ್ತ	-9.20939
ll	-9.21244
▁ವ್ಯಕ್ತಪಡಿಸ	-9.21264
▁thing	-9.21283
▁ಉ	-9.213
▁ಬೈಬಲ್	-9.21349
▁programme	-9.21378
▁following	-9.21378
▁ಚುನಾವಣೆಯಲ್ಲಿ	-9.21399
▁ಎಚ್	-9.214
▁ಮಾಡಿದರು	-9.21622
▁post	-9.21649
▁ನೀಡಿದರು	-9.21701
▁South	-9.21758
▁ನಿ	-9.21868
ಗಿ	-9.22007
▁ಮನವಿ	-9.22061
▁ದೆಹಲಿ	-9.22134
▁ಎಲ್ಲರೂ	-9.22224
▁ಗ	-9.22241
▁ಬೇಡ	-9.22334
▁ಸೇವೆ	-9.22336
▁ಇವರು	-9.2244
▁ಎಂಜಿನ್	-9.22602
▁ರಾಜ್ಯದಲ್ಲಿ	-9.22636
▁possible	-9.22651
at	-9.22742
ಿಸಿ	-9.22816
L	-9.2293
▁think	-9.22957
▁ಪರ	-9.22975
▁received	-9.23061
▁keep	-9.23213
▁ಸಾಮಾನ್ಯ	-9.23561
▁ಕುಟುಂಬ	-9.23579
▁Former	-9.23687
▁With	-9.23702
▁ವಿದ್ಯಾರ್ಥಿಗಳು	-9.23723
▁happy	-9.23753
ಗಳನ್ನೂ	-9.23768
▁ವಿರೋಧ	-9.23802
▁ಆದ	-9.2392
▁ವಿಮಾನ	-9.24002
ಕ್ಕ	-9.24102
▁states	-9.24164
▁Sri	-9.24277
▁ಬಂದಿದೆ	-9.24295
▁ಇರಲಿಲ್ಲ	-9.24324
▁along	-9.24498
ವರಿಗೆ	-9.24509
▁ಆರೋಪಿ	-9.24578
▁saying	-9.24839
▁really	-9.24849
%	-9.24856
▁result	-9.24913
▁ಇಡೀ	-9.24963
▁education	-9.25017
▁ಇಷ್ಟ	-9.25034
▁show	-9.25048
▁reported	-9.25115
▁Kapoor	-9.25167
▁ತೆರಿಗೆ	-9.25178
▁ತ	-9.25218
T	-9.25308
▁ಬಳಿ	-9.25365
▁big	-9.25471
ದಿ	-9.25508
▁ಕಾರ್ಯಕ್ರಮ	-9.25509
▁ವಿಚಾರ	-9.25578
▁ಕು	-9.25583
ನೋ	-9.25745
▁J	-9.25782
▁ಸಿಎಂ	-9.25835
▁ಜಯ	-9.25872
▁More	-9.25949
▁ಇನ್	-9.25993
▁Gujarat	-9.26008
ಂಥ	-9.26032
▁don	-9.26069
ನಾನು	-9.26191
te	-9.26217
▁ಪ್ರದೇಶ	-9.26329
▁comes	-9.26394
▁ಹೌದು	-9.26403
▁films	-9.26413
▁ಬಸ್	-9.26418
▁ಕೂಡಾ	-9.26464
ಕೋ	-9.26709
▁ಇಲ್ಲಿದೆ	-9.26711
ಿಸ	-9.26826
▁ದೇಶದಲ್ಲಿ	-9.26855
▁Our	-9.26878
▁top	-9.26994
▁ಮಾಡುತ್ತದೆ	-9.27063
ೀಯ	-9.27079
ಬೇಡಿ	-9.27088
▁ಸಂಸ್ಥೆ	-9.27114
▁market	-9.27132
▁ಎಲ್	-9.27468
▁read	-9.27525
▁ನನ್ನನ್ನು	-9.27529
▁total	-9.27532
▁price	-9.27575
▁ಶಕ್ತಿ	-9.27654
est	-9.27856
▁ಮತ	-9.27862
▁ಸಾಲ	-9.27873
▁local	-9.27892
▁Kerala	-9.27902
▁event	-9.27981
▁security	-9.2801
▁ನೀರಿನ	-9.28013
▁ಪ್ರಧಾನಮಂತ್ರಿ	-9.28016
▁ಇವರ	-9.28045
▁ಅಂದರೆ	-9.28118
▁ನೀಡುವ	-9.28199
ಮಾಡ	-9.28217
▁ನಿಜ	-9.28283
▁find	-9.28312
▁22	-9.28582
▁series	-9.28598
▁ಅತ್ಯುತ್ತಮ	-9.28699
▁ಉಪ	-9.28723
▁ಪ	-9.28761
▁ಆಡಳಿತ	-9.28802
▁ದ	-9.28914
▁ಆದಾಗ್ಯೂ	-9.29064
ಕರ	-9.29197
▁ರೀತಿಯಲ್ಲಿ	-9.29207
▁ಮಾರಾಟ	-9.29269
ro	-9.29323
▁ಮೆ	-9.29583
ಬೇಕೆಂದು	-9.29617
N	-9.2965
▁ಚರ್ಚೆ	-9.29831
▁might	-9.29955
ಲಾಗುವುದು	-9.29967
▁unto	-9.30035
▁Are	-9.30055
▁ಪ್ರತಿಕ್ರಿಯೆ	-9.30064
▁ಸಾಧ್ಯ	-9.30093
ಲೂ	-9.30139
ರಾಗಿ	-9.30202
ary	-9.30229
ತು	-9.3026
▁free	-9.30291
▁Test	-9.30296
▁runs	-9.30336
ಭ	-9.30356
ate	-9.30465
▁ಅಭ್ಯರ್ಥಿ	-9.30599
▁ಗಮನ	-9.30714
▁filed	-9.30746
▁connection	-9.30799
ಲ್ಲೂ	-9.30816
as	-9.3091
▁happen	-9.31057
▁ಅದರಲ್ಲಿ	-9.3114
▁ಜೀವ	-9.31196
▁sent	-9.31197
▁500	-9.31363
▁oil	-9.31605
▁full	-9.31701
ಬಾ	-9.31714
▁ಸ್ಥಳೀಯ	-9.31775
▁visit	-9.31818
▁ಟ್ವೀಟ್	-9.31828
▁ಇದೊಂದು	-9.31851
▁ಮಿ	-9.31859
▁live	-9.31943
▁ಪಡೆದ	-9.3202
▁final	-9.32025
▁working	-9.32041
ni	-9.32091
▁ಆತನು	-9.32152
▁ವರ್ಷದ	-9.32157
ಡು	-9.32208
ಲಿದ್ದಾರೆ	-9.32338
▁ಕೆಲ	-9.32359
▁ವಿಡಿಯೋ	-9.32364
▁directed	-9.32368
▁Israel	-9.32385
▁ನವದೆಹಲಿ	-9.32418
▁ಈಗ	-9.32426
▁cause	-9.32448
▁small	-9.325
▁currently	-9.3259
▁ಅವನಿಗೆ	-9.32605
ಷ	-9.32745
V	-9.32746
▁accident	-9.32765
▁since	-9.32771
▁Theres	-9.32801
▁ಧರ್ಮ	-9.32833
ak	-9.32906
▁cricket	-9.33046
se	-9.33114
▁ಓ	-9.33138
▁national	-9.33279
▁human	-9.33306
ty	-9.33319
▁earth	-9.33376
▁start	-9.33476
,000	-9.3353
▁CBI	-9.33652
up	-9.3366
▁Amit	-9.33805
▁ಕಪೂರ್	-9.33934
ry	-9.34126
ದ್	-9.342
less	-9.34233
▁wrong	-9.34261
▁ಅರ್ಥ	-9.34474
▁music	-9.34494
▁ಎಲ್ಲಿ	-9.34591
▁ಚುನಾವಣಾ	-9.34693
▁match	-9.34752
▁Hindi	-9.34783
▁continue	-9.34977
▁simple	-9.35002
▁announced	-9.35015
▁ಅಧಿಕ	-9.35111
▁month	-9.35179
▁hard	-9.35182
ವ್	-9.35183
▁ಇಂಥ	-9.35301
▁ಪ್ರ	-9.35445
▁dead	-9.3552
ಂಡ	-9.35623
▁fight	-9.35649
▁ಕೂಡಲೇ	-9.35653
▁ಸರಿ	-9.35751
▁ಅಗತ್ಯವಿದೆ	-9.35754
▁girl	-9.35847
▁ವಿಧಾನ	-9.35874
▁ಮಾಡಬಹುದು	-9.3597
▁High	-9.36028
▁questions	-9.36031
F	-9.36169
▁list	-9.36205
▁ಹೊಂದಿರುವ	-9.36217
ಬೇಕಿದೆ	-9.36249
▁history	-9.3625
▁faith	-9.3656
▁ಗೃಹ	-9.36594
▁ರೋಗ	-9.36619
▁control	-9.36677
?"	-9.36683
▁ಕೊಟ್ಟ	-9.36872
▁Day	-9.36938
▁words	-9.36972
ಗಳಾದ	-9.37116
▁China	-9.37138
▁ಸಾ	-9.37279
▁book	-9.37281
▁ಕೃಷಿ	-9.37361
▁official	-9.37386
▁ತೆಗೆದುಕೊಳ್ಳ	-9.37397
▁ತೊಂದರೆ	-9.37426
▁mind	-9.37438
▁ಬೇಕು	-9.37463
▁ಜೆ	-9.37532
▁today	-9.37541
▁ರಾಜೀನಾಮೆ	-9.37599
▁ಭಾರೀ	-9.37604
▁details	-9.37628
▁ಶಾಸಕ	-9.37749
▁ಅಮಿತ್	-9.37778
▁better	-9.37902
▁service	-9.37955
▁ಬೈಕ್	-9.37991
▁ಪ್ರಮಾಣ	-9.38089
▁MP	-9.3813
ಂಗ್	-9.38204
▁countries	-9.3828
▁ವ	-9.38338
▁ಸ್	-9.38379
▁ಉದ್ದೇಶ	-9.38399
▁ಬದಲಾವಣೆ	-9.38427
ful	-9.38472
▁difficult	-9.38481
ti	-9.38583
▁ಸಾಧ್ಯತೆ	-9.38691
▁ಪಂದ್ಯ	-9.38738
▁needed	-9.38833
▁ನಾ	-9.3919
▁blood	-9.39224
▁play	-9.39536
ance	-9.39627
▁ಸ್ಥಿತಿ	-9.39707
▁major	-9.3973
▁ಕೊಲೆ	-9.39848
▁Let	-9.39883
▁ಆರಂಭ	-9.39933
ಕರ್	-9.39937
▁ಬಹು	-9.40087
▁let	-9.40108
▁ಮಹಾ	-9.40208
▁friends	-9.40227
▁ಕರೆ	-9.40342
▁ಆದೇಶ	-9.40405
▁28	-9.40438
▁account	-9.40498
▁ಮನೆಯಲ್ಲಿ	-9.40513
▁ಕಥೆ	-9.40549
▁ಅಧಿಕಾರ	-9.40581
▁everyone	-9.4062
▁W	-9.40632
di	-9.40662
▁Everyone	-9.40843
▁ಬೆಂಕಿ	-9.40998
▁ಅಂತಹ	-9.41127
▁ಬಲ	-9.41139
▁ಕಿ	-9.41143
ಕೊ	-9.41302
▁Party	-9.41413
▁Jammu	-9.41492
▁ನ್ಯಾಯಾಲಯ	-9.41525
▁prices	-9.41579
ಐ	-9.41713
ುವುದನ್ನು	-9.41722
ಿಕ	-9.41743
▁future	-9.41757
▁Bangalore	-9.41757
▁ತಪ್ಪು	-9.41826
▁ಬರುವ	-9.41829
▁engine	-9.41842
▁ಸಮಿತಿ	-9.41865
▁making	-9.41921
▁ಯಾವುದು	-9.41923
▁ಎಫ್	-9.41979
▁ಪ್ರೀತಿ	-9.41992
▁large	-9.41997
▁ಅಧ್ಯಯನ	-9.42021
▁ಅನುಭವ	-9.42107
▁care	-9.4221
▁West	-9.42211
▁ನಡೆಸ	-9.42309
▁protest	-9.42402
▁form	-9.42499
▁ನೀಡಲಾಗಿದೆ	-9.42513
▁ಎಂದ	-9.42604
▁job	-9.42617
ುತ್ತಿದ್ದ	-9.42638
▁candidate	-9.42707
▁ಹತ್ಯೆ	-9.42733
▁launched	-9.42821
▁ವೈದ್ಯಕೀಯ	-9.42824
▁ಆತ	-9.42837
ir	-9.42846
▁ರೈತರ	-9.42877
▁spirit	-9.42999
▁District	-9.43003
▁became	-9.43003
ant	-9.4305
▁ಪೆಟ್ರೋಲ್	-9.43202
ha	-9.43204
▁ಏನೂ	-9.43312
ೋಣ	-9.43329
▁60	-9.43369
▁ಪ್ರದರ್ಶನ	-9.43397
ia	-9.43466
▁ಖಾಸಗಿ	-9.43472
ಗೊಳಿಸ	-9.43497
▁ಮಾನವ	-9.43601
▁married	-9.43634
▁ಚ	-9.43651
▁ಸಂಬಂಧಿಸಿದಂತೆ	-9.43653
▁suicide	-9.43722
▁ಆದ್ರೆ	-9.4374
▁third	-9.43757
▁ಉಳಿದ	-9.43775
▁head	-9.43793
▁taking	-9.43799
▁U	-9.43809
▁ವಿಷಯದಲ್ಲಿ	-9.43836
led	-9.43847
▁ಗುರಿ	-9.43876
▁young	-9.43881
▁ಸಿದ್ಧ	-9.43889
▁ಸೇರಿಸಿ	-9.43901
▁ಐದು	-9.43952
ವೆಂದು	-9.43997
▁David	-9.44021
▁ಮಾಡುವುದು	-9.44023
▁!	-9.44027
▁ಏರಿಕೆ	-9.44039
▁ಸಾಧನೆ	-9.44286
▁Paul	-9.44287
ದಲ್ಲಿರುವ	-9.44311
▁director	-9.44347
▁something	-9.44447
▁H	-9.44476
ಲ್ಪಟ್ಟ	-9.44484
▁ದೂರ	-9.44487
▁workers	-9.44499
▁ಭಾರತಕ್ಕೆ	-9.44607
um	-9.44699
▁ಒಳ್ಳೆಯ	-9.44701
▁Yadav	-9.44719
▁Add	-9.44725
ಷ್	-9.44756
▁ರೂಪಾಯಿ	-9.44805
▁ಮೂವರು	-9.44865
▁lives	-9.44869
▁gave	-9.44993
▁ಮಹಿಳಾ	-9.45016
ಆ	-9.45033
▁husband	-9.45084
▁reached	-9.45177
▁rain	-9.45188
▁ವಿಕೆಟ್	-9.45219
ಯೆ	-9.45245
▁ಅಧಿಕಾರಿ	-9.45297
▁ನಡೆಯುತ್ತಿದೆ	-9.45379
▁ಶೆಟ್ಟಿ	-9.45404
ನಿಗೆ	-9.45427
▁features	-9.45581
▁ಇರುತ್ತದೆ	-9.45601
ad	-9.45639
ಆರ್	-9.45695
▁ಪತ್ರ	-9.45701
▁23	-9.45791
▁believe	-9.45809
▁ಪಟ್ಟಿ	-9.45856
▁Your	-9.45877
▁ತರ	-9.45916
▁side	-9.46035
ce	-9.46176
▁ಬಳಸ	-9.46272
▁ಅವುಗಳನ್ನು	-9.46314
ಹಾ	-9.46339
▁ಸಾರ್ವಜನಿಕ	-9.46339
▁captain	-9.46366
▁demanded	-9.46373
▁ಹೋಗಿ	-9.46416
▁provide	-9.46469
ter	-9.46478
ಗಳೊಂದಿಗೆ	-9.46692
▁ಇದ್ದ	-9.46712
pur	-9.46749
U	-9.46828
▁ಹೋರಾಟ	-9.46935
▁course	-9.46993
▁ಪೂರ್ವ	-9.47106
ಈ	-9.47107
ುತ್ತಿದ್ದರು	-9.47138
▁ಪಡೆಯ	-9.47193
▁ಉದ್ಯೋಗ	-9.47199
▁coming	-9.47282
▁1,	-9.4741
ol	-9.47454
▁ಗುಜರಾತ್	-9.47517
ಟರ್	-9.47574
▁ಎಲ್ಲರಿಗೂ	-9.47699
▁ಗೊತ್ತಿಲ್ಲ	-9.47703
ಯ್	-9.47704
H	-9.47713
▁ರಾಷ್ಟ್ರ	-9.47742
▁ಬಣ್ಣ	-9.47935
▁ಸ್ಥಳ	-9.48068
▁ಹಾಗೆಯೇ	-9.48139
▁ತಿಳಿಸ	-9.48184
"""	-9.48224
▁tell	-9.48226
▁everything	-9.48243
tra	-9.48265
▁ಸಂಚಾರ	-9.48304
▁peace	-9.48422
▁ಪಾ	-9.48552
▁MLA	-9.48555
▁ನ್ಯಾಯ	-9.48619
▁night	-9.48663
▁ಕಾಣ	-9.4873
ಣಿ	-9.48738
▁ಪೊಲೀಸರ	-9.48838
▁Kumaraswamy	-9.48908
▁ಇನ್ನೊಂದು	-9.48918
ಕು	-9.48928
▁Central	-9.48932
▁ನಂಬಿಕೆ	-9.48982
ತ್ತು	-9.49067
▁ಮತ್ತೊಂದು	-9.49107
▁company	-9.49191
▁ಜನ	-9.49281
ೊಂದು	-9.49373
▁ಭಾಗ	-9.49461
▁ಪಂದ್ಯದಲ್ಲಿ	-9.49463
▁ರಕ್ಷಣಾ	-9.4948
▁2019	-9.49593
▁ಗೆಲುವು	-9.496
ಟಾ	-9.49611
ಿಸಲು	-9.49647
▁king	-9.49806
▁word	-9.49841
hi	-9.49851
▁gone	-9.49896
▁Telugu	-9.49957
▁respect	-9.50006
▁ತಕ್ಷಣ	-9.50016
▁ಕೊ	-9.50068
▁ಜತೆ	-9.50121
is	-9.50204
ಸ್ಟ್	-9.50247
▁ವರ್ಷ	-9.50255
▁27	-9.50304
ವಾಗುತ್ತದೆ	-9.50385
▁understand	-9.50421
▁areas	-9.50429
▁attended	-9.50521
್ಯ	-9.5064
▁ಜಮ್ಮು	-9.50908
▁Lord	-9.50922
▁ವಿದ್ಯುತ್	-9.51043
▁ಹಿನ್ನೆಲೆಯಲ್ಲಿ	-9.51046
me	-9.51084
▁isnt	-9.51094
ಂಟ್	-9.51127
ಲಾಗುತ್ತಿದೆ	-9.51172
O	-9.51274
▁ತೋರಿಸ	-9.51296
im	-9.51302
▁ರು	-9.51356
▁ಪೊಲೀಸರಿಗೆ	-9.5136
▁ಫಲಿತಾಂಶ	-9.51372
▁gold	-9.51404
▁statement	-9.51429
ಷ್ಟು	-9.51466
▁upon	-9.51507
▁ರಾಜ	-9.51523
▁candidates	-9.51534
ಚ	-9.51601
▁ಟೀಂ	-9.5171
ಕಾರ	-9.51748
W	-9.51757
ನನ್ನು	-9.51759
▁murder	-9.51764
▁ಮಹಿಳೆ	-9.51779
▁ನೀಡಲು	-9.51829
▁reasons	-9.5194
▁ಕುಮಾರಸ್ವಾಮಿ	-9.51973
ಂಬ	-9.52052
▁ready	-9.52055
▁Health	-9.52141
▁ಪ್ರಸ್ತುತ	-9.52144
▁ಸುಪ್ರೀಂ	-9.52327
ಸೆ	-9.52338
▁ಸಲಹೆ	-9.5243
▁Christian	-9.52442
▁Act	-9.52488
▁pay	-9.52565
▁ಇತ್ತು	-9.52568
▁35	-9.52596
▁My	-9.52629
▁experience	-9.5265
▁brought	-9.52682
▁fear	-9.52723
▁behind	-9.52781
▁Of	-9.52824
▁bring	-9.52841
to	-9.52859
▁ನಿಟ್ಟಿನಲ್ಲಿ	-9.5298
▁ಕಂಡ	-9.53
ಗು	-9.5316
ling	-9.53192
ುತ್ತಿವೆ	-9.53246
▁26	-9.5337
▁ಮೊ	-9.5337
▁phone	-9.53373
▁senior	-9.53474
▁ಅವು	-9.53477
▁ಗೋ	-9.53521
▁admitted	-9.53575
▁bus	-9.53645
▁ಜಿಲ್ಲೆಯ	-9.5369
▁likely	-9.53711
▁ಸೆ	-9.53746
▁According	-9.53913
ch	-9.53915
▁project	-9.53952
▁%	-9.53972
▁ದಿ	-9.54051
▁Assembly	-9.54073
▁ಯು	-9.54148
▁cost	-9.54169
▁ಬಂಧನ	-9.54183
▁st	-9.54184
▁Raj	-9.54211
▁ಸಂತೋಷ	-9.54342
ಗೊಂಡ	-9.54344
▁nation	-9.54365
▁common	-9.54404
▁Yes	-9.54504
▁open	-9.54524
▁age	-9.54665
▁study	-9.54666
▁ನೀತಿ	-9.5472
▁ನಮ್ಮನ್ನು	-9.54883
▁Me	-9.54938
ಪ್ರ	-9.54949
▁ಪೂರ್ಣ	-9.55008
▁anyone	-9.55041
▁ನಡೆಸಿದ	-9.55139
ies	-9.55155
ವಾಯಿತು	-9.5526
▁ಸಾಮಾನ್ಯವಾಗಿ	-9.5534
▁loss	-9.55352
▁ಆಕೆ	-9.55371
▁old	-9.55413
▁doesnt	-9.55432
▁played	-9.55463
▁ಇಂದು	-9.55525
et	-9.55746
ಲಾದ	-9.55751
▁De	-9.55752
ಿಸಿದ	-9.55845
▁expected	-9.55846
▁ಎಲ್ಲವೂ	-9.55922
▁150	-9.5593
▁ಮುಖ್ಯಸ್ಥ	-9.55973
▁ಚಿಕ್ಕ	-9.5606
ನ್ಸ್	-9.5608
▁ಯುದ್ಧ	-9.56123
▁ಮದುವೆ	-9.56127
▁31	-9.56145
▁game	-9.56301
▁himself	-9.56304
▁single	-9.56308
▁Australia	-9.56413
▁ಅವಳು	-9.56468
ru	-9.56494
▁ಮೇ	-9.5657
▁Director	-9.56607
▁diesel	-9.56612
ಿಕೊಳ್ಳ	-9.56667
▁ಹಾಗು	-9.56674
▁ಮೈತ್ರಿ	-9.56709
▁ಶ	-9.56711
▁ಹಣಕಾಸು	-9.56914
▁32	-9.56944
▁ಸಾವಿರ	-9.56969
▁feel	-9.57027
▁ಸರ್ಕಾರಿ	-9.57028
v	-9.57041
ದೊಂದಿಗೆ	-9.57089
▁popular	-9.57107
▁provided	-9.57124
▁ಮಾತುಕತೆ	-9.57224
ish	-9.57279
▁ಕೆಲವರು	-9.57282
kar	-9.57507
▁ನೂತನ	-9.57534
▁huge	-9.57553
▁ವಶಕ್ಕೆ	-9.57558
ಎಂ	-9.57593
ಳಿ	-9.57601
ಲ್ಲಾ	-9.57602
▁shared	-9.57608
▁date	-9.57681
್ಯಾ	-9.5783
▁ಯುವ	-9.57964
▁level	-9.58033
age	-9.58074
ಯಲ್ಲ	-9.58092
ಯೊಂದಿಗೆ	-9.5812
ist	-9.58204
▁led	-9.58212
▁though	-9.58274
▁ಭರವಸೆ	-9.58314
▁ಸಂ	-9.58342
ಬೇಕಾದ	-9.58373
▁written	-9.58401
▁ಲೋಕಸಭಾ	-9.58471
▁ಚೀನಾ	-9.58507
▁ಅವಳ	-9.58524
▁ಹಿಂದೂ	-9.58544
▁ಮಾತನಾಡ	-9.58664
▁ಯಾವಾಗಲೂ	-9.58693
▁ಆಡ	-9.58774
GB	-9.58837
▁ಪತ್ತೆ	-9.58846
out	-9.58856
▁talk	-9.58863
▁ಹೈಕೋರ್ಟ್	-9.58889
▁poor	-9.59005
▁increase	-9.59028
de	-9.5905
▁Also	-9.59101
▁ಪಶ್ಚಿಮ	-9.5913
▁ಮಾಡಿಲ್ಲ	-9.59257
▁ದಿನಗಳ	-9.59333
▁ಸಿಬಿಐ	-9.59385
▁Christians	-9.59453
▁ಅಮೆರಿಕ	-9.59617
▁ಪ್ರಕ್ರಿಯೆ	-9.59645
ವಾಗಿರುವ	-9.59685
▁ಹಿಂದಿ	-9.59705
▁clear	-9.5971
▁300	-9.59746
▁80	-9.59776
▁JD	-9.59787
▁ಬಿಜೆಪಿಯ	-9.59819
▁ಮೊಬೈಲ್	-9.5986
▁entire	-9.59875
ವನು	-9.59904
ಯನ್ನೂ	-9.59905
▁ಸ್ಮಾರ್ಟ್	-9.59944
▁ಏಕೆಂದರೆ	-9.59953
▁Kingdom	-9.60052
▁ಜನರನ್ನು	-9.60103
ುತ್ತಿತ್ತು	-9.60105
▁Christ	-9.60134
▁ಬಿಜೆಪಿಗೆ	-9.6015
▁private	-9.60157
▁ಕಡೆ	-9.60176
x	-9.6018
▁COVID	-9.602
ah	-9.60215
ಿರುವುದು	-9.60232
▁ಕಾರ್ಯಕ್ರಮದಲ್ಲಿ	-9.60265
id	-9.60277
▁ಡೀಸೆಲ್	-9.60323
▁often	-9.60331
▁ಬಂದು	-9.6034
▁co	-9.60392
▁release	-9.60417
▁ಬಿಡ	-9.60464
ಬೇಕಾಗಿದೆ	-9.60563
▁ನಿರೀಕ್ಷೆ	-9.60564
ಧ	-9.60611
▁works	-9.60636
▁ನಡುವಿನ	-9.60692
▁ಇದೀಗ	-9.60798
▁ಸುಲಭ	-9.60827
▁ಕೇಳಿ	-9.60857
old	-9.6088
▁ನಿಯಂತ್ರಣ	-9.60923
▁ಸಂಪೂರ್ಣವಾಗಿ	-9.60961
▁war	-9.60987
▁ಜಾರಿ	-9.61062
▁little	-9.61119
▁participated	-9.61152
▁ನಷ್ಟ	-9.61192
▁ರಾಜ್	-9.61209
ುವಾಗ	-9.6125
▁ದಿನಗಳಲ್ಲಿ	-9.61295
▁Centre	-9.61334
▁ಹಿಂದಿನ	-9.61366
da	-9.61391
▁ಅಲ್ಲದೇ	-9.61398
▁ನಾಯಕರು	-9.61399
▁rushed	-9.61457
▁means	-9.6155
▁kind	-9.61613
▁ಇಬ್ಬರ	-9.61627
▁condition	-9.61631
▁ಎಕ್ಸ್	-9.61637
▁ಆತಂಕ	-9.61654
▁real	-9.61656
▁ಯಾದವ್	-9.61657
lo	-9.61674
ಿಕೊಂಡ	-9.61775
▁ತೀರ್ಮಾನ	-9.61782
ವೋ	-9.61853
▁main	-9.61926
▁front	-9.61935
▁ಮಕ್ಕಳಿಗೆ	-9.61978
▁six	-9.62033
""."	-9.62079
▁issues	-9.62081
▁recently	-9.62124
▁ಎಂದೂ	-9.62265
ಿನಲ್ಲಿ	-9.62269
▁ವಿದ್ಯಾರ್ಥಿ	-9.62272
▁based	-9.62311
▁ಅಂತಿಮ	-9.62381
▁speak	-9.62392
▁ರಾಮ	-9.62446
▁ಬಂದಿಲ್ಲ	-9.62604
▁ಸಹಕಾರ	-9.62669
▁cant	-9.62688
▁ಘೋಷಣೆ	-9.62742
▁ಸರಳ	-9.62925
▁ಸದಸ್ಯರು	-9.62943
▁ಫೋಟೋ	-9.62967
▁ಸೇರಿ	-9.62989
▁ಇನ್ನಷ್ಟು	-9.62998
▁camera	-9.63004
ತನ	-9.63011
▁village	-9.63018
▁ಎದುರಿಸ	-9.63055
▁ಹೃದಯ	-9.6309
▁dis	-9.63101
▁ಭಾಷೆ	-9.63148
▁ಕಠಿಣ	-9.63179
▁University	-9.63195
▁ಪುತ್ರ	-9.63221
ೈ	-9.63292
▁Shetty	-9.63399
▁international	-9.63399
▁getting	-9.63425
▁Can	-9.63497
▁Rohit	-9.6351
▁till	-9.63511
▁ವೈ	-9.63534
▁ಕರ್ತನ	-9.6356
▁ಪ್ರವೇಶ	-9.63579
ನಿಂದ	-9.63664
▁ಕಾರ್	-9.63669
▁week	-9.63704
▁viral	-9.63729
▁ಅವನನ್ನು	-9.63828
▁response	-9.63839
▁ಪುಟ	-9.63898
▁ತರಬೇತಿ	-9.64054
▁ಪೈಕಿ	-9.64063
▁near	-9.64099
▁success	-9.6415
▁results	-9.64205
ುತ್ತ	-9.64229
▁business	-9.64239
▁ಕೈಗೊಳ್ಳ	-9.64298
ಮ್ಮ	-9.643
▁ಜತೆಗೆ	-9.64336
▁strong	-9.64412
▁ಗೆದ್ದ	-9.64484
▁ಮನೆಯ	-9.64506
▁ಭಯ	-9.64515
ವಾಗಿದ್ದು	-9.64515
▁ಆದಾಯ	-9.64524
lu	-9.64543
▁ಮಧ್ಯೆ	-9.6456
▁IPL	-9.64581
ಂಗ	-9.64647
▁ಗಾಯ	-9.6469
▁lodged	-9.64734
▁ಮೇಲಿನ	-9.64764
▁interest	-9.6478
ಎನ್	-9.64801
▁ways	-9.64842
▁ever	-9.6503
▁ಏರ್	-9.6514
ಗೋ	-9.65216
▁f	-9.65328
▁ಸದಸ್ಯ	-9.6535
▁language	-9.65485
▁ಹೇಳಿದೆ	-9.65506
▁responsibility	-9.65508
▁ವೈರಲ್	-9.65509
▁ಕೋ	-9.65547
▁learn	-9.65617
▁Witnesses	-9.65624
▁ರೈತರು	-9.65634
▁ಅವುಗಳ	-9.65701
▁disease	-9.65711
▁ರೈಲು	-9.65752
▁Yahweh	-9.65774
▁ಜಾ	-9.65822
▁ಕರ್ತನು	-9.65844
▁view	-9.65866
ಪಾ	-9.65866
▁Indias	-9.65878
▁ಮೂರನೇ	-9.65959
▁informed	-9.65973
be	-9.65978
▁ಇದಕ್ಕಾಗಿ	-9.65981
ಲೋ	-9.66015
▁Nadu	-9.66074
▁ಹೊಂದ	-9.66099
▁serious	-9.66113
▁Rajasthan	-9.66296
▁ಸಾಕ್ಷಿ	-9.66316
▁ವೆಚ್ಚ	-9.66319
▁ಶಾಂತಿ	-9.66324
va	-9.66329
▁field	-9.66399
▁ಕ್ಷೇತ್ರದಲ್ಲಿ	-9.66578
▁ನಡೆಸಿದ್ದಾರೆ	-9.66626
▁marriage	-9.66636
▁wrote	-9.66636
▁ಬಹುತೇಕ	-9.66636
▁ಪಾಕ್	-9.66697
▁ವಿವರ	-9.66709
▁ಪೆ	-9.66752
▁ಸರಿಯಾಗಿ	-9.66769
▁Station	-9.66877
▁Uttar	-9.66889
▁brother	-9.66965
▁ಕಾರ್ಡ್	-9.67008
▁close	-9.67011
▁ಎನ್ನುವ	-9.67035
▁ತಪ್ಪ	-9.67113
ಣ್ಣ	-9.67145
▁ಬಿಟ್ಟು	-9.67167
ಹ್	-9.67185
ಜಾ	-9.67188
▁ಬಳಕೆ	-9.67235
▁society	-9.67319
▁bank	-9.67319
▁ಬಾರಿಗೆ	-9.67325
▁ಅಷ್ಟೇ	-9.67335
ಯೊ	-9.67386
▁ಸುಳ್ಳು	-9.67389
ಟ್ಟ	-9.67401
▁meet	-9.67428
▁Vijay	-9.6744
▁ತಿಳಿದು	-9.67563
▁ತಮಿಳು	-9.67602
ರೊ	-9.6761
▁LORD	-9.67662
▁ಹಬ್ಬ	-9.67703
▁MLAs	-9.67744
▁Ministry	-9.67777
▁ಬೆ	-9.67823
▁ತಂತ್ರಜ್ಞಾನ	-9.67831
▁light	-9.6787
▁schools	-9.67943
▁ಮಗ	-9.67958
▁ಖಾತೆ	-9.68017
▁ರೋಹಿತ್	-9.68146
▁changed	-9.68174
ಬೆ	-9.68264
ವರೆಗೆ	-9.68265
▁ones	-9.68296
▁ಬೇಡಿಕೆ	-9.68299
▁benefit	-9.68308
▁ಮಾತಾಡ	-9.68317
▁ಪರಿಗಣಿಸ	-9.68375
▁actress	-9.68434
▁29	-9.68506
▁ತಲೆ	-9.68521
▁ತೆಲುಗು	-9.68583
▁ಯಾವಾಗ	-9.68597
▁ಸಿದ್ದರಾಮಯ್ಯ	-9.686
▁parties	-9.68604
▁ವ್ಯಾಪಾರ	-9.68628
▁ಶಾಲಾ	-9.68634
▁decided	-9.68643
▁ವರೆಗೆ	-9.68723
▁ನಿರ್ದೇಶನ	-9.68725
▁ದಾಖಲೆ	-9.68738
▁ಗಂಭೀರ	-9.68794
▁driver	-9.68831
▁eat	-9.6889
▁office	-9.68953
▁ಇದ್ದಾರೆ	-9.6907
▁couple	-9.69083
▁Hyderabad	-9.69178
▁Hence	-9.69206
0	-9.69235
▁ಹೇಳಿ	-9.69468
▁ರಾತ್ರಿ	-9.69576
▁tax	-9.6966
▁ಸ್ಪರ್ಧೆ	-9.69674
▁ಆಗಿತ್ತು	-9.69775
ೌ	-9.6982
▁relationship	-9.69879
ಿಯ	-9.69884
▁ಕಾಯ	-9.69898
▁ಮನೆಗೆ	-9.69904
ಂತಹ	-9.69905
▁ಯ	-9.69932
▁ಮಾರ್ಗ	-9.69964
▁Hindu	-9.70058
▁point	-9.70126
▁Go	-9.70128
▁Her	-9.70175
ಚ್	-9.70207
▁ಸಾಮರ್ಥ್ಯ	-9.70315
▁having	-9.70334
▁ಕ್ಯಾ	-9.70351
▁ಎನ್ನಲಾಗಿದೆ	-9.70357
▁ಸರಿಯಾದ	-9.70359
ಮೆ	-9.70377
▁ಆತ್ಮಹತ್ಯೆ	-9.70429
ುತ್ತಲೇ	-9.70462
ck	-9.70463
▁ನಂಬ	-9.70464
▁vehicles	-9.70498
▁rest	-9.70658
▁ಸೂಪರ್	-9.70689
ting	-9.70718
▁ಪ್ರಯೋಜನ	-9.70733
▁General	-9.70749
▁Punjab	-9.70784
▁2018	-9.70847
▁Twitter	-9.70924
ಡೆ	-9.71037
▁ಪರಿಸರ	-9.71313
▁Three	-9.71399
▁ಪಾಕಿಸ್ತಾನದ	-9.71503
ab	-9.71504
▁Students	-9.71515
▁Siddaramaiah	-9.71518
▁ಪರಿಶೀಲನೆ	-9.71518
ುವುದಾಗಿ	-9.71552
▁petrol	-9.71578
▁Sa	-9.71615
▁ಪ್ರಕರಣದ	-9.71721
▁issued	-9.71742
▁ಉನ್ನತ	-9.71757
▁ಲಾಭ	-9.71859
▁Justice	-9.71997
▁ನಗರದ	-9.72031
ಮು	-9.72036
▁ಗಳಲ್ಲಿ	-9.72089
▁ಕೆಳಗಿನ	-9.72197
▁services	-9.72212
▁ಪ್ರಥಮ	-9.72261
▁ಒದಗಿಸ	-9.72265
▁ವಿಶ್ವಾಸ	-9.72331
▁ಲಾ	-9.72382
▁whole	-9.72413
▁ರಚನೆ	-9.72515
▁personal	-9.72585
▁medical	-9.72596
▁ಸಂಗತಿ	-9.7261
ವರ್	-9.72621
▁Na	-9.72673
ನಾದ	-9.72714
▁period	-9.72716
▁ಠಾಣೆ	-9.72724
▁ಏನ	-9.72754
▁ಇದರಿಂದಾಗಿ	-9.72954
▁sons	-9.72991
▁Other	-9.73006
▁Their	-9.73034
▁required	-9.73109
▁spiritual	-9.7312
▁move	-9.73287
ಿಸಿದರು	-9.73332
ವಾಗಿವೆ	-9.7339
ವರೆಗೂ	-9.7343
▁plan	-9.73468
▁ಸಿಗ	-9.73484
▁living	-9.73563
▁within	-9.73594
▁ನಡೆಸಿ	-9.73746
▁ಕೊನೆಯ	-9.73766
▁Department	-9.73807
ಚಿ	-9.73856
▁Nobody	-9.73988
▁ಹೆಚ್ಚ	-9.74075
▁Bengal	-9.74098
▁ದಾಖಲಿಸಲಾಗಿದೆ	-9.74187
ತೆಯ	-9.74263
▁steps	-9.74286
▁ಇದ್ದರು	-9.74317
▁ರಿಂದ	-9.74374
▁ಆಕೆಯ	-9.74411
▁ಯಾರಿಗೂ	-9.74448
It	-9.74488
▁parts	-9.74517
▁ವಾ	-9.74599
▁earlier	-9.74664
▁necessary	-9.74664
▁test	-9.74703
▁ಆತನನ್ನು	-9.74781
▁ರಾ	-9.74801
▁England	-9.74823
▁hope	-9.74842
ದಾ	-9.74849
ated	-9.74954
▁ಮಂತ್ರಿ	-9.75007
▁began	-9.75022
▁First	-9.75033
rs	-9.75074
▁ಕ್ಯಾಮೆರಾ	-9.75108
▁ಕೋವಿಡ್	-9.75157
ಿದರೆ	-9.75197
▁2:	-9.75253
▁healthy	-9.75321
▁ವಾರ	-9.7533
ted	-9.75332
▁general	-9.75334
▁towards	-9.75382
▁Women	-9.75404
▁Secretary	-9.75405
▁ಇತ್ತೀಚೆಗೆ	-9.75424
▁70	-9.75461
▁increased	-9.75518
▁according	-9.75605
▁past	-9.75675
▁ರಿ	-9.75735
▁key	-9.75777
▁)	-9.75799
▁ಎಚ್ಚರಿಕೆ	-9.75887
▁ಕೊರತೆ	-9.75928
▁ಸ್ಟಾರ್	-9.75965
▁ಮಾರುಕಟ್ಟೆಯಲ್ಲಿ	-9.75965
▁stand	-9.7604
▁ಮಾಡಿಕೊಳ್ಳ	-9.76071
▁eyes	-9.76117
▁ಪರಸ್ಪರ	-9.7615
▁able	-9.76171
▁United	-9.7621
▁ಆರು	-9.76232
▁bad	-9.76247
▁ಕೇರಳ	-9.7633
▁ಪ್ರದೇಶದಲ್ಲಿ	-9.76353
▁International	-9.764
▁ಮಹಿಳೆಯರ	-9.76472
ಜೆ	-9.76476
▁ಕ್ರೈಸ್ತ	-9.76478
ating	-9.76489
▁injuries	-9.76525
▁ನಡೆಯಿತು	-9.76553
▁ಸೌಲಭ್ಯ	-9.76568
ಿಗಾಗಿ	-9.76593
▁contest	-9.76662
ial	-9.76663
▁ನಿಯಮ	-9.76743
▁ಮುನ್ನ	-9.76758
▁air	-9.76814
▁hit	-9.769
▁Water	-9.76904
ಿರ	-9.77029
▁brothers	-9.77416
▁rate	-9.77446
▁ನಿರ್ವಹಿಸ	-9.77448
▁amount	-9.7747
ರಾಗಿದ್ದಾರೆ	-9.77484
▁ವಿಶ್ವದ	-9.77752
▁doctor	-9.77752
▁ಅಂಥ	-9.77777
▁Most	-9.77798
▁HD	-9.77863
▁ಲೈನ್	-9.77934
▁function	-9.7806
ನ್ನೇ	-9.78106
co	-9.78162
▁enough	-9.78166
▁stop	-9.78169
▁group	-9.78266
▁ಮಂಡಳಿ	-9.78322
▁Such	-9.78344
ಕ್ಷ	-9.78354
▁Rao	-9.78457
▁ಆಸ್ಟ್ರೇಲಿಯಾ	-9.78462
ನಾಗಿ	-9.78502
▁e	-9.78506
▁fine	-9.78534
▁ಸಲ್ಲಿಸ	-9.78545
▁run	-9.78572
▁hands	-9.78593
▁ವಿಜ್ಞಾನ	-9.78666
ೇನು	-9.78844
▁pressure	-9.78936
‍ನಲ್ಲಿ	-9.7898
ಕ್ಕಿಂತ	-9.79002
▁3:	-9.79058
▁assembly	-9.79061
▁ಭಾರಿ	-9.79093
▁ಪ್ರದೇಶದ	-9.79157
▁ಇತಿಹಾಸ	-9.7919
▁ವೈರಸ್	-9.7919
▁teams	-9.79249
▁ಕಾಮಗಾರಿ	-9.79259
▁officers	-9.79293
▁ex	-9.79317
▁ಜನಪ್ರಿಯ	-9.7935
▁ಪ್ರಕರಣಗಳು	-9.79548
▁States	-9.7957
▁ಇಂಗ್ಲೆಂಡ್	-9.79617
▁congregation	-9.79688
ism	-9.79699
▁salt	-9.79783
▁ಇಬ್ಬರೂ	-9.79889
▁ತಿಂಗಳ	-9.79898
▁1:	-9.79916
▁Dhoni	-9.79965
▁ಅಂತಾರಾಷ್ಟ್ರೀಯ	-9.79988
▁ಮಾಡುತ್ತಿದ್ದಾರೆ	-9.80045
▁Army	-9.80095
▁By	-9.80163
▁g	-9.802
▁ಬಜೆಟ್	-9.80224
ous	-9.8023
▁ನಡೆಯ	-9.8024
▁ಆಸ್ಪತ್ರೆಯಲ್ಲಿ	-9.80258
▁fact	-9.80302
ುತ್ತೀರಿ	-9.80476
▁ರೈಲ್ವೆ	-9.80484
▁ಪ್ರತಿಯೊಂದು	-9.80488
▁months	-9.805
▁ಮಾತನಾಡಿದ	-9.80506
▁secretary	-9.80619
▁t	-9.80698
ಫ	-9.80799
▁ಸಹೋದರ	-9.80811
▁ನಡೆಸುತ್ತಿದ್ದಾರೆ	-9.80904
▁Commissioner	-9.80906
▁ಎಂದರೆ	-9.80934
▁ಮತ್ತಷ್ಟು	-9.81009
▁using	-9.8101
▁call	-9.8105
▁traffic	-9.81138
▁ಕೊರೋನಾ	-9.81138
▁ಟ್ರಂಪ್	-9.81139
ಯ್ಯ	-9.81181
▁award	-9.81192
▁art	-9.81226
▁ಅದ್ಭುತ	-9.81253
vi	-9.81268
▁crores	-9.81268
▁ಶಿಕ್ಷೆ	-9.81289
▁paid	-9.81295
▁add	-9.81297
▁ಸೂಚನೆ	-9.81376
▁committee	-9.81401
▁ಮಹಾರಾಷ್ಟ್ರ	-9.81431
▁ಖುಷಿ	-9.81444
▁once	-9.8149
▁Development	-9.81533
ಯಾಗಿತ್ತು	-9.81544
▁Farmers	-9.8163
▁ಜೋ	-9.81661
▁ವಾತಾವರಣ	-9.81664
ಗಾ	-9.81776
▁ಯಡಿಯೂರಪ್ಪ	-9.81787
▁English	-9.81796
▁ನಿರ್ಣಯ	-9.81796
▁ಭೂ	-9.81863
▁ಅಪಾಯ	-9.81903
ರೀ	-9.81922
har	-9.81959
▁ಲ	-9.82021
▁Cup	-9.82097
▁ಕ್ಷೇತ್ರ	-9.8216
▁ಹಾ	-9.82167
▁ಆತ್ಮ	-9.82203
▁ನಿರ್ಧರಿಸ	-9.82255
▁ಅಪ್	-9.8227
▁con	-9.82283
ka	-9.82296
▁Air	-9.8237
▁ಬಿಎಸ್	-9.82462
ಹಿ	-9.82483
▁either	-9.82591
▁ಸೇರ	-9.82652
▁ಮರು	-9.8269
▁Bihar	-9.82694
▁ನಿಮ್ಮನ್ನು	-9.82732
ವಾಗಲಿದೆ	-9.82849
ರಂದು	-9.82886
▁Education	-9.82972
▁ಸರಣಿ	-9.8302
▁ಸೀ	-9.83032
▁Hospital	-9.83125
▁ಪಂಜಾಬ್	-9.83125
▁allowed	-9.8314
▁fans	-9.83186
▁ದಂಡ	-9.83241
▁ಹೆ	-9.83291
30	-9.83328
ುವುದಕ್ಕೆ	-9.83358
▁worked	-9.8338
▁thought	-9.83388
▁quite	-9.83416
un	-9.83553
▁Commission	-9.8363
▁thou	-9.83661
▁building	-9.83669
▁ತಾನು	-9.83715
▁ಯೋಚಿಸ	-9.83745
▁ದೇವ	-9.83755
ಿಕೆ	-9.8376
▁Trump	-9.83797
▁ವೈಯಕ್ತಿಕ	-9.83809
▁ಅಧಿಕೃತ	-9.83839
▁ಹೆಚ್ಚಾಗಿ	-9.83868
▁similar	-9.83931
▁ಧೋನಿ	-9.83931
▁underway	-9.8395
▁position	-9.83952
▁ಮುಖಂಡ	-9.84031
▁ಒತ್ತಡ	-9.84089
▁Ra	-9.84188
▁Reddy	-9.84203
▁ಕಾರ್ಯನಿರ್ವಹಿಸ	-9.84246
▁places	-9.8425
▁progress	-9.84336
▁Or	-9.84337
j	-9.84426
J	-9.84439
▁John	-9.84469
ನೊ	-9.84476
▁Will	-9.84506
▁ಅತ್ಯಾಚಾರ	-9.84518
▁ಉದಾಹರಣೆ	-9.84526
▁ಬಹುಮಾನ	-9.84622
ಲೀ	-9.84628
▁ಎಲ್ಲರ	-9.84769
ಬೇಕಾಗುತ್ತದೆ	-9.84787
▁ಹೇಳಿದ	-9.84815
ದ್ದಾರೆ	-9.84913
▁ಕಾರ್ಯಾಚರಣೆ	-9.84913
▁makes	-9.84976
▁ತಾವು	-9.84999
▁personnel	-9.85015
▁officer	-9.85082
▁anti	-9.85099
ಬ್ಬ	-9.85112
▁families	-9.85152
▁ನೇತೃತ್ವದ	-9.8518
▁ಜವಾಬ್ದಾರಿ	-9.85221
▁ಮಹಿಳೆಯರು	-9.85223
ಷ್ಟೇ	-9.85225
▁Several	-9.85289
▁ಇರಬೇಕು	-9.85372
go	-9.85391
▁leave	-9.8541
ಒ	-9.85411
▁La	-9.85413
ಗಾರ	-9.8542
▁data	-9.85425
▁skin	-9.85437
▁45	-9.85454
▁seat	-9.85455
▁ವಿವಾದ	-9.85535
▁ಚಿತ್ರಕ್ಕೆ	-9.8554
▁activities	-9.85562
ಗಳಿಗಾಗಿ	-9.85575
▁ಫ	-9.8559
▁ಆಟ	-9.85651
▁ಹೈದರಾಬಾದ್	-9.85699
▁economic	-9.85758
ಪಡ	-9.85874
▁ಹೆಚ್ಚುವರಿ	-9.85922
▁deal	-9.85925
▁‘‘	-9.85988
▁pain	-9.86109
▁ಭಾವನೆ	-9.86158
▁purpose	-9.86184
▁roads	-9.86192
▁else	-9.8625
▁ಪದವಿ	-9.86259
▁ತಾ	-9.863
▁failed	-9.86308
▁ದಾರಿ	-9.8632
▁ಶುಲ್ಕ	-9.86388
▁ಅನುಭವಿಸ	-9.864
▁Mr	-9.86441
ಯಿ	-9.86462
▁Shiv	-9.86468
▁ವಾದ	-9.86503
▁ಸ್ವಾತಂತ್ರ್ಯ	-9.86537
ದ್ದೇ	-9.86597
▁ಕಟ್ಟ	-9.86646
▁ಅದಕ್ಕಾಗಿ	-9.86656
▁pre	-9.86713
▁ವಿಜಯ್	-9.86745
▁ದೇವಾಲಯ	-9.86773
▁ಬಿದ್ದ	-9.86777
▁ask	-9.86792
▁Chennai	-9.86842
▁town	-9.86903
▁ಪಡ	-9.86928
▁met	-9.86984
▁Su	-9.86996
▁positive	-9.87011
▁ತಿಳಿಯ	-9.87021
fi	-9.87062
▁ನಿಜವಾಗಿಯೂ	-9.87099
▁Only	-9.8713
▁Take	-9.8714
▁remain	-9.8719
▁ತಿಳಿಸಿದೆ	-9.87209
ವಾಗಿರುತ್ತದೆ	-9.87367
ಂಟ	-9.87411
▁religion	-9.87416
▁ಹಾನಿ	-9.87448
▁largest	-9.87476
▁points	-9.87619
▁allow	-9.87648
▁Ka	-9.87658
▁ವೈದ್ಯರು	-9.87677
▁probe	-9.87772
▁Ali	-9.87779
▁''	-9.87798
ಿದ್ದರೆ	-9.87811
▁ಬಹಳಷ್ಟು	-9.8796
year	-9.87987
ine	-9.87992
‍ನ	-9.88028
▁ಭದ್ರತಾ	-9.88064
▁saw	-9.88065
▁ನೀಡುತ್ತದೆ	-9.88151
▁ನೀಡಬೇಕು	-9.88301
▁ಹೂಡಿಕೆ	-9.88312
▁offer	-9.88382
ಿರುತ್ತದೆ	-9.8841
sa	-9.88423
▁conducted	-9.88439
▁central	-9.88488
▁stars	-9.88589
▁Dur	-9.88658
ುವಲ್ಲಿ	-9.88691
▁ಸಾಂಸ್ಕೃತಿಕ	-9.88785
▁trying	-9.88824
▁ಚಲನಚಿತ್ರ	-9.88827
ಕ್ಸ್	-9.88833
ೆಲ್ಲ	-9.88881
▁visited	-9.88899
▁record	-9.88899
▁attention	-9.88908
▁ಹೊರಗೆ	-9.88912
▁ಅಭಿಪ್ರಾಯ	-9.89021
▁ಬರೆದ	-9.89021
▁ಆರೋಪಿಗಳ	-9.89057
▁ಚಾ	-9.89075
▁ನೇ	-9.89086
ನೆಯ	-9.89089
▁ಎನ್ನುವುದು	-9.89111
ವರನ್ನು	-9.89138
▁Special	-9.89191
▁consider	-9.89209
▁clean	-9.8922
▁ಮತದಾನ	-9.8925
▁ಪತಿ	-9.89251
▁low	-9.8932
▁Later	-9.89345
▁growth	-9.8935
ba	-9.89395
▁whom	-9.8952
▁ಸಂಸದ	-9.89526
▁ಐಪಿಎಲ್	-9.89552
▁follow	-9.89597
▁ವಿಭಾಗ	-9.89617
▁ಚಮಚ	-9.89619
▁ಮಗು	-9.89624
ja	-9.89632
mo	-9.89632
▁ನಿನಗೆ	-9.89654
▁ಕಂಡು	-9.89705
▁ವರ್ಷಗಳ	-9.8972
▁daily	-9.89762
▁ಅಗತ್ಯವಿಲ್ಲ	-9.89784
▁ರೈ	-9.89832
▁alleged	-9.89835
▁4:	-9.89859
▁passed	-9.89864
▁ನೋವು	-9.89942
▁c	-9.89971
▁ಉದಾಹರಣೆಗೆ	-9.89972
▁Even	-9.90016
▁followed	-9.90061
▁wasnt	-9.90062
ಿದ್ದವು	-9.90081
ದಲ್ಲೇ	-9.90093
ಮೋ	-9.9014
▁helps	-9.90168
▁themselves	-9.90191
▁ಸಲ್ಮಾನ್	-9.90191
▁polls	-9.90218
▁ಕೆಟ್ಟ	-9.90279
▁million	-9.90317
▁ಚಾಲನೆ	-9.90335
▁ಒಪ್ಪ	-9.90381
▁Ma	-9.90391
ud	-9.90401
▁vehicle	-9.90423
▁Prasad	-9.90479
▁ನಡೆಯಲಿದೆ	-9.90497
▁ರಾಮ್	-9.90551
▁ಕಟ್ಟಡ	-9.90574
eth	-9.90675
▁ಚಿತ್ರವನ್ನು	-9.90687
▁Deputy	-9.90767
▁ಉಪ್ಪು	-9.90789
▁efforts	-9.90797
▁region	-9.90876
▁While	-9.90961
day	-9.90963
ೂರು	-9.90966
▁ಗಂಭೀರವಾಗಿ	-9.90989
▁ಮಾಡಿದ್ದರು	-9.90998
▁department	-9.91005
▁morning	-9.91057
ge	-9.91116
▁370	-9.9112
▁financial	-9.91131
▁ಅಂಶ	-9.91153
This	-9.91158
ವಿನ	-9.91195
▁90	-9.91217
ot	-9.91224
▁ಹೋ	-9.91251
▁ನಾನೇ	-9.91263
▁ಕುಟುಂಬದ	-9.91281
▁ಇಲ್ಲಿನ	-9.913
▁colour	-9.91332
▁houses	-9.91334
▁ಹಂತ	-9.91375
▁options	-9.91413
▁Africa	-9.91419
▁Cabinet	-9.91492
▁ಫೈನಲ್	-9.91493
▁ನೀಡಿದ್ದರು	-9.91512
▁ಸರಕಾರದ	-9.91572
▁Krishna	-9.91597
ಶಾ	-9.91597
▁less	-9.91617
▁opportunity	-9.91638
▁didn	-9.91752
▁beautiful	-9.91783
▁ಕಂಪನಿ	-9.91823
he	-9.91911
▁member	-9.91914
▁investigating	-9.91929
▁ಸಂದರ್ಭ	-9.91984
▁ಸ್ಥಳದಲ್ಲಿ	-9.91986
▁ಗು	-9.92018
ದಲ್ಲೂ	-9.92069
▁ಅಂತ್ಯ	-9.92134
▁Every	-9.92176
▁shot	-9.92199
ುತ್ತಿದ್ದೇವೆ	-9.92225
▁Yet	-9.92262
▁Committee	-9.92369
▁Salman	-9.92373
▁ಭಾಗವಹಿಸಿದ್ದರು	-9.92403
ci	-9.92403
▁ಪ್ರಚಾರ	-9.92439
▁ಅನುಮತಿ	-9.92456
▁ರಾಷ್ಟ್ರಪತಿ	-9.92519
▁involved	-9.92527
▁ಒಳಗೊಂಡಿದೆ	-9.92552
ತೆಯನ್ನು	-9.92614
▁ಸಚಿವರು	-9.92621
▁ಧಾರ್ಮಿಕ	-9.92664
▁season	-9.92665
ಿರಬಹುದು	-9.92678
▁ಕಾಣಿಸಿಕೊಂಡ	-9.9268
ತ್ವ	-9.92696
ರಾಗ	-9.92824
▁ಸಾಹಿತ್ಯ	-9.9285
▁ಹೈ	-9.92851
▁cut	-9.92881
ho	-9.92881
▁ಸಂಬಂಧಿಸಿದ	-9.92943
▁ಮಾದರಿ	-9.92948
▁ಕಾಶ್ಮೀರ	-9.93054
▁worry	-9.93105
ag	-9.93129
ಮೇ	-9.93155
▁built	-9.9316
▁current	-9.93183
▁rise	-9.93221
▁short	-9.93239
nd	-9.93243
ram	-9.93247
ಯಾಗಿರುವ	-9.93325
▁Sena	-9.93335
▁caused	-9.9334
▁seven	-9.93378
▁quality	-9.93401
▁ಪ್ರಯಾಣ	-9.9342
▁produced	-9.93446
▁Tata	-9.93455
▁ಸಂಸ್ಕೃತಿ	-9.93491
▁Maruti	-9.93549
▁heavy	-9.9355
▁ಮಾರುತಿ	-9.9355
▁return	-9.93598
▁ಇರುವುದಿಲ್ಲ	-9.93603
▁ಅರಣ್ಯ	-9.93614
▁ವಿನ್ಯಾಸ	-9.93679
▁Parliament	-9.93689
▁ವಿಧಾನಸಭಾ	-9.93702
▁share	-9.93711
▁Best	-9.93785
▁try	-9.93798
▁ಹು	-9.93822
▁early	-9.93859
▁ಮೌಲ್ಯ	-9.93935
▁ಬೆಳವಣಿಗೆ	-9.93975
▁thy	-9.94001
▁declared	-9.94018
▁raised	-9.94037
▁ಆಟಗಾರ	-9.94115
▁benefits	-9.94142
▁ಅಡಿಯಲ್ಲಿ	-9.94217
▁Bharat	-9.9422
ಾಗಿದೆ	-9.94268
▁completely	-9.94353
▁ವಹಿಸ	-9.94379
▁happening	-9.94389
▁ದಾಖಲಿಸಿಕೊಂಡ	-9.94411
▁ಪದಕ	-9.9449
▁search	-9.94536
▁ಮನ	-9.94552
ence	-9.9457
▁ಲೋಕಸಭೆ	-9.94645
▁vote	-9.94674
ಸಂ	-9.94772
ಹೋಗ	-9.94864
▁changes	-9.9488
▁heard	-9.94928
▁ತಲಾ	-9.94957
▁Gowda	-9.95045
ುವಿಕೆ	-9.95046
▁ನೇರ	-9.95053
▁400	-9.95077
▁ಜೀವನದ	-9.95113
▁ಕಾಯ್ದೆ	-9.95139
▁prime	-9.95196
▁ಕ್ಯಾನ್ಸರ್	-9.95196
▁Another	-9.95198
▁ಆಸಕ್ತಿ	-9.95254
▁ರಕ್ಷಣೆ	-9.95275
▁Have	-9.953
until	-9.95307
▁ಮಕ್ಕಳನ್ನು	-9.95467
▁250	-9.95496
▁act	-9.95514
▁ತೈಲ	-9.95518
▁ಸೂಚಿಸ	-9.95528
▁ಡೌನ್	-9.95592
▁Un	-9.95622
ದನ್ನು	-9.95641
▁ಇತರೆ	-9.95706
ವನ್ನ	-9.95724
▁ವಿದ್ಯಾರ್ಥಿಗಳಿಗೆ	-9.95767
▁College	-9.95802
▁coronavirus	-9.95802
▁ಸಂಪುಟ	-9.95846
nt	-9.95858
▁ಆಗಿಲ್ಲ	-9.95915
▁joined	-9.95934
▁nor	-9.95965
▁Heres	-9.9597
▁ಯೋಗ	-9.95997
ಾದರೂ	-9.9602
▁forward	-9.9608
▁worship	-9.96082
▁Election	-9.96098
▁religious	-9.96106
▁ಟಾಟಾ	-9.96109
▁below	-9.96169
▁ಜೀವನದಲ್ಲಿ	-9.96195
▁2016	-9.96229
ುವುದೇ	-9.96256
▁ಮುಖ	-9.96285
▁ಏಳು	-9.9629
▁See	-9.96326
▁ವ್ಯಕ್ತಪಡಿಸಿದರು	-9.96327
▁ಅವರೊಂದಿಗೆ	-9.96329
▁ಕಚೇರಿ	-9.96334
▁ಪಾಪ	-9.96365
om	-9.96365
▁ministry	-9.96411
ರಾಗಿದ್ದರು	-9.96415
▁ಯೇಸುವಿನ	-9.96426
▁ಸಂದೇಶ	-9.9647
▁ತೀರ್ಪು	-9.96494
▁ಪ್ರತ್ಯೇಕ	-9.96539
▁ಇವು	-9.96557
▁Father	-9.96565
ಗಳಿಗೂ	-9.96608
▁Goa	-9.96617
ಲಿವೆ	-9.96635
▁ಸ್ಪಷ್ಟ	-9.96638
ವನ	-9.96639
▁ಆರಂಭಿಸ	-9.96693
▁ಜೋಡಿ	-9.96738
▁cultural	-9.9678
▁app	-9.96866
ts	-9.96923
▁City	-9.96933
▁century	-9.96973
▁Ba	-9.96994
▁above	-9.97024
▁From	-9.97028
ian	-9.97029
▁ಇದಲ್ಲದೆ	-9.9703
▁ತೋರ	-9.97057
▁ಮೈ	-9.97076
▁natural	-9.97108
▁ಮಾಡಿದ್ದ	-9.9713
▁accept	-9.97157
▁reach	-9.97214
▁ಕಡೆಗೆ	-9.97226
ಮನ್	-9.97262
si	-9.97311
▁ಕೃಷ್ಣ	-9.97326
ut	-9.97342
▁33	-9.97387
ang	-9.97449
▁ತೀರ	-9.9745
▁card	-9.97513
▁languages	-9.97518
▁ಮಹತ್ವದ	-9.97532
▁ಸಾರ	-9.97634
▁ತಲುಪ	-9.97635
ಷ್ಟ	-9.97655
▁spread	-9.97741
▁demand	-9.97749
▁ಪಡೆಯಲು	-9.97769
▁wanted	-9.97775
▁ಚೆನ್ನೈ	-9.97794
▁ಎಂದರೇನು	-9.97797
▁ಪ್ರಾಣ	-9.97808
▁Life	-9.97809
▁culture	-9.97819
▁ಮಾಡಿರುವ	-9.97819
▁strength	-9.97874
▁global	-9.97881
ಎಲ್	-9.97918
gi	-9.9795
▁sp	-9.97958
▁ಕೊಡುಗೆ	-9.97971
litre	-9.97986
00	-9.97999
▁ಹಾಗಾದರೆ	-9.98001
ಯಲ್ಲಿರುವ	-9.98086
▁picture	-9.98118
▁step	-9.98225
▁ಶಿವ	-9.98243
▁Ravi	-9.98253
ಂತೂ	-9.98254
▁ಬಿಸಿ	-9.98255
▁Good	-9.98268
▁ಸೋ	-9.98392
ಗಳೇ	-9.98407
▁Over	-9.98434
▁BS	-9.98453
ana	-9.98468
▁created	-9.98499
▁Team	-9.98585
▁hold	-9.98602
▁mean	-9.98604
▁ಓದ	-9.98615
▁ಅಂದನು	-9.9862
▁Mo	-9.9863
▁spoke	-9.98692
▁teachers	-9.98798
▁ಬರುತ್ತದೆ	-9.98865
▁ನಿರ್ವಹಣೆ	-9.98886
▁Children	-9.98887
▁2017	-9.98897
▁75	-9.98988
▁ಕ್ಷೇತ್ರಗಳಲ್ಲಿ	-9.99023
▁technology	-9.99043
▁North	-9.99048
ಳ್ಳ	-9.99057
▁ಕಳುಹಿಸ	-9.99075
▁tweeted	-9.99116
▁km	-9.99152
▁victory	-9.992
ಂದ	-9.99201
▁ವಿದ್ಯಾರ್ಥಿಗಳ	-9.99236
▁reports	-9.9924
▁playing	-9.99266
▁ರೂಪ	-9.99269
▁claimed	-9.99281
▁ಜಾಗತಿಕ	-9.99429
▁ನೇಮಕ	-9.99429
▁value	-9.99484
▁ye	-9.99526
▁ವಿಧಾನಸಭೆ	-9.99588
▁ಸರ್ಕಾರಕ್ಕೆ	-9.99652
▁ವಿರೋಧಿ	-9.99661
▁ಕನಿಷ್ಠ	-9.99675
▁offered	-9.99689
▁ಮಾಡಿಕೊಂಡ	-9.99733
ನನ್ನ	-9.99745
the	-9.99852
▁ಆಸ್ಪತ್ರೆ	-9.99894
▁ತಿಂಗಳು	-9.99947
▁ಚಾಲಕ	-9.9998
▁basis	-9.99988
▁Temple	-9.99989
▁least	-9.99989
▁authorities	-9.99991
▁ಕೆಲವೊಮ್ಮೆ	-10.0002
▁trust	-10.0003
ಿದ್ದೆ	-10.0007
▁ನಿಷೇಧ	-10.001
▁ಅವರೇ	-10.0014
▁ವಿಶ್ವಕಪ್	-10.0015
▁ಸಕ್ಕರೆ	-10.0015
▁mobile	-10.0015
▁ground	-10.0023
▁ಅವರಲ್ಲಿ	-10.0026
os	-10.0029
▁ಚಿತ್ರೀಕರಣ	-10.0033
hu	-10.0033
▁School	-10.0034
▁ಪ್ರಮಾಣದಲ್ಲಿ	-10.0034
▁ಗಡಿ	-10.0034
▁May	-10.0038
▁Therefore	-10.0054
▁Actor	-10.0055
▁ಗಳಿಗೆ	-10.0063
▁ಏ	-10.0065
▁certain	-10.0071
10	-10.0076
▁turn	-10.0077
▁industry	-10.0078
▁half	-10.0078
▁ನ್ಯಾಯಮೂರ್ತಿ	-10.0079
▁yourself	-10.008
▁ಆನ್	-10.0084
▁launch	-10.0086
▁sure	-10.0092
▁ನಿರ್ಮಿಸ	-10.0094
▁ರಷ್ಟು	-10.0095
▁ದಿನಾಂಕ	-10.0095
▁ಹತ್ತಿರ	-10.0096
▁ಫಲ	-10.0097
▁ಅಪಾರ	-10.0098
▁ತಿನ್ನ	-10.0101
▁ಘಟನೆಯಲ್ಲಿ	-10.0101
▁campaign	-10.0105
▁players	-10.0107
▁ವಿರುದ್ಧದ	-10.0109
▁alone	-10.011
▁About	-10.0111
▁ಓರ್ವ	-10.0111
nu	-10.0116
Y	-10.0117
▁self	-10.0127
▁districts	-10.0134
▁ಮೂಲದ	-10.0135
ವೆಂದರೆ	-10.0137
▁star	-10.0138
▁Le	-10.014
▁ಶಾಸಕರು	-10.014
▁ಸಂಭವಿಸ	-10.0146
▁ಸಂಸ್ಥೆಯ	-10.0164
▁receive	-10.0165
▁ಲೀಟರ್	-10.0165
ji	-10.017
▁ಗ್ರಾಮ	-10.0173
▁happens	-10.0176
ೀಕರಣ	-10.0181
ಗೊಳ್ಳ	-10.0185
ಡಾ	-10.019
▁knowledge	-10.0209
▁ಸ್ವೀಕರಿಸ	-10.0211
▁ನಿರ್ದಿಷ್ಟ	-10.0218
▁wickets	-10.0219
▁ರೆ	-10.0221
▁ಅಧಿಕಾರಿಗಳ	-10.0229
▁ಮಟ್ಟ	-10.0231
no	-10.024
MP	-10.0241
sha	-10.0243
▁ಅಪರಾಧ	-10.0252
▁ಪ್ರವಾಹ	-10.0253
▁increasing	-10.0255
ton	-10.0262
▁message	-10.0277
▁ಭದ್ರತೆ	-10.0279
▁Car	-10.0286
▁alliance	-10.0288
▁committed	-10.0288
per	-10.0291
ಿನಿಂದ	-10.0291
▁youth	-10.0296
▁hair	-10.0305
▁Indians	-10.0306
▁identified	-10.0308
▁ನೆರವು	-10.0309
▁expressed	-10.0313
▁ಹಣವನ್ನು	-10.0315
ally	-10.0315
▁ಸಾಧಿಸ	-10.0319
▁violence	-10.0321
▁ಆಸ್ತಿ	-10.0324
▁Andhra	-10.0338
ಚ್ಚ	-10.034
▁ಜ್ಞಾನ	-10.0341
▁Suzuki	-10.0353
▁Mi	-10.0361
▁ವ್ಯವಹಾರ	-10.0366
▁research	-10.0368
▁deceased	-10.037
▁sugar	-10.037
▁Don	-10.037
▁ಕ್ಷಣ	-10.0372
▁ಪುಸ್ತಕ	-10.0374
▁scheme	-10.0376
▁ಸಾವಿನ	-10.0377
▁ಇಟ್ಟ	-10.0382
▁rich	-10.0385
▁takes	-10.0392
▁ಹೆಸರನ್ನು	-10.0394
▁ಅವಧಿಯಲ್ಲಿ	-10.0396
ುತ್ತಿರಲಿಲ್ಲ	-10.0398
▁ಲೈಂಗಿಕ	-10.0403
▁ಸಂಶೋಧನೆ	-10.0403
▁Board	-10.0403
▁Vi	-10.0405
▁ಎಣ್ಣೆ	-10.0408
▁ವೈದ್ಯರ	-10.0415
ವಾಗಿಲ್ಲ	-10.0418
▁ಸಮಾಜ	-10.0421
▁ಹೆಚ್ಚಳ	-10.0423
▁ರಕ್ತ	-10.0434
ವಾಗುವ	-10.0435
▁named	-10.044
▁ಎನ್ನ	-10.0444
cc	-10.0447
▁ಉಚಿತ	-10.0449
▁prevent	-10.045
ಗಳಾಗಿವೆ	-10.0451
▁ಗೊಂದಲ	-10.0452
▁percent	-10.0453
ವಂತ	-10.0455
▁ಎಂದಿಗೂ	-10.0455
line	-10.0455
▁ಮುಚ್ಚ	-10.0457
ಬಹುದಾಗಿದೆ	-10.0464
▁impact	-10.0469
gu	-10.0471
▁ಸಾಗ	-10.0475
▁stated	-10.0477
▁line	-10.048
▁Sonia	-10.0486
▁ಸೋನಿಯಾ	-10.0486
ಇದು	-10.0487
ವೈ	-10.0492
ಂಡ್	-10.0502
ಿಕೊಂಡು	-10.0506
▁ಕ್ಷೇತ್ರದ	-10.0512
▁Am	-10.0513
▁Ramesh	-10.0513
▁kids	-10.0513
▁ಲಿ	-10.0526
▁ನಿಂತ	-10.053
pa	-10.0535
▁goes	-10.054
ಯಂತೆ	-10.0543
▁passengers	-10.0544
▁ಬುಕ್	-10.0546
▁moved	-10.0549
▁ಸ್ವಂತ	-10.0554
ಸನ್	-10.0556
▁ಸ್ಥಾನಕ್ಕೆ	-10.0556
▁ಕುರಿತ	-10.0559
▁scored	-10.0559
ಿದ್ದಾಳೆ	-10.0567
▁ಕಲಿಸ	-10.0567
▁Priyanka	-10.0569
▁cash	-10.057
▁ಕಾಲೇಜು	-10.0584
▁ನೀಡಿಲ್ಲ	-10.059
▁ಭ	-10.0592
▁online	-10.0594
▁ಶುಭ	-10.06
▁Road	-10.0601
ೆಲ್ಲಾ	-10.0605
▁Award	-10.0605
▁Bangladesh	-10.0606
▁gets	-10.0611
▁stay	-10.0617
▁holy	-10.062
▁ಒಪ್ಪಂದ	-10.0622
ors	-10.0624
▁highest	-10.0629
▁ಕಲೆ	-10.0631
▁ರಚಿಸ	-10.0632
ber	-10.0637
▁ಕಪ್	-10.0638
▁rules	-10.0643
▁ಮಾರುಕಟ್ಟೆ	-10.0644
▁ವಾಣಿಜ್ಯ	-10.0653
▁Arjun	-10.0653
op	-10.0658
▁sector	-10.0663
▁ಬಳಸಿ	-10.0664
▁ಲೋಕ	-10.0667
▁ಕೃತ್ಯ	-10.067
▁black	-10.067
ನಾವು	-10.0683
▁ಹೇಳುತ್ತಾರೆ	-10.0684
▁watch	-10.0685
▁ಮನ್	-10.0685
▁ಸಾವಿರಾರು	-10.0687
▁ಶಾಲೆ	-10.069
ುವುದರಿಂದ	-10.0693
ಿಸುತ್ತದೆ	-10.0694
▁ದೇಹ	-10.0697
▁looking	-10.0698
▁ಹಲ್ಲೆ	-10.0705
▁effect	-10.0713
▁suffering	-10.0715
mi	-10.072
▁Constitution	-10.0721
▁ಕಾಳಜಿ	-10.0721
▁term	-10.0722
▁ಪ್ರಕರಣದಲ್ಲಿ	-10.0724
▁ahead	-10.0737
ಷನ್	-10.0738
▁ಪ್ರೊ	-10.0743
▁ಪಟ್ಟಿಯಲ್ಲಿ	-10.0747
▁space	-10.0751
▁train	-10.076
▁ಪ್ರಭಾವ	-10.0763
▁ಆಕ್ರೋಶ	-10.0772
▁ಸುಜುಕಿ	-10.0772
▁regarding	-10.0774
▁ನಿಜಕ್ಕೂ	-10.0777
▁ಕೆಲಸವನ್ನು	-10.0779
ೆವು	-10.078
▁ಪಟ್ಟಣ	-10.0783
▁ಉಪಾಧ್ಯಕ್ಷ	-10.0784
▁ತಯಾರಿ	-10.0784
▁drink	-10.0786
▁ಸಹಾಯಕ	-10.0786
ಕೊಂಡು	-10.0786
▁rule	-10.0787
hose	-10.0795
▁Medical	-10.0807
min	-10.0808
ಗಳಲ್ಲೂ	-10.0812
▁Patel	-10.0825
▁doctors	-10.0828
▁non	-10.0829
▁model	-10.0839
ಎಫ್	-10.084
▁examination	-10.0841
▁banks	-10.0842
▁ಅಂದ	-10.0845
▁ಬಂಧಿಸಿದ್ದಾರೆ	-10.0847
▁ಕುಡಿಯುವ	-10.0847
▁ಭರ್ಜರಿ	-10.0855
ise	-10.0859
▁rains	-10.0859
▁cancer	-10.086
▁St	-10.0866
▁Finance	-10.0875
▁river	-10.0876
▁ಪ್ರಸಾದ್	-10.0877
ani	-10.0877
ೇಶ್	-10.0878
▁ಮಾಡುತ್ತಾರೆ	-10.0879
ಶಿ	-10.0881
▁giving	-10.0888
ಮೀ	-10.0891
▁ಏಕದಿನ	-10.0893
▁continued	-10.0896
ಗಳಾಗಿ	-10.09
ವೇನು	-10.0901
ಪುರ	-10.0903
ುತ್ತಿದ್ದೇನೆ	-10.0909
▁ಸುಪ್ರೀಂಕೋರ್ಟ್	-10.0911
▁ಬೆಳೆ	-10.0911
▁song	-10.0915
▁ಸೋಂಕು	-10.0915
▁ಸಿನಿಮಾದಲ್ಲಿ	-10.0916
ಖ	-10.092
▁address	-10.0922
▁ಪದ	-10.0923
▁outside	-10.0931
▁ಆರೋಗ್ಯದ	-10.0932
▁includes	-10.0933
▁serve	-10.0933
▁ಬೇ	-10.0933
war	-10.0941
▁ಪಡೆದಿದ್ದಾರೆ	-10.0944
▁ನದಿ	-10.0946
tha	-10.0947
▁ನಡೆಸಿದರು	-10.095
▁Pro	-10.0951
▁formed	-10.0953
▁ಜಾತಿ	-10.0954
▁concerned	-10.0955
▁ಕಾಡ	-10.0956
▁birth	-10.0962
ಾಡ	-10.0965
▁ದೋಷ	-10.0968
▁ಸುಲಭವಾಗಿ	-10.0971
▁completed	-10.0973
▁125	-10.0976
▁ನಿಧನ	-10.0979
▁ಅಪಘಾತ	-10.0979
▁Follow	-10.098
▁ಭೂಮಿಯ	-10.0986
▁ಗುರುತಿಸ	-10.0995
▁Everything	-10.0997
▁Facebook	-10.0997
▁ಗುಣ	-10.1001
ಗಳಿಲ್ಲ	-10.1003
▁ಜಾರಿಗೆ	-10.1005
▁ಘೋಷಿಸ	-10.1008
▁ಸಾರಿಗೆ	-10.1013
▁ಪ್ರಾರ್ಥನೆ	-10.1013
▁sources	-10.1021
▁page	-10.1023
ಿರಬೇಕು	-10.1024
▁Con	-10.1028
▁ಅವುಗಳಲ್ಲಿ	-10.103
ward	-10.1031
▁exercise	-10.1032
▁milk	-10.1032
▁located	-10.1032
▁ವಿಶೇಷವಾಗಿ	-10.1032
ೃ	-10.1045
▁moment	-10.1045
em	-10.105
▁ತಂದ	-10.105
▁ಬೇಸರ	-10.105
▁measures	-10.1051
▁ಮಾತ್ರವಲ್ಲ	-10.1053
ಪು	-10.1056
▁ಅದರಿಂದ	-10.1066
ಂಡಿ	-10.1067
▁ಭಾಷಣ	-10.1071
ನೀ	-10.1073
▁ಪಡೆದು	-10.1076
ಾಟ	-10.1084
con	-10.1085
▁ಪರಿ	-10.1086
▁ತಾಣ	-10.109
▁solution	-10.1092
▁ವಸ್ತು	-10.1094
▁weight	-10.1098
▁Ar	-10.1103
ೆಯ	-10.1106
▁Ex	-10.1107
▁ಸಚಿವೆ	-10.1107
▁ಸ್ಪರ್ಧಿಸ	-10.111
tri	-10.1111
▁ಅಡಿ	-10.1116
▁sleep	-10.1117
▁remember	-10.1123
▁design	-10.1126
▁prepared	-10.1126
ಾಯಿತು	-10.1128
▁ಮಧ್ಯ	-10.1135
▁ಕುಸಿತ	-10.1138
▁ಬ್ಯಾಟಿಂಗ್	-10.1138
ರಿಯ	-10.1139
▁Rajya	-10.1142
▁ನೀಡಿದ್ದ	-10.1149
▁Council	-10.1156
▁Which	-10.1156
▁ಮಟ್ಟದ	-10.1158
▁ದಿನದ	-10.1163
ಫಿ	-10.1164
▁ಮುನ್ನಡೆ	-10.1165
▁Muslims	-10.1166
▁discussed	-10.1168
▁w	-10.1171
▁join	-10.1173
▁avoid	-10.1176
▁ನೆ	-10.1179
▁ಸಂಗಡ	-10.118
▁ಹೋಗುವ	-10.119
▁community	-10.1192
ಬಹುದಾದ	-10.1196
▁Word	-10.1209
▁ಸರ್ವ	-10.1214
▁ಸಂಘಟನೆ	-10.1222
▁Haryana	-10.1227
ಷಧ	-10.1228
▁ಬದುಕ	-10.1229
▁ಉತ್ಪಾದನೆ	-10.1229
▁ಮೂಲಗಳು	-10.1238
▁physical	-10.1238
▁ಪ್ರವಾಸ	-10.1243
ಯಿಂದಾಗಿ	-10.1245
▁ಪ್ರಯತ್ನಿಸ	-10.1245
▁leading	-10.1247
▁ಸಮ	-10.1249
▁ಕಾರ	-10.1249
▁ಸಲ	-10.126
men	-10.1267
▁turned	-10.1279
▁powder	-10.1281
▁ಪೋ	-10.1281
▁ರಲ್ಲಿ	-10.1282
▁article	-10.1297
He	-10.1297
▁5:	-10.1299
▁ರಮೇಶ್	-10.13
▁ಇಲಾಖೆಯ	-10.1301
▁ಲಾಕ್	-10.1304
▁cast	-10.1305
▁ಹಕ್ಕು	-10.1306
▁ಸಂವಿಧಾನ	-10.131
▁ಅಭ್ಯರ್ಥಿಗಳು	-10.1313
▁ತೆಗೆದುಕೊಂಡ	-10.1316
▁opposition	-10.1317
▁ministers	-10.1318
▁ಆರಂಭಿಕ	-10.1319
▁ಈಗಲೂ	-10.1319
▁ಕೊಡುವ	-10.132
▁complete	-10.1329
▁force	-10.1332
▁ಸಿಕ್ಕ	-10.1335
▁fall	-10.1335
po	-10.1337
▁attend	-10.1342
▁r	-10.1342
▁ಏಕ	-10.1344
▁ಕಂಪನಿಯು	-10.1353
▁custody	-10.1353
▁cr	-10.1355
ಟೋ	-10.1358
▁ದೇವಸ್ಥಾನ	-10.136
▁ಶ್ರೇಷ್ಠ	-10.1361
▁36	-10.1369
▁enjoy	-10.1369
▁festival	-10.137
▁ಕ್ರಿಸ್ತನ	-10.1371
▁Senior	-10.1372
▁therefore	-10.1372
▁ಅನುಮೋದನೆ	-10.1372
▁cities	-10.1372
ie	-10.1375
▁press	-10.1379
▁ಆಫ್ರಿಕಾ	-10.1381
▁examples	-10.1386
▁risk	-10.1388
▁ಕಾಯಿಲೆ	-10.1389
▁employees	-10.1389
▁evidence	-10.139
▁kept	-10.139
▁voice	-10.139
▁ತನಕ	-10.139
ಿದಾಗ	-10.1392
▁ಸೇನೆ	-10.14
▁TV	-10.1406
▁ಕೀರ್ತನೆ	-10.1408
▁ಈರುಳ್ಳಿ	-10.1408
ster	-10.1408
▁Each	-10.1409
▁charge	-10.1409
▁ಹೆಣ್ಣು	-10.1411
ಟೆ	-10.1418
▁ಮಾಹಿತಿಯನ್ನು	-10.1419
▁appointed	-10.1428
▁hear	-10.1431
▁Law	-10.1435
▁ಅಷ್ಟು	-10.1439
▁successful	-10.1439
ಿಸಿದ್ದಾರೆ	-10.144
▁create	-10.1453
ಸ್ತ	-10.1455
▁economy	-10.1463
▁stopped	-10.1463
ಲಿಕ್ಕಾಗಿ	-10.1465
▁ಹೋದ	-10.1467
▁ಕಳೆದುಕೊಂಡ	-10.1468
▁ಸುಂದರ	-10.1473
▁Now	-10.1477
▁ಹೆಜ್ಜೆ	-10.1481
▁Pa	-10.1485
ga	-10.1488
ಣೆ	-10.1492
▁votes	-10.1492
▁ಉಗ್ರ	-10.1495
▁travel	-10.1495
▁ಪಾಲ್ಗೊಂಡಿದ್ದರು	-10.1502
pi	-10.1506
▁ಸದಾ	-10.1508
▁ರವಿ	-10.1514
▁ಹಾಡ	-10.1515
▁ಉಗ್ರರ	-10.1517
▁ಕಲ್ಪಿಸ	-10.152
▁ನಿಜವಾದ	-10.1533
ಲಾಗಿದ್ದು	-10.1536
▁application	-10.1537
▁ಯಾವುವು	-10.1537
▁ಬಡ	-10.154
ite	-10.1543
▁ರೆಡ್ಡಿ	-10.1552
▁population	-10.1555
▁ಅಕ್ರಮ	-10.1558
▁ಪ್ರಮಾಣದ	-10.156
▁ಪುಡಿ	-10.1569
▁ವ್ಯಕ್ತಿಯ	-10.1573
▁ಬಿಟ್ಟ	-10.1573
▁construction	-10.1574
▁ಹಾಜರಿದ್ದರು	-10.1574
▁ಆಟೋ	-10.1575
▁ಕಪ್ಪು	-10.1578
▁ಪೋಷಕರು	-10.1582
▁ಸಂಗ್ರಹ	-10.1582
▁patients	-10.1582
▁petition	-10.159
▁Love	-10.159
▁wants	-10.1591
▁class	-10.1591
▁affect	-10.1592
▁Affairs	-10.1592
▁ಮಸೂದೆ	-10.1592
▁forces	-10.1594
▁ಮಾನಸಿಕ	-10.1595
▁ವೇತನ	-10.1596
ap	-10.16
▁decide	-10.1601
▁shooting	-10.1602
▁ಪ್ರಶ್ನೆಗೆ	-10.1602
▁sea	-10.1605
▁wait	-10.1608
▁Madhya	-10.1611
▁organised	-10.1611
▁helped	-10.1614
ಜನ	-10.1619
▁ಹೇಳುವ	-10.1626
ರಾಜ	-10.1628
▁ಪ್ರಾಥಮಿಕ	-10.1629
▁ಗರಿಷ್ಠ	-10.1629
▁income	-10.1629
▁House	-10.1629
shi	-10.1629
▁2014	-10.163
▁presided	-10.1632
ಸ್ಥ	-10.1638
▁ಬಯಸ	-10.164
▁ensure	-10.1642
▁ಪ್ರಾರಂಭ	-10.1644
ಕೊಳ್ಳ	-10.1651
▁agree	-10.1656
▁ಸೃಷ್ಟಿ	-10.1659
▁staff	-10.1667
▁ಆದ್ಯತೆ	-10.1667
▁ಪ್ಲೇ	-10.1669
▁fell	-10.167
▁training	-10.1671
▁ಗಾಯಗೊಂಡಿದ್ದಾರೆ	-10.1672
ಯಾಗಿದ್ದು	-10.1675
▁Lets	-10.1679
▁ಧ್ವನಿ	-10.1679
ಿಗ	-10.1679
▁Cricket	-10.1683
▁cooperation	-10.1685
▁ಮತ್ತೊಮ್ಮೆ	-10.1685
▁related	-10.1685
▁Li	-10.1686
▁48	-10.1688
▁ಆಸೆ	-10.1689
▁ಡ	-10.169
ised	-10.169
▁ಕನಸು	-10.169
ುತ್ತಿದ್ದು	-10.1692
▁board	-10.1696
▁sports	-10.1699
▁ಹೆಸರ	-10.1701
▁ಸಮಾನ	-10.1712
▁knows	-10.1713
▁ದು	-10.1721
▁ಅನುಕೂಲ	-10.1722
▁ಸ್ವತಃ	-10.1723
▁justice	-10.1724
▁roles	-10.1726
ಿಂದಲೂ	-10.1727
▁Al	-10.1733
▁governments	-10.1735
esh	-10.1736
ಕಾರಿ	-10.1738
▁ಘಟನೆಯ	-10.174
▁ಸದ್ಯಕ್ಕೆ	-10.1743
av	-10.1744
▁red	-10.1744
▁ಸದಸ್ಯರ	-10.1745
▁ಮೃತ	-10.1746
ೇನೂ	-10.1747
▁ಇದುವರೆಗೂ	-10.1747
ವನ್ನೇ	-10.1749
▁vs	-10.175
▁ಇಡ	-10.1752
▁challenge	-10.1753
ಳೆ	-10.1755
▁production	-10.1759
▁ಶೋ	-10.1759
▁higher	-10.1761
▁ಕಲಿಯ	-10.1762
▁considered	-10.1762
▁ಕಾರಿನ	-10.1764
▁nations	-10.1764
▁ವಿಭಿನ್ನ	-10.1771
▁ತಿಳಿದ	-10.1777
▁ನಡೆಸಲು	-10.1777
tic	-10.1777
▁student	-10.1782
▁enter	-10.1782
▁worth	-10.1787
▁ಪರಿಶೀಲಿಸ	-10.1788
ub	-10.1789
▁lose	-10.179
▁ಹೇಳಿದ್ದರು	-10.1798
▁crime	-10.1798
▁ಲೇಖನ	-10.1799
ions	-10.1799
▁ವಿಚಾರದಲ್ಲಿ	-10.18
▁arrest	-10.1804
▁treated	-10.1807
▁ಚಂದ್ರ	-10.1814
ealand	-10.1815
▁constituency	-10.1817
▁ಮಾಧ್ಯಮ	-10.1822
▁included	-10.1825
▁gives	-10.1826
ನರ್	-10.1826
▁born	-10.1829
▁joy	-10.1835
▁ತಂಡಗಳು	-10.1836
▁FIR	-10.1836
▁ಸಂಕಷ್ಟ	-10.1836
ಟು	-10.1837
▁ಡೆ	-10.1839
ಂಚ	-10.1843
ಲ್ಲಿರುವ	-10.1844
ಟ್ಟು	-10.1844
▁ನೀಡಿರುವ	-10.1848
▁ಹಿಡಿದು	-10.1849
▁fast	-10.1849
▁ಗ್ರಾಮೀಣ	-10.1849
▁environment	-10.1852
ತ್ಯ	-10.1854
▁battle	-10.1855
▁ಪೋಸ್ಟ್	-10.1857
▁begin	-10.1858
▁difference	-10.1859
▁Because	-10.1859
▁ಹಳೆಯ	-10.1863
▁Just	-10.187
▁ಶುದ್ಧ	-10.1874
▁ಅಭ್ಯಾಸ	-10.1875
▁faithful	-10.188
▁ಸೇರಿವೆ	-10.1881
▁ಅಮೆರಿಕದ	-10.1886
್ತಾ	-10.1894
▁en	-10.1896
▁34	-10.1902
▁save	-10.1904
▁ಪ್ರತಿಯೊಬ್ಬ	-10.1904
▁ಸವಾಲು	-10.1907
▁energy	-10.1913
▁ಸಚಿವಾಲಯ	-10.1913
▁ನಗದು	-10.1914
▁ಶುರು	-10.1919
▁ನೀರನ್ನು	-10.192
way	-10.1921
ದರ	-10.1922
▁ಮರ	-10.1923
▁seriously	-10.1925
▁ಇಂಡಿಯನ್	-10.1928
ಬು	-10.1929
▁seized	-10.1932
▁ಪಾಠ	-10.1932
▁Super	-10.1934
▁ಎದುರು	-10.1936
ನಮ್ಮ	-10.194
▁ದುಃಖ	-10.1941
▁ಬೈ	-10.1944
▁ಕರ್ನಾಟಕದ	-10.1945
▁especially	-10.1951
▁ಸೇರಿಸ	-10.1953
▁Peter	-10.1957
▁ಕೆಳಗೆ	-10.1957
▁ಮಾಡಿದ್ದು	-10.1963
▁citizens	-10.1969
▁ಕ್ಲಿಕ್	-10.1969
▁Malayalam	-10.197
▁torque	-10.197
▁Nothing	-10.1971
▁ಮರಣ	-10.1976
▁ಜಲ	-10.1986
ನಾಯಕ	-10.1987
ke	-10.1988
▁ಹೊ	-10.1989
▁supply	-10.199
▁ಸೋಲ	-10.1992
▁ಪೌಲನು	-10.1997
▁ಕಾರ್ಯಕರ್ತರು	-10.2003
▁ಜಿಲ್ಲೆಯಲ್ಲಿ	-10.2007
▁ಪಾತ್ರದಲ್ಲಿ	-10.2007
▁sin	-10.2009
▁whether	-10.2009
▁ಅನುದಾನ	-10.2009
▁ಒಮ್ಮೆ	-10.2009
▁ವಿಷಯವನ್ನು	-10.201
▁ತು	-10.2011
):	-10.2011
▁ಒಳ	-10.2011
▁ನೋಡೋಣ	-10.2012
▁ಹೇಳಿದ್ದು	-10.2013
les	-10.2018
▁ಮಾಡುವುದಿಲ್ಲ	-10.2021
▁proper	-10.2022
ುವುದರ	-10.2023
▁ಬಂತು	-10.2024
▁ರೂಪಿಸ	-10.2026
▁ತೂಕ	-10.2027
▁false	-10.2028
▁Film	-10.2028
▁Four	-10.203
▁ಗೋವಾ	-10.2031
▁Ha	-10.2032
ಮಾಡಿ	-10.2033
▁ಫೇಸ್	-10.2036
ಜು	-10.2036
ized	-10.2036
▁ನೋಡಲು	-10.2038
▁served	-10.2039
ಬೇಡ	-10.2041
ಯಾಗಿದ್ದ	-10.2045
▁ಇವರಿಗೆ	-10.2048
▁drinking	-10.2052
▁sister	-10.2053
▁37	-10.2061
▁ಕ್ರಿಯೆ	-10.2063
ran	-10.2066
▁ಎಚ್ಚರ	-10.2066
▁ಚರ್ಚಿಸ	-10.2068
▁ಲಭ್ಯವಿದೆ	-10.2069
▁ವಿಜಯ	-10.207
▁ಕಾರಣಗಳು	-10.2072
▁budget	-10.2072
▁ಚುನಾವಣೆಗೆ	-10.2081
▁ಇಲ್ಲವೆ	-10.2085
▁ಭವಿಷ್ಯ	-10.2087
▁Thus	-10.2088
▁ಮಾತನಾಡಿ	-10.2091
▁ಆಪ್	-10.2095
ುವುದರಲ್ಲಿ	-10.2096
▁ಶೋಧ	-10.2097
ಧಿ	-10.2101
▁ರೈತರಿಗೆ	-10.2118
▁ವ್ಯತ್ಯಾಸ	-10.2119
ical	-10.212
gg	-10.212
▁ರಾವ್	-10.212
ಯಿಲ್ಲ	-10.2124
▁freedom	-10.2126
ಿದ್ದರೂ	-10.2128
▁letter	-10.2133
ಯರ್	-10.2134
ೇಶ್ವರ	-10.214
▁ಲೆಕ್ಕ	-10.2148
▁soldiers	-10.2149
▁ಸಿದ್ಧತೆ	-10.2149
▁ಒಳಗಾಗ	-10.215
▁ಸಾಧನ	-10.2151
▁doubt	-10.2152
▁apply	-10.2153
ೊಳಗೆ	-10.2154
▁ವಿವಾಹ	-10.2158
time	-10.2158
▁plays	-10.2158
▁Ni	-10.216
▁ಒಂದ	-10.2164
▁ವಿದೇಶಾಂಗ	-10.2165
▁m	-10.2166
▁6:	-10.217
▁ಕಾರ್ಯಕ್ರಮದ	-10.217
▁ನಾಲ್ವರು	-10.2171
▁ಮೋ	-10.2176
▁Ja	-10.2184
▁ಭಟ್	-10.2184
▁ನ್ಯಾಯಾಂಗ	-10.2185
▁ಸೋಲು	-10.2189
▁ಎಲ್ಲವನ್ನೂ	-10.2193
▁confidence	-10.2195
▁ಅವ	-10.2204
▁ಗ್ರಾಂ	-10.2206
▁ನಮ್ಮಲ್ಲಿ	-10.2206
▁Satan	-10.2208
▁ಅಪ್ಪ	-10.2209
ca	-10.2212
▁ಆಧಾರ್	-10.2216
▁ತನಿಖೆಗೆ	-10.2216
▁ಅಲಿ	-10.2217
ನೆಂದು	-10.2219
▁Make	-10.2221
▁di	-10.2222
▁Anushka	-10.2224
▁rights	-10.2225
▁ಆಗಿರುವ	-10.2232
▁operation	-10.2235
▁ಬಲಿ	-10.2243
▁Open	-10.2244
▁focus	-10.2248
▁ಪ್ರಕಟ	-10.2253
▁ಆಚರಿಸ	-10.2254
▁ಹಿ	-10.2255
▁capital	-10.2264
▁ಬೃಹತ್	-10.2264
▁extreme	-10.2264
▁devotees	-10.2264
ಮಾನ	-10.2265
▁ಮೈಸೂರು	-10.2271
ಗೊಳಿಸುವ	-10.2271
▁ಪಡೆದುಕೊಂಡ	-10.2273
▁ಅಂತರ	-10.2276
▁late	-10.2276
▁2,	-10.2277
▁die	-10.2282
▁ಕಲ್ಯಾಣ	-10.2285
▁ಅನ್ವಯ	-10.2289
▁ಚಿನ್ನದ	-10.2289
▁ಬದಲಾಗಿ	-10.2289
▁safe	-10.2293
ning	-10.2297
dy	-10.2304
▁ಪಟೇಲ್	-10.2304
ಕೊಂಡ	-10.2309
ure	-10.2313
ard	-10.2318
▁ಸೈ	-10.2323
▁ಆನಂದ	-10.2323
▁choice	-10.2323
▁policy	-10.2324
▁Deepika	-10.2324
▁ಅನುಮಾನ	-10.2325
▁site	-10.2326
▁projects	-10.2328
▁ಭೂಮಿ	-10.2331
▁ಇಲ್ಲಿಗೆ	-10.2331
▁ಇದನ್ನ	-10.2333
▁affected	-10.2334
▁session	-10.2344
▁ಅಂಕ	-10.2344
pe	-10.2355
▁ಸ್ವಾಮಿ	-10.2364
▁essential	-10.2364
ಗೊಂಡಿದೆ	-10.2365
▁friend	-10.2365
▁ಖ್ಯಾತ	-10.2367
▁opportunities	-10.2384
ಬೇ	-10.2386
▁protect	-10.2386
▁ಮತ್ತಿತರರು	-10.2388
▁ಸೊ	-10.2389
▁notice	-10.239
ುವದಕ್ಕೆ	-10.2394
▁pro	-10.2397
▁Lanka	-10.24
▁sense	-10.2404
▁speed	-10.2405
ach	-10.2408
▁revealed	-10.2409
▁ಬರೆಯ	-10.2413
▁ನಡೆಯುವ	-10.2413
▁products	-10.2416
▁seek	-10.2424
▁Sanjay	-10.2424
▁correct	-10.2424
▁ಅರ್ಜುನ್	-10.2426
▁ಕೆಂಪು	-10.2427
ಸರ್	-10.2428
and	-10.2437
du	-10.2442
▁offering	-10.2443
▁Rai	-10.2444
▁active	-10.2446
ದ್ಯ	-10.2447
▁ಬದಲಾಯಿಸ	-10.2448
ig	-10.2448
ನಗರ	-10.2449
’’	-10.246
wa	-10.2461
▁Shankar	-10.2465
▁ದಂಪತಿ	-10.2467
▁Muslim	-10.2468
▁check	-10.2469
ುತ್ತಾಳೆ	-10.2469
▁agreed	-10.2475
ities	-10.248
ಾರ	-10.2484
▁ಕರ್ತವ್ಯ	-10.2485
ಯಾಯಿತು	-10.2488
▁refused	-10.2489
▁matches	-10.2493
▁ಪ್ರಗತಿ	-10.2496
▁daughters	-10.25
▁ಉಪಯೋಗಿಸ	-10.2501
▁ದೆಹಲಿಯ	-10.2503
▁ಇಳಿಕೆ	-10.2504
▁debate	-10.2505
▁celebrated	-10.2509
▁ತಿದ್ದುಪಡಿ	-10.2514
▁dream	-10.2515
▁ಆಯುಕ್ತ	-10.2521
▁improve	-10.2524
▁democracy	-10.2526
▁neither	-10.2526
▁Son	-10.253
▁ಕ್ರೀಡಾ	-10.2531
red	-10.2541
▁speech	-10.2543
▁ಅಸಮಾಧಾನ	-10.2546
▁ದೇಶಗಳ	-10.2553
▁ಪಾವತಿ	-10.2553
ಿಸುವುದು	-10.2554
▁ಅನುಸರಿಸ	-10.2561
▁tried	-10.2567
▁War	-10.257
▁lack	-10.2572
land	-10.2572
▁Po	-10.2574
▁ಕರೆಯ	-10.2577
▁discussion	-10.2578
▁ಬೀಳ	-10.2583
▁ಅಗ್ನಿಶಾಮಕ	-10.2587
▁Moses	-10.2587
▁Institute	-10.2587
▁ಚಿನ್ನ	-10.2588
▁majority	-10.2594
▁ಕ್ರಮಗಳನ್ನು	-10.2599
25	-10.2606
▁ಮುಂದುವರಿಸ	-10.2607
▁jail	-10.2608
▁movies	-10.261
▁forget	-10.2614
ay	-10.2617
▁ದೇವರಿಗೆ	-10.262
▁ಸಿನಿಮಾದ	-10.2621
▁dies	-10.2627
▁ಅನುಷ್ಕಾ	-10.2628
▁ಇಂಧನ	-10.2628
▁Par	-10.263
ip	-10.2631
▁rejected	-10.2635
▁damaged	-10.2636
▁ನಾಗರಿಕ	-10.2637
▁GST	-10.2642
▁Chandra	-10.2646
▁ಬಳಿಗೆ	-10.2646
▁felt	-10.2649
▁silver	-10.2649
▁nature	-10.2649
▁ಟಿಕೆಟ್	-10.2649
▁Force	-10.2654
ರಿಯಾ	-10.2657
▁ಯಾವುದ	-10.2661
tr	-10.2663
▁baby	-10.2669
▁knew	-10.2669
▁green	-10.2669
▁ಆತನಿಗೆ	-10.2672
▁ಕ್ರೀಡೆ	-10.2675
▁ಮಿಶ್ರಣ	-10.2676
ವೊ	-10.268
▁performance	-10.2681
▁ದೀಪಿಕಾ	-10.269
▁trade	-10.269
▁Mu	-10.2691
▁remained	-10.2692
▁symptoms	-10.2693
▁idea	-10.2696
▁ಮಟ್ಟದಲ್ಲಿ	-10.2698
▁inside	-10.2699
▁ಬಿಸಿಸಿಐ	-10.2703
▁ಚಿ	-10.2705
▁[...]	-10.2711
▁companies	-10.2711
▁wedding	-10.2713
ವಾಗುತ್ತಿದೆ	-10.2721
▁ಚಾಂಪಿಯನ್	-10.2723
▁ಹೇಳಿದನು	-10.2723
▁cup	-10.2724
▁direction	-10.2724
▁ನಂ	-10.2727
▁ಸುಧಾರಣೆ	-10.2732
▁upcoming	-10.2733
▁ಬಂಧಿಸಿ	-10.274
▁ಮೀ	-10.274
▁ವಿಶ್ವವಿದ್ಯಾಲಯ	-10.2751
▁ನಿನ್ನನ್ನು	-10.2752
▁ಪುನಃ	-10.2752
▁Shivakumar	-10.2753
▁ಪ್ರಸಿದ್ಧ	-10.2754
▁ಪಡೆದುಕೊಳ್ಳ	-10.276
ens	-10.2763
▁ಪ್ರಕಟಿಸ	-10.2766
ac	-10.2775
▁sound	-10.2777
▁winning	-10.2786
ath	-10.2787
▁listen	-10.2789
▁talking	-10.2794
▁Aadhaar	-10.2794
bhp	-10.2794
▁unit	-10.2797
▁feature	-10.2798
▁walk	-10.28
▁ಸೆರೆ	-10.2803
▁ಅಧ್ಯಕ್ಷತೆ	-10.2812
ಥ	-10.2813
▁Article	-10.2815
▁Opposition	-10.2815
In	-10.2816
▁ಶಿವಕುಮಾರ್	-10.2816
▁ಹಂತದಲ್ಲಿ	-10.282
▁Shiva	-10.2821
ಿರುವುದಾಗಿ	-10.2823
▁ಕೆಲವೇ	-10.2825
▁King	-10.2831
▁ವಚನ	-10.2834
▁pictures	-10.2835
Nm	-10.2836
▁responsible	-10.2836
▁ವ್ಯಾಯಾಮ	-10.2836
▁Pra	-10.2839
▁Keep	-10.284
▁display	-10.2842
▁white	-10.2843
▁ದೃಶ್ಯ	-10.2845
▁ವಿಷಯಗಳನ್ನು	-10.2848
▁Does	-10.2853
▁loved	-10.2854
ಕೇ	-10.2862
▁remains	-10.287
▁boy	-10.2871
▁ಚಿಂತೆ	-10.2873
▁ಗೊತ್ತು	-10.2876
ಗಿಂತ	-10.2877
▁Google	-10.2878
▁choose	-10.2878
▁accepted	-10.2879
▁thats	-10.2879
▁ನಿಲ್ದಾಣ	-10.2883
▁suffered	-10.2888
do	-10.2891
▁ಗೆಲ್ಲ	-10.2892
▁source	-10.2892
ಕಲ್	-10.2892
▁evening	-10.2893
▁thinking	-10.2896
▁ಇಂಗ್ಲಿಷ್	-10.29
ುತ್ತೆ	-10.2901
ver	-10.2901
▁Since	-10.2905
▁recovered	-10.2907
▁causes	-10.291
▁option	-10.2912
▁ಈವರೆಗೆ	-10.2912
act	-10.2913
raj	-10.2913
▁ಸಮುದಾಯ	-10.2916
▁ಸುತ್ತ	-10.2918
▁ಸ್ಥಾಪಿಸ	-10.2919
▁ಸೇನಾ	-10.2919
▁ಪ್ರಜಾಪ್ರಭುತ್ವ	-10.292
▁ಅಂಗ	-10.292
▁administration	-10.2921
▁urged	-10.2923
▁ಆಯೋಗ	-10.2926
▁ಮುಸ್ಲಿಂ	-10.2928
▁books	-10.2929
▁ಕತೆ	-10.2931
▁college	-10.2935
▁v	-10.2937
▁ಪ್ರತಿದಿನ	-10.294
▁ಸಚಿನ್	-10.2942
▁ಪರವಾಗಿ	-10.2944
ಿಸಿದೆ	-10.2946
▁ಮೃತಪಟ್ಟಿದ್ದಾರೆ	-10.2949
▁Arun	-10.2951
▁ಧರಿಸ	-10.2956
▁ಜಾಗ	-10.2959
▁ಮಗಳು	-10.2959
ುವೆನು	-10.296
▁ವಿಧಿ	-10.2962
▁carried	-10.2963
▁ಮಂಗಳೂರು	-10.2963
▁ಬಾಕಿ	-10.2967
ಲಿರುವ	-10.2973
▁ಸಂಭ್ರಮ	-10.2974
su	-10.2977
▁ಬಿಗಿ	-10.2977
▁ಸಭೆಯ	-10.2978
▁tournament	-10.2984
▁ದುರಂತ	-10.2985
ious	-10.2994
ai	-10.2999
▁ಪುತ್ರಿ	-10.3001
▁ಬಂದ್	-10.3006
▁ಅದ	-10.3006
▁ಮುಖಂಡರು	-10.3006
ೊಬ್ಬ	-10.3009
▁ಅವಶ್ಯಕತೆ	-10.3013
ಯವರು	-10.3016
▁ನೋ	-10.3019
mp	-10.3026
▁Kolkata	-10.3027
▁Meanwhile	-10.3027
▁facilities	-10.3027
▁dispute	-10.3027
▁ನಿತ್ಯ	-10.3028
▁sub	-10.3029
▁Chairman	-10.3031
ದ್ದರಿಂದ	-10.3033
▁ಶವ	-10.304
▁legal	-10.3044
▁Bo	-10.3049
▁ಪವರ್	-10.305
▁elected	-10.3052
▁facing	-10.3057
▁ಬೇಕಾದ	-10.3062
60	-10.3066
▁unique	-10.307
▁ಜಿಲ್ಲಾಧಿಕಾರಿ	-10.3071
▁safety	-10.3071
▁recorded	-10.3072
▁Earlier	-10.3073
▁feet	-10.3079
ring	-10.3088
▁ಆಚರಣೆ	-10.3092
ಕ್ಕಿ	-10.3093
▁2015	-10.3094
ಿಸಲಾಗಿದೆ	-10.3094
▁direct	-10.3095
▁ಮೂಡ	-10.3099
▁build	-10.3099
▁ಲಕ್ಷಣಗಳು	-10.3105
▁Please	-10.3107
▁lower	-10.3107
ven	-10.3107
▁deaths	-10.3108
▁ಗುರು	-10.311
▁l	-10.311
▁ದೊರಕ	-10.3113
▁ಅಲ್ಲಿನ	-10.3115
50	-10.312
one	-10.3121
▁ಹಚ್ಚ	-10.3124
ಿಂಗ್	-10.3124
▁ದಾಖಲಿಸಿ	-10.3125
ವ್ಯ	-10.3126
▁developed	-10.3127
▁Cha	-10.3132
ari	-10.3133
▁Telangana	-10.3135
▁ಅಡುಗೆ	-10.3135
▁ಅಲ್ಲಿಂದ	-10.3144
▁ಮಗುವಿನ	-10.3144
▁ಅಧಿಕಾರಕ್ಕೆ	-10.3147
▁ಸಮಸ್ಯೆಗಳನ್ನು	-10.3151
tion	-10.3152
▁ತಂಡಕ್ಕೆ	-10.3154
▁Governor	-10.3158
▁pass	-10.3163
ದಾರ	-10.3171
▁ಇಂದಿನ	-10.3176
▁commit	-10.3176
▁ಪಡೆ	-10.3178
▁ಆಲ್	-10.3179
▁ಕೀ	-10.3181
bo	-10.3186
▁ಸಂಖ್ಯೆಯಲ್ಲಿ	-10.3186
▁ಕಣ್ಣು	-10.3186
▁ಪೊ	-10.319
▁ನೇರವಾಗಿ	-10.3196
▁ಚಟುವಟಿಕೆ	-10.3197
▁Bachchan	-10.32
▁Jerusalem	-10.32
▁ಆಂತರಿಕ	-10.32
ಗೇ	-10.3201
ಲಿದ್ದು	-10.3205
ದಿಂದಾಗಿ	-10.3209
▁rear	-10.3209
▁ನೀ	-10.3211
▁ಸುರಕ್ಷಿತ	-10.3213
▁ban	-10.3214
▁ಬೇಗ	-10.3214
▁warm	-10.3221
▁ಕೊರೊನಾ	-10.3222
▁San	-10.3223
▁continues	-10.3225
▁ಮೊಹಮ್ಮದ್	-10.3233
ಯೆಂದು	-10.3237
▁effort	-10.3239
▁ತಂದೆಯ	-10.3242
▁ನೈಸರ್ಗಿಕ	-10.3244
▁ದಾಖಲಿಸ	-10.3248
▁ಹರಡ	-10.3249
▁3,	-10.3257
▁Ko	-10.3257
▁ಮನುಷ್ಯ	-10.3259
ಲೊ	-10.3261
▁ಕ್ರಿಕೆಟಿಗ	-10.3266
▁ಪಕ್ಷಗಳು	-10.3266
▁ಹಾಡು	-10.3273
▁ಸ್ವ	-10.328
▁ಅತೀ	-10.3281
▁ಅಧ್ಯಕ್ಷೆ	-10.3284
han	-10.3285
▁science	-10.3288
▁rally	-10.3288
▁ದಾಖಲಿಸಿಕೊಂಡು	-10.3289
ಗೊಳಿಸಲು	-10.3292
▁ವಿಧಿಸ	-10.3294
▁ಖರ್ಚು	-10.3295
▁ಇದುವರೆಗೆ	-10.3296
▁ಪು	-10.3306
▁movement	-10.3312
▁Vice	-10.3312
▁ನಾಯಕರ	-10.3313
▁ಪ್ರಿಯಾಂಕಾ	-10.3314
▁ಮಾಡಲಾಗುತ್ತದೆ	-10.3317
▁ಹುಡುಕ	-10.3319
▁ಮುಕ್ತ	-10.3321
ಫಾ	-10.3326
▁biggest	-10.3332
▁ceremony	-10.3332
▁verdict	-10.3332
▁2021	-10.3333
▁ನಿಲ್ಲಿಸ	-10.3338
▁American	-10.334
▁ಅನ್ನ	-10.3343
bi	-10.3345
ile	-10.3346
▁42	-10.3348
▁ಆಗುವುದಿಲ್ಲ	-10.3351
▁ಡಾಲರ್	-10.3356
▁ಯೋಜನೆಯ	-10.3364
▁soul	-10.3371
▁Bill	-10.3373
▁ಪ್ರದೇಶಗಳಲ್ಲಿ	-10.3373
▁foreign	-10.3374
ee	-10.3376
▁ಸೆಕ್ಷನ್	-10.3377
▁ಓವರ್	-10.3378
com	-10.338
pt	-10.3383
▁maintain	-10.3384
▁38	-10.3386
▁ಬೆಂಗಳೂರಿನ	-10.3391
▁recent	-10.3393
▁ಸೇರಿದ	-10.3395
▁Instagram	-10.3398
▁conference	-10.3398
til	-10.3409
▁ಹಂತದ	-10.341
▁ಸೇವಿಸ	-10.3411
ki	-10.3412
nagar	-10.3413
▁plea	-10.3418
▁buy	-10.342
▁Panchayat	-10.3421
▁vice	-10.3421
▁offers	-10.3422
▁wont	-10.3428
▁ತೆರೆಯ	-10.3432
▁ಅವರಿಂದ	-10.3441
▁ರಾಜ್ಯಗಳ	-10.3445
▁ನಗರದಲ್ಲಿ	-10.3445
▁someone	-10.3447
▁forest	-10.3448
▁protests	-10.3451
▁Pakistani	-10.3455
▁ಬೆಳೆಯ	-10.346
▁ಭಾರತವು	-10.3463
▁Public	-10.3465
▁happiness	-10.3465
▁ಐತಿಹಾಸಿಕ	-10.3465
▁ಬದಲಾಗ	-10.3467
▁ಅದೊಂದು	-10.3468
▁ನಿರಂತರ	-10.3469
▁ಮೇಲ	-10.3472
▁ತಾಂತ್ರಿಕ	-10.3474
▁fee	-10.3485
▁BCCI	-10.3487
▁Additional	-10.3488
▁ವಾಹನಗಳ	-10.3489
ಕೊಟ್ಟ	-10.3491
▁apostle	-10.3494
▁ದಾ	-10.3494
▁range	-10.3494
▁ರಾಜಕಾರಣ	-10.3495
▁ಆಗುತ್ತದೆ	-10.3497
ಿದ್ದೀರಿ	-10.3502
▁equal	-10.3502
▁ಗಾ	-10.3503
▁break	-10.3503
▁ಉದ್ಯಮ	-10.3503
ex	-10.3508
▁reality	-10.3513
▁honour	-10.3517
▁65	-10.3523
▁ಧ	-10.3527
▁vegetables	-10.3528
▁none	-10.3529
ಟನ್	-10.3537
▁request	-10.354
▁7.	-10.3543
▁grow	-10.3552
▁interesting	-10.3553
▁Association	-10.3555
▁afraid	-10.3555
▁ಮೂಲಭೂತ	-10.3556
▁ಮಹತ್ವ	-10.3557
iya	-10.3559
▁ಚಿಂತನೆ	-10.3562
▁ಆಶ್ಚರ್ಯ	-10.3562
▁ಮಾಡುತ್ತಿದೆ	-10.3569
▁ಖ	-10.357
ಬಿಡ	-10.3572
▁loving	-10.3578
▁ಉಭಯ	-10.3578
▁ನಾಟಕ	-10.3578
▁fellow	-10.3578
▁conduct	-10.3579
▁Kejriwal	-10.3581
▁ಇರಲಿ	-10.3586
▁ಆರಂಭದಲ್ಲಿ	-10.3591
▁ಗುಂಪು	-10.3598
▁ಬೆಳ್ಳಿ	-10.3605
▁ಇತರರು	-10.3606
ಯಾಗುವ	-10.3609
▁Pan	-10.3613
▁Nagar	-10.3614
ರಾಗಿರುವ	-10.3614
▁ನ್ಯೂ	-10.3616
▁ಆಗಿ	-10.362
▁ಸ್ಥಿರ	-10.3621
▁ದೆಹಲಿಯಲ್ಲಿ	-10.3624
▁actually	-10.3625
▁addition	-10.3626
▁ಒಬ್ಬರು	-10.3627
▁Se	-10.3639
▁Ne	-10.3642
ler	-10.3642
▁ಪೈಪೋಟಿ	-10.3646
▁ತುರ್ತು	-10.3646
▁ಅಂಶಗಳು	-10.3647
▁ಮೊತ್ತ	-10.3648
▁ಡಿಕ್ಕಿ	-10.3649
▁ಹೇರ	-10.365
▁confirmed	-10.365
▁ಪವಿತ್ರ	-10.3652
▁ಶ್ರಮ	-10.3652
▁Sam	-10.3653
▁meetings	-10.3654
▁servants	-10.3655
▁etc	-10.3658
▁Di	-10.3662
▁ಶ್ರೀಲಂಕಾ	-10.3665
ಯಿದೆ	-10.3666
▁ಪ್ರತಿಕ್ರಿಯಿಸ	-10.3669
▁Ashok	-10.3669
▁ಹೆಚ್ಚಾಗ	-10.3674
▁ವಹಿಸಿದ್ದರು	-10.3676
▁respond	-10.3678
▁bear	-10.3679
▁fourth	-10.3682
ಬಲ್	-10.3684
▁ದೇಹದ	-10.3686
▁ಇಲ್ಲಿವೆ	-10.3686
▁Sachin	-10.3692
▁proud	-10.3693
▁ಯಶಸ್ಸು	-10.3694
tro	-10.3694
ರಾಜ್	-10.3694
▁ಹೆಂಡತಿ	-10.3697
▁ಸಮಸ್ಯೆಗಳು	-10.3699
▁Mar	-10.3715
▁Time	-10.3718
▁Co	-10.3718
ಂತೆಯೇ	-10.3721
▁songs	-10.3722
▁jobs	-10.3722
▁humans	-10.3723
▁April	-10.3723
▁ಒಳ್ಳೇ	-10.3732
▁phase	-10.3738
▁ವಾರ್ಷಿಕ	-10.3738
▁ಜಪಾನ್	-10.3738
▁ಎನ್ನುತ್ತಾರೆ	-10.3742
▁pan	-10.3746
▁onion	-10.3757
▁thus	-10.3761
▁awards	-10.3762
▁ಅಲ್	-10.3763
▁users	-10.3768
▁ಒಪ್ಪಿಗೆ	-10.3769
▁trees	-10.3771
ಲೇಬೇಕು	-10.3773
▁rape	-10.3776
▁programmes	-10.3778
ash	-10.3781
▁ನನಗ	-10.3782
▁games	-10.3784
▁ತಮಿಳುನಾಡು	-10.3784
▁Rajnath	-10.3785
▁ದಿನಕ್ಕೆ	-10.3788
ಂಜ	-10.3789
▁spoken	-10.379
▁normal	-10.3802
fe	-10.3802
our	-10.3802
▁ನೂರಾರು	-10.3807
for	-10.3807
▁ವಿಭಾಗದಲ್ಲಿ	-10.3808
▁ಪಂ	-10.3808
▁loan	-10.3809
▁events	-10.3809
▁shifted	-10.3813
▁News	-10.3815
▁disciples	-10.3816
▁handed	-10.3817
▁ತಡೆ	-10.3819
▁ರೋ	-10.3819
▁ಹೊಣೆ	-10.382
▁ಪ್ರಾರ್ಥಿಸ	-10.382
ara	-10.3822
▁ಇಲ್ಲವೇ	-10.3825
ದಲ್ಲ	-10.3826
▁coach	-10.3828
▁ವಿಷಯಗಳ	-10.3828
ಿದ್ದರಿಂದ	-10.383
▁mentioned	-10.3838
▁ನೆಲೆ	-10.3842
▁ಇದ	-10.3843
▁ಜನರಲ್	-10.3843
▁ಬಿಳಿ	-10.3846
▁screen	-10.3854
▁Food	-10.3854
ವೀ	-10.3862
▁Up	-10.3865
az	-10.3867
ದ್ದರು	-10.3871
▁ಮಿತಿ	-10.3872
▁ಬಂಡವಾಳ	-10.3877
▁ಸಮೀಕ್ಷೆ	-10.3877
▁Power	-10.3877
▁photo	-10.3878
▁smartphone	-10.3878
ಪೆ	-10.3886
▁ಬೋ	-10.3893
▁ರಂಗ	-10.3895
▁Defence	-10.39
▁Watch	-10.3901
▁ಹೇಳುವುದು	-10.3903
▁ಖಾಲಿ	-10.3905
▁Lo	-10.3905
▁SP	-10.3907
▁ಕೋಪ	-10.3908
▁defeat	-10.3908
▁ನಿರಾಕರಿಸ	-10.391
▁Th	-10.3912
▁ವಿವರಿಸ	-10.3915
▁64	-10.3915
▁ಏರ	-10.3918
▁ಮನಸ್ಸು	-10.392
▁perfect	-10.3922
▁Y	-10.3923
hal	-10.3925
▁ಅನು	-10.3927
der	-10.3929
▁degree	-10.3933
▁ಜಾಲತಾಣದಲ್ಲಿ	-10.3935
ize	-10.3938
ೆಂದು	-10.3939
▁ಟಿವಿ	-10.3941
▁ಖರೀದಿ	-10.3947
▁ಕಾರಣವಾಗಿದೆ	-10.3947
▁inquiry	-10.3947
▁ಗೂಗಲ್	-10.3947
▁hurt	-10.3947
▁Patil	-10.3948
▁ICC	-10.395
▁aware	-10.395
▁ಬದುಕು	-10.3953
▁ಕುರಿತಂತೆ	-10.3954
▁ಘಟಕ	-10.3963
▁ಸಮಯದ	-10.3965
▁talks	-10.3965
▁ಅಂಗಡಿ	-10.3966
▁ಮಾತ	-10.3966
ಲೈ	-10.3969
▁ಸಮುದ್ರ	-10.397
▁Ro	-10.3974
▁incidents	-10.398
▁Asia	-10.3983
▁ಸಂಜೆ	-10.3983
▁presented	-10.3985
▁animals	-10.3987
▁looked	-10.3987
▁ಬಂದರು	-10.3988
ಷಾ	-10.3988
▁ಪ್ರೀತಿಯ	-10.3989
▁ಕರ್ನಾಟಕದಲ್ಲಿ	-10.3991
▁closed	-10.3991
▁Prakash	-10.3994
▁bodies	-10.3994
▁ಸಮಾವೇಶ	-10.3994
▁ರಾಜೀವ್	-10.3995
▁ಉಳಿಯ	-10.3995
▁ಅರುಣ್	-10.3995
▁shows	-10.4001
▁host	-10.4003
▁ನಿರ್ಬಂಧ	-10.4006
ries	-10.4013
▁ಮುಂಚೆ	-10.4014
▁ಪ್ರಕಾಶ್	-10.4017
▁ಪದ್ಧತಿ	-10.4018
▁Dinesh	-10.4018
▁ಅಪಾಯಕಾರಿ	-10.4019
▁spent	-10.402
ೊಂದ	-10.4021
▁ತಕ್ಕ	-10.4025
ವಿರುವ	-10.4028
▁score	-10.4031
▁0	-10.4032
ide	-10.4034
▁box	-10.4035
▁ಪಡೆಯುವ	-10.4036
▁ಈತನ	-10.4036
▁ಬೆಳೆಸ	-10.4037
▁stage	-10.4037
▁charges	-10.4044
ಗಳನ್ನ	-10.4046
ns	-10.4048
▁discuss	-10.405
40	-10.4052
▁review	-10.4053
▁file	-10.4059
ble	-10.406
ಯನ್ನ	-10.4061
▁Yeddyurappa	-10.4065
▁ಹಿಂಸಾಚಾರ	-10.4065
▁website	-10.4065
▁ಕೋಚ್	-10.4067
ಲ್ಪಡುವ	-10.407
▁bail	-10.4071
▁ಪಡೆದರು	-10.4071
▁prayer	-10.4073
▁ಮುಟ್ಟ	-10.4075
▁ಶಾಸಕರ	-10.4081
ಯನ್	-10.4082
▁ಆರೋಪಿಯನ್ನು	-10.4082
▁heaven	-10.4085
▁ಟ್ವಿಟರ್	-10.4089
▁temperature	-10.4089
▁ಪ್ರಯೋಗ	-10.409
▁appeal	-10.4097
ದೋ	-10.4099
▁ವರೆಗೂ	-10.4107
▁door	-10.4108
▁800	-10.4111
▁ನಿಲ್ಲ	-10.4114
ಿರುವುದರಿಂದ	-10.4115
▁ಕಂಪನಿಯ	-10.4116
▁resignation	-10.4117
▁names	-10.4117
ಯಾಗಲಿದೆ	-10.4123
ಾರ್ಥ	-10.4126
▁ಹೊಂದಿದ್ದಾರೆ	-10.413
ಪಡಿಸ	-10.4132
ಪರ್	-10.4132
▁touch	-10.4136
▁ಆದುದರಿಂದ	-10.4136
▁Android	-10.4137
▁Use	-10.4143
ಳ್ಳಿ	-10.4152
▁Janat	-10.4154
▁develop	-10.4155
▁ರಾಜಸ್ಥಾನ	-10.4155
ow	-10.4157
▁ಭಾವಿಸ	-10.4163
ವಿತ್ತು	-10.4165
▁ಸರ್ಕಾರವು	-10.4166
▁ಖಚಿತ	-10.4166
▁ಸಮಾಧಾನ	-10.4166
ುತ್ತಿರುವುದು	-10.4176
ಟೊ	-10.4178
ುತ್ತಿರ	-10.4178
▁ನವ	-10.4181
▁wise	-10.4181
▁army	-10.4187
mm	-10.4192
ಾಗಲಿ	-10.4192
▁ಯಶಸ್ವಿ	-10.4194
▁8.	-10.4198
▁ರೈತ	-10.4199
ush	-10.4199
ುವಂತಿಲ್ಲ	-10.4204
ಡರ್	-10.4205
ದವರು	-10.4205
▁Corporation	-10.4209
▁League	-10.4209
▁ಅಪ್ಲಿಕೇಶನ್	-10.4209
▁ಬಹುಶಃ	-10.4209
▁chairman	-10.4209
▁throughout	-10.4213
▁practice	-10.4213
▁ನಾನೂ	-10.4215
▁ಸಿದ್ದ	-10.4218
▁Anil	-10.4219
ಯಾಗುತ್ತದೆ	-10.4228
▁ಒಳಗೆ	-10.423
ೋದು	-10.423
▁ಹೂ	-10.423
▁ಸತ್ತ	-10.423
ಿಸಬೇಕು	-10.4232
▁CCTV	-10.4233
▁Research	-10.4233
▁management	-10.4234
▁ಗಮನಿಸ	-10.4235
▁allegations	-10.4237
od	-10.4243
▁ago	-10.4244
ಯಾಗಿಲ್ಲ	-10.4244
▁ordered	-10.4245
ಬೇಕಿತ್ತು	-10.4246
▁room	-10.4253
▁Honda	-10.4258
▁ಕೆಲವೊಂದು	-10.4258
▁ಸುರೇಶ್	-10.4258
▁ಬಿಐ	-10.4259
▁ದೇಶಕ್ಕೆ	-10.4263
▁ಹಸಿರು	-10.4265
ಂಪ	-10.4268
▁ಮಂದಿರ	-10.4272
BJP	-10.4273
▁Gr	-10.4279
▁ಟಾರ್ಕ್	-10.4282
▁ಬ್ಯಾಟ್ಸ್	-10.4285
ಚರ್	-10.4286
▁implemented	-10.4291
▁decisions	-10.4292
▁ಮೃತಪಟ್ಟ	-10.4299
▁ಕೆಲಸದ	-10.4299
▁ma	-10.4302
▁rural	-10.4306
▁ಕೇಜ್ರಿವಾಲ್	-10.4306
▁ಎಲೆಕ್ಟ್ರಿಕ್	-10.4306
▁ಆಯಿತು	-10.4306
▁hearing	-10.431
▁ತಂಡವನ್ನು	-10.431
▁border	-10.4311
▁wish	-10.4313
ದಲ್ಲಿದ್ದ	-10.4315
▁ವಾಯು	-10.4316
▁north	-10.4316
▁ಪ್ಯಾ	-10.4319
▁ಪಟ್ಟ	-10.432
▁plans	-10.432
gn	-10.4325
qu	-10.4329
pal	-10.433
▁proposal	-10.433
▁ಬೆದರಿಕೆ	-10.433
▁Auto	-10.4331
▁ಶೀಘ್ರದಲ್ಲೇ	-10.4331
ಟ್ಟಿ	-10.4333
▁groups	-10.4336
▁individual	-10.4336
▁toward	-10.4338
ವುಳ್ಳ	-10.4338
▁ಕೈಗೊಂಡ	-10.4343
▁i	-10.4347
▁ಸೇವಾ	-10.4352
▁coalition	-10.4355
▁dangerous	-10.4355
▁ಆಗ್ರಹಿಸಿದರು	-10.4355
▁ಸಂಜಯ್	-10.4356
▁ವಾಪಸ್	-10.4357
ika	-10.4368
▁deep	-10.4375
▁ಬಚ್ಚನ್	-10.4379
ತ್ರ	-10.4383
▁competition	-10.4385
▁ಪ್ರಶ್ನಿಸ	-10.4392
iah	-10.4397
ಕೊಳ್ಳುವ	-10.4404
▁ನೃತ್ಯ	-10.4404
▁Besides	-10.4404
▁scene	-10.4404
▁ಹವಾಮಾನ	-10.4404
▁Suresh	-10.4404
▁subject	-10.441
▁Did	-10.4412
▁ಜಂಟಿ	-10.4413
▁eye	-10.4413
▁ಹೇಗ	-10.4415
▁ನಾವೇ	-10.4419
ದೂ	-10.442
▁ಬಣ್ಣದ	-10.4421
speed	-10.4421
▁ಹಿನ್ನೆಲೆ	-10.4422
▁ಸೃಷ್ಟಿಸ	-10.4424
▁interview	-10.4429
▁survived	-10.4433
ಿಯಾ	-10.4437
▁ಹೊಡೆದ	-10.4438
ದ್ದಾಗ	-10.4442
ದಲ್ಲಿದೆ	-10.4445
▁laws	-10.4445
ಚ್ಛ	-10.445
▁growing	-10.4452
▁counsel	-10.4453
▁Japan	-10.4453
▁Chopra	-10.4454
▁numbers	-10.4457
▁ನಡೆಸುವ	-10.446
ಂುು	-10.4461
ಂದರೆ	-10.4463
▁ಇಂಟರ್	-10.4466
▁electric	-10.4466
ake	-10.4467
▁opened	-10.4467
▁ಹಿಡಿದ	-10.4471
▁ಸಿಟಿ	-10.4473
▁dry	-10.448
ರೊಂದಿಗೆ	-10.4481
▁ಪ್ರೀತಿಸ	-10.4481
▁invited	-10.4481
▁ಉದ್ದ	-10.4482
▁matters	-10.4485
▁ಯಾರಿಗೆ	-10.4487
▁ವಲಯ	-10.4489
▁ರಸ	-10.4495
ಮಾಡುವ	-10.4496
ಿಂದಲೇ	-10.4497
-2	-10.45
▁Che	-10.4503
▁storage	-10.4503
▁ವೆಬ್	-10.4505
▁Bar	-10.4506
▁ಜಾಲ	-10.4507
▁Tax	-10.4507
▁ಮಾದರಿಯ	-10.4508
▁ಕ್ರಮವಾಗಿ	-10.4509
▁Work	-10.4511
▁ಹೊತ್ತು	-10.4512
▁ಮಗನಾದ	-10.4512
▁ಹುದ್ದೆ	-10.4515
▁ಪಾವತಿಸ	-10.4516
▁actors	-10.4519
▁ended	-10.4519
▁comment	-10.452
▁ಸರ್	-10.4527
▁London	-10.4528
▁ಲೋಡ್	-10.453
▁ನೀಡಲಾಗುತ್ತಿದೆ	-10.4532
▁Va	-10.4533
▁ಭಾವ	-10.4534
▁colours	-10.4536
▁ದಿನೇಶ್	-10.4542
▁ಆಧ್ಯಾತ್ಮಿಕ	-10.4543
▁ಮಾಂಸ	-10.4543
▁ಆಳ	-10.4546
▁ಮನುಷ್ಯನ	-10.455
▁ಹೆಚ್	-10.4551
▁ಕುತೂಹಲ	-10.4552
▁reply	-10.4553
▁acted	-10.4554
▁south	-10.4554
▁performed	-10.4563
▁ಗಿ	-10.4564
▁ಮುಂತಾದ	-10.4567
▁44	-10.4567
▁ಹೇಳಲು	-10.4569
ಹೆ	-10.4569
tan	-10.4571
▁po	-10.4572
▁ಬೀರ	-10.4574
▁innings	-10.4579
▁ಯೆಹೋವನಿಗೆ	-10.4579
▁ಖಂಡಿತ	-10.458
▁career	-10.458
▁ಪತ್ರಿಕೆ	-10.4584
▁pray	-10.4585
▁ಪ್ರೇಮ	-10.459
▁ಹೊಂದಿದ್ದು	-10.4592
▁goal	-10.4593
ತ್ತಿ	-10.4594
▁ಕಾಣಿಸ	-10.4596
▁ತೆರೆ	-10.4597
▁eight	-10.4602
▁ಒಟ್ಟಿಗೆ	-10.4604
▁ನಟಿಸಿದ್ದಾರೆ	-10.4605
▁corruption	-10.4608
▁ತಿಳಿಸಿವೆ	-10.4609
▁ಸಂಸ್ಥೆಗಳು	-10.4624
king	-10.4625
▁terror	-10.4626
▁ಪ್ರಶ್ನೆಗಳು	-10.4633
▁ಏನನ್ನು	-10.4637
▁ಕಣ	-10.4638
▁MS	-10.4643
▁55	-10.4649
ವಾರ	-10.465
▁ಅಭಿಮಾನಿಗಳು	-10.4653
▁ಕಿರುಕುಳ	-10.4653
▁returned	-10.4655
▁ಗಾಳಿ	-10.4657
▁ವಾಸ್ತವವಾಗಿ	-10.4657
▁ಮಾಡಿತ್ತು	-10.4658
▁ವೃತ್ತಿ	-10.4663
▁gain	-10.4663
ava	-10.4665
▁Today	-10.4667
▁ಆರೋಗ್ಯಕರ	-10.4668
ರನ್	-10.4668
▁ಹೇಳುತ್ತದೆ	-10.4674
tur	-10.4678
▁Security	-10.4678
▁ancient	-10.4678
▁ಆಧುನಿಕ	-10.4678
▁Mahindra	-10.4678
▁Click	-10.4678
ಪೋ	-10.4682
ಯಾಗಿದ್ದಾರೆ	-10.4686
▁ವೆ	-10.4688
ನೀವು	-10.4689
▁ಬಿಹಾರ	-10.469
ಿಟ್ಟ	-10.4691
▁ಸಾಯ	-10.4694
▁ಧೈರ್ಯ	-10.4698
▁ತೆಗೆದುಕೊಂಡು	-10.47
▁journey	-10.4704
▁denied	-10.4704
▁path	-10.4705
▁arrived	-10.4706
▁seeking	-10.4706
ಲರ್	-10.4708
▁ಹಾಗ	-10.4708
▁ಸುಖ	-10.4709
▁ಬೆಂಗಳೂರಿನಲ್ಲಿ	-10.4713
▁ದಾಖಲಿಸಿದ್ದಾರೆ	-10.4713
▁centre	-10.4714
ನಿಯ	-10.4714
▁ವಿಭಾಗದ	-10.4715
ib	-10.4715
▁ಆವೃತ್ತಿ	-10.4715
▁ಜಿಲ್ಲೆ	-10.472
ಿದ್ದನು	-10.4721
▁ವರ್ಗಾವಣೆ	-10.4729
▁ಡಿಗ್ರಿ	-10.473
qui	-10.4731
▁ಹೊಂದಿವೆ	-10.4734
ಶನ್	-10.4738
▁carry	-10.4738
▁stress	-10.4739
ಘ	-10.4739
▁ಸಂಭವಿಸಿದೆ	-10.4742
▁fully	-10.4745
▁--	-10.4747
▁ಇರುವುದು	-10.4749
▁bill	-10.4753
▁Family	-10.4754
▁status	-10.4754
▁modern	-10.4755
▁duty	-10.4755
▁bench	-10.4762
▁ಬಗೆಯ	-10.4763
▁investment	-10.4765
▁ಪಾಲಿಸ	-10.4768
▁ಅನೇಕರು	-10.4768
▁ಶತಕ	-10.4768
▁ಚಿತ್ರಗಳು	-10.4768
▁ಬಿಡುಗಡೆಗೊಳಿಸ	-10.4773
ಾದ್ಯಂತ	-10.4773
▁ಜೈ	-10.4774
▁mental	-10.4774
▁additional	-10.4777
▁speaking	-10.4778
▁via	-10.4778
▁ಮೆಚ್ಚುಗೆ	-10.478
▁begun	-10.478
▁airport	-10.478
▁approved	-10.4781
▁ಸ್ಥಳದಲ್ಲೇ	-10.4782
ಾಗಿರುವ	-10.4789
▁ಅನಿಲ್	-10.479
▁ODI	-10.479
ಗೊ	-10.4791
▁conditions	-10.4794
▁ಸಮಸ್ಯೆಯನ್ನು	-10.4794
▁ಹಾಗೇ	-10.4801
▁careful	-10.4801
▁ಸಂವಾದ	-10.4804
▁hasnt	-10.4806
▁ರಾಜಧಾನಿ	-10.4806
▁Chinese	-10.4806
▁ಕಾಲದಲ್ಲಿ	-10.4813
▁judge	-10.4816
▁ವೇಗವಾಗಿ	-10.4817
▁ಪ್ರಾರಂಭಿಸ	-10.4817
▁ಇದರೊಂದಿಗೆ	-10.4821
▁ಬಿಡಿ	-10.4827
ಕ್ರಮ	-10.4829
▁ಉಸ್ತುವಾರಿ	-10.4831
▁ಚಲಾಯಿಸ	-10.4831
▁birthday	-10.4832
▁Ive	-10.4832
▁bar	-10.4834
▁ಜನತೆ	-10.4836
▁ಬಂಧಿಸ	-10.4837
▁ಆಗುವ	-10.4837
▁ತೆಗೆದು	-10.4839
▁write	-10.484
ುವದಿಲ್ಲ	-10.484
▁units	-10.4841
ವಾದಿ	-10.4843
▁Kings	-10.4843
▁ಸಂಘ	-10.4844
ದಿದ್ದರೆ	-10.4844
▁ಪೂಜೆ	-10.4845
▁ಅವಧಿ	-10.4849
ever	-10.4849
▁bit	-10.485
▁ದೈಹಿಕ	-10.4851
▁ಪರ್	-10.4853
▁ಆಗಿದ್ದಾರೆ	-10.4854
▁ourselves	-10.4857
▁version	-10.4857
▁Dhawan	-10.4857
▁ಸ್ಥಾನದಲ್ಲಿ	-10.4859
ಾಗಿತ್ತು	-10.4862
ಮರ್	-10.4867
▁Da	-10.4869
ಲಿನ	-10.4873
▁ವೆಸ್ಟ್	-10.4875
▁ಆಧಾರದ	-10.4879
ali	-10.4881
▁ಮೀಟರ್	-10.4882
▁ಲಂಡನ್	-10.4883
▁Drink	-10.4883
▁beginning	-10.4883
▁ಜಾಮೀನು	-10.4884
▁ಪೌರತ್ವ	-10.4884
▁ಪಾಟೀಲ್	-10.4889
▁ವರ್ಗ	-10.4893
▁350	-10.4897
▁ಭಾಗದಲ್ಲಿ	-10.4897
ship	-10.4902
ph	-10.4909
▁ಜಗತ್ತಿನ	-10.4912
ಾಧಿಕಾರಿ	-10.492
cy	-10.4921
▁ಗಂಡ	-10.4924
▁ಶಾಲೆಯ	-10.4925
▁ಕೇಂದ್ರದ	-10.4927
ute	-10.4929
ಬೇಕೆಂಬ	-10.4931
▁ಸಕ್ರಿಯ	-10.4933
▁maximum	-10.4934
▁ಶ್ರೀಮಂತ	-10.4935
▁Out	-10.4936
▁ಅರ್ಧ	-10.4936
mohan	-10.4937
▁ಮಾತಿನ	-10.4938
▁itself	-10.494
ned	-10.494
ik	-10.494
▁ಬಾಯಿ	-10.4942
▁ಸಮಾರಂಭದಲ್ಲಿ	-10.4942
▁ಅರ್ಪಿಸ	-10.4943
▁fun	-10.4953
▁brand	-10.4954
▁Ministers	-10.4954
▁critical	-10.4954
▁attempt	-10.4957
▁12:	-10.4957
ಾಂಶ	-10.4958
▁effects	-10.4959
▁basic	-10.496
▁ಆಧಾರ	-10.496
ner	-10.4969
ಿರುತ್ತಾರೆ	-10.4972
▁ಗೆಲುವಿನ	-10.4973
▁Ad	-10.4979
▁cars	-10.4979
ping	-10.4981
ಭಾವ	-10.4985
ಸಾಧ್ಯವಿದೆ	-10.4985
▁ಟಾಪ್	-10.4987
▁1.5	-10.4988
▁player	-10.4988
▁concern	-10.4988
▁cricketer	-10.4989
▁ಪೂರೈಕೆ	-10.499
▁published	-10.4991
▁ಅಂತಾ	-10.4992
ju	-10.4996
▁ಹೋಗಲು	-10.4996
ರಾದರು	-10.4998
▁lockdown	-10.5013
▁ಗುಣಮಟ್ಟ	-10.5013
▁ಕಾಶ್ಮೀರದ	-10.5015
ಸುವ	-10.5015
iv	-10.5019
▁Bi	-10.5022
▁ಪೂರೈಸ	-10.5024
▁ಸನ್ನಿವೇಶ	-10.5025
▁ನಾನ	-10.5026
▁medal	-10.5028
▁ಸೂ	-10.503
▁customers	-10.5035
▁Under	-10.5039
▁running	-10.5039
▁girls	-10.504
▁deliver	-10.5044
▁ಫಿ	-10.5046
▁ಮಾಡಬಾರದು	-10.5047
▁ಆಗಿದ್ದು	-10.5056
vo	-10.5057
▁significant	-10.5062
▁Jo	-10.5065
▁occurred	-10.5065
▁ಏನಿದು	-10.5065
80	-10.5067
▁suspended	-10.5067
▁ಪಕ್ಷಗಳ	-10.507
▁ದೇವರಾದ	-10.507
▁ನ್ಯಾಯಾಲಯದ	-10.5071
ಗಳೆಂದರೆ	-10.5071
over	-10.5073
There	-10.5076
▁mix	-10.5076
▁ಟಾಸ್	-10.5077
▁material	-10.508
▁ಅಳ	-10.508
▁ಗೌಡ	-10.5086
ಬಿಟ್ಟ	-10.5087
▁ಬಹುಮತ	-10.5092
ಚಿತ್ರ	-10.5094
▁bat	-10.5094
▁ಬದಲಿಗೆ	-10.5094
▁waiting	-10.5095
▁ಇತ್ತ	-10.5101
19	-10.5102
▁allegedly	-10.5104
ಕೊಳ್ಳಿ	-10.5105
▁ಬ್ಯಾ	-10.511
ಭಾರತ	-10.5111
▁ಲೇ	-10.5112
▁levels	-10.5114
ಂಟು	-10.5118
▁ಟೀಮ್	-10.512
▁ಶಿವಸೇನೆ	-10.5127
▁accounts	-10.5132
▁ಸೂಕ್ಷ್ಮ	-10.5133
ದ್ರ	-10.5134
▁damage	-10.5135
▁ಇಷ್ಟು	-10.5137
▁ಭ್ರಷ್ಟಾಚಾರ	-10.514
▁ಎಡ	-10.5143
▁ಲಿಮಿಟೆಡ್	-10.5144
▁importance	-10.5145
▁ವಿದೇಶಿ	-10.5146
▁America	-10.5147
ging	-10.5152
▁ಸುರಕ್ಷತೆ	-10.5156
▁ಸಿಕ್ಕಿದೆ	-10.5157
▁title	-10.5161
▁ಬರ್	-10.5163
▁ವಿಸ್ತರಿಸ	-10.5166
▁Post	-10.5169
▁famous	-10.5171
▁female	-10.5171
▁ದೌರ್ಜನ್ಯ	-10.5171
▁ಮುಂಬರುವ	-10.5171
▁internal	-10.5171
▁ಮಿಂಚ	-10.5172
▁ಅಧಿವೇಶನ	-10.5173
▁ಇತ್ತೀಚಿನ	-10.5174
▁strengthen	-10.5174
▁ಬಂಗಾಳ	-10.5174
end	-10.5175
▁sold	-10.5176
▁ನ್ಯಾಷನಲ್	-10.5178
▁Mohan	-10.5179
▁answered	-10.5181
▁39	-10.5183
▁table	-10.5184
▁railway	-10.5185
▁thousand	-10.5185
ಂದೇ	-10.5188
▁firm	-10.5191
▁secret	-10.5196
ಮೆಂಟ್	-10.5198
ಹು	-10.5202
▁inter	-10.5202
▁Anand	-10.521
▁ತಿರಸ್ಕರಿಸ	-10.5211
▁image	-10.5212
▁ಪ್ರದರ್ಶಿಸ	-10.5214
▁bike	-10.5219
▁ಹಾಲಿ	-10.5219
mon	-10.522
ಯಲ್ಲೂ	-10.522
▁ಹಂಚಿಕೊಳ್ಳ	-10.5224
▁British	-10.5224
▁ಯೋಚನೆ	-10.5224
▁ತೆರೆದ	-10.5225
▁Rajiv	-10.5225
▁fled	-10.5226
▁leadership	-10.5226
ಟಿಂಗ್	-10.5228
▁ಯಾ	-10.5232
gr	-10.5232
ರಲ್ಲಿರುವ	-10.5233
▁ಫೆ	-10.5237
▁thee	-10.5238
▁Science	-10.5239
▁type	-10.5239
▁Ch	-10.5241
▁ಇವುಗಳ	-10.5242
▁Sports	-10.5248
▁ಪ್ರಿಯ	-10.5249
▁ನಿರ್ದೇಶಿಸ	-10.5249
▁Group	-10.5251
▁Rural	-10.5251
▁residents	-10.5253
▁ನೀವೇ	-10.5253
▁ಡೇ	-10.5257
▁ಪ್ರವೇಶಿಸ	-10.5258
▁anger	-10.5259
▁Thousands	-10.526
son	-10.526
▁ವ್ಯಾಪ್ತಿಯಲ್ಲಿ	-10.5261
▁n	-10.5265
ತೆಗೆ	-10.5266
▁tree	-10.5266
▁ಆಪ್ತ	-10.5266
▁round	-10.5269
▁ಅಲೆ	-10.5271
ala	-10.5272
▁ವೇದಿಕೆ	-10.5272
▁ಅಭ್ಯರ್ಥಿಗಳ	-10.5273
▁WhatsApp	-10.5277
▁ಆಶೀರ್ವಾದ	-10.5277
▁Were	-10.5278
▁Russia	-10.5279
que	-10.5281
▁becoming	-10.5285
▁preaching	-10.5289
▁missing	-10.5289
▁GB	-10.529
▁havent	-10.5293
▁9.	-10.5294
▁ಮೋಸ	-10.5299
ಿದ್ದಳು	-10.5299
ative	-10.5302
▁Heavy	-10.5304
▁ತಮಗೆ	-10.5305
ಭಾಗ	-10.5308
if	-10.5312
▁author	-10.5313
▁hours	-10.5314
▁ಭಾಗವಹಿಸ	-10.5315
▁alert	-10.5316
▁Pune	-10.5325
▁ತಿಳಿದುಬಂದಿದೆ	-10.5331
▁Donald	-10.5331
kumar	-10.5333
ಲ್ಡ್	-10.5341
ನಾಗ	-10.5342
▁ವಾಸ	-10.5342
▁ಅಸಾಧ್ಯ	-10.535
▁ಆ್ಯ	-10.5354
▁squad	-10.5358
mer	-10.536
▁ಬಾಂಗ್ಲಾದೇಶ	-10.5363
▁target	-10.537
▁Fa	-10.537
ತರ	-10.5371
▁immediate	-10.5378
▁learning	-10.5382
▁ಘಟನೆಗಳು	-10.5382
▁Hyundai	-10.5385
▁ಆಂಡ್ರಾಯ್ಡ್	-10.5385
▁Step	-10.5386
▁ಹೋಂಡಾ	-10.5386
▁ದೇಶಾದ್ಯಂತ	-10.5387
▁diseases	-10.5391
▁ಟೀ	-10.5392
wan	-10.5395
▁Look	-10.5398
▁ಸಮಗ್ರ	-10.54
▁ದೇವೇಗೌಡ	-10.5403
▁ಸಮಯವನ್ನು	-10.5405
▁ದೇವರನ್ನು	-10.5406
▁Technology	-10.5413
▁worried	-10.5413
▁ವಿಟಮಿನ್	-10.5413
gar	-10.5413
▁ಬೆಂಬಲಿಸ	-10.5414
▁ಕರೆಯಲಾಗುತ್ತದೆ	-10.5414
▁ಪಡಿಸ	-10.5415
▁ಗುಂಡಿನ	-10.5417
▁ಮಾಡಲಾಗಿತ್ತು	-10.5421
▁ಮತ್ತೊಬ್ಬ	-10.5424
▁ಬರಲಿದೆ	-10.5424
▁villages	-10.5424
▁ಪಕ್ಷಕ್ಕೆ	-10.5429
▁ಆಗಿದ್ದ	-10.5437
India	-10.5437
tin	-10.5438
▁military	-10.544
▁ಕೊಠಡಿ	-10.544
▁ಬ್ಯಾಟರಿ	-10.544
▁Music	-10.544
▁ಲೀಗ್	-10.5441
But	-10.5445
ಯುಳ್ಳ	-10.5447
ವರೂ	-10.5448
unt	-10.5449
▁ಬಿದ್ದು	-10.545
▁ಹಾಲು	-10.5456
▁ಗಾಯಗೊಂಡ	-10.5459
▁ಯೋಗಿ	-10.5463
▁skipper	-10.5467
▁ಅಂತರರಾಷ್ಟ್ರೀಯ	-10.5467
▁ಧವನ್	-10.5467
▁sought	-10.5467
▁fruits	-10.5468
▁ಒಳಗೊಂಡ	-10.5468
▁attitude	-10.5469
▁teacher	-10.5469
▁ತಾನೇ	-10.5472
val	-10.5474
▁ಗಾತ್ರ	-10.5474
▁ನ್ಯೂಜಿಲೆಂಡ್	-10.5475
▁ಕೈಗೊಳ್ಳಬೇಕು	-10.5477
▁selected	-10.5478
▁ತಕ್ಷಣವೇ	-10.5478
▁ಅಭಿವೃದ್ಧಿಗೆ	-10.5482
▁ಅಪೊಸ್ತಲ	-10.5485
▁sign	-10.5491
▁opinion	-10.5495
▁ಸಂಪನ್ಮೂಲ	-10.5495
▁Ju	-10.5495
▁KL	-10.5499
▁command	-10.5501
▁rates	-10.5503
▁ತೆಲಂಗಾಣ	-10.5504
▁Ho	-10.5507
▁ಕ್ರಿಸ್	-10.5508
▁ಬರೆದಿದ್ದಾರೆ	-10.551
ಕ್ಸಿ	-10.5511
▁trouble	-10.5512
▁welcome	-10.5512
▁ನಿಭಾಯಿಸ	-10.5514
15	-10.5515
ಯಾಗುತ್ತಿದೆ	-10.5515
ುತ	-10.552
▁ಸಲುವಾಗಿ	-10.5522
ಯಾಗಿದ್ದರು	-10.5523
ಕ್ಕಿಂತಲೂ	-10.5524
▁distributed	-10.5525
▁ಹೋರಾಡ	-10.5528
▁Dal	-10.5536
▁expect	-10.5539
▁ಅಧಿಕಾರಿಗಳಿಗೆ	-10.5545
▁easily	-10.555
▁ಜ್ಞಾನೋಕ್ತಿ	-10.555
▁ಶಬ್ದ	-10.555
▁doesn	-10.5552
ಿಗಳು	-10.5554
▁batsman	-10.5558
▁ಕೆರೆ	-10.5558
ರಿಗೂ	-10.5559
▁ಮಾಡಲಾಯಿತು	-10.5559
ುವಂತಹ	-10.5564
▁ಹೆಚ್ಚಾಗಿದೆ	-10.5566
ೆನು	-10.5569
▁ಮಧ್ಯಮ	-10.5575
▁ಪ್ರಾ	-10.5576
▁facility	-10.5577
▁wisdom	-10.5577
▁Ltd	-10.5577
▁evil	-10.5577
▁ಚರ್ಮ	-10.5579
▁ಅಭಿಮಾನಿಗಳ	-10.5586
ಸೀ	-10.5588
▁tourists	-10.5589
▁ಸ್ಪಷ್ಟಪಡಿಸ	-10.5595
▁ಮೂವರ	-10.5599
▁Royal	-10.5599
▁ಸಹಾಯಮಾಡ	-10.5599
ಗಳೇನು	-10.5599
▁East	-10.56
▁ಪ್ರಾಣಿ	-10.5602
▁...	-10.5603
▁transport	-10.5603
▁ನಿರ್	-10.5606
▁March	-10.5606
ುವನು	-10.5606
ec	-10.5607
▁ಸೀಮಿತ	-10.5607
▁Apart	-10.5608
▁ಮರಳಿ	-10.5609
▁ಆಮೇಲೆ	-10.561
▁ವಿಧ	-10.5617
▁destroyed	-10.5617
▁ಒಳ್ಳೆಯದು	-10.5618
▁ಭಾಷೆಯ	-10.5622
ising	-10.5623
▁Hindus	-10.5628
▁ನಿರ್ಮಾಪಕ	-10.5629
▁ಸಂಬಂಧಿಸಿ	-10.563
▁ನೋಟ	-10.5631
▁Padukone	-10.5633
▁Principal	-10.5633
▁detained	-10.5633
▁longer	-10.5635
▁Job	-10.5636
▁ಸನ್	-10.5636
▁caste	-10.5636
▁ಅರ್ಹ	-10.5637
▁kill	-10.5639
ಶಾಸ್ತ್ರ	-10.564
▁ಕೋರ	-10.5641
▁ರಂದು	-10.5642
▁forth	-10.5649
▁grant	-10.565
▁sisters	-10.5653
▁ವೇಗ	-10.5656
▁confident	-10.566
▁garlic	-10.5661
▁struggle	-10.5661
▁ಆಲೋಚನೆ	-10.5661
▁Section	-10.5661
▁Check	-10.5661
▁ಹೊರಡಿಸ	-10.5662
ಖಾ	-10.5664
▁ಇದಕ್ಕೂ	-10.5665
▁Sp	-10.5666
▁criminal	-10.5666
▁wins	-10.5672
▁ವ್ಯವಸ್ಥೆಯ	-10.5674
▁ಸಂಸ್ಥೆಗಳ	-10.5675
▁ಸ್ಫೋಟ	-10.5678
▁ಸೋತ	-10.568
▁hundred	-10.568
▁ನಡೆಯುತ್ತಿರುವ	-10.5683
▁ಮೂಡಿಸ	-10.5683
▁ಇಲ್ಲದೆ	-10.5686
▁provides	-10.5687
▁Swami	-10.5688
▁ಸ್ವಾಮೀಜಿ	-10.5688
▁ಮುಂದಾಗ	-10.5689
▁ಉಂಟಾಗ	-10.5691
▁ಹೊರತು	-10.5692
▁Maha	-10.5692
▁flood	-10.5693
▁awarded	-10.5694
▁ಉಂಟು	-10.5695
▁ಸಿಕ್ಕಿಲ್ಲ	-10.5698
▁ಬಾಳ	-10.5698
11	-10.5699
▁ಪೀಠ	-10.57
▁ರಕ್ಷಿಸ	-10.5703
ual	-10.5703
ಎಚ್	-10.5704
▁approach	-10.5705
▁ಎಂಬುದರ	-10.5707
▁ಪೂ	-10.571
▁ಭಾಷೆಗಳಲ್ಲಿ	-10.5711
▁ಅಪ	-10.5715
▁ಬೆಟ್ಟ	-10.5716
▁ಸ್ವಯಂ	-10.5717
▁ವಿಶಿಷ್ಟ	-10.572
▁ಭಕ್ತರು	-10.5721
tu	-10.5722
▁ತಿಳಿದಿಲ್ಲ	-10.5722
ಡಿಯ	-10.5724
▁ತೃಪ್ತಿ	-10.5724
▁ಸೈಟ್	-10.5724
▁ನೇಮಿಸ	-10.5727
▁ಬಟ್ಟೆ	-10.5729
▁ಸ್ಪಷ್ಟವಾಗಿ	-10.573
▁leads	-10.5734
▁cinema	-10.5745
▁fresh	-10.5745
▁ಕೆಪಿಸಿಸಿ	-10.5745
▁ಲಸಿಕೆ	-10.5745
ಾಳ	-10.5745
▁Akshay	-10.5745
▁primary	-10.5745
▁network	-10.5745
▁ಸಂತಾಪ	-10.5745
▁ಸರ	-10.5745
ದ್ದನ್ನು	-10.5746
▁sexual	-10.5748
▁posted	-10.5749
▁answers	-10.5749
▁ಸಸ್ಯ	-10.5756
▁joint	-10.576
ಶೀಲ	-10.5762
▁ವಾಹನಗಳು	-10.5763
▁ಕಂಪೆನಿ	-10.5763
▁ಬಾಲಕಿ	-10.5765
ಯಾನ್	-10.5767
▁ವ್ಯವಹಾರಗಳ	-10.5771
▁ಏನಾಗ	-10.5772
▁specific	-10.5772
▁virus	-10.5773
▁presence	-10.5773
ಹಾಕ	-10.5773
▁ಹೆಚ್ಚಿಸ	-10.578
based	-10.5782
▁ವಕ್ತಾರ	-10.5791
▁ರುಚಿ	-10.5793
▁Red	-10.5795
▁ಮಾರ್	-10.58
▁funds	-10.5801
▁composed	-10.5801
▁ವಿಶ್ರಾಂತಿ	-10.5801
▁ಪ್ರಸಾರ	-10.5801
75	-10.5804
▁ಮಲಯಾಳಂ	-10.5804
▁ಬಂದಾಗ	-10.5805
ದಿಲ್ಲ	-10.5806
▁Sub	-10.5807
▁ಖರೀದಿಸ	-10.5808
▁undergoing	-10.5808
ರಾಮ	-10.581
▁ಮದುವೆಯಾಗ	-10.5811
▁text	-10.5813
▁toll	-10.5816
▁ಸಾಕ್ಷಿಗಳ	-10.582
▁ಶಕ್ತಿಯನ್ನು	-10.5821
▁Arvind	-10.5829
▁York	-10.5829
▁sales	-10.5835
▁ಸಮರ್ಥ	-10.5836
▁managed	-10.5839
▁Yogi	-10.5841
▁types	-10.5842
▁teaching	-10.5842
▁ಜನ್ಮ	-10.5843
▁ಹೆಮ್ಮೆ	-10.5848
▁ತಿರುಗ	-10.5849
▁motorcycle	-10.5851
▁gift	-10.5851
▁Officer	-10.5853
ವಾದದ್ದು	-10.5853
ಸ್ಟರ್	-10.5856
▁reportedly	-10.5856
▁ದಳ	-10.5857
▁content	-10.5858
▁ಮರಣೋತ್ತರ	-10.5858
▁Among	-10.5858
▁ವ್ಯವಸ್ಥೆಯನ್ನು	-10.5858
▁ಕಾಪಾಡಿಕೊಳ್ಳ	-10.5858
ny	-10.5859
!"	-10.5859
▁ಕಡ್ಡಾಯ	-10.5863
▁10,000	-10.5868
den	-10.5873
ಿಗಿಂತ	-10.5881
ಸೋ	-10.5883
▁wicked	-10.5885
▁ಆಕರ್ಷಕ	-10.5886
▁serving	-10.5886
▁ಏಪ್ರಿಲ್	-10.5886
▁ಡಿಜಿಟಲ್	-10.5886
▁ಜಾಗೃತಿ	-10.5889
▁chaired	-10.5891
▁costs	-10.5892
▁ಹಾಜರಾಗ	-10.5892
▁ನೀಡಲಾಗುವುದು	-10.5893
▁interested	-10.5897
▁ಮೋಹನ್	-10.5901
▁Speaker	-10.5903
ok	-10.5905
▁ಪಡೆದಿದೆ	-10.5908
▁ಲಕ್ಷಣ	-10.5909
▁ಗೊತ್ತಾ	-10.5914
▁ಹೆದ್ದಾರಿ	-10.5915
▁audience	-10.5915
▁teaspoon	-10.5915
▁activity	-10.5915
▁deployed	-10.5916
ಾತ್ಮಕ	-10.592
▁lies	-10.5922
▁ಕುರಿತಾಗಿ	-10.5923
▁note	-10.5924
lin	-10.5925
▁dance	-10.5925
▁ಸ್ಥಳೀಯರು	-10.5926
▁ಜಿಯೋ	-10.5926
▁contact	-10.5928
▁thousands	-10.5928
‍ಗೆ	-10.5928
cing	-10.5929
▁ಕಾರ್ಯಕರ್ತರ	-10.593
▁terrorists	-10.5931
▁ಗಳಿಂದ	-10.5932
▁ಅಚ್ಚರಿ	-10.5933
▁ನೀಡಿದ್ದು	-10.5933
ವಾದರೂ	-10.5934
ಪರ	-10.5938
▁challenges	-10.594
▁send	-10.5942
▁Psalm	-10.5943
▁ವಸತಿ	-10.5943
▁ಇಮ್ರಾನ್	-10.5943
▁ವರ	-10.5946
ಪದ	-10.595
▁ಕುಮಾರ	-10.5965
▁effective	-10.5967
ಲಾಗಿರುವ	-10.597
▁ಬಂಧಿತ	-10.5972
ುದು	-10.5972
▁Banerjee	-10.5972
▁approval	-10.5972
▁studies	-10.5972
▁ಸಂಪ್ರದಾಯ	-10.5972
▁Parents	-10.5972
▁indeed	-10.5972
▁ಒತ್ತಾಯಿಸಿದರು	-10.5974
▁4,	-10.5975
▁ಪೇ	-10.5975
▁ಪಾರ್ಟಿ	-10.5976
▁ಸಹಜ	-10.5977
▁ಮಾಡಲಾಗುವುದು	-10.598
charge	-10.5981
▁ರದ್ದು	-10.5982
rat	-10.5985
▁greater	-10.5985
ುವರು	-10.5988
▁ಕಾರಣಕ್ಕೆ	-10.5988
▁Price	-10.5996
▁Social	-10.6001
▁relief	-10.6001
▁calls	-10.6002
▁Sunil	-10.6002
▁ನಾವೆಲ್ಲರೂ	-10.6002
▁ದಾಖಲು	-10.6002
▁ಐಟಿ	-10.6003
▁ವಿವರಣೆ	-10.6004
▁ಪ್ರಶ್ನಿಸಿದರು	-10.6006
▁lived	-10.6007
▁Well	-10.6007
▁ಸಹಿತ	-10.6009
▁Has	-10.601
▁ದೊರೆಯ	-10.6011
▁ಸಂಘದ	-10.6013
▁ಇರಬಹುದು	-10.6013
▁Islam	-10.6013
▁ಮೊದಲೇ	-10.6016
▁ಮುಂದುವರಿಯ	-10.6017
ೆಂದರೆ	-10.6018
▁ಭಯೋತ್ಪಾದನೆ	-10.6018
tor	-10.602
▁operations	-10.602
▁se	-10.6027
▁ವಿನಿಮಯ	-10.603
MC	-10.6032
▁becomes	-10.6033
▁drive	-10.6034
▁hospitals	-10.6038
▁ಮಟ್ಟಿಗೆ	-10.6039
lam	-10.6039
▁ಕೇಸ್	-10.604
▁June	-10.6049
▁RBI	-10.605
▁ಇಂಡಿಯಾದ	-10.6051
▁Abraham	-10.6059
▁ಸುವಾರ್ತೆ	-10.6059
▁powerful	-10.606
▁Wi	-10.606
▁ನಾಲ್ಕನೇ	-10.606
▁believed	-10.606
▁ಹಣ್ಣು	-10.6062
▁ಪ್ರಬಲ	-10.6064
▁nobody	-10.6064
▁ಕಾಲೇಜಿನ	-10.6069
▁separate	-10.6071
ದಿನ	-10.6078
nath	-10.6079
▁ಮಾಡುತ್ತೇನೆ	-10.6082
▁Railway	-10.6083
ಎಂದು	-10.6083
▁plant	-10.6084
▁whose	-10.6084
▁Har	-10.6084
▁ಸಿಸಿ	-10.6087
▁Control	-10.6088
▁Tendulkar	-10.6088
▁ವಿರುದ್ದ	-10.6088
▁everywhere	-10.6088
▁rainfall	-10.6088
▁ವ್ಯಾಪಕ	-10.6098
▁ಕೈಗೊಂಡಿದ್ದಾರೆ	-10.6098
ಿಡ	-10.6099
▁ನರ	-10.6103
▁reduce	-10.6104
▁ಪುರುಷರ	-10.6106
▁ಬಾಕ್ಸ್	-10.6108
▁severe	-10.611
▁ಮಮತಾ	-10.6117
▁ಕ್ಷಮೆ	-10.6117
▁ಎಸ್ಯುವಿ	-10.6117
▁submitted	-10.6118
▁ಮಿಲಿಯನ್	-10.6118
▁electricity	-10.6119
▁employment	-10.6121
▁ಒಪ್ಪಿಕೊಳ್ಳ	-10.6121
▁ರಾಜ್ಯಗಳಲ್ಲಿ	-10.6121
▁ಅಲ್ಲಿಗೆ	-10.6124
▁ಅದರಲ್ಲೂ	-10.6128
▁ತೆರಳ	-10.6129
ಲ್ಲದೆ	-10.6132
▁ಶಿಕ್ಷಕರ	-10.6133
gan	-10.6134
▁ಗಂಡು	-10.6136
▁ಮೃತರ	-10.6144
▁ಸ್ವತಂತ್ರ	-10.6146
▁Indies	-10.6146
▁simply	-10.6146
ೊಂದಿಗಿನ	-10.6147
▁property	-10.6148
▁cold	-10.6148
▁access	-10.6149
▁ಸಿಗುತ್ತದೆ	-10.6155
ಖ್	-10.6156
▁ಮಾಡುತ್ತೇವೆ	-10.6158
▁Mahesh	-10.6158
▁limited	-10.616
''	-10.6162
mit	-10.6164
▁Je	-10.6168
▁previous	-10.6169
cha	-10.6169
▁individuals	-10.6169
▁camp	-10.617
ಮೊ	-10.617
▁ಇಲ್ಲದ	-10.6173
▁ಪ್ರಶ್ನೆಗಳಿಗೆ	-10.6173
▁ವಾಗ್ದಾಳಿ	-10.6176
▁govt	-10.6176
▁opposed	-10.618
▁Gold	-10.618
ಂಗಾ	-10.618
▁ಐಆರ್	-10.618
▁ತನಗೆ	-10.6184
▁ದೇಶವನ್ನು	-10.6191
ify	-10.6196
ಿದವು	-10.6197
▁Kar	-10.6199
▁ಕುಟುಂಬಕ್ಕೆ	-10.62
▁victim	-10.6201
▁Chand	-10.6202
▁ರೇ	-10.6202
▁appropriate	-10.6205
▁ಹೀಗ	-10.6206
▁link	-10.6206
mar	-10.6207
▁usually	-10.6208
▁ಸೇರ್ಪಡೆ	-10.6208
▁ಎತ್ತ	-10.621
▁ಗೆದ್ದು	-10.621
▁ಸ್ನೇಹಿತರ	-10.6211
▁ಹಾರ	-10.6216
▁ಕುರಿತಾದ	-10.6216
▁ಮಾತನ್ನು	-10.6216
ಓ	-10.6217
▁terms	-10.6218
▁ನಿಧಿ	-10.6219
lic	-10.622
▁desire	-10.6221
▁sacrifice	-10.6221
▁ಮನೋಭಾವ	-10.6223
▁ಹೊರಟ	-10.6226
▁ಅಂತಿಮವಾಗಿ	-10.6234
▁ಪಡುಕೋಣೆ	-10.6235
▁ಸೌಂದರ್ಯ	-10.6235
▁Adityanath	-10.6235
▁ರುಪಾಯಿ	-10.6235
▁ಅರ್	-10.6236
▁ಖಂಡಿತವಾಗಿಯೂ	-10.6236
▁ಬಂಧಿಸಲಾಗಿದೆ	-10.6238
▁ಉಪಯೋಗ	-10.6238
▁ನಿರ್ಮಲಾ	-10.6239
▁II	-10.6239
▁meaning	-10.6241
▁ವಿಷಯಗಳು	-10.6242
▁ಶಿ	-10.6243
▁ಮಹಿಳೆಯರಿಗೆ	-10.6247
▁certainly	-10.6248
▁ಸ್ಥಿತಿಯಲ್ಲಿ	-10.6249
▁remaining	-10.6249
▁ಒಪ್ಪಿಕೊಂಡ	-10.625
▁Yoga	-10.6255
▁ನಾನಾ	-10.6259
▁ಬಡ್ಡಿ	-10.6262
▁teach	-10.6263
▁negative	-10.6264
▁ಮೆಣಸು	-10.6264
▁writing	-10.6266
▁Imran	-10.6266
▁ಮುಖ್ಯವಾಗಿ	-10.6268
mu	-10.627
▁ಇಂ	-10.6271
▁ಮಾಡುವಂತೆ	-10.6273
▁DK	-10.6276
▁im	-10.6276
fer	-10.6277
ಬಿಜೆಪಿ	-10.6277
▁ಕಳೆಯ	-10.6278
thi	-10.6281
▁ಜಗಳ	-10.6283
▁reading	-10.6286
▁ಸತತ	-10.6288
▁ಸರಣಿಯಲ್ಲಿ	-10.6289
▁ನಿರಂತರವಾಗಿ	-10.629
ಸರ	-10.629
್ತಾರೆ	-10.6292
ations	-10.6293
▁120	-10.6294
▁ಸರಕು	-10.6295
ಮನ	-10.6295
▁ಟೀಕೆ	-10.6297
▁ನಿಗದಿ	-10.6299
▁ನೀಡಲಾಗುತ್ತದೆ	-10.6301
▁ಕೃತಿ	-10.6301
ಉ	-10.6301
▁Raja	-10.6304
▁ಫಾ	-10.6305
▁learned	-10.6305
▁ಪುಟ್ಟ	-10.6312
tal	-10.6313
▁ಕಡತ	-10.6316
▁Egypt	-10.6318
▁ಚಿತ್ತ	-10.6319
▁ಮಹೇಶ್	-10.6323
▁ಹ್ಯುಂಡೈ	-10.6324
▁assistance	-10.6324
ಬರ	-10.6325
▁ಅಂಶಗಳನ್ನು	-10.6331
▁ಸಿಹಿ	-10.6335
▁ಆಗಲಿದೆ	-10.6344
▁ಪರಿಚಯಿಸ	-10.6345
ಬೀ	-10.6349
▁broke	-10.635
▁ನೀರ	-10.6352
▁photos	-10.6352
▁Odisha	-10.6353
▁ಸಂಕೀರ್ಣ	-10.6353
▁ಕ್ಯಾಮರಾ	-10.6353
▁ತಾಪಮಾನ	-10.6354
▁ಅಶೋಕ್	-10.6356
▁ಯೋಜನೆಯನ್ನು	-10.636
ಬಲ್ಲದು	-10.636
▁Show	-10.6365
▁ಸಾರ್ವಜನಿಕರು	-10.6365
▁ಜಿಎಸ್	-10.6367
▁ಕೇ	-10.6368
kh	-10.637
▁ರಾಯ್	-10.6372
ಲ್ಲಿಯೂ	-10.6375
▁ಕತ್ತರಿಸಿ	-10.6375
▁ಸ್ನೇಹ	-10.6375
ದರಿಂದ	-10.6375
ಣಾ	-10.6377
▁judgment	-10.6383
▁ಮಾತನಾಡಿದರು	-10.6384
▁ರಾಜನಾಥ್	-10.6384
ೊಡನೆ	-10.6385
▁Assam	-10.6385
▁ಇದ್ದು	-10.6385
▁ಸಮಾಜದ	-10.639
▁ದಯವಿಟ್ಟು	-10.6391
▁ರನ್ನು	-10.6392
▁diet	-10.6397
▁Mohammed	-10.64
▁ಪಂದ್ಯಗಳಲ್ಲಿ	-10.6403
▁ch	-10.6403
▁crisis	-10.6413
▁ಇಂಡೀಸ್	-10.6413
▁ಚೋಪ್ರಾ	-10.6413
▁multiple	-10.6414
▁announcement	-10.6414
▁ಮಾರ್ಚ್	-10.6414
▁ಲೇಖಕ	-10.6414
▁dedicated	-10.6415
▁sad	-10.6416
▁tough	-10.6419
▁ಅದೂ	-10.6425
ುದಾದರೂ	-10.6425
▁winners	-10.6428
▁ಪ್ರೋತ್ಸಾಹ	-10.6438
ಿಕ್	-10.6441
▁wide	-10.6443
▁juice	-10.6444
▁fuel	-10.6444
▁vision	-10.6444
▁ಉಡುಪಿ	-10.6444
▁relations	-10.6448
ಡೋ	-10.6456
bha	-10.6458
▁ಶಾಂತ	-10.6464
ದ್ದೆ	-10.6464
▁10:	-10.6464
▁ಮಾಡಬೇಡಿ	-10.6465
▁ಆಗಲಿಲ್ಲ	-10.6468
ell	-10.647
▁Bhatt	-10.6472
▁ಯೋಧರ	-10.6473
▁ತಿ	-10.6473
▁CEO	-10.6474
▁Petrol	-10.6474
▁ಅಗ್ನಿ	-10.6474
ಲಾಗಿಲ್ಲ	-10.6478
▁ರಜೆ	-10.6479
▁ಲೆ	-10.648
▁ಹರಿ	-10.648
▁ಗೂ	-10.6481
▁600	-10.6482
▁ಸರಕಾರಿ	-10.6482
▁ಸ್ವಾಗತ	-10.6483
ಯವರ	-10.6486
ರ್ಸ್	-10.6487
▁ಧನ್ಯವಾದ	-10.6488
▁character	-10.6488
▁ಮೀನು	-10.6488
▁testing	-10.6495
▁comfort	-10.6502
ನೊಂದಿಗೆ	-10.6503
▁Consider	-10.6504
▁Ranveer	-10.6504
▁ದ್ವೀಪ	-10.6504
▁ವಿಸ್ತರಣೆ	-10.6504
▁ಶೈಕ್ಷಣಿಕ	-10.6504
▁ದುಬಾರಿ	-10.6504
▁cover	-10.6504
▁kingdom	-10.6504
ಸಿಂಗ್	-10.6505
▁Like	-10.6506
▁claim	-10.6506
cur	-10.6508
▁attacks	-10.651
ಟ್ಸ್	-10.6514
▁Kan	-10.6516
ps	-10.6518
▁ಸಂಸ್ಥೆಯು	-10.6521
▁ಬಹಿರಂಗ	-10.6523
▁ಶಿಫಾರಸು	-10.6523
▁ಪಾದ	-10.6525
ction	-10.6526
▁mark	-10.6528
wal	-10.6534
▁contribution	-10.6534
▁Per	-10.6535
▁Mother	-10.6535
▁ಅತಿದೊಡ್ಡ	-10.6535
▁protection	-10.6537
▁count	-10.654
▁wonderful	-10.6541
▁ವಸ್ತುಗಳ	-10.6542
▁fruit	-10.6546
▁ಹಿಡಿಯ	-10.6546
▁Ga	-10.6549
ಭಾ	-10.6549
▁UP	-10.6554
▁Nath	-10.6554
▁July	-10.6554
▁Motors	-10.6555
▁quit	-10.6559
▁sometimes	-10.6561
▁ಜೇಟ್ಲಿ	-10.6565
▁Actress	-10.6565
▁France	-10.6565
▁manner	-10.6568
▁achieve	-10.657
▁ಹೆಸರಿನಲ್ಲಿ	-10.6575
▁ನೀಡುವಂತೆ	-10.6577
chi	-10.6577
▁sc	-10.6585
▁ಕರ	-10.6587
▁ಸಂದರ್ಭಗಳಲ್ಲಿ	-10.6587
▁ನಾಶ	-10.6588
▁ಪಾಸ್	-10.6591
ರಿಂಗ್	-10.6596
▁ಲೀ	-10.6597
▁ಸಂತಸ	-10.6598
ೇಂದ್ರ	-10.6599
dha	-10.6599
▁ದಾಖಲಾಗಿದ್ದು	-10.6601
▁ನೀಡಲಾಯಿತು	-10.6602
ron	-10.6603
▁ಅಡ್ಡ	-10.6606
▁ಇತರರ	-10.6609
ಕೀ	-10.6612
▁ಹೇಳಲಾಗಿದೆ	-10.6612
▁ಮಾಡಲಿಲ್ಲ	-10.6618
▁ತೀವ್ರವಾಗಿ	-10.6621
▁ಮ್ಯಾ	-10.6622
ition	-10.6625
▁ಮದ್ಯ	-10.6626
▁ಕಲ್ಪನೆ	-10.6626
▁ಅವರೂ	-10.6627
▁ನನಗೂ	-10.6632
▁ಜನಾಂಗ	-10.6633
▁Park	-10.6633
▁ಇಲ್ಲದಿದ್ದರೆ	-10.6635
▁poll	-10.6637
▁ಎರಡನೆಯ	-10.6641
▁ಇಸ್ರಾಯೇಲಿನ	-10.6651
ಜರ್	-10.6653
IC	-10.6654
▁ಒಟ್ಟಾರೆ	-10.6655
▁Child	-10.6657
▁Matthew	-10.6657
▁ಶೂಟಿಂಗ್	-10.6657
▁ಯಾಕಂದರೆ	-10.6657
▁ಸ್ಕೂಟರ್	-10.6658
▁James	-10.6658
▁ಬಿಗ್	-10.666
▁ಇಗೋ	-10.6662
lan	-10.6662
▁ಹೇ	-10.6663
▁ಆಗ್ರಹ	-10.6663
▁ಪರೀಕ್ಷಾ	-10.6668
▁ಪ್ರವಾಸಿ	-10.6669
▁mere	-10.6671
▁ನೋಡಿದ	-10.6672
▁truck	-10.6673
ಬೇಕಾದರೆ	-10.6675
▁ಸಲ್ಲಿಸಿದ್ದಾರೆ	-10.6676
▁Thank	-10.6677
▁ರಸ್ತೆಯಲ್ಲಿ	-10.6677
▁ನೆಟ್	-10.6678
▁ಸೇವೆಯನ್ನು	-10.668
▁killing	-10.668
ೂರ್	-10.6681
▁ರಾಯಲ್	-10.6681
▁sit	-10.6685
▁ಮತದಾರರ	-10.6688
▁Judah	-10.6688
▁finance	-10.6688
▁pepper	-10.6688
▁ಫ್ರಾನ್ಸ್	-10.6688
▁taught	-10.6688
▁massive	-10.6689
▁ಚುನಾವಣೆಯ	-10.6689
▁ಸಮಿತಿಯ	-10.6695
ುವದು	-10.6695
▁lakhs	-10.6696
▁extended	-10.6699
▁almost	-10.6699
▁acting	-10.67
▁ಮಾಡುತ್ತಿರುವ	-10.6712
▁lay	-10.6712
ದ್ಧ	-10.6714
▁beat	-10.6716
▁ಮಾರ್ಗದರ್ಶನ	-10.6716
▁supported	-10.6716
▁ಸ್ಪೀಕರ್	-10.6719
▁ರವೀಂದ್ರ	-10.6719
▁ಶಂಕರ್	-10.6719
za	-10.6722
▁ಕ್ರ	-10.6724
▁ಒಂದಾಗಿದೆ	-10.6724
▁ಮಂಡಿಸ	-10.6725
▁ಎತ್ತಿ	-10.6731
▁ಪಂದ್ಯದ	-10.6732
▁ಚೀನಾದ	-10.6734
▁express	-10.6735
ಂಟಿ	-10.6735
▁ಕೇಳಿದ	-10.6736
▁rescue	-10.674
ology	-10.6741
▁ಕೈಯಲ್ಲಿ	-10.6743
▁ಉತ್ಪನ್ನ	-10.6749
▁ಡೊನಾಲ್ಡ್	-10.675
avi	-10.6751
▁shortage	-10.6751
▁ಗ್ರಾಹಕರಿಗೆ	-10.6755
▁Apple	-10.6759
ಮಾನ್	-10.6759
▁colleges	-10.676
oc	-10.6762
her	-10.6763
ade	-10.6768
▁ಗೊ	-10.6769
▁ಪಾಲಿಕೆ	-10.677
▁headed	-10.6772
▁demands	-10.6779
▁prayers	-10.678
bar	-10.678
▁ten	-10.6782
▁respectively	-10.6784
▁sort	-10.6785
mal	-10.6792
▁ಸಂಖ್ಯೆಯ	-10.6793
▁temples	-10.6794
▁fighting	-10.6797
ವಾಗಿದ್ದ	-10.6798
ನನಗೆ	-10.6801
▁imp	-10.6802
▁producer	-10.6803
▁ಹುಡುಗ	-10.6805
▁Ayodhya	-10.6812
▁atmosphere	-10.6812
▁Thakur	-10.6812
▁Still	-10.6813
▁ಲಕ್ಷಾಂತರ	-10.6814
▁5-	-10.6816
ea	-10.6817
▁protesters	-10.682
▁ಜಾಲತಾಣಗಳಲ್ಲಿ	-10.6821
▁ಒಟ್ಟಾಗಿ	-10.6823
▁ಹೊಂದಿದ	-10.6827
▁heat	-10.6834
▁ಮಾರ	-10.6836
▁litre	-10.6839
▁ನೊಂದಿಗೆ	-10.6842
▁Coronavirus	-10.6844
▁constituencies	-10.6844
▁ಬಾಂಬ್	-10.6844
▁Gupta	-10.6844
▁ತಯಾರಕ	-10.6844
▁Nirmala	-10.6844
▁ಪುರುಷ	-10.6845
▁ಪಟ್ಟು	-10.6845
▁ಮಾಡಲಾಗುತ್ತಿದೆ	-10.685
ಷಿ	-10.6851
▁ಅಭಿಯಾನ	-10.6852
▁ಪುನರ್	-10.6852
▁ಹಳ್ಳಿ	-10.6854
▁ತತ್ವ	-10.6857
▁ಐವರು	-10.6858
▁ಮಾಡುತ್ತಿದ್ದ	-10.6858
▁ಶಿಕ್ಷಕ	-10.6859
▁wash	-10.6861
ration	-10.6864
▁promote	-10.6865
▁ಅಪಘಾತದಲ್ಲಿ	-10.6868
ವರೇ	-10.6869
▁praise	-10.6869
▁ಶಿಕ್ಷಕರು	-10.6871
▁ವಿಳಂಬ	-10.6875
▁taste	-10.6875
van	-10.6877
▁strike	-10.6877
ಿಸಿತು	-10.6878
▁ಹಂಚಿಕೊಂಡಿದ್ದಾರೆ	-10.688
▁ಬೆಳಿಗ್ಗೆ	-10.688
▁ತಮ್ಮನ್ನು	-10.688
ೋನ್	-10.6881
▁ನೇತೃತ್ವದಲ್ಲಿ	-10.6882
▁draw	-10.6884
▁13:	-10.6895
▁participate	-10.6897
▁leaves	-10.6898
ದೇಶ	-10.6906
▁tbsp	-10.6907
▁advice	-10.6907
▁infrastructure	-10.6907
▁ಹೆದರ	-10.691
▁lo	-10.6911
▁ಮಾಡಿದರೆ	-10.6915
▁documents	-10.6915
▁removed	-10.6918
ದರ್	-10.6918
▁ಮಗನ	-10.692
ರೆಂದು	-10.6923
▁promises	-10.6924
▁ಕ್ಕೂ	-10.6926
▁lie	-10.6927
▁ಶರ್ಮ	-10.6928
ವೊಂದು	-10.6929
▁ಸಿಪಿ	-10.6929
▁ಗೊತ್ತ	-10.6931
▁differences	-10.6933
▁Jaitley	-10.6938
▁agriculture	-10.6938
ill	-10.6939
▁Fire	-10.6939
▁Pat	-10.6939
▁RSS	-10.6939
▁ಏನಾದರೂ	-10.694
▁SUV	-10.694
▁ಪಂಚಾಯತ್	-10.6941
▁understanding	-10.6944
▁ಉಂಟಾಗಿದೆ	-10.6945
▁follows	-10.6953
▁ಆಹ್ವಾನ	-10.6955
ಫೆ	-10.6957
▁j	-10.6958
▁ಸೇವನೆ	-10.6969
▁ಇತ್ಯಾದಿ	-10.697
▁task	-10.697
▁ruling	-10.697
▁ಸಂಯೋಜನೆ	-10.697
▁ಬ್ಯಾನರ್ಜಿ	-10.697
side	-10.6971
▁ನೆರವಾಗ	-10.6972
▁ಆಘಾತ	-10.6972
ಂಕ್	-10.6975
▁ಜಾನ್	-10.6975
▁Railways	-10.6975
▁ಮನುಷ್ಯರ	-10.6975
▁ಬು	-10.6976
▁2000	-10.6978
▁ಹುಟ್ಟ	-10.6982
▁resigned	-10.6983
ಿರುತ್ತವೆ	-10.6983
ham	-10.6986
ಸಲು	-10.6988
▁43	-10.699
ಲಿಂಗ್	-10.699
▁ಆಗುತ್ತಿದೆ	-10.6992
▁particular	-10.6995
▁ಲಭಿಸ	-10.6996
▁ತನಿಖಾ	-10.7002
▁capacity	-10.7002
▁exchange	-10.7002
▁judicial	-10.7002
▁Swaraj	-10.7002
▁ಸಿದ್ಧಾಂತ	-10.7002
▁section	-10.7006
▁ಪ್ರಶ್ನಿಸಿ	-10.7006
▁ಯೆಶಾಯ	-10.701
▁ಮಾಡಿಕೊಂಡು	-10.701
▁ಬಾಗಿಲು	-10.7011
eer	-10.7013
ಿಸಿಕೊಳ್ಳ	-10.7013
▁ಬರುವುದಿಲ್ಲ	-10.7018
▁ಏಷ್ಯಾ	-10.7021
▁ಯುವತಿ	-10.7024
▁Jain	-10.7028
gen	-10.7031
▁credit	-10.7033
ev	-10.7033
▁anniversary	-10.7034
▁ಸಂಕೇತ	-10.7034
▁ಪರ್ಯಾಯ	-10.7034
▁mouth	-10.7034
▁debut	-10.7034
▁myself	-10.7035
ಿಗಳ	-10.7045
▁ಧನ	-10.7047
ಕರು	-10.705
▁exist	-10.7053
▁ಕಂಡಿದೆ	-10.7054
▁ಕಣ್ಣ	-10.7054
▁49	-10.7056
▁ಸ್ಥಾನಗಳನ್ನು	-10.7057
ದಾಗ	-10.7058
▁Tr	-10.706
use	-10.706
▁Eat	-10.7062
▁ವಿಷಯದ	-10.7063
ದಾಯಕ	-10.7064
▁ಉಲ್ಲಂಘನೆ	-10.7066
▁Mamata	-10.7066
▁sight	-10.7067
▁guilty	-10.7067
▁latest	-10.7069
▁Although	-10.7071
"",	-10.7075
▁ಚಾಲಕನ	-10.708
▁elders	-10.7084
▁ಬಳಸಿಕೊಳ್ಳ	-10.7084
ನಲ್ಲ	-10.7084
ಬಲ್ಲ	-10.7094
▁ಭಾಷೆಯಲ್ಲಿ	-10.7096
▁Name	-10.7098
▁Chhattisgarh	-10.7098
▁beauty	-10.7098
▁ದೀಪಾವಳಿ	-10.7098
▁Rukh	-10.7098
▁ಸಂಬಂಧಪಟ್ಟ	-10.7098
▁hot	-10.7098
▁ಅದೃಷ್ಟ	-10.7099
ಿಸಿದನು	-10.7099
ುವವರು	-10.71
▁ಶಾಶ್ವತ	-10.7103
like	-10.7108
▁ಪ್ರಯಾಣಿಕರು	-10.7115
▁ಆಗಬೇಕು	-10.7115
▁ಎರಡ	-10.7115
dar	-10.7116
▁ಯಂತ್ರ	-10.7123
▁ನಿರ್ದೇಶನದ	-10.7124
▁ವಾಸ್ತವ	-10.7124
▁Speak	-10.7125
▁ಸ್ಪಂದಿಸ	-10.7126
ನ್ನಿ	-10.7127
▁minor	-10.7129
ರಂ	-10.7129
▁Ahmed	-10.713
▁Before	-10.713
▁boost	-10.713
▁nearby	-10.7131
▁2013	-10.7132
▁ಕೈಗೊಳ್ಳಲಾಗುವುದು	-10.7133
▁opening	-10.7133
▁ಪಂದ್ಯಗಳ	-10.7133
▁ಯೆಹೋವ	-10.7137
▁ಪರಿಚಯ	-10.714
▁produce	-10.714
▁ತಿಳಿದಿದೆ	-10.7141
ung	-10.7143
▁Sar	-10.7147
ular	-10.7149
▁ಕೂದಲು	-10.7151
▁ಬೆಳೆದ	-10.7153
▁regular	-10.7156
▁glory	-10.7163
▁ಸೀತಾರಾಮನ್	-10.7163
▁Mangaluru	-10.7163
▁Sha	-10.7164
ಿದ್ರು	-10.7167
▁ಸಾಮರ್ಥ್ಯವನ್ನು	-10.7171
▁Dis	-10.7175
▁treat	-10.7178
▁ಆಟಗಾರರ	-10.7179
▁ಕಲ್ಲು	-10.718
▁7:	-10.7184
▁Wa	-10.7184
▁ಅಮೆರಿಕಾ	-10.7185
▁ಮಾಡು	-10.7185
ಕಾಂಗ್ರೆಸ್	-10.7187
▁ವಿಜೇತ	-10.7189
ick	-10.7189
ಸೇ	-10.7189
▁ಕರೆದ	-10.7192
▁Pandya	-10.7195
▁ಟ್ವಿಟ್ಟರ್	-10.7195
▁ಹುಡುಕಾಟ	-10.7196
▁Moreover	-10.7196
ಸ್ಟ	-10.7197
▁ಅಮ್ಮ	-10.7197
12	-10.7199
▁ನಂತರದ	-10.72
ಭರಿತ	-10.7201
▁ಗೊತ್ತಿದೆ	-10.7201
▁ಸಹಿ	-10.7202
▁ಪಡೆದುಕೊಂಡಿದೆ	-10.7205
▁Otherwise	-10.7206
▁ಬ್ರ	-10.7206
▁ಸೆಟ್	-10.7208
een	-10.7208
we	-10.7212
▁ಆರ	-10.7213
▁limit	-10.7217
▁ಆರ್ಥಿಕತೆ	-10.7219
▁ವಯಸ್ಸಿನ	-10.7219
▁ಪ್ರಯತ್ನಿಸಿ	-10.7221
▁ಹಸಿ	-10.7227
▁blast	-10.7228
lor	-10.7228
▁El	-10.7232
▁ಹಂಚಿಕೆ	-10.7236
▁Scriptures	-10.7237
ೀತ	-10.7238
▁ಕಿಂಗ್ಸ್	-10.7241
ಾವ	-10.7244
▁Others	-10.7248
▁ಶೇಕಡಾ	-10.7251
▁ಅನಂತರ	-10.7254
ಲಿಯ	-10.7255
▁ಮರಳ	-10.726
megapixel	-10.726
▁Sinha	-10.726
ಿಗೇ	-10.7261
▁ದೀಪ	-10.7261
▁stone	-10.7267
▁ಕೂ	-10.7268
▁inaugurated	-10.7268
▁ಕಾರ್ಯಕ್ರಮಗಳು	-10.7271
ುತ್ತಿದ್ದೆ	-10.7273
▁ಶಾಲೆಯಲ್ಲಿ	-10.7273
ator	-10.7273
ಪತಿ	-10.7275
▁41	-10.7275
▁ತಿಂಗಳಲ್ಲಿ	-10.7275
ಬಲ	-10.7276
▁ಅವಳಿಗೆ	-10.7281
▁com	-10.7281
ರನ್ನಾಗಿ	-10.7283
ants	-10.7285
▁looks	-10.7292
▁Pandey	-10.7293
▁truly	-10.7293
▁ಸಾಂಕ್ರಾಮಿಕ	-10.7293
▁ವಿತರಣೆ	-10.7293
▁NDA	-10.7294
▁ವಿಚಾರಣೆಗೆ	-10.7295
▁ತರುವ	-10.7296
▁ವಾಕ್ಯ	-10.7298
▁Five	-10.7299
▁ಪ್ರಾಮುಖ್ಯ	-10.7305
ದಲ್ಲಿನ	-10.7305
▁prepare	-10.7316
▁ರಾಷ್ಟ್ರಗಳ	-10.7316
ded	-10.7319
▁ಲೋಕದ	-10.7322
ಗರ್	-10.7325
▁Mahatma	-10.7326
▁Sitharaman	-10.7326
port	-10.7332
▁ಟೆ	-10.7333
▁ಶೀಘ್ರ	-10.7333
▁priest	-10.7333
▁ವಿತರಿಸ	-10.7334
▁ಗುರುತು	-10.7334
▁ಕಾಣಬಹುದು	-10.7335
▁ಹರಿಯ	-10.7335
ped	-10.7336
ably	-10.7343
You	-10.7346
▁payment	-10.7348
▁ಉದ್ಯಮಿ	-10.735
▁ಎದುರಿಸಲು	-10.735
▁ದಿನದಲ್ಲಿ	-10.735
▁begins	-10.7353
▁civil	-10.7355
▁NCP	-10.7355
ಹಾರ	-10.7356
▁Budget	-10.7359
▁conversation	-10.7359
▁distance	-10.7359
▁sides	-10.7359
▁ಅರಸನ	-10.736
▁ಕಲಾ	-10.7361
▁Mix	-10.7361
▁institutions	-10.7363
▁ಆಟಗಾರರು	-10.7364
▁ಎಂಟು	-10.7365
▁ವಿದ್ಯಾ	-10.7367
▁feeling	-10.7368
▁contains	-10.7368
▁stands	-10.7372
▁ಫಾರ್	-10.7376
▁ಕಾಪಾಡ	-10.7377
ಕುಮಾರ್	-10.738
▁ಯೋಧರು	-10.7382
▁tweet	-10.7384
▁Jan	-10.7387
▁Photo	-10.7387
▁Ki	-10.7389
ಿರುವುದಿಲ್ಲ	-10.7391
ಬರ್	-10.7391
▁loans	-10.7391
▁ಮೂಲಸೌಕರ್ಯ	-10.7392
▁ಸಂಶೋಧನಾ	-10.7392
ಗೀ	-10.7393
▁leg	-10.7393
ice	-10.7394
▁asking	-10.7396
endra	-10.7396
appa	-10.7398
▁ಬಿಲ್	-10.7398
▁ಅಗಲಿದ್ದಾರೆ	-10.7399
▁App	-10.74
▁ಲಭ್ಯ	-10.74
▁billion	-10.7401
▁seems	-10.7401
▁ಆಗಸ್ಟ್	-10.7401
▁ಹೊಲ	-10.7403
▁models	-10.7404
cor	-10.7406
▁ಕೊನೆಗೆ	-10.7406
▁fish	-10.7406
▁47	-10.7407
ng	-10.7408
▁ಬೊ	-10.741
▁attacked	-10.7411
ಕೊಳ್ಳಬೇಕು	-10.7414
▁ಕೊಲ್ಲ	-10.7415
ಾಗಿದ್ದ	-10.7415
▁ತಪ್ಪಿ	-10.7424
▁Amitabh	-10.7425
▁Manohar	-10.7425
▁pioneer	-10.7425
▁caught	-10.7426
▁ಗ್ರಾಮಾಂತರ	-10.7426
▁ಅಕ್ಷಯ್	-10.7426
ಚಾ	-10.7428
▁ಹಣದ	-10.7428
ಕೊಳ್ಳಲು	-10.7429
▁introduced	-10.7429
▁ವರ್	-10.7431
▁constructed	-10.7431
▁Happy	-10.7436
▁Kha	-10.7437
▁appeared	-10.7438
▁ನೀರಿನಲ್ಲಿ	-10.744
▁ಚರ್ಮದ	-10.7441
▁placed	-10.7442
▁ಚೆ	-10.7444
▁ಸಾಧ್ಯವೇ	-10.745
▁ಕೊನೆ	-10.7455
ಾಗುವ	-10.7455
▁suffer	-10.7456
▁illegal	-10.7459
▁ಪಾಯಿಂಟ್	-10.7459
▁ಹಣಕಾಸಿನ	-10.7459
▁Should	-10.7459
▁auto	-10.7459
▁ಬೆನ್ನಲ್ಲೇ	-10.7459
AN	-10.7459
ಭಿ	-10.7459
▁flow	-10.746
ization	-10.7462
▁ಬದ್ಧ	-10.7463
▁UN	-10.7468
▁ಮೌಲ್ಯದ	-10.7471
▁ಐಸಿಸಿ	-10.7471
▁trains	-10.7472
ena	-10.7473
ple	-10.7479
▁gas	-10.7483
▁please	-10.7487
ಷಧಿ	-10.7487
▁ball	-10.7488
▁ದ್ವಿತೀಯ	-10.7489
▁ವೇ	-10.7491
▁tea	-10.7492
▁ಹರ್ಷ	-10.7492
▁ಯೋಗ್ಯ	-10.7492
▁controversy	-10.7492
▁domestic	-10.7492
▁ಡೇವಿಡ್	-10.7492
▁ಸೌಕರ್ಯ	-10.7492
ಗೊಳಿಸಿ	-10.7496
fa	-10.7497
▁ಪರೀಕ್ಷೆಗೆ	-10.7497
▁ವಿಫಲ	-10.7499
▁faced	-10.7499
▁ಹೊಸದಾಗಿ	-10.7502
▁ಇವುಗಳನ್ನು	-10.7504
▁ಮಾಡಿದನು	-10.7506
▁size	-10.7508
▁ಸ್ಪೀಡ್	-10.7508
▁ಬರಲಿಲ್ಲ	-10.7511
▁ಕಲಿತ	-10.7511
ಾನ್	-10.7516
pro	-10.752
▁ಕ್ಷೇತ್ರಗಳ	-10.7521
▁MPs	-10.7521
▁invest	-10.7524
▁spokesperson	-10.7526
▁ಏಕೈಕ	-10.7526
▁ಸುಷ್ಮಾ	-10.7526
▁Everybody	-10.7526
▁ಸಾಗಿಸ	-10.7528
▁ಸ್ವರಾಜ್	-10.7529
▁ನಿರೀಕ್ಷಿಸ	-10.7529
▁ಸಿಗಲಿದೆ	-10.753
ರಂಗ	-10.753
ಥಿ	-10.753
▁sustained	-10.7531
▁ಕೆಲಸದಲ್ಲಿ	-10.7531
▁ಪ್ರತಿಮೆ	-10.7532
▁requires	-10.7534
▁ಎಂದೇ	-10.7534
▁ಆನಂದ್	-10.7534
▁ಭಿನ್ನ	-10.7537
▁Youth	-10.7543
ಾತ	-10.7543
▁ಇಸ್ರಾಯೇಲ್	-10.7546
ಲಕ್ಷ	-10.7548
ಮಯ	-10.7554
▁ಎದ್ದು	-10.7558
▁ಮೆಮೊರಿ	-10.7559
▁ಭೀತಿ	-10.7559
▁ಒಂದೊಂದು	-10.7561
▁Whos	-10.7562
▁ನಿದ್ರೆ	-10.7563
▁ಬೈಬಲಿನ	-10.7563
▁ವಿಚಿತ್ರ	-10.7563
▁wicket	-10.7564
ನಿಯಾ	-10.7565
▁ಪರಿಸ್ಥಿತಿಯನ್ನು	-10.7565
▁Once	-10.7565
▁ಹಾಗಂತ	-10.7568
▁instance	-10.7568
▁ಡಿಎ	-10.7569
▁ಪ್ರವಾಸಿಗರು	-10.757
▁ಪ್ರಕರಣಗಳ	-10.7573
▁ಜನರಲ್ಲಿ	-10.758
▁ನೋಡಿಕೊಳ್ಳ	-10.7581
ಂಡರ್	-10.7583
ಿರಾ	-10.7583
bal	-10.7584
ದಿಂದಲೇ	-10.7585
▁ಶಾಲೆಗೆ	-10.7587
▁ಕಾನೂನಿನ	-10.7587
ಕಾಲ	-10.7588
run	-10.759
▁46	-10.7591
▁floor	-10.7593
▁ಅನ್ಯಾಯ	-10.7593
▁ಸಂಚರಿಸ	-10.7594
▁ಮನಮೋಹನ್	-10.7595
▁ದಾಳಿಯಲ್ಲಿ	-10.7595
wi	-10.7595
ಬಂದ	-10.7599
ಯಲ್ಲೇ	-10.7599
▁ಹೂಡ	-10.76
▁ಪರಿಶುದ್ಧ	-10.7601
▁chance	-10.7603
▁sport	-10.7604
▁ನಿಂತು	-10.7606
▁ವಿರೋಧಿಸಿ	-10.7607
▁spend	-10.761
▁ತೀರಾ	-10.7612
▁granted	-10.7612
▁ರಾಜ್ಯಗಳು	-10.7613
▁ಎದುರಾಗ	-10.7615
▁ಕಂಡುಕೊಳ್ಳ	-10.7615
▁ವೈದ್ಯ	-10.7616
▁feelings	-10.762
▁ದೀರ್ಘ	-10.762
ability	-10.7621
CC	-10.7621
▁ತರಲು	-10.7622
▁ಆಧರಿಸಿ	-10.7624
▁sale	-10.7626
▁locals	-10.7626
▁ದೃಷ್ಟಿ	-10.7626
ುತ್ತೀರಾ	-10.7626
▁ಹುಡುಗಿ	-10.7626
▁ಗುಣಮಟ್ಟದ	-10.7627
▁ನೋಂದಣಿ	-10.7627
▁flesh	-10.7627
▁ಶರೀರ	-10.7627
▁Business	-10.7627
▁ಪ್ರವಾಸೋದ್ಯಮ	-10.7627
hy	-10.7628
▁ನ್ಯಾ	-10.763
▁Around	-10.763
▁victims	-10.7631
▁hath	-10.7632
▁ಪ್ಲಸ್	-10.7632
▁style	-10.7632
ons	-10.7636
▁ಅಂದು	-10.7637
▁8:	-10.7639
ರಾಗಿದ್ದ	-10.764
▁generation	-10.7643
▁ಸಚಿವಾಲಯದ	-10.7644
▁ಮೋದಿಯವರ	-10.7645
▁ಹ್ಯಾ	-10.7645
▁ಹೋದರು	-10.7646
▁moral	-10.7647
ಲ್ಲೆ	-10.7652
▁11:	-10.7656
▁ಹತ್ತು	-10.7657
▁righteous	-10.766
▁ಕೊಚ್ಚಿ	-10.7662
▁ರಷ್ಯಾ	-10.7671
▁directly	-10.7672
▁Sal	-10.7673
▁ಮುಂದ	-10.7674
▁ಮುಂದುವರೆಸ	-10.768
▁Pal	-10.7681
್ತ	-10.7685
ರಿನ	-10.7688
ಂಧ	-10.7694
▁ಭವಿಷ್ಯದ	-10.7694
▁Diwali	-10.7695
▁Traffic	-10.7695
▁commercial	-10.7695
▁potential	-10.7695
▁Internet	-10.7695
▁ಪರಿಣಾಮವಾಗಿ	-10.7695
▁defence	-10.7696
▁ನಿವೃತ್ತಿ	-10.7698
▁consist	-10.7703
▁ನಾಯಕಿ	-10.7704
ವರಲ್ಲಿ	-10.7705
▁aid	-10.7705
▁base	-10.7709
▁ಬರಲು	-10.7719
▁ಸಾಧ್ಯವಾಗ	-10.7721
▁ಬಲೆ	-10.7723
▁witness	-10.7724
▁ಗಳಿಸಿ	-10.7724
▁Men	-10.7726
▁providing	-10.7729
▁ಬೌಲಿಂಗ್	-10.7729
▁rather	-10.7729
▁stood	-10.773
▁ಜುಲೈ	-10.773
▁warned	-10.773
▁Free	-10.7731
ಜೀ	-10.7733
▁cool	-10.7734
▁ಸಹಜವಾಗಿ	-10.7735
ನಾಥ್	-10.7736
▁ತಂಡದಲ್ಲಿ	-10.7736
▁ಕಾರ್ಮಿಕ	-10.7736
▁ಖಂಡಿಸ	-10.7739
ect	-10.774
eg	-10.7741
▁ಅದರಂತೆ	-10.7741
ರಂತೆ	-10.7744
▁aim	-10.7744
▁wear	-10.7745
▁ಬಗ್ಗೆಯೂ	-10.7746
▁ಕೂಗ	-10.7747
35	-10.7747
ಲ್ಸ್	-10.775
ವತಿ	-10.7751
ುವಂಥ	-10.7751
▁Mal	-10.7755
▁BSP	-10.7756
▁ನಾಗ	-10.7758
▁Asian	-10.776
▁ಯತ್ನ	-10.7763
▁Joseph	-10.7764
▁stories	-10.7764
▁vaccine	-10.7764
▁rising	-10.7765
▁voters	-10.7765
▁Bha	-10.7766
▁ಸಲ್ಲಿಕೆ	-10.7766
▁followers	-10.7769
ನೀನು	-10.7771
ತೇ	-10.7772
▁ಕ್ಷೇತ್ರದಿಂದ	-10.7773
▁Mysuru	-10.7773
▁ನೀಡಲಿದೆ	-10.7775
▁animal	-10.7775
▁ಜೀವನವನ್ನು	-10.7776
▁ಅಲ್ಲವೇ	-10.7779
▁ಯೆ	-10.778
ಪಕ್ಷ	-10.7783
▁AAP	-10.7784
▁ಹಬ್ಬದ	-10.779
▁Action	-10.779
ರೈ	-10.7794
▁ಸಂವಿಧಾನದ	-10.7795
▁thoughts	-10.7795
▁ಗಮನಾರ್ಹ	-10.7796
▁ಘಟಕದ	-10.7798
▁ಉಳಿಸ	-10.7798
▁category	-10.7798
▁ಕಂಪ್ಯೂಟರ್	-10.7798
▁ವಂಚನೆ	-10.7798
▁ಹೋಟೆಲ್	-10.7798
▁ಹೊರತುಪಡಿಸಿ	-10.7799
▁terrorism	-10.7799
▁Adam	-10.78
ನಿಮ್ಮ	-10.7803
▁ಯಾವುದೂ	-10.7806
je	-10.7806
▁ಹಲವರು	-10.7807
▁ಏನೋ	-10.7807
ಏ	-10.7809
▁device	-10.781
▁Motor	-10.7813
▁principles	-10.7813
▁ತಾಯಿಯ	-10.7814
ain	-10.7815
▁ಇನ್ನೊಬ್ಬ	-10.7815
▁ಕಂ	-10.782
▁ಫೈ	-10.782
▁ಸಿಗುವ	-10.7824
▁ಗ್ರಾಹಕರ	-10.7827
▁ಆಕೆಯನ್ನು	-10.7829
ಸ್ಥಾನ	-10.783
▁ಯೆಹೋವನನ್ನು	-10.7831
▁ತಿರುಗಿ	-10.7832
▁Information	-10.7833
▁pandemic	-10.7833
▁ಬದಲು	-10.7833
▁ವರ್ತಿಸ	-10.7834
▁Bharatiya	-10.7834
▁ನೆನಸ	-10.7834
▁ಆ್ಯಪ್	-10.7835
▁ಅರವಿಂದ್	-10.7836
▁ಲವ್	-10.7836
▁ಬೀಜ	-10.7837
▁ತಪಾಸಣೆ	-10.7837
▁broken	-10.7845
form	-10.7846
▁ಜಿಲ್ಲೆಗಳಲ್ಲಿ	-10.785
light	-10.7854
ರಣ	-10.7855
▁SC	-10.7856
▁responded	-10.7856
▁ಮಾತುಗಳು	-10.7858
▁ದಿನಾಚರಣೆ	-10.7859
▁bowl	-10.7861
▁ಆಸ್ಪತ್ರೆಯ	-10.7865
pped	-10.7865
▁ಸ್ವರ್ಗ	-10.7866
▁compensation	-10.7868
▁scared	-10.7868
▁sweet	-10.7868
▁ಬೆಳ್ಳುಳ್ಳಿ	-10.7868
▁numerous	-10.7868
▁Covid	-10.7868
▁RAM	-10.7869
▁ಇದಾಗಿದೆ	-10.787
ita	-10.787
▁showed	-10.787
▁ಕಳೆದುಕೊಳ್ಳ	-10.7871
▁program	-10.7872
▁ಸಾಧ್ಯವಾಗಿಲ್ಲ	-10.7873
▁ಆತ್ಮಹತ್ಯೆಗೆ	-10.7874
▁ಕೋಟ್	-10.7876
ಕಾರ್ಯ	-10.7878
▁Service	-10.788
▁ಮಂಡಳಿಯ	-10.7881
▁slogans	-10.7882
▁56	-10.7882
▁reduced	-10.7885
▁ಉತ್ತರಿಸ	-10.7885
▁ಕಾಶ್ಮೀರದಲ್ಲಿ	-10.7888
ೀಗ	-10.7891
▁raise	-10.7893
▁ಶೆ	-10.7894
▁waste	-10.7897
▁Deve	-10.7898
ೆಂಬ	-10.7898
iz	-10.7902
▁crowd	-10.7902
▁ನವೆಂಬರ್	-10.7902
▁ಪ್ರಾದೇಶಿಕ	-10.7902
▁ಮಸೀದಿ	-10.7902
▁ಸಂವಹನ	-10.7902
▁Sometimes	-10.7902
▁ಸಿಂಧು	-10.7902
▁anointed	-10.7904
aw	-10.7907
▁ಸ್ತ್ರೀ	-10.7908
▁ಗೋಡೆ	-10.7909
▁super	-10.791
ೀಸ್	-10.7911
▁ನನ್ನು	-10.7911
▁Ahmedabad	-10.7912
▁ಸುಧಾರಿಸ	-10.7912
▁instead	-10.7913
▁ಸಚಿವರ	-10.7913
▁ಅಳವಡಿಸ	-10.7914
▁infection	-10.7915
▁mistake	-10.7915
▁ಪಾತ್ರವನ್ನು	-10.7915
▁ಒಪ್ಪಿಸ	-10.7919
▁ತಡೆಯ	-10.7919
▁ಕಟ್ಟಿ	-10.7922
▁contesting	-10.7926
▁goals	-10.7926
ರುತ್ತದೆ	-10.7929
ಕಾರ್	-10.793
They	-10.793
illa	-10.7933
▁ವಿಷ	-10.7935
▁Civil	-10.7937
▁Nitish	-10.7937
▁aircraft	-10.7938
▁Prize	-10.7938
▁ಪರಿಪೂರ್ಣ	-10.7938
▁ಸೀಟು	-10.7938
್ತಿ	-10.7939
▁awareness	-10.7939
▁shut	-10.794
▁Afghanistan	-10.7941
▁divided	-10.7941
▁ಹೊಂದಿರುತ್ತದೆ	-10.7942
▁investigated	-10.7944
▁ಸ್ವರೂಪ	-10.7944
▁Start	-10.7946
▁ಸೂಚಿಸುತ್ತದೆ	-10.7946
▁ವಾರ್ತೆ	-10.7948
▁ದೇಶಗಳಲ್ಲಿ	-10.7949
▁Forest	-10.7949
und	-10.7951
referred	-10.7951
▁ಆಧಾರಿತ	-10.7951
▁ಸ್ಥಾನವನ್ನು	-10.7954
▁Star	-10.7958
▁ಹಾಕಿದ	-10.796
▁ಸ್ನೇಹಿತರು	-10.7963
ged	-10.7965
ಬೇಕಾಯಿತು	-10.7966
▁ಪ್ರಶ್ನೆಗಳನ್ನು	-10.7968
▁holds	-10.7969
ಗಳಿಗಿಂತ	-10.7971
▁ಬರೀ	-10.7972
▁Agriculture	-10.7972
▁circumstances	-10.7972
▁independent	-10.7972
▁survey	-10.7972
mAh	-10.7972
▁species	-10.7972
▁ಮಾಲಿನ್ಯ	-10.7972
▁ಯಾವತ್ತೂ	-10.7972
▁ಆಕ್ಷೇಪ	-10.7973
▁ಬಾಬು	-10.7974
▁ಜೂನ್	-10.7977
▁ತರಕಾರಿ	-10.7977
Fi	-10.7977
▁ಪ್ರೆಸ್	-10.7977
▁ಪರ್ವತ	-10.7978
▁ವೃದ್ಧ	-10.7978
▁quickly	-10.7978
ible	-10.7979
▁ಮತ್ತಾಯ	-10.7981
▁promised	-10.7982
ಷ್ಟೆ	-10.7983
▁ಜಾರಿಗೊಳಿಸ	-10.7984
▁ಎನಿಸ	-10.7987
▁ನಿದ್ದೆ	-10.7988
▁ವೈಜ್ಞಾನಿಕ	-10.7989
▁ನದಿಯ	-10.7989
ಠ	-10.7994
▁prove	-10.7997
▁ಪಾಂಡ್ಯ	-10.7997
ಯುಕ್ತ	-10.7997
▁fair	-10.8001
▁entered	-10.8001
AT	-10.8003
dh	-10.8006
▁ಸಂಸತ್	-10.8007
▁deputy	-10.8008
▁dismissed	-10.8008
▁ಉತ್ತೇಜನ	-10.8008
▁ರಹಸ್ಯ	-10.8008
▁ವಶಪಡಿಸಿಕೊಂಡ	-10.8008
▁ಮಂಡ್ಯ	-10.8008
▁minimum	-10.8008
▁ತರುವಾಯ	-10.8008
▁rice	-10.8008
▁ಕ್ರೈಸ್ತರು	-10.8009
▁ಪರಿಣಾಮಕಾರಿ	-10.8012
ಗ್ಗ	-10.8012
▁association	-10.8013
▁ಇದೆಲ್ಲ	-10.8015
ama	-10.8019
▁ಅಭಿ	-10.802
▁ಉಲ್ಲೇಖಿಸ	-10.802
▁ನಲ್ಲಿರುವ	-10.802
▁ತೆಗೆದುಹಾಕ	-10.8021
▁Tri	-10.8026
▁shown	-10.8026
▁ಎತ್ತರ	-10.8026
▁ಮಹಿಳೆಯ	-10.8027
▁ಆಜ್ಞೆ	-10.8027
ಸೂ	-10.8034
▁Sara	-10.8035
eva	-10.8035
▁ದಿನೇ	-10.8037
▁Sushma	-10.8043
▁accompanie	-10.8043
▁driving	-10.8043
▁impossible	-10.8043
▁mankind	-10.8043
▁middle	-10.8043
▁priority	-10.8044
▁cl	-10.8046
ವಾಗಿಯೂ	-10.8048
▁UK	-10.8049
uch	-10.8051
▁particularly	-10.8051
▁forms	-10.8052
▁product	-10.8054
ೀನ್	-10.8054
▁expression	-10.8056
▁prize	-10.8057
▁ಗಾಗಿ	-10.8059
▁ಸಲ್ಲಿಸಿದರು	-10.8059
▁ಜಿಬಿ	-10.8059
▁destroy	-10.8063
▁Karan	-10.8064
▁ಅನ್	-10.8066
▁ನಂಬಿಗಸ್ತ	-10.8066
▁ಸೇ	-10.8074
▁ನಡೆ	-10.8074
▁internet	-10.8079
▁lake	-10.8079
▁permission	-10.8079
ನಿನ	-10.808
▁ಸುಮ್ಮನೆ	-10.8081
▁described	-10.8082
ಹೋದ	-10.8082
▁Fund	-10.8082
▁ಬಾಲ	-10.8086
▁ಭಾಗದ	-10.8088
▁advantage	-10.8093
▁trial	-10.8093
▁ಬಾಲ್	-10.8094
▁ಯೋಹಾನ	-10.8101
▁ಹರಿಸ	-10.8103
▁ಕೂಟ	-10.8106
▁ತೆಗೆಯ	-10.8107
ಲಾಗಿ	-10.8108
▁finally	-10.811
law	-10.811
ಥ್	-10.811
▁beyond	-10.8114
▁conflict	-10.8114
ರಹಿತ	-10.8114
ug	-10.8114
ಸ್ವಾಮಿ	-10.8115
▁ತನ್ನದೇ	-10.8118
▁ಗಣ್ಯರು	-10.812
▁ವಿಶ್ವವಿದ್ಯಾನಿಲಯ	-10.8121
▁regularly	-10.8122
▁November	-10.8123
▁ಮಾಡಿದ್ದೇನೆ	-10.8127
ther	-10.8128
ುವುದಾದರೆ	-10.813
▁ಅದನ್ನ	-10.8132
ಯನ	-10.8132
▁seeds	-10.8133
▁na	-10.8134
▁ಎಚ್ಚರಿಕೆಯಿಂದ	-10.8135
▁ತಾಳ್ಮೆ	-10.8137
▁Kamal	-10.8138
ಯಲ್	-10.8138
▁ಮೋಟಾರ್	-10.8141
▁51	-10.815
▁ತಿಳಿವಳಿಕೆ	-10.815
▁Indira	-10.815
▁ನೋಟು	-10.815
▁ಹೇಳಿದ್ದ	-10.8152
▁anybody	-10.8152
▁ಇದ್ದರೆ	-10.8154
▁ಮೇರೆಗೆ	-10.8154
▁ಸಾಂಪ್ರದಾಯಿಕ	-10.8157
18	-10.8157
▁gr	-10.816
▁ಮಹ	-10.8163
ಲಿನ್	-10.8166
▁ಅಪರಾಧಿ	-10.8167
▁foot	-10.8168
▁remove	-10.8172
▁144	-10.8175
▁ಲಾರಿ	-10.8176
ದೊ	-10.8176
▁ನಿಯಂತ್ರಿಸ	-10.8177
▁ji	-10.8184
▁ಧರ್ಮದ	-10.8185
▁race	-10.8186
▁creation	-10.8186
▁ಕೈಗಾರಿಕಾ	-10.8186
▁Mangalore	-10.8186
▁ಜಾಸ್ತಿ	-10.8186
▁Human	-10.8187
▁ಗೌರವಿಸ	-10.8187
ನಂತೆ	-10.8189
▁ಬಳಸಲಾಗುತ್ತದೆ	-10.819
ಹೋ	-10.819
▁ಸಾರುವ	-10.8191
▁ಪರಿಗಣಿಸಿ	-10.8191
▁promise	-10.8192
▁views	-10.8193
▁ತಡೆಯಲು	-10.8194
45	-10.8195
▁terrorist	-10.8202
▁ಜು	-10.8204
▁toss	-10.8209
▁52	-10.8212
▁avail	-10.822
las	-10.822
▁ಶೇರ್	-10.8221
▁privilege	-10.8222
▁angry	-10.8222
▁Ravindra	-10.8222
▁ಉಪಯುಕ್ತ	-10.8223
▁injury	-10.8223
▁ರಾಜ್ಯಾಧ್ಯಕ್ಷ	-10.8223
▁highway	-10.8224
ಲಂ	-10.8226
▁Jio	-10.8226
ಬೇಕಾಗಿಲ್ಲ	-10.8226
▁ತೆ	-10.8227
▁ಕಾರಣವೇನು	-10.8228
oth	-10.8228
▁established	-10.823
▁ಗೌರಿ	-10.8232
ರಾಮ್	-10.8237
▁Ca	-10.824
▁128	-10.8241
ಸಿಸ್	-10.8242
▁ಮಹಾರಾಷ್ಟ್ರದಲ್ಲಿ	-10.8246
▁ಬಯಸುವ	-10.8247
ಾರ್	-10.8249
▁ಉತ್ತಮವಾಗಿ	-10.825
▁exact	-10.8252
ಂಕ	-10.8252
▁o	-10.8257
▁Authority	-10.8258
▁battery	-10.8259
▁ನೆರವೇರ	-10.8261
ris	-10.8263
▁Give	-10.8268
▁October	-10.8268
ko	-10.8269
▁ಹಿಂದು	-10.827
▁ಹೆತ್ತವರು	-10.8271
▁explained	-10.8272
ಳಿಗೆ	-10.8273
▁hate	-10.8276
▁homes	-10.8279
▁14:	-10.828
▁ಟೂರ್ನಿಯಲ್ಲಿ	-10.828
ren	-10.8284
ೀಕರಿಸ	-10.8285
▁ಯಶಸ್ವಿಯಾಗ	-10.8285
▁Du	-10.8286
▁pm	-10.8288
▁danger	-10.8293
▁Sindhu	-10.8294
▁ದೀಕ್ಷಾಸ್ನಾನ	-10.8294
▁1/2	-10.8294
▁digital	-10.8294
▁ongoing	-10.8294
▁5,	-10.8296
captain	-10.8297
▁ಮುಚ್ಚಿ	-10.8297
▁organisations	-10.8298
▁ಡಿಸೆಂಬರ್	-10.8301
▁ಹರಿದು	-10.8302
let	-10.8302
ಬೇಕ	-10.8307
▁ಯೋಚಿಸಿ	-10.8308
▁pick	-10.8309
▁ಪಾಲ	-10.8309
▁method	-10.8311
▁ಹಾದಿ	-10.8313
ue	-10.8315
▁reflect	-10.8315
ger	-10.8316
▁honoured	-10.8319
ಮರ	-10.8321
▁ಹಕ್ಕುಗಳ	-10.8321
ಿಕಾ	-10.8323
▁strict	-10.8323
▁14.	-10.8325
▁mode	-10.8325
ನ್ಯಾ	-10.8327
mortem	-10.8329
ಕಿಂಗ್	-10.8329
▁History	-10.833
▁moving	-10.833
▁ಉಳಿತಾಯ	-10.833
▁partnership	-10.8331
▁inspired	-10.8333
▁worlds	-10.8334
▁assured	-10.8334
row	-10.8337
▁ಏರಿಕೆಯಾಗಿದೆ	-10.8338
bra	-10.8342
▁kg	-10.8346
▁ಮಧ್ಯಪ್ರದೇಶ	-10.8347
▁organization	-10.8348
▁180	-10.835
▁ತಯಾರಿಸ	-10.8351
▁professional	-10.8352
▁ದಳದ	-10.8352
ಿರುವುದನ್ನು	-10.8352
▁ಹಿಂಸೆ	-10.8353
ನಾಥ	-10.8353
▁ಡ್ರಾ	-10.8354
ef	-10.8357
rate	-10.8357
ಅವರು	-10.8359
▁produces	-10.8361
▁ನಡೆದಿತ್ತು	-10.8363
▁favour	-10.8364
ಫರ್	-10.8366
▁ಆರೋಗ್ಯಕ್ಕೆ	-10.8367
▁receiving	-10.8367
▁failure	-10.8367
▁laid	-10.8367
▁sheep	-10.8369
▁ವರ್ಷಗಳಲ್ಲಿ	-10.837
▁11.	-10.837
▁theres	-10.8373
▁ಎಂಬುದಾಗಿ	-10.8373
▁IT	-10.8375
▁couldnt	-10.8375
▁forever	-10.8376
▁questioned	-10.8377
▁buses	-10.8379
app	-10.838
▁ಬೀ	-10.8381
isation	-10.8384
▁ಆರೋಪಿಗಳು	-10.8384
,500	-10.8385
▁ವೀಕ್ಷಿಸ	-10.8388
▁delivered	-10.8388
uk	-10.8394
▁ಹಿತ	-10.8395
ಜ್ಜ	-10.8397
▁slow	-10.8397
▁ದಾಳಿಯ	-10.8397
ಮನೆ	-10.8398
▁ಸೇನೆಯ	-10.8402
▁complex	-10.8403
▁memory	-10.8403
▁ಪಂಚಾಯಿತಿ	-10.8403
▁ವಲಸೆ	-10.8403
▁ಉತ್ಸವ	-10.8404
▁Help	-10.8404
pat	-10.8405
▁handle	-10.8407
▁mine	-10.8407
ten	-10.8411
▁ಆಯೋಜಿಸ	-10.8412
▁ಒದಗಿಸುತ್ತದೆ	-10.8415
▁ಪದೇ	-10.8418
ುವುದಕ್ಕಾಗಿ	-10.8419
▁ಸ್ಥಾಪನೆ	-10.842
▁6-	-10.842
▁ಶುಭಾಶಯ	-10.8423
ls	-10.8425
99	-10.8426
ವಾದುದು	-10.8427
▁ಅರ್ಹತೆ	-10.843
ender	-10.8435
ami	-10.844
▁ಭೂಕಂಪ	-10.844
▁contract	-10.844
▁ಅಂದ್ರೆ	-10.8443
Congress	-10.8445
▁sell	-10.8448
ವಾಡ	-10.8449
▁ಮೇಲೂ	-10.8454
▁September	-10.8457
▁ಸ್ಥಳಗಳಲ್ಲಿ	-10.8457
▁crops	-10.8457
▁Top	-10.8459
▁Though	-10.8461
▁54	-10.8462
▁Services	-10.8464
ory	-10.8465
▁ಕೆಲಸಕ್ಕೆ	-10.8465
▁ಅನ್ವಯಿಸ	-10.8466
▁surprise	-10.8467
ಗೊಂಡು	-10.8469
▁militants	-10.8469
▁ಗೋಲು	-10.8469
ಚು	-10.8471
dia	-10.8474
▁ಸ್ಪ	-10.8475
▁ಖಾ	-10.8476
▁Mishra	-10.8477
▁mishap	-10.8477
▁ಓಪನ್	-10.8477
▁ರಿಲೀಸ್	-10.8477
▁ಪಾಂಡೆ	-10.8483
▁ಮಾಡಿತು	-10.8484
▁ತಂಡವು	-10.8487
▁ಹಿಟ್	-10.8487
▁ಅಧ್ಯಕ್ಷತೆಯಲ್ಲಿ	-10.849
▁ಆಕೆಗೆ	-10.8491
▁ಮಹಾರಾಷ್ಟ್ರದ	-10.8492
▁seed	-10.8493
▁ದಾವೀದನು	-10.8493
ನಾಗಿದ್ದ	-10.8494
ಯೋಗ	-10.8495
▁patient	-10.8496
▁succeed	-10.8499
▁ಗೊತ್ತಾಗ	-10.8502
▁Ganesh	-10.8507
▁ಪ್ರಯಾಣಿಕರ	-10.8508
▁ಅನಿಸ	-10.851
90	-10.8511
▁Was	-10.8512
▁ಹುಟ್ಟಿದ	-10.8513
▁Foreign	-10.8514
▁ಅಹ್ಮದ್	-10.8514
▁ಒಡಿಶಾ	-10.8514
▁permanent	-10.8514
▁drop	-10.8514
▁Money	-10.8514
▁everybody	-10.8515
▁ಇಳಿಯ	-10.8517
▁Devi	-10.8519
▁upset	-10.8519
▁ಅಗತ್ಯವಿರುವ	-10.8521
▁ಆಫರ್	-10.8524
▁ಅಸ	-10.8525
ans	-10.8526
▁ತಂದಿದೆ	-10.8527
▁ಪುಣೆ	-10.8527
▁ವಲಯದಲ್ಲಿ	-10.8528
ನಾದರೂ	-10.8529
▁ಸ್ಪರ್ಧೆಯಲ್ಲಿ	-10.8529
▁occur	-10.8533
▁ticket	-10.8533
▁fail	-10.8536
▁prizes	-10.8536
▁ನೀಡಿತ್ತು	-10.8539
▁ಸಹೋದರಿ	-10.854
▁comments	-10.854
▁ತರಗತಿ	-10.8542
yan	-10.8547
ುವಿರಿ	-10.8547
▁ಲೋ	-10.8549
▁Rama	-10.855
▁Jadhav	-10.8551
▁Rajinikanth	-10.8551
▁Udupi	-10.8551
▁ಆರೈಕೆ	-10.8551
▁Shikhar	-10.8551
▁Express	-10.8552
No	-10.8552
▁ರೀ	-10.8557
▁Te	-10.856
ಟಿಕ್	-10.8562
▁Manish	-10.8565
▁ದಾವೀದನ	-10.857
▁Chi	-10.8573
▁ಕಾಂ	-10.8576
▁ಭಾ	-10.8578
▁ಭಾರತವನ್ನು	-10.8578
▁posts	-10.8579
ಾಣ	-10.8581
▁6,	-10.8581
▁ಎಂಥ	-10.8581
q	-10.8582
▁ವ್ಯಾ	-10.8582
▁household	-10.8583
▁communication	-10.8589
▁automatic	-10.8589
▁Hardik	-10.8589
▁alive	-10.8589
▁Ge	-10.859
▁ಬ್ರೇಕ್	-10.8591
▁ಸಾಕ್ಷಿಗಳು	-10.8592
▁ಸ್ಥಾನಮಾನ	-10.8593
▁structure	-10.8594
▁ಯೋಜನೆಗೆ	-10.8596
ದ್ದೇವೆ	-10.8607
▁ಎಲ್ಲಿಂದ	-10.8607
▁ಮತ್ತ	-10.861
▁ಆಡಿ	-10.8612
▁ನಿಯಮಗಳು	-10.8613
▁ಮೋದಿಯವರು	-10.8615
▁ಒದಗಿಸುವ	-10.862
▁ಆಂಧ್ರಪ್ರದೇಶ	-10.8621
ದ್ದಾಗಿದೆ	-10.8625
▁Govt	-10.8626
▁ಬೌಲರ್	-10.8626
▁ಸಿಸಿಟಿವಿ	-10.8626
▁Transport	-10.8626
▁ಸಹಕರಿಸ	-10.8628
▁Iran	-10.8628
▁harm	-10.8629
▁kindness	-10.863
▁ನಮಗ	-10.8631
▁ವಸ್ತುಗಳನ್ನು	-10.8633
▁surprised	-10.8636
▁ಹೃದಯದ	-10.8641
ನಾಲ್	-10.8651
▁85	-10.8654
▁ಶ್ರಮಿಸ	-10.8655
▁ಸಹೋದರರ	-10.8658
▁ಹೇಳುತ್ತಾನೆ	-10.8658
▁pieces	-10.8659
▁ಬಲವಾದ	-10.866
▁ಕಡಿತ	-10.8661
ker	-10.8663
▁Solomon	-10.8664
▁Yediyurappa	-10.8664
▁honor	-10.8664
▁cancelled	-10.8664
▁background	-10.8664
win	-10.8665
▁warning	-10.8665
▁ಆದಿತ್ಯನಾಥ್	-10.8665
dal	-10.8668
▁ದಯೆ	-10.8669
▁ಪರೀಕ್ಷಿಸ	-10.8669
▁ವಿವರಿಸಿದರು	-10.867
▁ಸ್ಪಷ್ಟನೆ	-10.8671
▁whatever	-10.8672
▁ನ್ಯೂಸ್	-10.8678
14	-10.8679
ಲ್ವಾ	-10.868
▁ಮಂದಿಗೆ	-10.8681
▁ಆಯ್ಕೆಯನ್ನು	-10.8682
▁ಇವೆಲ್ಲ	-10.8683
▁tips	-10.8684
ಸಾವನ್ನಪ್ಪಿದ್ದಾರೆ	-10.8687
▁ವಕೀಲ	-10.8687
▁ನಿಖರ	-10.8692
▁ಹೆಸರಿನ	-10.8694
ಯನ್ನೇ	-10.8694
▁Guru	-10.8696
▁ನಿಮಗ	-10.8698
▁ಪ್ರತೀ	-10.8699
▁ಕಾರ್ಯಕ್ರಮವನ್ನು	-10.8701
▁Economic	-10.8701
▁Mysore	-10.8701
ಾಯ	-10.8702
▁ಗುಂಡು	-10.8702
▁fan	-10.8702
▁Rajesh	-10.8703
▁authority	-10.8703
ರಲ್ಲ	-10.8705
▁ಇರಾನ್	-10.8705
CA	-10.8706
▁Wash	-10.8706
▁ಮುಂದುವರಿದಿದೆ	-10.8708
▁ಷಾ	-10.8709
▁Dev	-10.8711
▁ಶಿಬಿರ	-10.8711
ಸಭಾ	-10.8713
ft	-10.8715
ಪಟ್ಟ	-10.8715
▁ಅನುಮತಿಸ	-10.8718
▁ದರ್ಶನ	-10.872
▁signed	-10.8723
ಲಿದ್ದೇವೆ	-10.8724
▁nearly	-10.8725
ಬೇಕೆಂದ	-10.8728
ಕ್ಕೇ	-10.8728
▁ಕಾರಣದಿಂದ	-10.8733
▁ಜೀವಿಸ	-10.8736
▁degrees	-10.8737
▁Woman	-10.8739
▁ಸುಶಾಂತ್	-10.8739
▁ನೋಟಿಸ್	-10.8739
▁vital	-10.874
▁properties	-10.874
▁resign	-10.8741
▁ಹೋಯಿತು	-10.8741
▁ಅಂದಾಜು	-10.8743
▁Mark	-10.8746
ಲಾಗುವುದಿಲ್ಲ	-10.8747
What	-10.8747
300	-10.8748
▁ಮಣಿ	-10.8748
▁1000	-10.8749
▁store	-10.8751
ೋತ್ಸವ	-10.8753
▁male	-10.8756
▁ಕೊಂದ	-10.8757
NS	-10.8757
▁Lal	-10.8758
▁ಜೋಡಿಸ	-10.8758
▁Games	-10.8759
▁ಮಾಡಿಕೊಂಡಿದ್ದಾರೆ	-10.8761
▁items	-10.8764
▁ಯೋಜನೆಗಳನ್ನು	-10.8764
ಂಡಾ	-10.8765
▁writer	-10.8766
rt	-10.8766
▁ಬಗೆ	-10.8766
▁ಕ್ರಿ	-10.8767
▁ಇನ್ನಿತರ	-10.8767
ight	-10.8771
▁ಮುಂದುವರಿದ	-10.8772
▁ಆಯೋಗದ	-10.8773
ವಿಲ್ಲದ	-10.8777
▁KPCC	-10.8777
▁Pulwama	-10.8777
▁ವ್ಯರ್ಥ	-10.8777
▁Leader	-10.8777
▁ನೇಮಕಾತಿ	-10.8777
▁ಅಂಗೀಕರಿಸ	-10.8778
▁Book	-10.8778
▁ಅರ	-10.8778
▁ಹೀರೋ	-10.8779
▁perform	-10.8781
▁wind	-10.8781
▁ಯುಎಸ್	-10.8782
▁ಅಕ್ಟೋಬರ್	-10.8784
int	-10.8785
▁ಚೌಕ	-10.8787
▁ಹಾಕಿದ್ದಾರೆ	-10.8788
▁mu	-10.8791
▁Change	-10.8798
▁ಮೇಲ್	-10.8799
▁tourist	-10.88
ಿಸಿಕೊಂಡ	-10.8802
▁ದಿನಗಳಿಂದ	-10.8804
▁ಬೋಧಿಸ	-10.8805
▁ಕೇರಳದ	-10.8809
▁ಅನಿಲ	-10.881
ಂಗಿ	-10.8811
▁Ask	-10.8812
▁ನೆರೆ	-10.8812
▁welfare	-10.8815
▁ನಿತೀಶ್	-10.8815
▁Kuldeep	-10.8816
▁ಜ್ವರ	-10.8816
▁ಸಿಲಿಂಡರ್	-10.8816
▁ತೊಳೆಯಿರಿ	-10.8816
▁sitting	-10.8817
▁ಚಿತ್ರಗಳಲ್ಲಿ	-10.8817
▁ವಿತರಿಸಲಾಯಿತು	-10.8817
▁commission	-10.8819
▁72	-10.882
by	-10.8821
▁scientific	-10.8821
▁Art	-10.8823
▁ಒಕ್ಕೂಟ	-10.8824
▁ವಹಿಸಿ	-10.8825
▁priced	-10.8825
ಹೇ	-10.8826
▁phones	-10.8826
ದಿರಿ	-10.8826
▁ನಡೆಯುತ್ತದೆ	-10.8828
▁filled	-10.8828
▁ಷ	-10.8834
▁consult	-10.8836
▁ಪೀ	-10.884
▁ವಿವಿ	-10.884
▁increases	-10.8845
▁ಸಮುದಾಯದ	-10.8848
▁god	-10.8848
▁ಹಗರಣ	-10.8849
▁extra	-10.8852
▁ಮುಂದುವರೆಯ	-10.8852
▁ವಿನಾಯಿತಿ	-10.8854
▁statue	-10.8854
▁ಭೀಕರ	-10.8854
▁anywhere	-10.8855
▁ರೆಡ್	-10.8855
ವಂತೆ	-10.8856
▁ಗ್ರಾಮದಲ್ಲಿ	-10.8856
▁ದಾಖಲಾಗಿತ್ತು	-10.8857
▁ಬೇಗನೆ	-10.8857
AI	-10.8858
▁factors	-10.8862
ಕ್ತ	-10.8863
▁reporters	-10.8865
▁ಉಗ್ರರು	-10.8868
▁ನೀಡುವುದಿಲ್ಲ	-10.887
nam	-10.887
▁achieved	-10.887
▁ಜನವರಿ	-10.8871
ಪಾಲ	-10.8872
▁discussions	-10.8873
▁ಜನತೆಗೆ	-10.8876
▁Ab	-10.8876
▁depend	-10.8878
▁block	-10.8878
▁ದಿವಸ	-10.8879
▁Hall	-10.8879
▁BJPs	-10.8885
▁ಸಂಪರ್ಕಿಸಿ	-10.8886
▁servant	-10.8889
▁External	-10.8892
▁ಕರಾವಳಿ	-10.8892
▁ಬ್ಲಾಕ್	-10.8892
▁edition	-10.8892
▁ಬ್ರಿಟನ್	-10.8892
▁bridge	-10.8893
▁villagers	-10.8894
▁Pawar	-10.8894
▁ಯತ್ನಿಸ	-10.8895
▁ಸೋದರ	-10.8897
▁ಟೂರ್ನಿ	-10.8898
ified	-10.8901
ಂಡೆ	-10.8903
▁ಅಗ್ರ	-10.8903
▁ಪೋರ್ಟ್	-10.8904
▁January	-10.8907
ೇತರ	-10.8909
▁ಸಮಸ್ತ	-10.8911
spec	-10.8911
inder	-10.8918
▁ಚು	-10.8921
▁ಚಿತ್ರಗಳನ್ನು	-10.8921
▁ತ್ರಿ	-10.8927
▁ಒತ್ತಾಯ	-10.8929
▁birds	-10.8929
▁58	-10.8929
▁ಸರ್ಕಾರದಿಂದ	-10.8929
▁ನಡೆದು	-10.893
▁Chidambaram	-10.8931
▁dress	-10.8931
▁ಸಾಕು	-10.8931
ery	-10.8933
▁ಸರಿಯಲ್ಲ	-10.8936
rang	-10.8939
▁Nav	-10.8943
ಾಂತರ	-10.8944
▁ಸ್ಥಗಿತಗೊಳಿಸ	-10.8945
▁ಇತಿಹಾಸದಲ್ಲಿ	-10.8947
▁ಸಮೀಪದ	-10.8947
▁clash	-10.8948
▁ತ್ಯಾಗ	-10.8951
▁expand	-10.8954
ೇಷನ್	-10.8966
▁ಅಭಿನಯದ	-10.8969
▁ಅಕಾಡೆಮಿ	-10.897
▁ವೀಡಿಯೋ	-10.897
▁ನಿಗಮ	-10.897
▁bread	-10.897
▁Gopal	-10.8971
▁Report	-10.8971
▁Play	-10.8972
▁panel	-10.8972
▁ಕೊಂಚ	-10.8972
▁ಸಾಧ್ಯವಾಗಲಿಲ್ಲ	-10.8972
▁activists	-10.8975
▁ನ್ಯೂಯಾರ್ಕ್	-10.8975
▁ದೃಢ	-10.8975
ವರಾಗಿ	-10.8976
▁ವಿವೇಕ	-10.8977
▁December	-10.8978
▁ಪ್ರತಿಯೊಬ್ಬರೂ	-10.8978
▁August	-10.8985
▁ಆಕಾಶ	-10.8987
▁15,	-10.8988
▁union	-10.899
▁schemes	-10.8993
▁Launch	-10.8993
▁ಈತ	-10.8994
▁influence	-10.8999
▁ಮೊರೆ	-10.9
▁ನಾಮ	-10.9001
▁load	-10.9001
wadi	-10.9002
▁French	-10.9009
▁Investigation	-10.9009
▁twice	-10.9009
▁ತದನಂತರ	-10.9009
▁ಮಧುಮೇಹ	-10.9009
▁ನೇಪಾಳ	-10.9009
▁Black	-10.9009
▁ಬೋಧನೆ	-10.9009
▁ಬಾರ್	-10.9009
ಜನ್	-10.9012
ಿಸಲ್ಪಟ್ಟ	-10.9014
▁ಬೀರುತ್ತದೆ	-10.9015
▁tour	-10.9016
▁ಸೆಪ್ಟೆಂಬರ್	-10.9018
▁shoot	-10.9018
▁whats	-10.9024
hood	-10.9024
100	-10.9024
▁Candidates	-10.9024
▁Jews	-10.9024
▁ನೀಡುತ್ತಾರೆ	-10.9027
ಾಯ್ತು	-10.9029
▁ನಂಬರ್	-10.903
▁ನಿಗಾ	-10.903
▁Jaya	-10.903
▁platform	-10.9031
▁ಧನ್ಯವಾದಗಳು	-10.9031
▁ಬೀಸ	-10.9033
ಮುಖ	-10.9034
▁Need	-10.9035
▁ರೋಗದ	-10.9042
▁addressed	-10.9043
▁ಅನಿವಾರ್ಯ	-10.9046
▁Hi	-10.9047
ರದ	-10.9048
▁iPhone	-10.9048
▁ವಿಳಾಸ	-10.9048
▁entry	-10.9048
▁prominent	-10.9048
▁Nepal	-10.9048
ದಿರುವ	-10.9048
▁ಪ್ರತಿಭೆ	-10.9048
▁ದ್ವೇಷ	-10.9051
ಯಾದರೂ	-10.9052
▁Head	-10.9054
uring	-10.9054
JD	-10.9054
▁compared	-10.9055
▁ಸಾರಿ	-10.9058
▁ನಾಯಿ	-10.9059
▁centuries	-10.9059
▁ಮಾಡುತ್ತಿಲ್ಲ	-10.906
ಪುರ್	-10.9063
rop	-10.9068
▁ನೀರಿನಿಂದ	-10.9069
▁shops	-10.9074
▁exam	-10.9076
▁Nar	-10.9078
ದಂತಹ	-10.9085
▁changing	-10.9087
▁council	-10.9087
▁ಪರಿಷತ್	-10.9087
▁ದೂರವಾಣಿ	-10.9087
▁color	-10.9088
▁Isaiah	-10.9088
ral	-10.9088
▁Currently	-10.9088
▁agreement	-10.9089
▁ಆರೋಪಿಸಿದ್ದಾರೆ	-10.909
▁Gauri	-10.9091
▁ತಂತ್ರ	-10.9092
▁ಕೈಗೊಂಡಿಲ್ಲ	-10.9093
▁ರಾಣಿ	-10.9096
ಿಸುತ್ತಾರೆ	-10.9096
▁ಮೌನ	-10.9097
▁threat	-10.9097
▁ಯಶಸ್ವಿಯಾಗಿ	-10.9098
▁ಅಭಿವೃದ್ಧಿಪಡಿಸ	-10.9101
▁ಅತ್ತ	-10.9103
▁ಕುಡಿಯ	-10.9107
▁ನಿರ್ಧಾರವನ್ನು	-10.9107
▁ಭಾರತ್	-10.9108
▁ಅಭಿನಂದನೆ	-10.9109
ore	-10.911
▁ಹೊಂದಿಲ್ಲ	-10.9113
ರೂಪ	-10.9113
▁ಸಂಬಂಧವನ್ನು	-10.9113
▁fathers	-10.9118
ಸೊ	-10.9119
ಲಾರೆ	-10.912
▁ಸರಣಿಯ	-10.912
ವಿಗೆ	-10.9122
▁ಬನ್ನಿ	-10.9124
▁ಬಂದಿದ್ದ	-10.9126
▁enemies	-10.9126
▁ಸೇತುವೆ	-10.9126
▁ಹೊಂದಾಣಿಕೆ	-10.9126
▁Pr	-10.9129
ದಲ್ಲಿದ್ದಾರೆ	-10.9129
▁ಮಾಡಲಿ	-10.9129
ತೀರ್ಪನ್ನು	-10.913
▁Das	-10.913
▁ಕರ್	-10.9132
▁ಮಿಶ್ರಾ	-10.9132
ಾಬಾದ್	-10.9137
level	-10.914
▁ಅಭಿಮಾನಿ	-10.9141
▁ವಿವರಗಳನ್ನು	-10.9142
▁ಕಾರ್ಮಿಕರ	-10.9143
▁ಗಾಯಾಳುಗಳನ್ನು	-10.9143
▁ಜಸ್	-10.9144
ists	-10.9144
oo	-10.9147
▁ಹೊತ್ತ	-10.9148
ಗಳಲ್ಲ	-10.9151
▁Protest	-10.9151
▁ಇವುಗಳಲ್ಲಿ	-10.9155
▁appear	-10.9155
▁ಮನಸ್ಸಿನಲ್ಲಿ	-10.9156
▁ಆಹಾರವನ್ನು	-10.9159
▁Great	-10.916
▁2019:	-10.9161
▁ಕಿವಿ	-10.9162
▁ಚಿದಂಬರಂ	-10.9166
▁guard	-10.9166
▁ಸಿನ್ಹಾ	-10.9166
▁legend	-10.9166
▁oath	-10.9166
▁ಕೀಪರ್	-10.9166
▁ಸಾಧ್ಯತೆಯಿದೆ	-10.9167
▁ಮುಂದುವರೆದಿದೆ	-10.917
ರೇಟ್	-10.917
▁ಭೇಟಿಯಾಗ	-10.9171
▁62	-10.9178
▁ಸವಾಲ	-10.918
▁ಮಾಡಿದ್ದೇವೆ	-10.9181
▁Ya	-10.9182
▁arrangements	-10.9185
▁ತಿಳಿಯಲು	-10.9188
▁sex	-10.9188
▁ಡೇಟಾ	-10.9192
ಷ್ಠ	-10.9194
▁ವಲಯದ	-10.9197
▁investigations	-10.9199
▁ಬಾಲಕ	-10.9203
▁ಸಿಡಿ	-10.9205
▁ಸರಾಸರಿ	-10.9205
▁banned	-10.9206
pr	-10.9206
▁ಶಾಸ್ತ್ರ	-10.9207
▁claims	-10.9207
▁Gen	-10.9212
▁ಕೇಳುವ	-10.9212
▁ಗ್ರಾಮಸ್ಥರು	-10.9213
▁plants	-10.9214
▁caus	-10.9214
▁ಇವರನ್ನು	-10.9215
▁ಆದಿ	-10.9216
▁explain	-10.9217
▁heavenly	-10.9217
65	-10.9219
▁thank	-10.922
▁ಯುವಕ	-10.9221
ದಾಗಿ	-10.9221
▁raped	-10.9222
▁emotional	-10.9227
▁ಬಳಸುವ	-10.9228
▁ನಗ	-10.923
▁59	-10.923
ina	-10.923
ಿರೋ	-10.9231
▁Note	-10.9232
▁ಹರ	-10.9232
▁ಆಗಮಿಸಿದ	-10.9239
▁Teachers	-10.9241
▁Any	-10.9241
ಕಾಯಿ	-10.9243
ಸಿನ	-10.9244
▁Second	-10.9244
▁ಆಶ್ರಯ	-10.9245
▁Proverbs	-10.9245
▁Republic	-10.9245
▁amazing	-10.9245
▁ಶೌಚಾಲಯ	-10.9245
▁ಸಹಕಾರಿ	-10.9245
▁motor	-10.9247
▁ಹಾರ್ದಿಕ್	-10.9248
▁ಶಿಖರ್	-10.9248
▁ಇಳಿಸ	-10.925
▁ಪ್ರವಾದಿ	-10.9252
▁ಬೆಳಗ್ಗೆ	-10.9252
▁ದಿಲ್ಲಿ	-10.9253
▁proved	-10.9256
▁resolved	-10.9256
▁ಅನಿಸಿಕೆ	-10.9257
▁ನಿಯಮಗಳನ್ನು	-10.9261
▁mis	-10.9262
▁ಕಾಲದ	-10.9263
▁ಡೈ	-10.9264
nic	-10.9265
ಬೇಕೆ	-10.9266
ಸೈ	-10.9266
▁select	-10.9267
▁ಮುಕ್ತಾಯ	-10.9267
ಿದಳು	-10.9268
ವರೆ	-10.9269
▁polling	-10.9273
▁ಸೇವಿಸಿ	-10.9273
▁ಕೃತಜ್ಞತೆ	-10.9273
ಟೇ	-10.9273
▁notes	-10.9274
▁standard	-10.9274
▁Shami	-10.928
▁ಮುಂದೂಡ	-10.928
▁ಮುಖರ್ಜಿ	-10.9285
▁ಸಂರಕ್ಷಣೆ	-10.9285
ುಗಳು	-10.9285
▁River	-10.9285
off	-10.9286
▁catch	-10.9286
▁scam	-10.9287
ini	-10.9288
▁Babu	-10.9289
▁ರೂಪದಲ್ಲಿ	-10.929
▁arent	-10.929
▁exactly	-10.9293
▁Mayor	-10.9294
▁ಮಗಳ	-10.9299
▁ಕಾಡು	-10.93
▁ಸಂಚಾರಕ್ಕೆ	-10.9302
ಿಕೆಯ	-10.9302
▁ಇಂಡಿಯನ್ಸ್	-10.9303
▁double	-10.9306
▁2020:	-10.9309
▁ಗ್ರಾಹಕರು	-10.9311
bit	-10.9315
ಳ್	-10.9315
▁Com	-10.9316
▁ನೋಡುವ	-10.9316
▁ಪ್ರಾಧಿಕಾರ	-10.9318
▁ಮರಿ	-10.9319
▁Sushant	-10.9325
▁ಪ್ರತಿಫಲ	-10.9326
▁righteousness	-10.9327
▁ವೀಡಿಯೊ	-10.9328
▁favourite	-10.9328
▁Joshi	-10.933
▁ಸಮಸ್ಯೆಗೆ	-10.9332
▁ಎಲ್ಲೆಡೆ	-10.9334
ರಾನ್	-10.9334
▁Further	-10.9334
ob	-10.9338
ೋಪ	-10.934
ಕ್ಕು	-10.9342
ಶಕ್ತಿ	-10.9342
▁records	-10.9346
▁ಇರಿಸಿ	-10.9346
▁Get	-10.9351
▁ಕೊಡಿ	-10.9353
▁Sea	-10.9353
▁expectations	-10.9353
▁ಗಳಿಸಿದ	-10.9354
▁8,	-10.9354
▁ಕಾದು	-10.9355
▁9:	-10.9355
▁ಅಗಲ	-10.9356
▁foundation	-10.9365
▁Ambedkar	-10.9366
್ರ	-10.9366
37	-10.9366
▁ಕರಣ್	-10.9366
▁Major	-10.9367
ಡಿಂಗ್	-10.9368
▁ಇಲ್ಲಿಯವರೆಗೆ	-10.9369
▁ಸಂಘಟನೆಯ	-10.937
▁wishes	-10.9371
▁ingredients	-10.9375
▁ಕೈಗೊಳ್ಳಲಾಗಿದೆ	-10.9375
▁ಥ	-10.9375
▁ಇಡಿ	-10.9377
▁ಗ್ರಾಮದ	-10.9377
▁ಅವಕಾಶವನ್ನು	-10.9378
▁ಗಳಿಸ	-10.9379
▁ಬಂಧನಕ್ಕೆ	-10.938
▁ಓಡ	-10.938
▁ಪಟ್ಟಣದ	-10.9384
▁sharing	-10.9385
▁contain	-10.9389
au	-10.9389
▁ಅದನ್ನೇ	-10.9392
ಿರಲಿ	-10.9394
▁ಪ್ರತಿಯೊಬ್ಬರ	-10.9398
▁ಕೌಶಲ	-10.9399
▁ಸೂರ್ಯ	-10.94
▁ವ್ಯಕ್ತಿಗಳು	-10.9401
▁ನಡೆದಿಲ್ಲ	-10.9403
▁ಅವಳನ್ನು	-10.9404
▁multi	-10.9406
▁Limited	-10.9406
▁slave	-10.9406
▁ಪ್ರಾಚೀನ	-10.9406
▁ಬಾಂಧವ್ಯ	-10.9406
▁Greek	-10.9406
▁Samaj	-10.9407
▁rose	-10.9407
▁ತೆಗೆದುಕೊಳ್ಳಿ	-10.9407
▁Rajkumar	-10.9407
▁straight	-10.9407
▁ರಾಜ್ಯಕ್ಕೆ	-10.9409
▁error	-10.941
ಾಂಗ	-10.9414
▁ನೆರ	-10.9414
▁park	-10.9418
▁ಪ್ರತಿಭಟನಾಕಾರರು	-10.9419
▁ಸಿಬಿ	-10.9419
ೀರ	-10.9426
▁cross	-10.9429
ೆಗೆ	-10.9431
ess	-10.9433
▁defeated	-10.9433
▁document	-10.9436
bb	-10.9439
▁ನೀಡುವುದು	-10.944
▁ಹೇಳಿಕೊಂಡ	-10.9441
▁ದೀಪಕ್	-10.9443
▁peaceful	-10.9443
▁Academy	-10.9447
▁ಬಿಡುಗಡೆಯಾಗ	-10.9447
▁ವ್ಯವಸ್ಥಾಪಕ	-10.9447
▁ಕರೆದುಕೊಂಡು	-10.9447
▁ಮಹೇಂದ್ರ	-10.9447
▁ವರ್ತನೆ	-10.9447
▁Rajput	-10.9447
▁helping	-10.9448
▁ಕೋಶ	-10.9448
▁ಭಾಗಗಳಲ್ಲಿ	-10.9449
ound	-10.945
▁ಮಳೆಯ	-10.9452
▁Last	-10.9452
▁24:	-10.9453
▁ಹೆಚ್ಚಿಸುತ್ತದೆ	-10.9454
ದರೂ	-10.9454
▁keeping	-10.9456
▁welcomed	-10.9461
ಗಳಲ್ಲಿಯೂ	-10.9463
▁Israelites	-10.9467
▁charged	-10.9469
▁Pay	-10.9474
▁flight	-10.9478
ವಳು	-10.948
▁annual	-10.9481
▁ವೃದ್ಧಿ	-10.9481
san	-10.9487
▁Premier	-10.9488
▁ಘಟನಾ	-10.9488
▁wave	-10.9488
▁nine	-10.9489
▁ವಹಿವಾಟು	-10.9492
ಂಟೆ	-10.9494
era	-10.9494
ES	-10.9495
ಪ್ಪಾ	-10.9496
▁ಸ್ಥಾನದಲ್ಲಿದೆ	-10.9496
ಾಗಲೇ	-10.9496
▁ನೀಲಿ	-10.9504
ms	-10.9508
▁tender	-10.9509
▁ವೇಗದ	-10.9511
▁talent	-10.9513
▁ಉಲ್ಲೇಖ	-10.9515
್‍	-10.9515
▁ಬೆಂ	-10.9516
▁overs	-10.9516
▁ಬಾಸ್	-10.9517
▁encourage	-10.9518
▁celebrations	-10.9519
▁port	-10.952
▁99	-10.9522
▁Europe	-10.9525
13	-10.9527
▁ವೇಳಾಪಟ್ಟಿ	-10.9529
▁encounter	-10.9529
▁holiday	-10.9529
▁ಈಶಾನ್ಯ	-10.9529
▁ಚಕಮಕಿ	-10.9529
▁ಬಾಹ್ಯಾಕಾಶ	-10.9529
▁ಮನೋಹರ್	-10.9532
ವಿಲ್ಲದೆ	-10.9535
▁ಗುರುತಿಸಲಾಗಿದೆ	-10.9535
▁fields	-10.9535
▁fulfilled	-10.9535
17	-10.9536
▁ಪಡೆಯುತ್ತಿದ್ದಾರೆ	-10.9537
▁ನಡೆಸುತ್ತಿದೆ	-10.9537
ೀತು	-10.9538
▁ಯಾರನ್ನೂ	-10.9539
▁ಶೈಲಿ	-10.9539
▁ತಿಳಿಸಿ	-10.9544
▁ವಾಲ್	-10.9545
▁ಕುರಿ	-10.9546
▁ಎದೆ	-10.9546
▁proof	-10.9546
board	-10.9547
▁ಟ	-10.955
▁ಮಾಡಲಿದೆ	-10.955
ಹೊಂದ	-10.9551
ನಿಕ್	-10.9551
cent	-10.9553
▁ಅರಿವು	-10.9562
ಷ್ಯ	-10.9565
ನ್ನೆ	-10.9568
▁ದಾಳಿಗೆ	-10.9569
ugh	-10.9569
▁Ganguly	-10.957
▁Welfare	-10.957
▁computer	-10.957
▁segment	-10.957
▁chopped	-10.957
▁Bal	-10.957
▁ನಾಮಪತ್ರ	-10.957
▁ಸ್ಮಿತ್	-10.957
▁ಸಂಬಳ	-10.957
▁ಅರಸ	-10.957
▁ಅಂಬೇಡ್ಕರ್	-10.9571
ಘಾ	-10.9572
▁ಆಂಧ್ರ	-10.9572
▁ಕಾಫಿ	-10.9572
ವರಿ	-10.9574
▁Very	-10.9576
ಹೊ	-10.9576
▁ಕಂಬ	-10.9577
▁ಉಚಿತವಾಗಿ	-10.9578
▁ಶಮಿ	-10.958
ುವುದೂ	-10.9582
▁ವೀರ	-10.9587
▁quarter	-10.9592
▁blessings	-10.9596
▁ಸಂಬಂಧಿ	-10.9599
▁ಹೊರೆ	-10.9604
▁Method	-10.9611
▁Smith	-10.9611
▁dwell	-10.9611
▁ಕೃಪೆ	-10.9611
▁concept	-10.9614
▁violation	-10.9616
ley	-10.9622
▁ಸಚಿವರಾದ	-10.9624
▁brings	-10.9624
▁ವರದಿಯಾಗಿದೆ	-10.9627
-1	-10.9627
▁average	-10.9627
ಪೂರ್ಣ	-10.9629
▁ಕೆಜಿ	-10.9629
▁ಏನಿದೆ	-10.9632
▁meat	-10.9634
▁seem	-10.9635
▁ಭಯೋತ್ಪಾದಕ	-10.9637
▁register	-10.9637
▁Ban	-10.9641
▁ಇವರಲ್ಲಿ	-10.9643
▁booked	-10.9646
▁eating	-10.9647
▁ದುರ್ಬಲ	-10.9647
▁ಮನ್ನಾ	-10.9648
▁ಕೋರಿ	-10.965
ಾಯಿ	-10.9651
▁ಅಸ್ಸಾಂ	-10.9651
▁ಆಕರ್ಷಣೆ	-10.9653
▁Avoid	-10.9653
▁literature	-10.9653
▁ಇಂಟರ್ನೆಟ್	-10.9653
▁Ambani	-10.9653
▁ಅಭ್ಯರ್ಥಿಯಾಗಿ	-10.9653
▁Death	-10.9654
▁ಎಷ್ಟೋ	-10.9655
▁ಮನಸ್ಸ	-10.9655
▁ಉದ್ಯೋಗಿ	-10.9658
▁ಜನಸಂಖ್ಯೆ	-10.9658
▁grown	-10.966
▁ಗಮನಿಸಿ	-10.966
▁connected	-10.9665
▁Come	-10.9666
▁belong	-10.9667
▁weeks	-10.9668
set	-10.967
▁ನಿವಾಸಿ	-10.967
▁ನೆಲೆಸ	-10.967
▁ಹೋಗಿದೆ	-10.9672
▁busy	-10.9673
SC	-10.9675
▁ಮಾಡಿಕೊಡ	-10.9675
▁ಬದಲಿಸ	-10.9676
▁hike	-10.9685
▁fat	-10.9686
▁beside	-10.9688
▁ಬೆಳೆಸಿಕೊಳ್ಳ	-10.9692
▁ಉಂಟುಮಾಡ	-10.9692
▁ಗ್ರಾ	-10.9693
▁experienced	-10.9693
▁submit	-10.9694
▁ಅವಘಡ	-10.9694
▁ಮೇಲ್ಮನವಿ	-10.9694
▁plenty	-10.9694
▁principal	-10.9694
▁ಗಂಗೂಲಿ	-10.9694
▁ಯುನೈಟೆಡ್	-10.9694
▁residence	-10.9694
▁distress	-10.9694
▁clothes	-10.9696
▁ಆದದರಿಂದ	-10.9696
▁ಮಗುವನ್ನು	-10.9696
▁proposed	-10.9696
▁ಜೀ	-10.9698
▁ಅಕ್ಷರ	-10.9699
▁burnt	-10.97
▁ತೊಡಗ	-10.97
▁ಕೇಸು	-10.9702
ಲೆಂಡ್	-10.9708
ಪೊ	-10.9709
ification	-10.9711
▁solve	-10.9712
▁ತುಂಬಿ	-10.9712
▁foods	-10.9714
▁saved	-10.9715
▁ಅರಸನಾದ	-10.9716
▁guest	-10.9728
▁ಸಲ್ಲಿಸಿದ	-10.9729
ಕೊಂಡರು	-10.973
▁ಸಭಾ	-10.973
▁ಸಂದರ್ಶನ	-10.9732
▁ವಿಚಾರವನ್ನು	-10.9735
▁ಲೇಖನದಲ್ಲಿ	-10.9735
▁Municipal	-10.9736
▁expensive	-10.9736
▁Income	-10.9736
▁ಇಂದಿರಾ	-10.9736
▁stock	-10.9737
▁ಐಫೋನ್	-10.9737
ನಾಗಿರುವ	-10.9737
▁imposed	-10.9738
▁ಮುಗಿದ	-10.9739
▁engaged	-10.974
▁ಅದಕ್ಕೂ	-10.9743
▁105	-10.9744
▁ಮಾತ್ರವಲ್ಲದೆ	-10.9745
▁ಕೊನೆಯಲ್ಲಿ	-10.9746
▁ಕಾರಣವಾಗುತ್ತದೆ	-10.9749
▁ವರುಷ	-10.9757
▁ಲಾಲ್	-10.9758
▁ಕಚ್ಚಾ	-10.9763
▁ನಾವ	-10.9765
▁None	-10.9767
▁ಮಾಲೀಕ	-10.9768
▁associate	-10.977
▁legislators	-10.9775
▁ಮಾನದಂಡ	-10.9778
▁Mahendra	-10.9778
▁ಸ್ನಾನ	-10.9778
▁ಯೂ	-10.978
▁ಕಾಲು	-10.9781
▁ಯಾರಾದರೂ	-10.9781
▁ಹೊಂದಿರ	-10.9782
gal	-10.9783
ರ್ವ	-10.9786
▁ಹೀಗಿದೆ	-10.9787
▁k	-10.9787
▁standards	-10.9791
▁Col	-10.9793
-6	-10.9796
ಿದ್ದೀರಾ	-10.9797
ವಾಗಿಯೇ	-10.9799
▁ಸಾಲದ	-10.9799
▁ಸೂಚಿಸಿದ್ದಾರೆ	-10.98
▁ವ್ಯಕ್ತಿಗಳ	-10.9801
▁implement	-10.9803
ndra	-10.9803
▁ನೆಲ	-10.9804
▁ಕುಳಿತ	-10.9805
ಟೀ	-10.9806
▁ಚಿಂತಿಸ	-10.9807
▁resources	-10.9809
▁ಹಿಮ	-10.9813
▁ರದ್ದುಗೊಳಿಸ	-10.9818
ins	-10.982
▁resolve	-10.982
▁harmony	-10.982
▁ಬೆಳಕಿಗೆ	-10.982
▁ಸಂಘರ್ಷ	-10.982
▁unknown	-10.9821
ೇಶ	-10.9824
▁ನಡೆಸಲಾಗುತ್ತಿದೆ	-10.9824
▁ಎನ್ನುವುದನ್ನು	-10.9827
▁grand	-10.9827
▁mass	-10.9827
deep	-10.9828
▁ಭಾರ	-10.9828
▁ಆಪಲ್	-10.983
▁ತಕ್ಕಂತೆ	-10.983
ನಿಂಗ್	-10.9831
▁highly	-10.9836
ep	-10.9839
▁younger	-10.9845
▁ಉತ್ಪಾದನ	-10.9848
▁relatives	-10.985
▁En	-10.9852
▁schedule	-10.9853
AR	-10.9854
▁ಪ್ರಕೃತಿ	-10.9854
▁ಅಷ್ಟೆ	-10.9856
ಜ್ಞ	-10.9857
▁files	-10.9858
▁Si	-10.9863
▁pregnant	-10.9863
▁technical	-10.9863
▁ಜಾಧವ್	-10.9863
▁ಮಲ್ಲಿಕಾರ್ಜುನ	-10.9863
▁abroad	-10.9863
▁agency	-10.9863
▁ವೃತ್ತಿಪರ	-10.9863
▁ಲಿಂಕ್	-10.9863
▁ಪವಾರ್	-10.9864
ದಿಂದಲೂ	-10.9865
▁ದಿನದಿಂದ	-10.9866
▁ಒತ್ತು	-10.9868
ಯಾಗಿವೆ	-10.9871
▁ಫ್ಯಾ	-10.9871
▁ಕೂಲಿ	-10.9872
jan	-10.9872
▁blessed	-10.9873
ov	-10.9874
▁ಒತ್ತಾಯಿಸ	-10.9875
▁ಸ್ವಚ್ಛ	-10.9876
ಲನ	-10.988
ದಳ	-10.9881
ಕಾಂಡ	-10.9882
▁ಉದ್ದೇಶಿಸಿ	-10.9885
▁ability	-10.9886
▁ಶಕ್ತಿಯ	-10.9888
▁ಪಂಚ	-10.9889
ುತ್ತಿದ್ದಾನೆ	-10.9896
▁systems	-10.9898
▁ಹೇಳಿಕೆಯನ್ನು	-10.9899
▁ಪುರುಷರು	-10.9899
▁ಬೆರೆಸಿ	-10.9901
21	-10.9903
▁53	-10.9904
▁Jharkhand	-10.9905
▁ಶಾರುಖ್	-10.9905
▁Repeat	-10.9905
▁ಪುರಾವೆ	-10.9905
▁Monday	-10.9906
▁peak	-10.9906
▁Similarly	-10.9908
▁Case	-10.9909
▁counter	-10.991
ವಾದವು	-10.9911
▁ಪ್ರಸ್ತಾಪ	-10.9911
ST	-10.9914
ಫೈ	-10.9914
ದ್ದೂ	-10.9926
ches	-10.9927
▁ವ್ಯಕ್ತಿತ್ವ	-10.9928
ಮ್ಯ	-10.9928
▁requested	-10.9935
▁ಗುಂಡಿ	-10.994
ಂಬಿ	-10.9946
IS	-10.9947
▁chapter	-10.9948
▁insurance	-10.9948
▁perhaps	-10.9948
▁studied	-10.9948
▁ತಿಳಿದುಬಂದಿಲ್ಲ	-10.9948
▁ಹೆಗ್ಗಳಿಕೆ	-10.9948
▁ಧ್ಯಾನ	-10.9949
▁marks	-10.9949
lit	-10.995
▁ಅಳವಡಿಸಲಾಗಿದೆ	-10.9951
▁resulted	-10.9951
▁ಅಮೂಲ್ಯ	-10.9952
▁ವೇಳೆಗೆ	-10.9954
▁ಯುಗ	-10.9959
▁tested	-10.9959
▁ಬರುತ್ತಿದೆ	-10.9966
▁Pre	-10.9966
▁Doctors	-10.9968
vis	-10.997
▁ಬೀದಿ	-10.997
ಜೆಡಿಎಸ್	-10.9971
▁ಅಭಿನಯಿಸ	-10.9972
ನೈ	-10.9975
▁condemn	-10.9975
▁appealed	-10.9976
▁ಸೋಂಕಿತರ	-10.9982
▁ಬಳಸಲು	-10.9984
▁rare	-10.9985
▁Soon	-10.9988
▁import	-10.999
▁ಗ್ರಂಥ	-10.9991
▁alcohol	-10.9991
▁procedure	-10.9991
▁situated	-10.9991
▁ಕ್ರೆಡಿಟ್	-10.9991
▁ಠಾಕೂರ್	-10.9991
▁Think	-10.9991
▁despite	-10.9991
▁ಲೆಕ್ಕಾಚಾರ	-10.9991
▁ಆದಿಕಾಂಡ	-10.9991
▁Know	-10.9992
▁travelling	-10.9993
▁2012	-10.9995
▁ಶೀಘ್ರವೇ	-10.9996
ಯುತ	-10.9999
▁standing	-11.0002
▁ಮಾತನಾಡುವ	-11.0003
▁la	-11.0004
▁ಕೌಶಲ್ಯ	-11.0004
ರಸ	-11.0009
▁ನಕಲಿ	-11.0011
▁ನೈಜ	-11.0012
▁ಸಂಭವಿಸಿದ	-11.0012
▁ಪೀಡಿತ	-11.0021
▁Alia	-11.0021
ಧ್ಯ	-11.0022
▁reward	-11.0022
ites	-11.0022
▁ಭಾಗವಾಗಿ	-11.0033
▁dark	-11.0033
▁Kovind	-11.0034
▁pollution	-11.0034
▁ಖರ್ಗೆ	-11.0034
▁ಸಂಶಯ	-11.0034
▁ವಾಗ್ದಾನ	-11.0034
▁wealth	-11.0034
▁ಸಾವಿಗೆ	-11.0037
▁Ben	-11.0038
-20	-11.004
▁yes	-11.0042
▁ದೇವಿ	-11.0042
▁ವಿವರಗಳು	-11.0045
▁hundreds	-11.0047
▁ಶಿಪ್	-11.0051
▁ಕಷ್ಟಕರ	-11.0053
▁urban	-11.0054
ವಳಿ	-11.0054
▁17:	-11.0055
▁Verma	-11.0056
▁Mary	-11.0061
▁ತೊ	-11.0064
ric	-11.0064
▁ಕಂಡುಬಂದ	-11.0068
▁ಬಗೆಹರಿಸ	-11.0069
ಂದಿ	-11.0073
▁original	-11.0073
▁inaugurate	-11.0073
ವಿನ್	-11.0074
▁ದುಷ್ಟ	-11.0076
▁Bumrah	-11.0077
▁Kareena	-11.0077
▁protein	-11.0077
▁ಕರೀನಾ	-11.0077
▁ಕ್ಲಬ್	-11.0077
▁ಭಾಷಾಂತರ	-11.0077
▁ದ್ವಿಚಕ್ರ	-11.0077
▁transferred	-11.0078
ಪರಿ	-11.0078
▁ಸನ್ಮಾನ	-11.0079
ದ್ದಲ್ಲ	-11.0079
▁ರವರೆಗೆ	-11.008
▁JDS	-11.008
ದ್ದೇನೆ	-11.0081
▁ಯೋಜನೆಗಳು	-11.0082
ೋದಿಲ್ಲ	-11.0087
▁ಶತಮಾನದ	-11.0088
▁ಸಕಲ	-11.0089
graph	-11.0091
▁ಸ್ಥಾನಗಳಲ್ಲಿ	-11.0092
ವಾಗಲಿ	-11.0092
ಬಹುದೇ	-11.0093
ಂಪ್	-11.0093
▁ವಿದೇಶ	-11.0093
▁cameras	-11.0096
▁ನಡೆಸಿದೆ	-11.0098
▁ತೆಗೆದುಕೊಳ್ಳುವ	-11.0099
▁ಮುಂಬೈನಲ್ಲಿ	-11.0099
▁passes	-11.0099
▁ಹೊಗಳ	-11.01
▁Pe	-11.01
ock	-11.01
▁Mohammad	-11.0101
▁ಅಥವ	-11.0103
garh	-11.0104
▁ತೋರಿಸುವ	-11.0106
ವೊಂದನ್ನು	-11.0109
▁ಕಾರುಗಳು	-11.0109
▁ಸೈತಾನನ	-11.011
hit	-11.0111
ಯಾಗಬೇಕು	-11.0112
▁ಬೇಕ	-11.0113
ವಲ	-11.0114
▁vi	-11.0114
▁track	-11.0115
▁ಕೊಟ್ಟು	-11.0117
ಿದ್ದಾಗ	-11.0117
▁ನಿವಾಸ	-11.012
▁ಚಕ್ರ	-11.0121
▁Abhishek	-11.0121
▁Jacob	-11.0121
▁eventually	-11.0121
▁excellent	-11.0121
▁ನಾಯ್ಡು	-11.0121
▁ಸಂಭಾಷಣೆ	-11.0121
▁ಪುರಾತನ	-11.0121
shalt	-11.0121
▁ಯಜ್ಞ	-11.0122
▁ನಂದ	-11.0122
▁baptized	-11.0122
▁markets	-11.0123
▁ಟನ್	-11.0124
▁ಅರ್ಥವಾಗ	-11.0126
▁Picture	-11.0126
▁Set	-11.0126
inch	-11.0128
▁ಫೋ	-11.013
▁ಮಿಸ್	-11.0132
ಚೆ	-11.0133
▁properly	-11.0137
▁accidents	-11.0137
▁ship	-11.0139
▁ರಕ್ತದ	-11.014
▁ನಮ್ಮದು	-11.0141
▁ಸಾಧಿಸಲು	-11.0141
▁ಪರಿಶೀಲಿಸಿ	-11.0144
▁require	-11.0144
▁ವರ್ಣ	-11.0148
NA	-11.0151
▁prophet	-11.0151
Re	-11.0153
ಲೆಟ್	-11.0154
▁learnt	-11.0155
▁ಮಾನ್ಯತೆ	-11.0158
▁ಬ್ಲ	-11.0159
▁route	-11.016
▁organisation	-11.016
▁ಹೆತ್ತವರ	-11.0162
▁ಹರಿಯಾಣ	-11.0162
▁ಅಲ್ಪ	-11.0163
▁ಅಹಿತಕರ	-11.0164
▁Ranbir	-11.0165
▁wall	-11.0165
▁ತಾಲೂಕು	-11.0167
adi	-11.0167
▁journalist	-11.0169
▁ಆರೋಪಿಸಿದರು	-11.0169
▁ತೆರಳಿ	-11.0176
▁Modis	-11.0176
▁ಮಾಡಬೇಕೆಂದು	-11.0178
▁ಅಧ್ಯಕ್ಷರಾಗಿ	-11.018
▁east	-11.0182
▁depends	-11.0182
▁ಎಂಎಸ್	-11.0185
▁ಇಟ್ಟುಕೊಳ್ಳ	-11.0186
▁ಸಮೂಹ	-11.0188
▁extend	-11.0193
▁ಅಧಿಕೃತವಾಗಿ	-11.0195
▁ನೈತಿಕ	-11.0197
ಗಳಷ್ಟು	-11.0197
▁ಮೂ	-11.0198
DA	-11.02
▁ಪರಿಹರಿಸ	-11.0201
▁Oil	-11.0203
▁Office	-11.0205
▁ನಿವೃತ್ತ	-11.0205
▁courage	-11.0208
49	-11.0208
▁Naidu	-11.0208
▁ಸಿನೆಮಾ	-11.0208
▁ಹಿನ್ನಡೆ	-11.0208
▁ಸುನಿಲ್	-11.0208
▁leaving	-11.0208
▁surface	-11.0208
▁ಶಿಶು	-11.0209
▁ಹಳದಿ	-11.0209
▁Airport	-11.0209
▁ಕೈಗಾರಿಕೆ	-11.0209
▁ಅಷ್ಟಕ್ಕೂ	-11.021
▁Total	-11.0211
▁ಆತ್ಮಿಕ	-11.0211
▁Ajit	-11.0213
well	-11.0215
▁mo	-11.0218
▁ಶ್ರೀನಿವಾಸ	-11.0218
▁peoples	-11.0218
▁ಅನುಷ್ಠಾನ	-11.0218
▁ಅಂಡ್	-11.0219
▁ಅಂಬಾನಿ	-11.0223
▁ಕಳ	-11.0223
▁ಮಲಗ	-11.0224
aj	-11.0225
▁ಹತ್ತ	-11.0229
▁Tell	-11.0229
▁ಸರಳವಾಗಿದೆ	-11.023
ED	-11.0231
▁ಎಂಬುದ	-11.0232
back	-11.0233
ರಾಜ್ಯ	-11.0235
ಿಸಿದ್ದ	-11.0246
▁ಬಿಹಾರದ	-11.0247
▁ತಾಳ	-11.0248
▁medicines	-11.0248
ೈನ್	-11.0249
▁ಅನ್ನೋ	-11.025
▁ಕಿವಿಗೊಡ	-11.0252
▁debt	-11.0253
▁Jai	-11.0253
▁Mandya	-11.0253
▁noted	-11.0263
▁ran	-11.0263
nce	-11.0263
▁ಸಕಾರಾತ್ಮಕ	-11.0263
Nitin	-11.0263
ೆಯನ್ನು	-11.0265
▁Bas	-11.0266
ಕ್ರಿ	-11.0266
ುತ್ತಿದ್ದಂತೆ	-11.0269
▁ಗೆಲ್ಲುವ	-11.0269
of	-11.027
ದ್ರಾ	-11.0271
▁Try	-11.0273
▁behold	-11.0275
▁ಐಶ್ವರ್ಯ	-11.0279
ಲೀಟರ್	-11.0282
ದ್ರು	-11.0284
▁Us	-11.0284
ied	-11.0287
▁ಆಗಿವೆ	-11.0288
▁quick	-11.029
▁mandatory	-11.0297
▁ಪ್ರವೃತ್ತಿ	-11.0297
▁ರಾಸಾಯನಿಕ	-11.0297
▁ಶಸ್ತ್ರಚಿಕಿತ್ಸೆ	-11.0297
▁gearbox	-11.0297
▁weather	-11.0297
▁ಸೆನ್ಸಾರ್	-11.0297
▁fault	-11.0297
▁ಅಂತರಾಷ್ಟ್ರೀಯ	-11.0297
▁Could	-11.0297
▁download	-11.0298
▁ಸೇವಕರ	-11.0298
▁hotel	-11.0298
▁ಯಾಕೆಂದರೆ	-11.0299
▁ಬಾರಿಯ	-11.0299
ump	-11.03
▁ಉತ್ಪಾದಿಸ	-11.03
▁ಮುನ್ನೆಚ್ಚರಿಕೆ	-11.03
▁ಮೆಂಟ್	-11.03
▁ಸದ್ಯದಲ್ಲೇ	-11.0301
▁falls	-11.0301
▁ಠಾಣಾ	-11.0302
▁ಹತ್ತಿರದ	-11.0305
▁watching	-11.0307
▁ಮಾಡಲಿದ್ದಾರೆ	-11.0307
▁shocked	-11.031
ks	-11.0315
▁ತೋರಿಸುತ್ತದೆ	-11.0315
ವಿರಲಿಲ್ಲ	-11.0316
▁ಕೀರ್ತ	-11.0316
ಲ್ಲಿನ	-11.0317
▁ಸಂಬಂಧಿತ	-11.0317
▁ವಿಮೆ	-11.0318
70	-11.032
▁wonder	-11.032
▁ಎಲ್ಲಿಗೆ	-11.0323
▁ಸಂಗ್ರಹಿಸ	-11.0325
uc	-11.0326
▁ನಂಬಿಕೆಯ	-11.0329
▁ತಮಿಳುನಾಡಿನ	-11.033
ಕ್ಷೆ	-11.0331
▁ಮುಂಬೈನ	-11.0333
ಲ್ಪಟ್ಟಿದೆ	-11.0333
▁ತಿಳಿದುಕೊಳ್ಳ	-11.0335
▁ಮಾಡಿಕೊಳ್ಳಿ	-11.0336
▁enable	-11.0336
lly	-11.0337
▁ನಿಲ್ಲಿಸಿ	-11.0338
▁flour	-11.034
▁ಪಠ್ಯ	-11.0341
▁Hundreds	-11.0341
▁alternative	-11.0341
▁ಅನಾಹುತ	-11.0341
▁ಉಮೇಶ್	-11.0341
▁ವಾಜಪೇಯಿ	-11.0341
▁ಸ್ಫೂರ್ತಿ	-11.0341
▁ಧೂಮಪಾನ	-11.0341
▁ನಿತಿನ್	-11.0341
▁ಪ್ಲಾಸ್ಟಿಕ್	-11.0341
▁ಎಐಸಿಸಿ	-11.0341
▁summer	-11.0341
▁Sunday	-11.0341
23	-11.0343
ಡಲು	-11.0344
ಬೋ	-11.0345
▁ಪಾರ್	-11.0345
shan	-11.0346
▁personality	-11.0346
▁ಪವಿತ್ರಾತ್ಮ	-11.0347
▁ಚರ್ಚ್	-11.0349
▁ಮೂರ್ತಿ	-11.035
▁em	-11.035
▁stable	-11.035
▁Apply	-11.035
▁congratulated	-11.0352
▁ಬಹಿರಂಗಪಡಿಸ	-11.0352
ಯಲ್ಲಿದೆ	-11.0355
▁historic	-11.0356
▁onions	-11.0357
▁tradition	-11.036
▁singer	-11.0363
des	-11.0363
▁tests	-11.0364
▁traditional	-11.0364
▁ಹೊರಟು	-11.0366
▁existing	-11.037
▁clearly	-11.0371
▁1,000	-11.0371
▁ಸಮಸ್ಯೆಗಳ	-11.0371
▁ಪ್ರೇಕ್ಷಕರ	-11.0372
▁mention	-11.0374
ಿಸಬಹುದು	-11.0376
▁ಕಾರ್ಯಕ್ರಮಕ್ಕೆ	-11.0376
▁ಅರ್ಥಮಾಡಿಕೊಳ್ಳ	-11.0379
▁ರಾಜ್ಯಪಾಲ	-11.038
▁argument	-11.0383
▁ಪೈ	-11.0385
▁partner	-11.0386
▁Assistant	-11.0386
▁ನಿಮಿತ್ತ	-11.0386
▁losing	-11.0386
▁tsp	-11.0386
▁export	-11.0386
▁ಜಾರ್ಜ್	-11.0388
▁ಅಭಿವೃದ್ಧಿಯ	-11.0389
▁Germany	-11.039
all	-11.039
▁winter	-11.0393
▁greatest	-11.0395
▁scheduled	-11.0396
▁Ke	-11.0397
▁ಪ್ರಶ್ನಿಸಿದ್ದಾರೆ	-11.0401
grad	-11.0401
▁ಪುರ	-11.0402
▁SBI	-11.0405
▁methods	-11.041
▁approached	-11.0411
▁ದೊರೆತ	-11.0412
▁ಕೊಟ್ಟನು	-11.0413
arious	-11.0415
▁crash	-11.0416
match	-11.0419
ಧಾರ	-11.0421
▁disc	-11.0424
ಚಾರ	-11.0428
▁transfer	-11.043
▁university	-11.0431
▁ಇನ್ನಿಂಗ್ಸ್	-11.0431
▁ಪ್ರಸಕ್ತ	-11.0431
▁ವಿಪರೀತ	-11.0431
▁lawyer	-11.0431
▁ಸಮಾರಂಭ	-11.0431
▁Ajay	-11.0431
▁Instead	-11.0432
▁childhood	-11.0432
▁ಬಾಲಕಿಯ	-11.0432
▁ವಿಗ್ರಹ	-11.0433
ಯಂ	-11.0434
io	-11.0436
▁ಮಾದರಿಯನ್ನು	-11.0437
cal	-11.044
ND	-11.044
▁ಉದ್ದೇಶದಿಂದ	-11.0441
cu	-11.0442
▁ನಾಯಕತ್ವ	-11.0443
▁ಬದುಕಿನ	-11.0446
▁ಸೈನ್ಯ	-11.0448
▁ಏಳ	-11.0451
▁130	-11.0462
▁measure	-11.0464
▁ಮಿಶ್ರ	-11.047
▁ಯೋಜನೆಗಳ	-11.0473
▁applications	-11.0475
▁Vajpayee	-11.0476
▁crucial	-11.0476
▁Aamir	-11.0476
▁pending	-11.0477
▁ವಿರೋಧವಾಗಿ	-11.0477
▁ಆವರಿಸ	-11.0478
▁ಅಜಿತ್	-11.0479
▁ಮಹೀಂದ್ರಾ	-11.048
▁location	-11.0481
▁ಹಾಕುವ	-11.0482
▁7,	-11.0482
▁ವರ್ಮಾ	-11.0483
▁ಕ್ಷಮಿಸ	-11.0484
▁remarks	-11.0485
▁ಸರ್ಕಾರಗಳು	-11.0489
▁ಆನಂದಿಸ	-11.049
ಲಿಂಗ	-11.0491
▁ಆಗುತ್ತಿಲ್ಲ	-11.0493
▁ಕಾಣುತ್ತದೆ	-11.0494
ಪಾಲ್	-11.0495
▁ದಿನಗಳು	-11.0496
▁ಕಂಡುಕೊಂಡ	-11.0497
▁ಸ್ನೇಹಿತ	-11.0497
▁ನಡೆಸಿದ್ದರು	-11.0499
ಿದ್ದೆವು	-11.0499
▁ಆಯ್ಕೆಗಳನ್ನು	-11.0499
ತೀ	-11.05
▁63	-11.0503
▁ಗಿಡ	-11.0505
▁ಬರೆದು	-11.0506
▁ಪ್ಯಾನ್	-11.0509
ಾಗಿದ್ದಾರೆ	-11.0511
ಕೊಂಡಿದ್ದಾರೆ	-11.0511
▁ಓಟ	-11.0512
▁flowers	-11.0513
ಗಾರರು	-11.0514
▁ಕೋಟೆ	-11.0515
ಕೆಟ್	-11.0515
▁rock	-11.0517
▁ಮುಗಿಯ	-11.0517
▁Bajaj	-11.0521
▁ಲಿಖಿತ	-11.0521
▁bomb	-11.0521
▁ಹೊಡೆಯ	-11.0521
▁Year	-11.0522
▁collection	-11.0525
▁ಪ್ರಭು	-11.0526
ೂರ	-11.0529
ೇಗೌಡ	-11.053
▁50,000	-11.053
▁ಮೋಟಾರ್ಸ್	-11.0532
ಸ್ಟಾ	-11.0532
▁ಆದಷ್ಟು	-11.0535
▁ಇವನ	-11.0536
▁ದಾಸ	-11.0541
▁ಸಲ್ಲಿಸಿದ್ದರು	-11.0542
▁ಕಮಲ್	-11.0542
▁balls	-11.0556
ಬಲ್ಲೆವು	-11.0557
ಮೈ	-11.0557
▁George	-11.0566
▁Jadeja	-11.0566
▁ರಕ್ತದೊತ್ತಡ	-11.0566
▁ಆರಾಧಿಸ	-11.0566
▁planning	-11.0568
▁ಮಹಾನಗರ	-11.0568
▁Fans	-11.0569
▁ಕಾರ್ಯಕ್ರಮಗಳನ್ನು	-11.057
uff	-11.057
ಶ್ರೀ	-11.0573
▁Ashwin	-11.0574
▁ದಾಟ	-11.0582
ಪಲ್	-11.0583
▁ಅನ	-11.0584
ಲ್ಪಟ್ಟಿತು	-11.0585
cr	-11.0585
ರ್ಟ್	-11.0587
ಗ್ರ	-11.0588
▁ಸ್ಯಾ	-11.0588
ಎಕ್ಸ್	-11.0591
▁ಪೂರ್ಣಗೊಳಿಸ	-11.0594
▁ನೀಡಿತು	-11.0596
▁assault	-11.0596
▁fill	-11.0597
▁ಬಂದಿತ್ತು	-11.0598
▁competitions	-11.0601
ಪತ್ರ	-11.0603
▁ಕವಿ	-11.0604
ಿಲ್	-11.0607
▁ಪ್ರಜೆ	-11.0607
ಹೀ	-11.0608
▁ಫಾರ್ಮ್	-11.0609
ray	-11.061
▁ಅಬ್ದುಲ್	-11.0611
▁guidelines	-11.0612
▁ಕಿಟಕಿ	-11.0612
▁ಹೊಟ್ಟೆ	-11.0613
ಿಸಿದ್ದರು	-11.0613
ವಾಗಿರಬೇಕು	-11.0614
▁chosen	-11.0615
▁sun	-11.0616
ವಷ್ಟೇ	-11.0617
▁ಭಾರತೀಯರು	-11.0618
▁Shahid	-11.0618
▁ಲುಕ್	-11.0618
ಂದ್ರ	-11.0619
ada	-11.0619
▁ಅಭಿನಯಿಸಿದ್ದಾರೆ	-11.062
▁700	-11.0621
uck	-11.0626
ಿದ್ದೀ	-11.0628
▁seeing	-11.0628
▁ಮ್ಯಾನ್	-11.0631
▁ಮೊದಲಿಗೆ	-11.0634
▁Officials	-11.0635
▁Pur	-11.0635
▁ಇವರಿಬ್ಬರ	-11.0638
▁ಮೃದು	-11.0639
ಗಾಲ	-11.0642
▁delay	-11.0644
▁ಗಮನಕ್ಕೆ	-11.0644
▁ಚರ್ಚೆಗೆ	-11.0648
ವರೆಗಿನ	-11.0648
ಡಿಸಿ	-11.065
▁ಉತ್ಸಾಹ	-11.0651
▁feed	-11.0652
ನಲ್	-11.0657
▁ಘನ	-11.0658
▁covenant	-11.0658
▁variety	-11.0658
▁calm	-11.0658
▁convention	-11.0658
▁pack	-11.0658
▁ಮಹಿಮೆ	-11.0658
▁resolution	-11.0658
▁ನಿಂಬೆ	-11.0659
▁Remember	-11.0659
▁ಮಗುವಿಗೆ	-11.0659
▁ಹಾಗಿದ್ದರೂ	-11.0659
▁ಲಿಂಗ	-11.066
▁ಗೊತ್ತೇ	-11.066
▁cell	-11.066
ವಿರುತ್ತದೆ	-11.066
▁ಇವ	-11.066
▁ರಫ್ತು	-11.0661
▁ಸೈನಿಕರ	-11.0664
▁Roy	-11.0666
ವೀರ್	-11.0666
▁button	-11.0668
▁novel	-11.0669
▁Em	-11.067
▁ಇರುತ್ತವೆ	-11.067
bur	-11.0673
▁Srinivas	-11.0674
▁boys	-11.0675
▁9,	-11.0675
▁ಮತ್ತಿತರ	-11.0676
▁older	-11.0682
▁ಆರಂಭಿಸಿದ್ದಾರೆ	-11.0683
ಯಾನ	-11.0685
istic	-11.0686
“	-11.0688
▁soil	-11.069
ಾಪ	-11.0695
▁attract	-11.0701
▁labour	-11.0702
ವಾಲ್	-11.0702
▁rivers	-11.0703
▁Aishwarya	-11.0704
▁Financial	-11.0704
▁blue	-11.0704
▁ಆಮದು	-11.0704
▁equipment	-11.0704
▁ಅನುಗುಣವಾಗಿ	-11.0704
▁cells	-11.0704
▁cons	-11.0704
ಲಾಗುವ	-11.0705
▁ಅವಮಾನ	-11.0706
hir	-11.0706
▁ಮರೆಯ	-11.0706
▁ಪಾಕಿಸ್ತಾನಕ್ಕೆ	-11.0707
▁160	-11.0707
▁Ill	-11.0711
▁fund	-11.0712
85	-11.0714
▁ಬಂದರೆ	-11.0716
▁hearts	-11.0717
▁ಪರೀಕ್ಷೆಯ	-11.0718
▁scale	-11.0722
24	-11.0722
ಬೇಕಾಗಿತ್ತು	-11.0723
▁ಕುಸಿದು	-11.0723
▁rupees	-11.0725
▁ಆಗಿದ್ದರು	-11.0728
▁recover	-11.073
ಾಂ	-11.0731
▁ನಿರ್ದೇಶಕರು	-11.0731
▁ನಡೆಯಲಿರುವ	-11.0732
▁ಲೋಕಸಭೆಯಲ್ಲಿ	-11.0735
vid	-11.0735
▁ಮುಖ್ಯಮಂತ್ರಿಯಾಗಿ	-11.0737
uri	-11.0739
ಲಾರ	-11.074
ತಿಯ	-11.074
▁ಸಲಹೆಗಳು	-11.074
bri	-11.0741
▁ನೌಕರರ	-11.0743
▁ಖಂಡಿಸಿ	-11.0745
▁Company	-11.075
▁Umesh	-11.075
▁length	-11.075
▁medium	-11.075
▁ಅಧ್ಯಾಯ	-11.075
▁ಠೇವಣಿ	-11.075
▁ಸ್ಮಾರಕ	-11.075
▁CPI	-11.075
▁fought	-11.075
▁ಸಂಕಟ	-11.0751
IT	-11.0752
len	-11.0754
▁ಅಕ್ಕಿ	-11.0754
▁lesson	-11.0755
▁Ku	-11.0757
▁ಪ್ರೋತ್ಸಾಹಿಸ	-11.0758
ಯೊಂದನ್ನು	-11.076
▁ದಾಖಲಾಗ	-11.0761
tar	-11.0761
ವಾನ್	-11.0762
▁17.	-11.0762
ಸ್ವ	-11.0763
▁interests	-11.0763
▁ಕಿರಿಯ	-11.0766
▁height	-11.0766
▁ಕಂಪನಿಗಳು	-11.0766
▁hits	-11.0767
▁ನೀತಿಯ	-11.0767
▁ಪಾಲಿಗೆ	-11.0767
▁ಷೇರು	-11.077
▁ಸಾಧಿಸಿದೆ	-11.0774
48	-11.0775
▁user	-11.0777
▁ತಡ	-11.0777
▁ಇದನ್ನೇ	-11.0781
▁ಮೃತದೇಹ	-11.0782
▁ಎಲ್ಲೂ	-11.0782
▁ಏನ್	-11.0783
hra	-11.0787
▁Gu	-11.0789
▁developing	-11.0791
▁ಕುಲ	-11.0792
▁totally	-11.0793
▁ನಿಜವಾಗಿ	-11.0794
▁CRPF	-11.0797
▁television	-11.0797
▁ಜಾರ್ಖಂಡ್	-11.0797
▁ನಿರ್ಲಕ್ಷ್ಯ	-11.0797
espite	-11.0797
▁ಮೆಡಿಕ	-11.0798
▁fake	-11.0798
▁intention	-11.0801
▁ಬೇಕಾದರೂ	-11.0802
▁ತೋರುತ್ತದೆ	-11.0808
▁flights	-11.0809
▁ಪಡೆಯಬಹುದು	-11.0809
ಂಡು	-11.0816
ಗಲ್	-11.0817
she	-11.0817
▁ideas	-11.0817
ಗನ್	-11.0821
▁concerns	-11.0822
▁ಎಷ್ಟ	-11.0822
kan	-11.0825
▁calling	-11.0825
▁notification	-11.0825
ದೊಂದು	-11.0827
ಳನ್ನು	-11.0827
77	-11.0833
ey	-11.0838
▁ಕಾದ	-11.0839
ರ್ಥ	-11.0839
▁13.	-11.084
▁ಅಂಕಿ	-11.0843
▁Timothy	-11.0843
▁cautious	-11.0843
▁fifth	-11.0843
▁panchayat	-11.0843
▁ಕ್ರಿಮಿನಲ್	-11.0843
▁ತಿರುಗೇಟು	-11.0843
▁ದುರಸ್ತಿ	-11.0844
▁friendship	-11.0845
tter	-11.0845
▁SMS	-11.0846
▁nomination	-11.0848
▁Young	-11.085
▁setting	-11.0851
ಕ್ಷಣ	-11.0851
▁ಸಾರ್ವಜನಿಕರ	-11.0858
ಂದೂ	-11.0859
umb	-11.0861
ೊಳಗಿಂದ	-11.0862
▁millions	-11.0863
▁ಸದ್ದು	-11.0869
▁ಬಡತನ	-11.0871
▁ಕಾಯಿದೆ	-11.0873
▁ಬಲಪಡಿಸ	-11.0875
▁collapse	-11.0881
▁custom	-11.0883
ತೋ	-11.0888
▁104	-11.0889
ಹನ	-11.089
▁Lakshmi	-11.089
▁ಜಿಲ್ಲಾಡಳಿತ	-11.089
▁ಬಜಾಜ್	-11.089
▁asks	-11.0891
▁ಮೊಟ್ಟೆ	-11.0891
▁comp	-11.0893
▁ದೂರಿನ	-11.0895
ಾನಂದ	-11.0898
sc	-11.0898
▁ಸಿದ್ಧಪಡಿಸ	-11.0899
▁Narayan	-11.0903
▁ಟೈ	-11.0903
▁ವಾಸ್ತವದಲ್ಲಿ	-11.0905
▁holding	-11.0907
▁ಹಾಳಾಗ	-11.0907
▁ಚಿಕಿತ್ಸೆಗಾಗಿ	-11.0909
jit	-11.0912
eshwar	-11.0913
▁unity	-11.0915
▁ತಪ್ಪಿತಸ್ಥರ	-11.0918
▁ಬ್ಯಾಕ್	-11.092
▁ಅಭಿನಯ	-11.0923
▁Matt	-11.0923
che	-11.0924
▁ಆಗಾಗ	-11.0924
▁ಬಳಕೆದಾರರ	-11.0925
ವಾಸ	-11.0927
ಆದರೆ	-11.0927
maker	-11.0932
▁ಆಗಮಿಸಿ	-11.0933
IP	-11.0936
▁ನಿರ್ಮಾಣಕ್ಕೆ	-11.0936
▁silent	-11.0938
▁ಚೊಚ್ಚಲ	-11.0938
▁ಹೋಲಿಸಿದರೆ	-11.0938
▁marry	-11.0938
▁ಎಣಿಕೆ	-11.0939
▁worldwide	-11.0939
▁ಮೀರ	-11.0939
▁window	-11.094
▁initiated	-11.094
▁ಕೈಬಿಡ	-11.0941
▁ಬೆಲೆಯಲ್ಲಿ	-11.0942
▁ರೋಡ್	-11.0943
▁appreciated	-11.0946
▁ಒತ್ತಾಯಿಸಿದ್ದಾರೆ	-11.0947
▁ಪಾರ್ಕ್	-11.0947
▁affairs	-11.0948
▁ಬಂದೆ	-11.0949
▁ಮಧ್ಯದಲ್ಲಿ	-11.0949
▁-19	-11.0952
▁ಕಾರಿನಲ್ಲಿ	-11.0952
▁ಮಾಡಿಸ	-11.0953
ರಲಿಲ್ಲ	-11.0954
▁ಕಾರುಗಳ	-11.0956
▁statements	-11.0959
▁Big	-11.096
ಡೇ	-11.096
▁farmer	-11.096
ಗೊಳಿಸುತ್ತದೆ	-11.0961
pet	-11.0963
▁Pant	-11.0963
▁h	-11.0965
▁ವಿದ್ಯಾರ್ಥಿನಿ	-11.0967
▁ಗಾಯಾಳು	-11.0968
▁trip	-11.0968
▁ಹೋಗುತ್ತದೆ	-11.097
member	-11.0971
▁Land	-11.0972
▁ಪಂದ್ಯವನ್ನು	-11.0972
▁ಒಪ್ಪಂದಕ್ಕೆ	-11.0975
▁carrying	-11.0977
ಿಯಲ್ಲಿ	-11.0978
▁ಸ್ಟೇಟ್	-11.098
ತ್ರಿ	-11.098
▁ರಸ್ತೆಯ	-11.0981
SE	-11.0981
med	-11.0984
▁ಸಿಇಒ	-11.0985
▁Answer	-11.0985
▁firing	-11.0985
ld	-11.0986
▁ಡಿಸ್	-11.0987
▁ತಂದು	-11.0987
▁protestors	-11.0987
▁ಹಕ್ಕಿ	-11.0989
▁ಸಿಆರ್	-11.0989
▁fit	-11.0992
▁Hero	-11.0994
▁collapsed	-11.0995
ಶೀ	-11.0995
▁ತೆಗೆದ	-11.0996
▁mission	-11.0997
hur	-11.0998
▁culprits	-11.0999
▁Acts	-11.1002
ಗಾರರ	-11.1003
▁ಗ್ರಹಿಸ	-11.1004
▁para	-11.1005
ರಾಂ	-11.1006
▁ದಾಖಲೆಗಳನ್ನು	-11.1006
ದಷ್ಟು	-11.1009
▁ನಾವೂ	-11.1012
▁ದೃಷ್ಟಿಯಿಂದ	-11.1015
▁fighter	-11.1015
▁historical	-11.1017
car	-11.1018
ಟಲ್	-11.1019
▁stations	-11.1024
ail	-11.1024
ವೆಂಬ	-11.1024
▁ಈಗಿನ	-11.1028
▁worse	-11.1032
▁Daniel	-11.1033
▁manufacturing	-11.1033
▁opposite	-11.1033
▁pretty	-11.1033
▁ಬ್ರಿಟಿಷ್	-11.1033
▁ಶಿವಮೊಗ್ಗ	-11.1033
▁ಸಮ್ಮಿಶ್ರ	-11.1033
▁Hegde	-11.1033
▁theatre	-11.1033
ಕ್ಷಿ	-11.1035
▁citizen	-11.1036
▁ಉತ್ಪಾದಿಸುತ್ತದೆ	-11.1037
▁selection	-11.1037
▁congratulate	-11.1037
999	-11.104
▁Oh	-11.1041
▁ನ್ಯಾಯಾಲಯದಲ್ಲಿ	-11.1042
▁ಮೀಡಿಯಾದಲ್ಲಿ	-11.1044
mun	-11.105
▁ಹೊಂದಿದ್ದ	-11.105
▁Pi	-11.105
▁ಹಂಚಿಕೊಂಡ	-11.1052
▁ಸಲ್ಲಿಸಿದ್ದ	-11.1056
▁pure	-11.1057
▁ಎನ್ಎಂ	-11.1058
▁Australian	-11.106
ಡಿಯಲ್ಲಿ	-11.1061
▁ಅಗ	-11.1062
ಾನ	-11.1062
▁def	-11.1063
▁guide	-11.1063
▁ನಿಧಾನವಾಗಿ	-11.1067
ಾರಿ	-11.1068
ಗುರು	-11.107
ಯನ್ನಾಗಿ	-11.1073
▁smooth	-11.1073
▁variants	-11.1074
ಜಿತ್	-11.1078
▁ಸುಳ್ಳ	-11.1079
▁ನಾರಾಯಣ	-11.1079
▁ಒಡ್ಡ	-11.108
▁brief	-11.108
▁emergency	-11.108
▁honey	-11.108
▁ಫ್ರೆಂಚ್	-11.108
▁ಸೆಮಿಫೈನಲ್	-11.108
▁lemon	-11.108
▁suit	-11.108
▁Aaron	-11.108
▁Details	-11.1081
▁ಉಪಮುಖ್ಯಮಂತ್ರಿ	-11.1081
▁mixture	-11.1081
▁Green	-11.1081
▁salary	-11.1081
▁master	-11.1081
▁ಪಶು	-11.1081
▁Dec	-11.1081
▁ಮಧು	-11.1082
than	-11.1082
▁paper	-11.1084
▁manual	-11.1084
▁ಚಾರ್ಜ್	-11.1086
▁manage	-11.1087
ವಿದ್ದ	-11.1087
izing	-11.1088
▁ಅವುಗಳು	-11.1088
▁ಕಾರ್ಯವನ್ನು	-11.1089
▁ತ್ವರಿತ	-11.1091
▁fixed	-11.1093
▁gathering	-11.1094
▁Padma	-11.1095
ಿದು	-11.1097
▁witnessed	-11.1102
▁ಬದಲಾಗಿದೆ	-11.1103
▁ನೋಡಬಹುದು	-11.1103
ಳಿಯ	-11.1107
ುತ್ತಿದ್ದವು	-11.1112
▁ಸೆಲ್	-11.1116
ಢ	-11.1117
▁priests	-11.1118
▁exception	-11.1119
▁contribute	-11.1119
▁ಮಾತ್ರವೇ	-11.112
ಬದ್ಧ	-11.112
▁ನಿಮ್ಮಲ್ಲಿ	-11.1126
ಪ್ರತಿ	-11.1127
▁Executive	-11.1129
▁Reserve	-11.1129
▁ಲಾಠಿ	-11.1129
▁sensor	-11.1129
▁batting	-11.113
▁ಮೇಯರ್	-11.113
▁ಸರಿಪಡಿಸ	-11.1131
▁ಅಭಿಷೇಕ್	-11.1131
▁ಒಲಿಂಪಿಕ್ಸ್	-11.1132
ೀಕೃತ	-11.1132
▁ಯುಪಿಎ	-11.1132
▁medicine	-11.1133
▁ಮೆಚ್ಚ	-11.1134
▁ಚಂದ್ರಶೇಖರ್	-11.1134
▁bright	-11.1134
▁adequate	-11.1136
▁values	-11.1138
▁%1	-11.1138
▁ನಿಯಂತ್ರಿಸಲು	-11.1139
▁ನೆರವೇರಿಸ	-11.1142
▁carefully	-11.1142
▁ಮೀರಿ	-11.1143
್ತಿದೆ	-11.1145
ಲ್ಲವೇ	-11.1147
▁ಗಂಟೆ	-11.1149
par	-11.1151
ಕ್ಷಾ	-11.1151
▁ಓಡಿ	-11.1154
aving	-11.1156
▁starting	-11.1158
▁ಬಿಜೆಪಿಯವರು	-11.116
ಚೇ	-11.116
86	-11.1161
eep	-11.1162
▁orders	-11.1163
▁ದೇವಾಲಯದ	-11.1163
ತ್ತೆ	-11.1164
▁ಖಾತೆಯಲ್ಲಿ	-11.1167
▁ಟೀಕಿಸ	-11.1167
▁ಬದಲಾವಣೆಗಳನ್ನು	-11.1168
ಸ್ಥಿತಿ	-11.117
▁sections	-11.1172
▁ಟ್ರ	-11.1173
▁ಆಗ್ರಹಿಸಿ	-11.1173
ದಲ್ಲಿಯೇ	-11.1173
▁branch	-11.1173
ಿಸು	-11.1175
work	-11.1177
▁Nehru	-11.1177
▁Washington	-11.1177
▁ಕಾವೇರಿ	-11.1177
▁ಕಳವಳ	-11.1177
▁ಅಭಿವೃದ್ದಿ	-11.1177
ಪ್ತ	-11.1178
▁Media	-11.1178
▁ಗಾಯಗಳಾಗಿವೆ	-11.1179
▁Cr	-11.1179
lay	-11.118
05	-11.1184
ವಾರ್	-11.1184
▁ಅಂತೆಯೇ	-11.1185
▁ಸನ್ನಿ	-11.1186
▁ಪ್ರಕಟನೆ	-11.1189
ಲಾಗುತ್ತಿತ್ತು	-11.1189
jo	-11.119
▁ಅಡ್ಡಿ	-11.1196
▁isn	-11.1199
▁ruled	-11.1204
▁ಪಾಲು	-11.1206
▁strongly	-11.1207
▁ಪೂರಕ	-11.1208
ಥಾ	-11.121
▁Kal	-11.121
ುತ್ತೀ	-11.121
▁ನೆಲದ	-11.1212
▁21:	-11.1213
are	-11.1213
▁ಪಕ್ಷದಲ್ಲಿ	-11.1214
▁Say	-11.1215
▁balance	-11.1216
▁examine	-11.1217
▁ಕಾರಣಕ್ಕಾಗಿ	-11.122
▁ಒನ್	-11.1221
▁Scheme	-11.1225
▁Kapil	-11.1225
▁ರಜನಿಕಾಂತ್	-11.1225
▁ಬಲಿಷ್ಠ	-11.1226
▁ಸುದ್ದಿಗೋಷ್ಠಿ	-11.1226
▁iron	-11.1226
ಸಾಧ್ಯ	-11.1227
▁nice	-11.1228
▁ಹಿಂದುಳಿದ	-11.1228
char	-11.1228
▁implementation	-11.1228
ವನ್ನಾಗಿ	-11.1231
▁skill	-11.1231
▁Lakh	-11.1232
had	-11.1233
▁determined	-11.1233
▁ನೀಡಲಿದ್ದಾರೆ	-11.1233
ency	-11.1235
ked	-11.1237
▁finished	-11.1237
▁par	-11.1238
▁ಇದಾದ	-11.1238
▁drug	-11.124
▁profit	-11.124
▁ನಡೆಸಲಾಗಿದೆ	-11.124
PM	-11.124
▁ಹೆಚ್ಚಿಸಲು	-11.1242
▁preparations	-11.1246
▁ಉತ್ಪನ್ನಗಳ	-11.1249
▁talked	-11.1249
▁ದೃಷ್ಟಿಕೋನ	-11.1254
▁ನೆನಪು	-11.1255
▁apart	-11.1255
▁ಮಲ	-11.1256
▁Live	-11.1256
ಗಳಿದ್ದವು	-11.126
ಂಬೆ	-11.126
▁ಮುಸ್ಲಿಮರ	-11.1264
ಮೂರ್ತಿ	-11.1264
▁ಸಮಸ್ಯೆಯ	-11.1271
▁church	-11.1271
▁ಬರುವುದು	-11.1272
▁ರವಾನಿಸ	-11.1272
poll	-11.1272
dhi	-11.1273
▁ನಟನೆ	-11.1274
▁magazine	-11.1274
▁patience	-11.1274
▁plastic	-11.1274
▁producing	-11.1274
▁ಎದುರಾಳಿ	-11.1274
▁ಹರ್ಯಾಣ	-11.1274
▁Rafale	-11.1275
▁ಬಂ	-11.1275
▁Never	-11.1278
▁certificate	-11.128
▁ರಸ್ತೆಗಳು	-11.128
▁ನೆಮ್ಮದಿ	-11.1283
ಗಿಂತಲೂ	-11.1283
▁dam	-11.1285
▁videos	-11.1289
▁ಕೊಡಲು	-11.129
▁ಬೋರ್ಡ್	-11.129
▁ಕೇಂದ್ರದಲ್ಲಿ	-11.1293
▁ರೊ	-11.1295
▁ಮಧ್ಯಾಹ್ನ	-11.1296
▁ವಸ್ತುಗಳು	-11.1299
▁ಸರಕಾರಕ್ಕೆ	-11.1299
▁ಪ್ರವಾಸಿಗರ	-11.1304
▁ಸಲ್ಲಿಸಲು	-11.1304
dent	-11.1304
▁ಭಕ್ತಿ	-11.1307
vel	-11.1308
iti	-11.1311
▁root	-11.1312
vin	-11.1312
▁ಕೊರಿಯಾ	-11.1315
▁ಅರಿ	-11.1317
▁skills	-11.1318
▁FC	-11.1318
▁stayed	-11.1319
▁ಮಾಡುವಾಗ	-11.132
▁row	-11.1322
▁Abdul	-11.1323
▁Thursday	-11.1323
▁apologise	-11.1323
▁destination	-11.1323
▁discipline	-11.1323
▁ಪಯನೀಯರ	-11.1323
▁ಅದೃಷ್ಟವಶಾತ್	-11.1323
dev	-11.1325
ಳೆಯ	-11.1332
▁ಅಷ್ಟೊಂದ	-11.1332
▁ಪ್ರಕ್ರಿಯೆಯನ್ನು	-11.1333
▁ತಗ್ಗಿಸ	-11.1338
▁ನೀಡುತ್ತಿದೆ	-11.1339
▁ಆಕಾರ	-11.1339
▁successfully	-11.1343
ವಣ	-11.1343
▁ಬುದ್ಧಿ	-11.1345
ದಲ್ಲಿಯೂ	-11.1346
If	-11.1346
▁Chris	-11.1347
▁ಅವಶ್ಯಕ	-11.1347
▁ಯುವತಿಯ	-11.1348
▁ಆಗಿರ	-11.1349
ರೆಯ	-11.135
▁ಉತ್ತೇಜಿಸ	-11.1352
▁miss	-11.1353
▁ಪ್ರತಿಭಟನಾಕಾರರ	-11.1357
▁reject	-11.1358
▁ಕೇಳಿದರು	-11.1359
▁Bhat	-11.1361
▁Saif	-11.1363
▁ತಟ್ಟ	-11.1365
ura	-11.1367
ೆಂದೂ	-11.1367
▁ಪ್ರಾಣಿಗಳ	-11.137
▁ಈಡೇರಿಸ	-11.137
▁ಕಸ	-11.1372
▁ಟ್ರೋಫಿ	-11.1372
▁ತಾಲ್ಲೂಕು	-11.1372
▁bilateral	-11.1372
▁everlasting	-11.1372
▁obey	-11.1372
▁ಉದ್ಘಾಟನೆ	-11.1372
▁ಸೋಷಿಯಲ್	-11.1372
▁Lankesh	-11.1372
▁ಅಭಿವ್ಯಕ್ತಿ	-11.1372
▁ಭರ್ತಿ	-11.1373
▁punishment	-11.1373
▁illness	-11.1374
ವಳ	-11.1375
▁ಬಾಡಿಗೆ	-11.1377
ಬಂಧ	-11.1377
SP	-11.138
ಲಾಗದ	-11.1381
▁paste	-11.1383
▁mid	-11.1384
▁delayed	-11.1389
bu	-11.139
▁ಮಿತ್ರ	-11.1391
▁2.0	-11.1391
▁ಘ	-11.1392
kha	-11.1392
▁ಹೆಡ್	-11.1394
aya	-11.1397
abad	-11.1401
▁ಮರದ	-11.1402
so	-11.1405
▁ಕಾರ್ಮಿಕರು	-11.1406
▁roll	-11.1406
▁ದೇಶಗಳು	-11.1406
ಲಿಯಾ	-11.1407
▁ಮಾತನಾಡಲು	-11.1409
ಟದ	-11.1412
▁stones	-11.1413
dan	-11.1414
▁ನಾಲ್ವರ	-11.1416
▁Fe	-11.1417
▁ಸುರಿಯ	-11.1419
▁Class	-11.1419
So	-11.1422
▁ಸಾಕ್ಷ್ಯ	-11.1422
▁ರಿಯಾಯಿತಿ	-11.1422
▁Gadkari	-11.1422
▁diabetes	-11.1422
▁immense	-11.1422
▁ತೆಂಡೂಲ್ಕರ್	-11.1422
▁ಪ್ರತಿರೋಧ	-11.1422
▁Advani	-11.1422
▁Project	-11.1422
▁click	-11.1422
▁ಸಮಾಜವಾದಿ	-11.1423
▁ಸ್ವೀಕಾರ	-11.1424
▁gun	-11.1425
▁variant	-11.1429
▁ಲೂಕ	-11.143
▁Prices	-11.1432
▁ಮನೋ	-11.1432
▁lying	-11.1433
▁observed	-11.1437
▁ಉದಾಹರಣೆಗಳು	-11.1437
▁abuse	-11.144
▁ಕಲಾವಿದರು	-11.1443
▁surely	-11.1444
▁ಮಾಧ್ಯಮಗಳ	-11.1445
▁ಆಹ್ವಾನಿಸ	-11.1445
▁spiritually	-11.1451
ates	-11.1451
▁ದರದಲ್ಲಿ	-11.1452
▁ಕಾರ್ಯದಲ್ಲಿ	-11.1454
▁Prof	-11.1456
ದವರ	-11.1456
▁Card	-11.1457
▁ಪೋಷಕರ	-11.1458
▁ನಿಲುವ	-11.1462
▁ಬೇರೆಯವರ	-11.1462
▁ರಾಜಾ	-11.1465
▁ಮಕ್ಕಳಲ್ಲಿ	-11.1467
ಾರೆ	-11.1469
▁assist	-11.1469
▁disaster	-11.1472
▁pattern	-11.1472
▁precious	-11.1472
▁revenue	-11.1472
▁scooter	-11.1472
▁wheat	-11.1472
▁ದ್ವಿಪಕ್ಷೀಯ	-11.1472
▁ಕಪಿಲ್	-11.1472
▁sword	-11.1472
▁Gundu	-11.1472
▁Foundation	-11.1473
▁ಆಗ್ರಹಿಸಿದ್ದಾರೆ	-11.1473
▁ಸುತ್ತಲೂ	-11.1474
▁commitment	-11.1474
oli	-11.1475
▁ಸಂಸದೀಯ	-11.1475
▁trailer	-11.1475
▁ಜೋರಾಗಿ	-11.1477
ಿಗೋಸ್ಕರ	-11.1479
▁ನಾವಿ	-11.148
uddin	-11.1481
▁ಕುಡಿಯಲು	-11.1481
▁ಡೆಲ್ಲಿ	-11.1485
▁ಆಗಿರುತ್ತದೆ	-11.1485
▁ಅಂಶಗಳ	-11.1486
▁11,	-11.1486
eb	-11.1487
▁Tu	-11.1487
mail	-11.1489
ಧರ್ಮ	-11.1492
▁ISRO	-11.1493
ೋಕೆ	-11.1494
ನಿನ್ನ	-11.1495
ರುವುದು	-11.1496
ಪಾದ	-11.1497
ೇರಿ	-11.1497
▁gate	-11.1498
hand	-11.1501
ಾಡಿ	-11.1501
ಲ್ಪಟ್ಟಿರುವ	-11.1505
▁ಮನೆಗಳು	-11.1506
▁ಬದಿ	-11.1506
▁ಉಳಿದಿದೆ	-11.1506
ets	-11.1506
▁ಅಧ್ಯಕ್ಷರಾದ	-11.1507
▁ಅದಕ್ಕಿಂತ	-11.151
gam	-11.151
▁Cut	-11.1513
ಕೋಟಿ	-11.1513
▁ಮನುಷ್ಯನು	-11.1514
ದೊಡ್ಡ	-11.1519
ಯಾದರು	-11.152
▁ನಂಬಿಕೆಯನ್ನು	-11.1521
ಲಾಲ್	-11.1522
▁ಮುಗಿಸ	-11.1522
▁Management	-11.1522
▁cabinet	-11.1522
▁surprising	-11.1522
▁tongue	-11.1522
▁smile	-11.1522
▁ಒಡೆಯ	-11.1522
▁ಸುದೀಪ್	-11.1522
▁mar	-11.1523
▁fever	-11.1523
▁ಸಂಪಾದಿಸ	-11.1523
▁67	-11.1523
▁cow	-11.1524
▁ಹಿಟ್ಟು	-11.1524
▁ಪದ್ಮ	-11.1525
ಿಯನ್ನು	-11.1525
▁estimated	-11.1525
ವಾಗಿರಲಿಲ್ಲ	-11.153
▁Nag	-11.1534
▁shock	-11.1535
▁95	-11.1536
▁ಯಾರನ್ನು	-11.1543
ರಿಕ್	-11.1543
▁ಸೈನಿಕರು	-11.1543
▁ನಡೆಸಬೇಕು	-11.1545
ವನೂ	-11.1546
▁dreams	-11.1548
▁farm	-11.1551
▁ಹಣ್ಣುಗಳು	-11.1552
▁ಪ್ರತಿನಿಧಿ	-11.156
ppa	-11.1563
▁ಸಂಸದರು	-11.1566
▁ಕುಟುಂಬದಲ್ಲಿ	-11.1567
ಸ್ಕ	-11.157
▁cards	-11.1571
air	-11.1572
▁identify	-11.1572
▁identity	-11.1572
▁ಅಭಿಷಿಕ್ತ	-11.1572
▁ಕೋವಿಂದ್	-11.1572
▁ಶೀರ್ಷಿಕೆ	-11.1572
▁Judge	-11.1572
▁practical	-11.1572
▁voting	-11.1572
▁ಪುನರುತ್ಥಾನ	-11.1572
▁Lucknow	-11.1572
▁ಸರೋವರ	-11.1572
▁ನನ್ನಲ್ಲಿ	-11.1572
▁confusion	-11.1572
▁ಹಾಸ್ಯ	-11.1572
▁ಸೆಳೆದ	-11.1572
▁meant	-11.1573
▁Swamiji	-11.1573
ಿರುವಂತೆ	-11.1574
▁stake	-11.1574
▁ತಾಜಾ	-11.1574
cept	-11.1574
▁ಇನ್ನೇನು	-11.1578
▁ನಮನ	-11.1578
▁February	-11.1579
▁ಇದ್ದವು	-11.1579
▁ಭಾಗಿಯಾಗ	-11.1581
▁ನೋಟ್	-11.1582
▁ಸಮಾಜದಲ್ಲಿ	-11.1583
sk	-11.1584
▁ಜಾಲತಾಣ	-11.1585
▁willing	-11.1586
▁ಜೈಲು	-11.1587
▁faces	-11.1589
▁ಆಲಯ	-11.159
▁departments	-11.159
▁ದೂ	-11.1593
ಾಗುತ್ತದೆ	-11.1595
ೊಮ್ಮೆ	-11.1595
▁ಹೇಳಬಹುದು	-11.1599
▁16:	-11.1599
ದೊಳಗೆ	-11.1603
▁ಪಾಲ್ಗೊಳ್ಳ	-11.1605
▁ಅಂಗವಾಗಿ	-11.1605
▁ಸಿಂಹ	-11.1608
▁ಯಾಕ	-11.161
▁experts	-11.161
ಡನ್	-11.1611
ಿಲ್ಲದ	-11.1612
▁survive	-11.1613
anda	-11.1613
▁elements	-11.1616
▁ದಾಖಲಿಸಿಕೊಂಡಿರುವ	-11.1619
ool	-11.1619
▁ಛತ್ತೀಸ್	-11.1622
▁Application	-11.1622
▁Global	-11.1622
▁qualities	-11.1622
▁ಹಲವೆಡೆ	-11.1622
▁White	-11.1622
▁mercy	-11.1622
▁PTI	-11.1622
▁ಬಯಕೆ	-11.1622
▁ಹಿತಾಸಕ್ತಿ	-11.1623
▁dropped	-11.1623
▁ಫೋಟೊ	-11.1623
▁Colour	-11.1623
▁ಪ್ರಕಟಣೆ	-11.1624
▁ನಿಗದಿತ	-11.1627
▁Saul	-11.1627
ಯರ	-11.1627
▁threatened	-11.1628
▁react	-11.1628
▁ವ್ಯಕ್ತವಾಗಿದೆ	-11.163
▁ಸುಳಿವು	-11.163
▁Shi	-11.163
▁ಸಿಗಲಿಲ್ಲ	-11.1631
▁Key	-11.1631
▁ಸಲಹೆಗಾರ	-11.1632
▁ಸಾಧ್ಯವಾಗುತ್ತದೆ	-11.1633
▁2008	-11.1633
▁ಸಾಗರ	-11.1633
▁ವಾಸಿಸ	-11.1636
▁cook	-11.1638
▁preach	-11.1639
▁ಮುಂಭಾಗದಲ್ಲಿ	-11.1644
chan	-11.1644
▁ಬಿದ್ದಿದೆ	-11.1645
್ರೀ	-11.1647
fl	-11.1649
▁ಆಗಿರಲಿಲ್ಲ	-11.1649
▁visiting	-11.1654
▁ca	-11.1657
ban	-11.166
▁ನೊ	-11.166
▁ಕಾರ್ಯಗಳು	-11.166
▁provisions	-11.1663
ಮೇಲೆ	-11.1664
▁united	-11.1664
▁German	-11.1668
▁semi	-11.1671
▁prison	-11.1671
▁ಹಿಂ	-11.1671
▁ಫ್ಲ	-11.1672
ff	-11.1673
▁Reliance	-11.1673
▁ಪರಿವರ್ತನೆ	-11.1673
▁ಫೆಬ್ರವರಿ	-11.1673
▁connectivity	-11.1673
▁ಅಜಯ್	-11.1674
▁Malik	-11.1674
▁ಕ್ಷೇತ್ರಕ್ಕೆ	-11.1674
▁ಕೊನೆಗೂ	-11.1675
▁ಅಮಾನತು	-11.1676
▁ದೊರೆಯಲಿದೆ	-11.1676
ER	-11.1677
▁ಮುಖಂಡರಾದ	-11.1678
▁ತಯಾರಿಕೆ	-11.1679
Mo	-11.168
▁ಸ್ಟ	-11.168
▁Sur	-11.1681
▁ಸಾಮರ್ಥ್ಯದ	-11.1682
▁dual	-11.1682
▁ಸುಲಭವಲ್ಲ	-11.1683
▁panic	-11.1683
▁ಪೌಲನ	-11.1684
ಚರ	-11.1685
▁ಮನೆಯಿಂದ	-11.1685
▁ಪೂಜಾರಿ	-11.1686
ಗೊಳ್ಳುವ	-11.1688
▁ಸುರಕ್ಷಿತವಾಗಿ	-11.1694
▁ಅಂಕಿತ	-11.1696
▁ಹಚ್ಚಿ	-11.1698
ಕೊಂಡಿದೆ	-11.1699
vert	-11.1699
sta	-11.1699
▁covered	-11.1699
▁ಲ್ಯಾಂಡ್	-11.1704
▁code	-11.1704
▁ಪ್ರಶಸ್ತಿಗೆ	-11.1705
▁ಎಸಗ	-11.1707
ಂದರ್	-11.1707
aiah	-11.171
▁ಪ್ರೋ	-11.1717
ಜ್ಞಾನ	-11.1719
▁ಅವುಗಳಿಗೆ	-11.1721
▁ಕಾಣಿಕೆ	-11.1722
ವಲ್	-11.1723
▁ಪ್ರಚೋದಿಸ	-11.1724
▁Vitamin	-11.1724
▁taluk	-11.1724
▁ಅಶ್ವಿನ್	-11.1724
▁Number	-11.1724
▁dialogue	-11.1724
▁ಎಕರೆ	-11.1724
▁ಸ್ಕ್ರೀನ್	-11.1724
▁ಅನುಕರಿಸ	-11.1724
▁ಅಬ್ಬರ	-11.1725
ale	-11.1725
▁Devendra	-11.1725
▁definitely	-11.1726
▁absolutely	-11.1727
▁Press	-11.173
▁ನಮಗೂ	-11.173
22	-11.1734
▁ನಾಯಕಿಯಾಗಿ	-11.1735
dom	-11.1735
ze	-11.1736
▁ವಿಚಾರವಾಗಿ	-11.1738
▁floods	-11.1739
▁Ji	-11.1741
RI	-11.1742
▁hall	-11.1742
var	-11.1743
▁ಪಡೆದಿರುವ	-11.1744
▁ಬಂದಿವೆ	-11.1745
▁ಭೇದ	-11.1748
▁ಒಪ್ಪಂದದ	-11.1749
▁ಶುಭಾಶಯಗಳು	-11.1749
ಂಭ	-11.1749
07	-11.175
▁ನಿರೋಧಕ	-11.1751
▁linked	-11.1751
16	-11.1753
▁ಮಾಡುತ್ತಿದ್ದರು	-11.1753
▁ಹೇಳುತ್ತೇನೆ	-11.1754
▁drugs	-11.1761
ದೀ	-11.1764
‍‍	-11.1765
some	-11.1766
▁ಮರಗಳು	-11.1767
▁Video	-11.1767
▁ಯುವಕನ	-11.1768
▁buildings	-11.1769
▁passing	-11.1774
▁loyal	-11.1775
▁horse	-11.1775
▁ಅಂಗೀಕಾರ	-11.1775
▁ಚರಂಡಿ	-11.1776
▁executive	-11.1776
▁trend	-11.1776
ೀರ್	-11.1776
▁ಸೈಕಲ್	-11.1776
▁ಶ್ರೀದೇವಿ	-11.1777
pura	-11.1777
▁studying	-11.178
▁ವ್ಯಕ್ತಿಯನ್ನು	-11.1782
▁soft	-11.1783
▁voltage	-11.1784
ಾಂಕ	-11.1786
down	-11.1786
▁provision	-11.1786
▁ಕೆಲವರಿಗೆ	-11.1786
▁2009	-11.1787
ವೊಂದರಲ್ಲಿ	-11.1787
▁reaction	-11.1788
▁ಮಾನ್ಯ	-11.1788
33	-11.1789
▁ಎಂಎಂ	-11.179
▁Sharad	-11.1791
▁110	-11.1792
▁Ph	-11.18
▁ಯುವಕರು	-11.1804
ಸ್ತಿ	-11.1805
▁ಸೇರಿದ್ದಾರೆ	-11.1808
▁ಮಹಾನ್	-11.181
ಗೊಳ್ಳುತ್ತದೆ	-11.181
▁ಇವನು	-11.1811
▁ಆದೇಶವನ್ನು	-11.1812
ೀಮ್	-11.1812
▁representatives	-11.1813
▁mountain	-11.1813
ila	-11.1813
ಕುಮಾರ	-11.1813
my	-11.1816
▁ಸಮ್ಮೇಳನ	-11.1817
ಸಲ್	-11.1818
▁du	-11.1819
ಗೊಂಡಿತು	-11.1819
▁ಮಾಡುತ್ತಾ	-11.1821
ಳಾ	-11.1823
▁offices	-11.1824
▁74	-11.1824
▁Earth	-11.1827
▁Village	-11.1827
▁guidance	-11.1827
▁ಗಡ್ಕರಿ	-11.1827
▁ಪರಂಪರೆ	-11.1827
▁ಪೈಲಟ್	-11.1827
▁ಭಾವನಾತ್ಮಕ	-11.1827
▁ಮೊಕದ್ದಮೆ	-11.1827
▁ಶಸ್ತ್ರಾಸ್ತ್ರ	-11.1827
▁transmission	-11.1827
▁ವಿದ್ಯಾಭ್ಯಾಸ	-11.1827
▁ಒಂಬತ್ತ	-11.1827
▁ಉಪಗ್ರಹ	-11.1828
▁ಪ್ರದಾನ	-11.1828
▁ಸಿಗುತ್ತಿಲ್ಲ	-11.1831
▁2011	-11.1832
▁ಆಗಲ್ಲ	-11.1832
ರಿತ	-11.1835
ೇಕೆ	-11.1835
▁ಸಹೋದರರು	-11.1836
▁recommended	-11.1836
▁ಸಿಕ್ಕಿತು	-11.1836
▁Local	-11.1838
▁encouraged	-11.1839
bul	-11.1839
sp	-11.1841
▁ಕನ್	-11.1843
▁starts	-11.1845
▁ಅಣ್ಣ	-11.1847
▁ಇದಕ್ಕಿಂತ	-11.1851
▁ಆಗಲೇ	-11.1856
▁ಮಕ್ಕಳಿದ್ದಾರೆ	-11.1857
ಯುವ	-11.1858
▁ಟಾ	-11.1862
42	-11.1866
▁22:	-11.1868
ಾಗಿಯೂ	-11.1869
urav	-11.187
▁ಅವಕಾಶಗಳು	-11.1874
▁artist	-11.1876
cylinder	-11.1876
▁connect	-11.1876
▁challenging	-11.1879
▁cooperate	-11.1879
▁fundamental	-11.1879
▁imagine	-11.1879
▁ಖಿನ್ನತೆ	-11.1879
▁ಸ್ಕೂಲ್	-11.1879
▁apex	-11.1879
▁Dubai	-11.1879
▁ಅಧಿಕಾರಿಯೊಬ್ಬರು	-11.1879
▁ಬೆಳಕು	-11.1879
▁ಯೋಜನೆಯಡಿ	-11.188
▁felicitated	-11.188
▁Elections	-11.1882
▁ಹೀಗಿವೆ	-11.1882
▁constituted	-11.1884
▁ಜಯಿಸ	-11.1884
▁ಮನಸ್ಸಿಗೆ	-11.1885
▁ಪ್ರಾಂಶುಪಾಲ	-11.1885
▁ಪ್ಲಾನ್	-11.1885
▁ತುದಿ	-11.1885
▁Russian	-11.1889
▁ಸಾಹಸ	-11.1893
▁ವಹಿಸಬೇಕು	-11.1893
▁ideal	-11.1893
▁Mad	-11.1897
▁ಎಂದಿದ್ದರು	-11.1897
▁ರಾಶಿ	-11.1897
▁ನಿಲುವು	-11.1899
ಿಸಿಕೊಂಡು	-11.1899
▁ತೆರ	-11.19
▁Dan	-11.1907
▁commanded	-11.1908
▁hill	-11.1917
▁ಪರಿಸ್ಥಿತಿಯಲ್ಲಿ	-11.1917
▁650	-11.1917
▁ಕೇಳಿಕೊಳ್ಳ	-11.1918
pping	-11.192
▁ಚಲಿಸ	-11.1923
ಲ್ಲಿದ್ದ	-11.1924
▁designed	-11.1924
29	-11.1926
▁ಎತ್ತರದ	-11.1929
▁ಅನುಸರಿಸಿ	-11.1929
▁ಸರಕಾರವು	-11.193
▁ದೈನಂದಿನ	-11.1931
▁ಸಂಭಾವ್ಯ	-11.1931
▁1-0	-11.1931
▁grew	-11.1931
▁Marathi	-11.1931
▁yellow	-11.1931
▁Deepak	-11.1932
▁ಆಟಗಾರ್ತಿ	-11.1932
ೇನ	-11.1932
▁ವಿಷಾದ	-11.1933
▁Boss	-11.1933
▁ಕೆಲವರ	-11.1934
▁ಪ್ರಾಯೋಗಿಕ	-11.1934
▁ರಾಜಕಾರಣಿ	-11.1935
▁Six	-11.1936
ಯಿಂದಲೇ	-11.1936
▁bringing	-11.1937
▁Manipur	-11.1939
▁ಅರೆ	-11.194
▁ಸಂಭವಿಸಿಲ್ಲ	-11.1942
▁ಸ್ಟೋರಿ	-11.1943
▁ಫಲಕ	-11.1944
▁ಕಲಾವಿದ	-11.1945
▁ಅಹ	-11.195
▁ಗಾಯಕ	-11.195
▁ಉಪಕರಣ	-11.1951
ಡ್ಡ	-11.1951
▁ನೀಡಲಿಲ್ಲ	-11.1951
▁ರೋಗಿಗಳ	-11.1953
▁ಕೆಳ	-11.1955
▁1.5-	-11.1957
ಲ್ಯಾ	-11.1959
▁ಅದೆಲ್ಲ	-11.1959
ನೀಯ	-11.1962
▁ಇಳಿದ	-11.1963
ಹಳ್ಳಿ	-11.1964
▁ದೇಶಿಯ	-11.1966
ಂತಿದೆ	-11.197
▁ರಾಯಭಾರಿ	-11.1976
▁Dutt	-11.1976
▁ಬಡವರ	-11.1978
▁supporting	-11.1979
ಲೋಕ	-11.198
▁continuing	-11.1983
▁ವಿದ್ಯಮಾನ	-11.1983
▁Trust	-11.1983
▁ರಣವೀರ್	-11.1983
▁outcome	-11.1983
ack	-11.1984
▁Saudi	-11.1984
▁ಟ್ರಾನ್ಸ್	-11.1984
▁ಉತ್ತರವನ್ನು	-11.1986
▁disrupted	-11.1988
▁ನೆರವಾಗುತ್ತದೆ	-11.1991
▁ಆನಂತರ	-11.1992
ier	-11.1994
▁ಬ್ರಹ್ಮ	-11.1995
▁celebration	-11.1996
▁ಅತಿಥಿ	-11.1997
vendra	-11.2
▁ಜೊ	-11.2003
ಪಡಿಸಿ	-11.2003
ix	-11.2003
▁ನೆನಪ	-11.2004
▁strange	-11.2006
ುವಿಕೆಯ	-11.2007
▁ಗಟ್ಟಿ	-11.2007
ಲಿಗೆ	-11.2008
▁IPC	-11.2008
▁recommendations	-11.2009
▁defend	-11.2011
▁ವರ್ಕ್	-11.2013
ek	-11.2013
▁closely	-11.2016
▁ಸಿಕ್ಕಿ	-11.2019
▁ಯಾವುದೆ	-11.2019
▁ಮುತ್ತ	-11.2019
ಸ್ತಾನ	-11.2019
▁ಆಗಲಿ	-11.202
▁ಮೀಡಿಯಾ	-11.2023
▁sentence	-11.2029
▁18:	-11.203
▁ಪ್ರಿ	-11.2032
late	-11.2033
▁ಸಭೆಗೆ	-11.2034
Jasprit	-11.2036
▁grief	-11.2036
▁possibility	-11.2036
▁divine	-11.2036
▁Luke	-11.2036
▁Would	-11.2036
▁ಪ್ರಿಯಾಂಕ	-11.2036
▁Canada	-11.2037
▁ಸೌದಿ	-11.2037
▁ರಾಜೇಶ್	-11.2037
▁visitors	-11.2039
▁ವಿಶ್ವವಿದ್ಯಾಲಯದ	-11.204
▁ರಾಷ್ಟ್ರದ	-11.2045
ಾರು	-11.2048
▁dollar	-11.2048
▁widely	-11.2048
ಗರ	-11.2049
▁ತಿಳಿಸಲಾಗಿದೆ	-11.205
▁ಗಂಟೆಗೆ	-11.2051
▁ಇದೂ	-11.2052
▁kings	-11.2052
ಗಿರಿ	-11.2052
▁streets	-11.2053
▁dear	-11.2054
ಮತ	-11.2054
▁consequences	-11.2055
▁Challenger	-11.2056
44	-11.2058
400	-11.2059
▁images	-11.206
▁Vijaya	-11.2061
▁ಲಭ್ಯವಾಗ	-11.2061
▁politicians	-11.2064
▁ಆಗಮಿಸ	-11.2064
ez	-11.2067
ತ್ವದ	-11.2067
▁allows	-11.2068
▁ಮಣಿಪುರ	-11.207
▁ties	-11.207
▁youths	-11.2073
▁ಗ್ರಾಹಕ	-11.2073
▁ನಿಲ್ದಾಣದಲ್ಲಿ	-11.208
▁ಹುತಾತ್ಮ	-11.2082
▁ಉತ್ಪನ್ನಗಳು	-11.2082
▁ಅಷ್ಟ	-11.2083
▁Ur	-11.2083
af	-11.2083
fully	-11.2084
▁ID	-11.2086
▁Agarwal	-11.2089
▁Fadnavis	-11.2089
▁Tuesday	-11.2089
▁collision	-11.2089
▁industrial	-11.2089
▁ಆಲೋಚಿಸ	-11.2089
▁ಉಡುಗೊರೆ	-11.2089
▁ಮುಂಬಯಿ	-11.2089
▁ಸಂರಕ್ಷಿಸ	-11.2089
▁greet	-11.2089
▁ವರ್ಗಾಯಿಸ	-11.2089
▁walking	-11.2089
▁glad	-11.2089
▁ಇತ್ತೀಚೆಗಷ್ಟೇ	-11.2089
▁educational	-11.2089
▁ಎಂಟ್ರಿ	-11.2089
▁ಧನಾತ್ಮಕ	-11.2089
▁sick	-11.2089
log	-11.2089
▁stick	-11.2091
▁captured	-11.2092
▁ನಡೆಯುತ್ತಿವೆ	-11.2093
▁ದಿನದಂದು	-11.2093
▁ನೀವ	-11.2093
▁ವರ್ಗದ	-11.2094
ಸಿಸಿ	-11.2095
▁Audi	-11.2096
▁Dar	-11.2097
▁ಸಂಭವಿಸುತ್ತದೆ	-11.2102
▁initiative	-11.2103
▁ಆಟದ	-11.2105
ಎಲ್ಲ	-11.2106
▁ಯಾಜಕ	-11.2107
▁ಚಹಾ	-11.2108
▁ಇರಲಿದೆ	-11.2111
lock	-11.2111
right	-11.2112
▁ಗುರಿಯಾಗ	-11.2113
26	-11.2117
▁ಹುದ್ದೆಗೆ	-11.2119
▁ತಲುಪಿದೆ	-11.2119
▁ಸಮರ	-11.212
▁Romans	-11.2122
▁ಬಂದಿರುವ	-11.2122
▁ದ್ರವ	-11.2123
▁ತಾಲೂಕಿನ	-11.2125
▁ಡೇಟ್	-11.2125
▁ಸೇವೆಗಳ	-11.2125
▁Kam	-11.2125
▁ill	-11.2126
ಕ್ಯಾ	-11.2128
▁apostles	-11.2129
▁ದೇವತೆ	-11.2129
03	-11.2139
▁ಮಾರ್ಗದಲ್ಲಿ	-11.214
pu	-11.2141
▁ವರಿಷ್ಠ	-11.2142
▁Amazon	-11.2142
▁Celsius	-11.2142
▁Himachal	-11.2142
▁registration	-11.2142
▁ಆರಾಧನೆ	-11.2142
▁ಕಾದಂಬರಿ	-11.2142
▁ನಿರ್ಣಾಯಕ	-11.2142
▁ಸಂಯೋಜಿಸ	-11.2142
▁behalf	-11.2142
▁pursue	-11.2142
▁brain	-11.2142
▁ಆತ್ಮವಿಶ್ವಾಸ	-11.2142
▁ಸುಗಮ	-11.2142
▁ಜಯಂತಿ	-11.2143
ಕಾಶ್ಮೀರ	-11.2144
▁Rather	-11.2144
▁ವಾರ್ಡ್	-11.2145
▁ಸ್ಯಾಮ್	-11.2146
▁ಬೈಬಲಿನಲ್ಲಿ	-11.2147
▁ಉದಯ	-11.2147
▁ವಿಧಾನಗಳು	-11.2148
▁ವೈಶಿಷ್ಟ್ಯ	-11.2149
▁ಧರಿಸಿ	-11.215
ಗೌಡ	-11.215
ಪ್ರಧಾನಮಂತ್ರಿಯವರು	-11.2152
teen	-11.2152
flow	-11.2154
▁ಗುಂಪಿನ	-11.2155
▁ಓಡಾಡ	-11.2157
▁ಹತ್ತಿ	-11.2159
▁centres	-11.2161
▁ಮಾಡಿಕೊಳ್ಳಬೇಕು	-11.2165
▁ಗೆದ್ದುಕೊಂಡ	-11.2165
▁ನಿರ್ಧರಿಸಿದೆ	-11.2167
▁heads	-11.2168
▁ದೇವ್	-11.2171
ಃ	-11.2173
▁ಟೋ	-11.2174
▁ಅಂದುಕೊಂಡ	-11.2175
ಶೇ	-11.2175
▁ಬೂ	-11.2175
▁ಬಿಜೆಪಿಯಿಂದ	-11.218
▁ಪಿಎಫ್	-11.2181
▁pace	-11.2182
▁ಪಾಲ್	-11.2184
▁advance	-11.2185
▁ಹೇಳು	-11.2185
▁opt	-11.2185
▁investigate	-11.2186
▁ಇಷ್ಟಪಡ	-11.2188
▁ಮೂಲೆ	-11.2192
▁ತಿಳಿ	-11.2195
▁ಪ್ರಸ್ತಾಪಿಸ	-11.2195
▁Society	-11.2196
▁categories	-11.2196
▁stretch	-11.2196
▁yield	-11.2196
▁ರೈಲ್ವೇ	-11.2196
▁ಕುದುರೆ	-11.2196
▁ಹೋಲಿಕೆ	-11.2196
▁pride	-11.2196
▁Select	-11.2196
▁ಸುವ್ಯವಸ್ಥೆ	-11.2196
▁planned	-11.2197
▁140	-11.2197
▁ಜೂ	-11.2198
kal	-11.2199
▁ವಿಪಕ್ಷ	-11.22
▁European	-11.22
▁emerged	-11.22
ವನಲ್ಲ	-11.2203
ತೆಯಿಂದ	-11.2204
▁falling	-11.2204
▁ಹಾಕಲು	-11.2205
▁ಪ್ರಶಾಂತ್	-11.2206
▁gathered	-11.2207
▁ಅನಾರೋಗ್ಯ	-11.2209
▁suspected	-11.2209
▁ಹೇಗಿದೆ	-11.2209
ಿಸಲಾಗುತ್ತದೆ	-11.2212
▁kills	-11.2212
▁Royals	-11.2213
▁demanding	-11.2215
▁ಪಿಂಚಣಿ	-11.2215
mat	-11.222
▁RCB	-11.2221
▁Awards	-11.2222
▁Due	-11.2223
TC	-11.2223
▁ಅನನ್ಯ	-11.2224
▁Mah	-11.2225
▁ಆರಂಭವಾಗಿದೆ	-11.2225
▁ಹೆಚ್ಚಿದೆ	-11.2227
ಾಹ	-11.223
ಂತ್	-11.2232
▁dog	-11.2235
▁ಪಾಟೀಲ	-11.2235
▁finding	-11.2235
IA	-11.2237
▁ಫೀಚರ್	-11.2241
▁heavens	-11.2242
▁ಸಾಕ	-11.2243
▁ನಿರ್ವಹಣಾ	-11.2247
▁78	-11.2247
ಶಿಯ	-11.2248
▁ವದಂತಿ	-11.2249
▁ವಿಡಿಯೊ	-11.2249
▁ವಿದ್ಯಾರ್ಹತೆ	-11.2249
▁ಭಿನ್ನಾಭಿಪ್ರಾಯ	-11.2249
▁ರಣಬೀರ್	-11.2249
▁ಮಾರ್ಗಸೂಚಿ	-11.225
▁package	-11.225
▁ದೇವೇಂದ್ರ	-11.225
▁ಗುಪ್ತಾ	-11.225
▁subsequently	-11.2251
▁ಸತೀಶ್	-11.2251
▁ದುರ	-11.2252
▁disappointed	-11.2252
ಲ್ಪಡುತ್ತದೆ	-11.2252
ದ್ರೆ	-11.2252
ೇರ್	-11.2252
▁ಪೂರ್ತಿ	-11.2253
ಬಲ್ಲೆ	-11.2253
▁ಅಧ್ಯಕ್ಷರು	-11.2253
▁ಕಣಿವೆ	-11.2253
▁Inter	-11.2256
▁ಜಗ	-11.2256
▁ಜಯಗಳಿಸ	-11.2256
ಶೋಧ	-11.2258
▁useful	-11.2259
▁ಕೆಎಲ್	-11.2259
▁reduces	-11.226
tta	-11.2261
▁ನೀಡಲಾಗಿತ್ತು	-11.2261
▁ಸೂಚಿಸಿದರು	-11.2263
▁plane	-11.2264
▁approves	-11.2265
▁ನ್ಯಾಯಾಧೀಶ	-11.2271
▁ಮೊತ್ತದ	-11.2274
▁ಸೇವೆಯಲ್ಲಿ	-11.2276
▁butter	-11.2277
tric	-11.2277
▁ಯುವಕರ	-11.2278
▁DC	-11.2282
▁ಪತ್ರವನ್ನು	-11.2283
▁ಇತರರಿಗೆ	-11.2284
ಗೊಂಡಿವೆ	-11.2284
▁scientists	-11.2287
▁ಕೊಡಬೇಕು	-11.2287
▁possess	-11.229
▁ಡೀ	-11.2291
▁actions	-11.2292
▁showing	-11.2293
ಕೃತ	-11.2293
ಂಗೆ	-11.2294
▁escape	-11.2294
▁ಅಕ್ಕ	-11.23
▁courts	-11.2301
▁ಸಾಂತ್ವನ	-11.2303
▁Recently	-11.2303
▁Stadium	-11.2303
▁ಘರ್ಷಣೆ	-11.2303
▁ಲಂಕೇಶ್	-11.2303
▁ವೋಲ್ಟೇಜ್	-11.2303
▁ಕೊರಿಂಥ	-11.2303
▁surrounding	-11.2307
▁ಲಭ್ಯವಿರುವ	-11.2308
▁ವಿಪತ್ತು	-11.2308
▁ರೊಟ್ಟಿ	-11.2308
▁ಎಮ್	-11.2309
▁recovery	-11.2309
▁ಬ್ಲೂ	-11.2309
ati	-11.2309
▁endure	-11.231
▁ನುಡಿದರು	-11.2312
▁circuit	-11.2312
▁joining	-11.2313
▁ಗಂಡನ	-11.2313
▁ವಿಶೇಷತೆ	-11.2314
▁Care	-11.2317
▁crying	-11.2319
▁relative	-11.232
ದೇವ	-11.2325
▁ಜರುಗಿಸ	-11.2326
▁arms	-11.2327
▁enhance	-11.2327
ಲನ್	-11.2327
▁ಸಾಲಿನಲ್ಲಿ	-11.2329
▁ಕರಿ	-11.2331
ಾಂತ	-11.2332
ಕೋಶ	-11.2332
▁meal	-11.2333
▁2,000	-11.2334
▁murdered	-11.2335
▁prob	-11.2336
▁ಅವಧಿಯ	-11.2337
▁ಹೊಡೆದು	-11.2337
▁ಖಚಿತಪಡಿಸ	-11.2338
anna	-11.2339
▁ಪ್ರತಿಭಟನೆಯಲ್ಲಿ	-11.2339
▁ಪ್ರೀತಿಯನ್ನು	-11.234
ಕನ	-11.2343
▁Bad	-11.2344
▁ನಾಗರಿಕರು	-11.2345
▁ಮಾರ್ಕ	-11.2347
▁ಮಹಾತ್ಮ	-11.2351
▁ಒಳಗೂಡ	-11.2351
▁commissioner	-11.2352
▁trained	-11.2353
▁ಪರಾ	-11.2356
▁ನಿಶ್ಚಿತ	-11.2357
▁beneficial	-11.2358
▁bronze	-11.2358
▁creating	-11.2358
▁neighbor	-11.2358
▁poverty	-11.2358
▁ಬೆಣ್ಣೆ	-11.2358
▁ಸ್ನಾಯು	-11.2358
▁ಹಿಮಾಚಲ	-11.2358
▁tank	-11.2358
▁ಬಂದೋಬಸ್ತ್	-11.2358
▁harassment	-11.2358
▁ಪವನ್	-11.2358
▁ಹಾರಾಟ	-11.2358
▁Mission	-11.236
▁ಅನ್ನೋದು	-11.2362
▁Code	-11.2363
▁Plan	-11.2363
▁ಅನಂತ	-11.2364
▁ತಿಳುವಳಿಕೆ	-11.2365
▁ನನ್ನಿಂದ	-11.2366
▁ಕೇಳಿದೆ	-11.2368
ಹಿಸ	-11.2369
▁ಖಾತೆಗೆ	-11.237
ಲನ್ನು	-11.237
oor	-11.237
gl	-11.237
▁possession	-11.2371
nna	-11.2372
ಟರಿ	-11.2373
▁ಕೊಳ	-11.2373
ಾನು	-11.2373
▁tablespoon	-11.2374
▁larger	-11.2375
cle	-11.2376
▁picked	-11.2381
▁ನೈಟ್	-11.2382
ುತ್ತಿ	-11.2383
ಕರಣ	-11.2384
▁ನಿನಗ	-11.2384
▁ನಡೆದಿವೆ	-11.2386
▁complain	-11.2388
aka	-11.2388
ಮಾಡಿದ	-11.2392
▁mistakes	-11.2393
▁Ve	-11.2393
▁ಬಂದಿದ್ದಾರೆ	-11.2394
▁ಮಾಡಿಕೊಳ್ಳುವ	-11.2394
▁MoU	-11.2396
▁ಮಿಶ್ರಣವನ್ನು	-11.2397
▁push	-11.2399
▁Heat	-11.2401
ವಾಗಲಿಲ್ಲ	-11.2402
ಂಜಿ	-11.2402
▁ಜೇ	-11.2403
▁ಇಸ್ರಾಯೇಲ್ಯರ	-11.2403
ಿದ್ದಕ್ಕೆ	-11.2404
▁ಕಂಡುಬರ	-11.2405
▁ವಜಾ	-11.2406
▁ಅವಶ್ಯ	-11.2408
▁Political	-11.2412
▁easier	-11.2412
▁Corinthians	-11.2412
▁ರೂಪಾಂತರ	-11.2413
▁ಕಾರ್ತಿಕ್	-11.2414
ಿಸುವಂತೆ	-11.2415
▁untoward	-11.2415
▁ಅನುಕೂಲಕರ	-11.2415
president	-11.2416
ವೆಲ್	-11.2416
▁ಜಾಹೀರಾತು	-11.2417
▁facts	-11.2418
▁ನಡೆದುಕೊಳ್ಳ	-11.2419
▁declined	-11.242
▁ಬಾರಿಸಿ	-11.242
▁ಮಾಡುವುದರಿಂದ	-11.2421
ದಾನ	-11.2422
▁57	-11.2423
▁ಶಿಕ್ಷಣದ	-11.2424
▁73	-11.2425
▁ಮುರಿದು	-11.2426
▁ಮಾರ್ಗವನ್ನು	-11.2427
ಾದರು	-11.2429
▁achievement	-11.2432
▁Ham	-11.2432
ಸರಿ	-11.2433
term	-11.2436
▁organ	-11.2436
ero	-11.2439
▁ಎಲೆ	-11.2439
▁corner	-11.2444
star	-11.2445
▁ಇರಿ	-11.2446
▁ನೀಡುವುದಾಗಿ	-11.2448
▁secure	-11.2448
▁ಅಲ್ಲೇ	-11.2454
▁ಕೆಲಸಗಳನ್ನು	-11.2454
OS	-11.2455
▁blame	-11.2458
▁ಕಡ್ಡಾಯವಾಗಿ	-11.2458
ಾದರೆ	-11.2458
▁ಬೇಸಿಗೆ	-11.2459
▁14,	-11.2459
▁ಬಿಡುಗಡೆಯಾದ	-11.2459
▁ಜಗತ್ತಿನಲ್ಲಿ	-11.2463
▁Korea	-11.2463
▁ನಾಗರಿಕರ	-11.2465
▁countrys	-11.2466
UV	-11.2467
▁ಅವಲಂಬಿಸ	-11.2467
▁ಪರಿಕಲ್ಪನೆ	-11.2467
▁Mallikarjun	-11.2467
▁rejoice	-11.2467
▁ಸಹಭಾಗಿತ್ವ	-11.2467
▁ಇಸವಿ	-11.2467
▁ಜ್ಞಾಪಕ	-11.2468
▁LED	-11.2469
ಶು	-11.2469
▁ಮೃತರು	-11.247
▁comfortable	-11.2471
▁ಮದುವೆಯ	-11.2473
▁ಪ್ರತಿನಿಧಿಸ	-11.2474
▁NW	-11.2475
▁Sir	-11.2477
▁addressing	-11.2479
ಣ್ಯ	-11.2479
▁ಕಥೆಯ	-11.2479
▁Engineering	-11.2482
▁ಪಟ್ಟಿಯನ್ನು	-11.2482
▁ನಡಿಸ	-11.2484
▁ಅಭಿಮಾನಿಗಳಿಗೆ	-11.2484
▁rescued	-11.2484
▁shop	-11.2485
▁signs	-11.2488
▁ಕರ್ತನಿಗೆ	-11.2492
▁ಕೈಗೆ	-11.2495
▁ಭೂಮಿಯಲ್ಲಿ	-11.2497
ಕ್ರ	-11.2499
▁ಸಿಬ್ಬಂದಿಗಳು	-11.2499
▁kinds	-11.25
mini	-11.25
▁ಅತಿಯಾದ	-11.2502
IL	-11.2503
▁ಒಳಪಡಿಸ	-11.2504
▁ವೇದ	-11.2506
ಮಾರ್	-11.2507
▁ಖಾತ್ರಿ	-11.2509
28	-11.251
▁breath	-11.2511
▁ಆಸ್ಟ್ರೇಲಿಯ	-11.2514
ox	-11.2518
▁honest	-11.2518
▁ha	-11.2521
▁ಕಾರಣಕ್ಕೂ	-11.2521
▁ಬಾವಿ	-11.2522
▁Mukherjee	-11.2523
▁ಗ್ರೂಪ್	-11.2523
▁ದೇಗುಲ	-11.2523
▁ಪ್ರೋಟೀನ್	-11.2523
▁ವಾಷಿಂಗ್ಟನ್	-11.2523
▁garden	-11.2523
▁ಅಮೀರ್	-11.2523
▁ತಿವಾರಿ	-11.2523
▁ಹಾಸಿಗೆ	-11.2523
▁ginger	-11.2523
▁Hu	-11.2523
▁visible	-11.2523
▁ಇಸ್ರೋ	-11.2523
▁ಸಂಯುಕ್ತ	-11.2524
▁Town	-11.2524
▁governor	-11.2526
▁ಪ್ರೀತ್	-11.2527
▁founder	-11.2527
▁ಮಾಡ್ತ	-11.2528
ಮಂ	-11.2528
▁Grand	-11.2528
▁ಹೆಂಡತಿಯ	-11.2529
▁ಟ್ರಕ್	-11.253
▁2018:	-11.253
▁ಮಾಡ್	-11.2531
rd	-11.2532
ೇಶನ್	-11.2533
ಒಂದು	-11.2533
▁shares	-11.2534
▁ಪೂಜಾ	-11.254
▁ಕಾರ್ಯಗಳನ್ನು	-11.2541
ದ್ದರೆ	-11.2542
▁protesting	-11.2542
name	-11.2543
▁ಬಯಸುತ್ತೇನೆ	-11.2544
▁Ganga	-11.2545
▁ದಾನ	-11.2545
ಗೈದ	-11.2554
▁Rain	-11.2556
ವಾಗುವುದು	-11.2557
ili	-11.2559
▁ಮೂಡಿ	-11.2559
ಂದಾ	-11.256
▁comprises	-11.256
ched	-11.2563
▁legs	-11.2566
ಕ್ಟರ್	-11.2569
▁enjoyed	-11.257
▁Mun	-11.2572
▁ಹರ್	-11.2574
▁ಆಗಬಹುದು	-11.2574
▁ತೀರ್ಪಿನ	-11.2576
▁Pradhan	-11.2578
▁Superintendent	-11.2578
▁excited	-11.2578
▁understood	-11.2578
▁appreciation	-11.2578
▁flock	-11.2579
▁ತಪ್ಪಿಸ	-11.2579
ನಾಗಿದ್ದೇನೆ	-11.2579
▁ವಿಮಾನಯಾನ	-11.2579
▁Rajendra	-11.2579
▁ಸುರಿದ	-11.2581
▁ಇಷ್ಟೇ	-11.2581
▁ಮಲ್ಯ	-11.2581
ಡೀ	-11.2582
ಯಲ್ಲಿನ	-11.2583
▁Finally	-11.2583
ೊಡ	-11.2583
▁ನಾಥ್	-11.2585
▁ಹೌಸ್	-11.2586
▁ವ್ಯಕ್ತ	-11.2586
27	-11.2587
ಟೈ	-11.2588
▁ತ್ಯಾಜ್ಯ	-11.2588
▁ವಿಫಲವಾಗಿದೆ	-11.2588
▁ದತ್	-11.2589
mark	-11.259
ುದೇ	-11.259
ರಾಯ	-11.2592
▁20,000	-11.2593
▁ಶೇಕಡ	-11.2594
ಂಬಾ	-11.2596
▁bond	-11.2597
▁ಮುಖಂಡರ	-11.2598
ದರೆ	-11.2599
ಟಿವ್	-11.26
ವಾಗಬೇಕು	-11.2601
▁ಹೋಗಿದ್ದಾರೆ	-11.2603
▁arise	-11.2604
▁ತೆಗೆದುಕೊಳ್ಳಬೇಕು	-11.2606
▁Pak	-11.2607
▁ಮೆರವಣಿಗೆ	-11.2609
▁'%	-11.2611
ನ್ನೆಲ್ಲಾ	-11.2613
rent	-11.2616
nes	-11.2621
▁concerning	-11.2623
ware	-11.2624
▁ಹಿಂಭಾಗದಲ್ಲಿ	-11.2624
▁ಶಕ್ತ	-11.2624
▁Steve	-11.2628
▁ಪಕ್ಷವನ್ನು	-11.2628
▁ನಿಖರವಾಗಿ	-11.2629
▁imitate	-11.263
ಾರ್ಹ	-11.2631
▁ಸೇವೆಮಾಡ	-11.2633
▁ಕಾಣಿಸಿಕೊಳ್ಳಲ	-11.2633
▁ಪ್ರೌಢ	-11.2634
▁ತಿಮೊಥೆಯ	-11.2634
▁ಬ್ಯಾಡ್ಮಿಂಟನ್	-11.2634
▁ಮೆಗಾಪಿಕ್ಸೆಲ್	-11.2634
▁yoga	-11.2634
▁Blue	-11.2634
▁ಶಾಸನ	-11.2634
▁ಸೆಲ್ಫಿ	-11.2634
ಚಿತ	-11.2634
ದಾದ	-11.2634
▁surgery	-11.2635
▁distribution	-11.2635
▁ಸೈಫ್	-11.2637
▁advised	-11.2637
yal	-11.2638
▁mostly	-11.2638
ಚಂದ್ರ	-11.264
▁overall	-11.264
▁ಹಾಸನ್	-11.2641
▁ಮಾತಿಗೆ	-11.2645
▁ಶಾಕ್	-11.2651
▁pe	-11.2656
▁ಜನಪ್ರಿಯತೆ	-11.2656
▁ಸಿನಿಮಾಗಳಲ್ಲಿ	-11.2656
ank	-11.2657
▁aspects	-11.2658
wk	-11.2658
ement	-11.266
▁ಜೆಟ್	-11.2662
▁ತರಕಾರಿಗಳು	-11.2662
▁ವ್ಯಕ್ತಿಯು	-11.2662
▁ಅಂದರು	-11.2666
▁Ten	-11.2667
▁ವರ್ಣಿಸ	-11.2668
ಖಂಡ	-11.2669
▁Tests	-11.2672
▁ಚಿಹ್ನೆ	-11.2672
▁maintained	-11.2673
▁ಗೇರ್	-11.2674
▁ಒಣ	-11.2678
▁Bre	-11.268
ದಿದ್ದರೂ	-11.2681
▁ಸೌರವ್	-11.2681
▁ಕಚೇರಿಯಲ್ಲಿ	-11.2681
▁ಕಳಿಸ	-11.2683
▁ದ್ವಾರ	-11.2684
▁ನಾವೆಲ್ಲ	-11.2684
ಮ್ಯಾ	-11.2685
▁ಡಿಸ್ಕ್	-11.2686
ಗ್ರಹ	-11.2687
▁System	-11.269
▁ಗ್ರೀಕ್	-11.269
▁Girl	-11.269
▁ಚೇತರಿಕೆ	-11.269
▁ಧರಣಿ	-11.269
▁ಅಂಚೆ	-11.269
▁Citizenship	-11.269
▁vast	-11.269
▁ಜೇಮ್ಸ್	-11.269
▁ಪಾರ್ಕಿಂಗ್	-11.269
▁ಫುಲ್	-11.2691
▁ಸ್ವಾಗತಿಸಿದರು	-11.2691
ಂದ್	-11.2692
▁ಕೇಂದ್ರಾಡಳಿತ	-11.2693
▁Market	-11.2694
ವಾಗಿರುತ್ತವೆ	-11.2695
▁unveiled	-11.2695
▁ಆಯ್ಕೆಗಳು	-11.2695
▁ಸ್ಪಷ್ಟಪಡಿಸಿದರು	-11.2695
▁ಭಾರತೀಯರ	-11.2696
ಾಲಯ	-11.2696
▁Atal	-11.2697
▁ಸಿಪಿಐ	-11.2698
Is	-11.2699
▁ಸ್ಟೋರ್	-11.27
▁ಸಹಾಯದಿಂದ	-11.2703
▁ಕರೆದೊಯ್ಯ	-11.2703
▁ಕೇಳಲು	-11.2705
▁Gur	-11.2706
▁ರತ್ನ	-11.2709
▁belief	-11.2711
▁Sun	-11.2711
▁ಪ್ರಮಾಣಪತ್ರ	-11.2712
▁ಬರುತ್ತವೆ	-11.2713
ಬೊ	-11.2713
▁ಬಸವರಾಜ	-11.2713
▁ಇರುತ್ತಾರೆ	-11.2713
▁2.5	-11.2714
▁symbol	-11.2714
ಾತ್ಮ	-11.2716
ಬಾರದ	-11.272
ಪಟ್ಟಿ	-11.2722
▁ಒಳ್ಳೆ	-11.2723
gent	-11.2727
▁blessing	-11.2729
▁ಕೆಲಸಮಾಡ	-11.2732
▁ಹೋಲಿಸ	-11.2732
mated	-11.2733
▁ಕೊಳ್ಳ	-11.2737
ರವರೆಗೆ	-11.2738
▁regional	-11.2739
▁ವಿಮರ್ಶೆ	-11.274
▁newly	-11.2742
▁weak	-11.2743
▁ಯುದ್ಧದ	-11.2745
▁Kaur	-11.2745
▁ಪ್ರತಿಭಟನಾ	-11.2746
▁smart	-11.2747
▁Through	-11.2747
▁Type	-11.2747
▁Venugopal	-11.2747
▁BMW	-11.2747
▁sharp	-11.2747
▁Bhushan	-11.2747
▁ಮಿಲಿಟರಿ	-11.2747
▁Sridevi	-11.2747
▁rail	-11.2747
▁Enter	-11.2748
▁bigger	-11.2748
▁ಕಾಲೇಜ್	-11.2749
▁ಅಂತರದಲ್ಲಿ	-11.2749
▁ಸರಬರಾಜು	-11.275
▁ಮರಾಠಿ	-11.275
▁ಅಟಲ್	-11.2751
ುವವನು	-11.2752
ಯವರಿಗೆ	-11.2752
ಭೂಮಿ	-11.2753
ಗಳಂತೆ	-11.2753
▁flag	-11.2754
▁acts	-11.2754
▁ಸೇರಿಸಲಾಗಿದೆ	-11.2755
ಗಾಗ್ಗೆ	-11.2759
▁belongs	-11.2759
▁ಆಲಿಯಾ	-11.276
▁ಮೈದಾನ	-11.2761
್ರಿ	-11.2763
▁ಎಣಿಸ	-11.2765
04	-11.2772
▁ಕೀರ್ತಿ	-11.2772
▁ಒಬ್ಬನು	-11.2774
▁ವಶ	-11.2776
▁ಪುನರಾವರ್ತಿಸಿ	-11.2776
pp	-11.2776
▁ಸಂಚಾರಿ	-11.2777
▁Find	-11.2779
76	-11.2779
ಾಯಿತ	-11.278
▁ಆಶಾ	-11.2783
ಯಾಗಲಿ	-11.2783
▁gods	-11.2784
▁ಪ್ರಕಾಶ	-11.2785
▁Same	-11.2786
▁walked	-11.2789
ಂತಾಗಿದೆ	-11.2789
▁ಮಾರುಕಟ್ಟೆಗೆ	-11.2794
▁ಚೆಕ್	-11.2794
▁ಕಲ	-11.2796
▁ಒಬ್ಬರ	-11.2798
▁Nations	-11.2799
▁ಈಡೇರ	-11.28
▁lines	-11.2801
▁Bhuvneshwar	-11.2803
▁Wednesday	-11.2803
▁brigade	-11.2803
▁demise	-11.2803
▁southern	-11.2803
▁ಪುರಸ್ಕಾರ	-11.2803
▁ಸಮಾಧಿ	-11.2803
▁THE	-11.2803
▁pleasure	-11.2804
▁ವರಿಷ್ಠಾಧಿಕಾರಿ	-11.2804
▁ಸೆಂಟರ್	-11.2804
▁ತಯಾರಾಗ	-11.2804
▁Sardar	-11.2804
▁tourism	-11.2804
▁sky	-11.2805
ಾಗಿದ್ದು	-11.2806
▁ಷರತ್ತು	-11.2807
▁TMC	-11.2808
▁Mon	-11.2809
▁ಬಿಡುಗಡೆಯಾಗಲಿದೆ	-11.2809
ಂತು	-11.281
▁Roman	-11.2811
▁starred	-11.2811
▁ವೇಗಿ	-11.2812
▁ಕುಸಿದ	-11.2813
ಗಿದೆ	-11.2814
▁examined	-11.2815
ಿಟ್ಟು	-11.2816
ವಾಗಿದ್ದಾರೆ	-11.2817
▁ಬಳಸಬಹುದು	-11.2819
▁ದೇವರೇ	-11.282
▁bow	-11.2824
ವೆಂದ	-11.2826
▁engines	-11.2827
▁weigh	-11.2829
▁Times	-11.2834
nan	-11.2836
▁Arabia	-11.284
▁chilli	-11.2844
▁ಮಾಡಿಕೊಳ್ಳಲು	-11.2845
▁ಮಠದ	-11.2845
▁gm	-11.2847
▁delight	-11.2847
▁withdraw	-11.2853
▁ನಿರ್ಮಾಣದ	-11.2854
▁interact	-11.2857
aram	-11.2857
▁ಹೊರಬರ	-11.2859
▁Next	-11.2861
▁Toyota	-11.2861
▁communities	-11.2861
▁ಠಾಕ್ರೆ	-11.2861
▁applied	-11.2861
▁ಯುನಿಟ್	-11.2861
▁ಪರಿಶ್ರಮ	-11.2861
▁Ranjan	-11.2861
▁ರಹಿತ	-11.2861
▁Store	-11.2861
▁ದುಡಿಯ	-11.2862
▁appearance	-11.2862
▁ಕ್ಯೂ	-11.2862
▁ಭಾಗವಹಿಸಲಿದ್ದಾರೆ	-11.2862
▁ದಟ್ಟಣೆ	-11.2864
hang	-11.2864
72	-11.2866
▁reveal	-11.2867
▁ರಿಯಲ್	-11.287
▁2010	-11.2871
ಬೇಕಾ	-11.2871
ವನಿಗೆ	-11.2871
▁ನಡೆಸುತ್ತಿರುವ	-11.2871
▁ಯೋಧ	-11.2872
▁(1	-11.2874
snt	-11.2875
▁ಹನಿ	-11.2876
▁ಹೊರಹಾಕ	-11.2878
ಿಸಿತ್ತು	-11.2881
▁ಸಿನಿಮಾವನ್ನು	-11.2883
▁ಮುಂದಕ್ಕೆ	-11.2883
▁expanded	-11.2884
▁ಪಡುವ	-11.2887
▁ಬ್ರಾ	-11.289
▁format	-11.2891
▁ಸಾವನ್ನಪ್ಪ	-11.2897
▁66	-11.2899
▁ಸಮುದ್ರದ	-11.2901
ದೇವರ	-11.2902
▁storm	-11.2903
ೋರ್	-11.2903
▁ಚಿತ್ರವು	-11.2903
▁ಕೂಡಿ	-11.2904
▁ವರದಿಯಲ್ಲಿ	-11.2909
▁ಉಪಚುನಾವಣೆ	-11.291
▁appreciate	-11.2911
▁ಮಲ್ಲ	-11.2911
ರವರು	-11.2914
fo	-11.2915
yr	-11.2915
▁chose	-11.2916
▁proceed	-11.2918
▁advocate	-11.2918
▁replied	-11.2918
▁ಅಮಿತಾಬ್	-11.2918
▁ಲಘು	-11.2918
▁regret	-11.2918
▁ವಿಶ್ಲೇಷಣೆ	-11.2918
▁ಪತ್ರಿಕಾಗೋಷ್ಠಿ	-11.2918
▁ಆಟೋಮ್ಯಾಟಿಕ್	-11.2918
▁82	-11.2919
▁ಪ್ರತಿಪಕ್ಷ	-11.292
▁ವಾಗ್ವಾದ	-11.2922
▁IN	-11.2922
▁UPA	-11.2922
▁ಸಾರಾ	-11.2923
ನೌ	-11.2924
▁civilian	-11.2926
PS	-11.2926
▁ಜೀವನಕ್ಕೆ	-11.2926
▁ವಿರುದ್ಧವಾಗಿ	-11.2926
Ma	-11.2926
▁ದೇಶೀಯ	-11.2927
That	-11.2928
▁escaped	-11.2928
ಫೀ	-11.293
▁update	-11.2931
▁ಬಳಕೆಯ	-11.2932
▁ಮಣ್ಣಿನ	-11.2935
ಕೇಂದ್ರ	-11.2939
▁wasn	-11.2942
▁ಬಂಧು	-11.2943
▁ಹೀ	-11.2945
ುತ್ತಿದ್ದನು	-11.2949
200	-11.2949
▁ವಿಧಾನಸಭೆಯಲ್ಲಿ	-11.295
▁generally	-11.2951
▁ಕಾಣುವ	-11.2952
▁ತಾರೆ	-11.2953
ಶೆ	-11.2953
▁ದಾಸ್	-11.2957
ku	-11.2961
ನಿಕ	-11.2962
▁ಪ್ರಶ್ನೆಯೇ	-11.2963
▁ಏರ್ಪಡಿಸ	-11.2964
eet	-11.2965
▁ಅಭ್ಯರ್ಥಿಗಳಿಗೆ	-11.2965
ನ್ನಾದರೂ	-11.2967
▁ಪುಸ್ತಕದ	-11.2968
▁ಹೊರತಾಗಿ	-11.2969
ಯರು	-11.297
▁ಬರಬೇಕು	-11.2971
ನಾಗಿದ್ದಾನೆ	-11.2971
▁ಕನ್ನಡಿಗ	-11.2971
▁ತೋರಿಸು	-11.2973
▁ನಡೆದಿದ್ದು	-11.2974
▁ಮದ	-11.2975
▁selfie	-11.2975
▁Perhaps	-11.2976
▁burden	-11.2976
▁inconvenience	-11.2976
▁stolen	-11.2976
▁ರಿಲಯನ್ಸ್	-11.2976
▁ಹಿಂಬಾಲಿಸ	-11.2976
▁ಎಂದಿನಂತೆ	-11.2976
▁Mukesh	-11.2976
▁ಹರೀಶ್	-11.2976
▁ಬೆಳಕಿನ	-11.2976
▁Pawan	-11.2977
▁footage	-11.2977
▁ರಜಪೂತ್	-11.2977
ಲಾಗದು	-11.2977
▁Srinagar	-11.2978
▁ಪ್ರತಿಯೊಬ್ಬರಿಗೂ	-11.2979
ನಾಳ	-11.2979
RE	-11.2983
▁Cook	-11.2984
▁ಗಳಿಕೆ	-11.2988
▁installed	-11.2988
▁ತಂತ್ರಜ್ಞಾನದ	-11.2989
▁pages	-11.2991
▁ಅಂತರದಿಂದ	-11.2992
▁institute	-11.2993
▁ಕೋರಿದ್ದಾರೆ	-11.2993
▁ಮೊದಲನೇ	-11.2994
ಮಂಡಲ	-11.2995
▁ಸೈತಾನನು	-11.2996
ಿಸಲ್ಪಡ	-11.2998
▁Vir	-11.2998
▁ಇಂದಿಗ	-11.3
▁manufacturer	-11.3001
▁ಆರಂಭದ	-11.3001
▁parent	-11.3001
▁ವಿಷಯವಾಗಿ	-11.3002
hari	-11.3003
▁ಪ್ರಯೋಜನಗಳು	-11.3004
ela	-11.3005
art	-11.3006
▁ಗೀತೆ	-11.3006
▁ಚಾರ್	-11.3008
▁ODIs	-11.3011
▁suggestions	-11.3013
▁ಕೇರಳದಲ್ಲಿ	-11.3018
▁ಕೊಂಡ	-11.3019
▁ನಲ್ಲೂ	-11.3022
ಂಶ	-11.3026
AC	-11.303
▁favor	-11.303
▁bagg	-11.3033
▁ವೆಚ್ಚದಲ್ಲಿ	-11.3033
▁Katrina	-11.3034
▁Place	-11.3034
▁agencies	-11.3034
▁salvation	-11.3034
▁ತಾರತಮ್ಯ	-11.3034
▁Dravid	-11.3034
▁ಸೂಚ್ಯಂಕ	-11.3034
▁ನ್ಯಾಯಪೀಠ	-11.3034
▁Goyal	-11.3035
▁Chahal	-11.3035
▁characters	-11.3037
▁ದಾಖಲಿಸಲಾಗಿತ್ತು	-11.3037
▁ಮಿಷನ್	-11.3037
▁ಸಿಡಿಸಿ	-11.304
ಿಯಾಗಿ	-11.304
▁paying	-11.3042
▁punished	-11.3042
▁ಹೆಚ್ಚಾಗುತ್ತದೆ	-11.3044
▁ಜಗತ್ತು	-11.3047
▁celebrate	-11.3049
▁chemical	-11.3051
▁61	-11.3051
▁ತಿಳಿಸಿದ	-11.3052
duct	-11.3053
▁Anti	-11.3054
ವರಲ್ಲ	-11.3055
▁ಬರಹ	-11.306
▁ಸಂಪುಟದ	-11.3061
ರಿಸ್	-11.3066
▁Sh	-11.3067
ID	-11.3068
▁ಕಾರ್ಯಕರ್ತ	-11.3069
▁ವಿಷಯಗಳಲ್ಲಿ	-11.3072
▁ಮೊತ್ತವನ್ನು	-11.3072
▁ಚಾಲೆಂಜರ್	-11.3073
stitution	-11.3073
▁ನಿಶ್ಚಯ	-11.3077
▁ಜೈನ್	-11.3082
▁ಐಸಿ	-11.3085
▁Brazil	-11.3092
▁integrity	-11.3092
▁ಮನರಂಜನೆ	-11.3092
▁ವೈಫಲ್ಯ	-11.3092
▁ಸಾಮೂಹಿಕ	-11.3092
▁ಬೆಳಗಾವಿ	-11.3092
▁ಶರದ್	-11.3092
▁ಅಂತರ್ಜಾಲ	-11.3093
▁coffee	-11.3093
▁grave	-11.3093
▁Min	-11.3093
▁Organisation	-11.3093
▁ಸ್ಮರಿಸ	-11.3093
▁Old	-11.3094
▁ಹುಟ್ಟಿಸ	-11.3095
ಗಳಂತಹ	-11.3096
▁u	-11.3098
▁ಇವೆಲ್ಲವೂ	-11.3098
▁ಶ್ರೀನಗರ	-11.3098
▁objection	-11.3101
▁ಮಾಡುತ್ತಿದ್ದೇವೆ	-11.3101
▁ಅಮೆರಿಕನ್	-11.3101
▁ಏನೇ	-11.3103
▁ಟ್ರಾ	-11.3104
▁ಒತ್ತಿ	-11.3105
▁ಹಿಂದಕ್ಕೆ	-11.3105
▁ಸಲ್ಲಿಸುವ	-11.3105
▁ಸುಟ್ಟು	-11.3105
▁ಏನೇನು	-11.3108
▁ಮೃತದೇಹವನ್ನು	-11.3111
▁ಸಿಬಿಐಗೆ	-11.3112
OR	-11.3113
▁ಇನ್ಸ್	-11.3113
▁ಸ್ಟೇ	-11.3114
▁complaints	-11.3114
▁ಅಧಿಕಾರದ	-11.3119
▁sectors	-11.3119
▁ಪ್ಲ	-11.3119
್ಮ	-11.3119
▁Olympics	-11.3119
▁ಇದೆಯೇ	-11.312
▁ಹೊಂದಿದ್ದರು	-11.3121
▁ಅನ್ಯ	-11.3123
▁ನೈ	-11.3124
▁ಉಳಿಸಿಕೊಂಡ	-11.3126
▁ಪ್ರಪಂಚದ	-11.3126
▁trials	-11.3127
▁mixed	-11.3127
▁Ananth	-11.3129
oon	-11.3129
▁ಪ್ರೇರಿತ	-11.313
್ಲಿ	-11.3131
ties	-11.3133
95	-11.3135
▁Sen	-11.3135
▁ಹೋಗಬೇಕು	-11.3136
HA	-11.3139
▁ಪ್ರಣ	-11.3142
▁ಪ್ರಸ್ತಾವ	-11.3143
ಸಾಧ್ಯವಾಗುತ್ತಿಲ್ಲ	-11.3144
▁decades	-11.3145
▁ಕ್ರಿಸ್ತನು	-11.3146
▁ಮನೆಗಳಿಗೆ	-11.3146
▁ಆಕ್ರಮಣ	-11.3151
▁Cauvery	-11.3151
▁Trophy	-11.3151
▁applicable	-11.3151
▁municipal	-11.3151
▁treasure	-11.3151
▁ಪ್ರತಿಷ್ಠಿತ	-11.3151
▁smoke	-11.3151
▁ಪುಷ್ಪ	-11.3151
▁ತುಂಡು	-11.3151
▁ವೈಭವ	-11.3151
▁Tourism	-11.3152
▁ಕಳಪೆ	-11.3152
▁ಹೆಗಡೆ	-11.3152
▁Harish	-11.3152
IM	-11.3155
▁ಪ್ಯಾಕೇಜ್	-11.3155
▁ಪಂತ್	-11.3157
ಬಿದ್ದ	-11.3158
ಕ್ಷನ್	-11.3159
▁ಪುಲ್ವಾಮಾ	-11.3161
▁ಕೋರ್ಸ್	-11.3161
parliamentary	-11.3163
ಕ್ಷೇತ್ರ	-11.3163
▁ಇನ್ನ	-11.3166
▁Bigg	-11.3166
▁ಇಟ್ಟುಕೊಂಡ	-11.3166
ಯಲ್ಲಿದ್ದ	-11.3166
▁ಮನಸ್ಸಿನ	-11.317
▁ಹಾಗೆಂದು	-11.317
▁elder	-11.317
▁ನೀಡುತ್ತಿದ್ದಾರೆ	-11.317
▁ತುತ್ತಾಗ	-11.3174
▁PS	-11.3174
▁policemen	-11.3176
▁objective	-11.3178
▁ಒಂದನ್ನು	-11.3178
tain	-11.3178
miss	-11.3179
ಧಾ	-11.318
▁ತಮ್ಮದೇ	-11.3182
ಿಬ್ಬರ	-11.3182
ಪುರಂ	-11.3182
▁ಮರ್	-11.3185
ದತ್ತ	-11.3186
▁ಪ್ರಯತ್ನಗಳು	-11.3186
▁ಬರುತ್ತಾರೆ	-11.3187
▁ಸಂಖ್ಯೆಯನ್ನು	-11.3188
▁bi	-11.3189
▁ಫ್ರ	-11.319
ನಂತರ	-11.3193
▁ಸೇವೆಗಳು	-11.3193
ಟೆಕ್	-11.3195
▁fix	-11.3196
mba	-11.3201
▁ವರ್ಷದಲ್ಲಿ	-11.3203
▁conducting	-11.3206
▁86	-11.3206
▁era	-11.3208
▁ರಾಜಕೀಯದಲ್ಲಿ	-11.3209
gon	-11.321
▁ಕೊಂಡೊಯ್ಯ	-11.321
▁Friday	-11.321
▁Symptoms	-11.321
▁Whether	-11.321
▁museum	-11.321
▁ಅಮೆಜಾನ್	-11.321
▁ಗೌತಮ್	-11.321
▁football	-11.3211
▁resurrection	-11.3211
▁ಒಂದೆರಡು	-11.3211
▁appointment	-11.3211
▁bought	-11.3211
▁ಮರುದಿನ	-11.3212
▁Johar	-11.3212
▁ಹೊರಬಂದ	-11.3212
▁labourers	-11.3213
▁ಬೈಬಲನ್ನು	-11.3214
ವಾಗುವುದಿಲ್ಲ	-11.3214
▁ಗಿಲ್	-11.3216
▁ಸೋಲಿನ	-11.3217
ವಿದು	-11.3217
▁ಗೋಪಾಲ್	-11.3218
▁(19	-11.3218
▁108	-11.3218
▁ಜನತಾ	-11.3219
ಚ್ಚಿ	-11.3221
▁Mala	-11.3221
▁uses	-11.3223
ಸಂಗ	-11.3223
▁ಮುಂದಾಗಿದೆ	-11.3225
load	-11.3226
▁ಸಬ್	-11.3228
ಸೆಲ್	-11.3229
ುತ್ತಿರುವಾಗ	-11.3229
▁losses	-11.323
rah	-11.3236
owing	-11.3237
ೂರಿ	-11.3241
ಲಾರದ	-11.3246
sam	-11.3247
▁Cor	-11.3248
▁ಪತನ	-11.3251
▁ಸೆಳೆಯ	-11.3252
hoo	-11.3253
▁Patna	-11.3253
▁limits	-11.326
ರ್ರಿ	-11.326
▁ಹೊರಹೊಮ್ಮ	-11.3264
▁ಪರಿಣಮಿಸ	-11.3264
ಗಡೆ	-11.3265
▁ತೆಗೆದುಕೊಳ್ಳಲು	-11.3265
▁ಗಮನಹರಿಸ	-11.3266
▁ಖಂಡ	-11.3267
▁ಆಧಾರದಲ್ಲಿ	-11.3268
▁77	-11.3269
▁Revelation	-11.327
▁caution	-11.327
▁fashion	-11.327
▁ಅಹಮದಾಬಾದ್	-11.327
▁ಹೊಡೆತ	-11.327
▁ಇಚ್ಛೆ	-11.327
▁ಗ್ರೀನ್	-11.327
▁ಐದನೇ	-11.327
▁citizenship	-11.3271
▁ನಗರಸಭೆ	-11.3271
▁ಟಿಎಂಸಿ	-11.3271
▁lifestyle	-11.3272
▁Tha	-11.3275
▁Kalyan	-11.3275
▁ಅಧೀನ	-11.3281
▁ಹಾರ್	-11.3282
▁ಅನ್ನಿಸ	-11.3283
▁ಫಲಿತಾಂಶಗಳು	-11.3285
▁complained	-11.3287
▁ಮುರಿದ	-11.3288
▁ನಾವಿಬ್ಬರ	-11.3288
▁ವರ್ಷಗಳಿಂದ	-11.329
36	-11.3291
ಾನೆ	-11.3292
▁waters	-11.3293
▁flu	-11.3293
▁Tim	-11.3295
pan	-11.3295
▁moon	-11.3297
ಧನ	-11.3298
▁ಬಳಕೆದಾರರು	-11.3299
▁ವಸ್ತ್ರ	-11.3301
▁ಸೌ	-11.3302
▁keeps	-11.3302
CT	-11.3305
▁ನಿರ್ವಹಿಸಲು	-11.3307
▁ಸಂತ	-11.3308
▁ಒದಗಿಸಲು	-11.3308
ತ್ತಾ	-11.3309
▁ಅವರಿಗ	-11.3312
▁ಚಿತ್ರರಂಗದ	-11.3312
▁ಅರಿವ	-11.3312
▁ಅಲ	-11.3314
▁ಉತ್ತರಪ್ರದೇಶ	-11.3315
▁ನಿಗದಿಪಡಿಸ	-11.3315
▁ಕಟ್	-11.3319
▁ಕನ್ನಡದ	-11.332
▁ಸಂತೋಷ್	-11.3321
aff	-11.3323
▁ಮುಖ್ಯವಾದ	-11.3324
▁ಸರ್ಕಾರದಲ್ಲಿ	-11.3324
▁ಕಡೆಗಳಲ್ಲಿ	-11.3324
▁ಮಗನು	-11.3326
▁ಪ್ರಸ್ತಾವನೆ	-11.3328
73	-11.3329
▁Scriptural	-11.333
▁divorce	-11.333
▁ಗುಂಡೂರಾವ್	-11.333
▁ಟೀಸ್ಪೂನ್	-11.333
▁ನಕ್ಷತ್ರ	-11.333
▁olive	-11.333
▁Brother	-11.333
▁Search	-11.333
▁Sandeep	-11.333
▁Expo	-11.3331
▁ಸಫಲ	-11.3331
▁ಬಂದಿದ್ದು	-11.3332
▁ಜಡೇಜಾ	-11.3334
ಯಂತರ	-11.3336
▁ನಾಚಿಕೆ	-11.3337
▁ಉಂಟಾಗುತ್ತದೆ	-11.3338
▁ವಾರ್	-11.3338
▁participants	-11.3339
▁ಹಡಗು	-11.3339
▁ಬಳಿಯಲ್ಲಿ	-11.334
▁ಪ್ರತ್ಯೇಕವಾಗಿ	-11.334
▁ರಾಜು	-11.3341
ming	-11.3345
▁ಕಲಿಕೆ	-11.3345
▁discharged	-11.3345
▁ವೀ	-11.3345
ಿರಲಿದೆ	-11.3347
87	-11.3348
ವುದು	-11.3348
ಗಿನ	-11.3353
▁ತಜ್ಞರು	-11.3353
ಬೇಕಿಲ್ಲ	-11.3354
▁Put	-11.3356
▁Sho	-11.3356
▁ವಿಚ್ಛೇದನ	-11.3357
▁figure	-11.3358
▁net	-11.3359
ಯೊಂದರಲ್ಲಿ	-11.3359
▁ಖೇ	-11.3362
ಳಿದ	-11.3363
▁featured	-11.3365
▁Bengali	-11.3367
▁prayed	-11.3367
▁ಸಮೀಪ	-11.3368
state	-11.3369
▁ಮುಂದಾದ	-11.3371
▁Om	-11.3372
▁ಪರಿಣಾಮಗಳನ್ನು	-11.3372
▁ಮಾಹಿತಿಗಾಗಿ	-11.3373
▁shift	-11.3375
▁sins	-11.3377
put	-11.3378
long	-11.3378
▁ಬ್ರಿ	-11.338
▁instructions	-11.338
▁politician	-11.3382
▁compris	-11.3384
66	-11.3388
▁manager	-11.3388
▁ಮಾಲ್	-11.3388
▁ದುರ್	-11.3389
▁ಹೇಳಿದಂತೆ	-11.339
▁agricultural	-11.339
▁cloud	-11.339
▁policies	-11.339
▁strategy	-11.339
▁Clean	-11.339
▁ಟೇಬಲ್	-11.339
▁Creator	-11.339
▁ರೋಚಕ	-11.339
▁ಇರಾನಿ	-11.339
▁ನಿರಾಸೆ	-11.3391
▁ಬೋಧಕ	-11.3391
64	-11.3391
▁ಗೋಯಲ್	-11.3391
ೋಪಾದಿ	-11.3392
▁ಆದರ್ಶ	-11.3392
▁ಮಾಸ್ಟರ್	-11.3392
್ರೆ	-11.3394
ರಾಗಿದ್ದೇವೆ	-11.3395
▁ವಯಸ್ಸು	-11.3399
ೆಯಲ್ಲಿ	-11.34
▁attending	-11.34
ರಲ್	-11.3402
▁ದೃಷ್ಟಿಯಲ್ಲಿ	-11.3402
▁division	-11.3402
▁Members	-11.3403
ಕ್ಕೊಳಗಾಗ	-11.3403
▁ಗರ್ಭ	-11.3404
list	-11.3407
ದಾಗಿದೆ	-11.3408
▁appears	-11.341
▁experiences	-11.3411
ಕೃತಿ	-11.3411
ಿಷ್ಟ	-11.3412
ಮಲ್	-11.3415
ಗೊಳ್ಳಲಿದೆ	-11.3418
▁deposit	-11.3419
▁center	-11.3419
▁ಕ್ರೈಸ್ತರ	-11.342
▁ಕೋರ್	-11.3422
▁ಕತ್ತಿ	-11.3423
ಿಸಲಾಯಿತು	-11.3425
▁ಹೇಳಿಕೊಳ್ಳ	-11.3425
▁ends	-11.3427
▁judges	-11.3427
▁Mur	-11.3428
▁devices	-11.3431
▁ಹಾಕಿದರು	-11.3431
▁ಕಿಂಗ್	-11.3431
▁west	-11.3433
▁ಸಿಸ್ಟಮ್	-11.3437
▁Shar	-11.3441
▁ಜವಾಬ್ದಾರಿಯನ್ನು	-11.3442
▁ತಾತ್ಕಾಲಿಕ	-11.3444
▁ನಿವಾರಣೆ	-11.3445
▁wood	-11.3446
▁throw	-11.3447
ಧ್	-11.3449
06	-11.345
▁Samuel	-11.3451
▁Space	-11.3451
▁adjust	-11.3451
▁ಅತ್ಯಗತ್ಯ	-11.3451
▁ತ್ಯಜಿಸ	-11.3451
▁ಶಿಸ್ತು	-11.3451
▁ಸುನೀಲ್	-11.3451
▁ದಶಲಕ್ಷ	-11.3451
▁ಸೋಮವಾರ	-11.3451
▁Redmi	-11.3452
▁entertainment	-11.3452
▁ಮಿಲಿ	-11.3453
▁ಚಿಕಿತ್ಸೆಗೆ	-11.3453
uit	-11.3454
▁ಬಿಕ್ಕಟ್ಟು	-11.3454
ುತ್ತಿದ್ದಳು	-11.3455
bir	-11.3455
▁ಮುಂತಾದವರು	-11.3456
ಾಮ	-11.3457
▁mate	-11.346
▁updated	-11.3461
▁classes	-11.3462
▁ಪದಾರ್ಥಗಳನ್ನು	-11.3464
▁ಮನಸ್ಸನ್ನು	-11.3464
▁ಅಂದಿನ	-11.3469
ಲಾರದು	-11.347
ರಿಯರ್	-11.3473
▁ಐಪಿಸಿ	-11.3474
ಮೂಲ	-11.3475
▁ಪಡೆಯುವುದು	-11.3478
▁Sciences	-11.3478
▁ಗುಣಮುಖ	-11.3479
▁shortly	-11.348
ree	-11.3481
▁parking	-11.3483
▁medals	-11.3483
ಮಾಡಲು	-11.3483
▁ಕಡಿಮೆಯಾಗಿದೆ	-11.3483
▁Fr	-11.3483
ಾಲ	-11.3483
▁ED	-11.3485
▁ಏನನ್ನ	-11.3487
ಡ್ಡಿ	-11.3487
▁ಅರಸನು	-11.3487
ಯಾವ	-11.3487
55	-11.3491
▁ರಷ್ಯಾದ	-11.3493
▁ಸಮರ್ಪಕವಾಗಿ	-11.3495
ತಾನ	-11.3495
▁ಸಾಲು	-11.3496
▁Governments	-11.3498
▁Han	-11.3499
▁ತಳ	-11.3499
▁ಉಳಿಸಿಕೊಳ್ಳ	-11.3499
▁purchase	-11.3502
▁ಕಂಡುಹಿಡಿಯ	-11.3504
▁Ver	-11.3505
▁ಥಾ	-11.3505
ಿಸಿಕೊಳ್ಳಲು	-11.3506
▁ಸ್ವೀಕರಿಸಿದ	-11.3508
ಯಿಲ್ಲದ	-11.351
▁ಮುಳುಗ	-11.351
▁ಅರಿಯ	-11.351
▁ಮೀಸಲಾತಿ	-11.3512
▁Chandigarh	-11.3512
▁Independence	-11.3512
▁explanation	-11.3512
▁grateful	-11.3512
▁pilot	-11.3512
▁sacred	-11.3512
▁ವಾಟ್ಸಾಪ್	-11.3512
▁ವಾಸ್ತುಶಿಲ್ಪ	-11.3512
▁Church	-11.3512
▁quiet	-11.3512
top	-11.3512
▁ಚೀಟಿ	-11.3512
▁ಬಿಡುಗಡೆಗೆ	-11.3512
▁eggs	-11.3512
▁ಒಳಗೊಂಡಿರುತ್ತದೆ	-11.3513
▁Stay	-11.3513
▁ಉಪಕ್ರಮ	-11.3514
▁ಹರಿದಾಡ	-11.3516
ಮಾರ್ಗ	-11.3516
▁worker	-11.3517
▁ಸಹಯೋಗ	-11.3518
ುದರಿಂದ	-11.3518
ಹರ್	-11.3519
fra	-11.3519
▁ಕರೆಯುತ್ತಾರೆ	-11.352
ude	-11.3523
▁pen	-11.3524
▁ಮಂಜು	-11.3525
ವಾದರೆ	-11.3527
▁ರಚಿಸಿ	-11.3527
related	-11.3528
▁engineering	-11.353
▁ಸೇವೆಗಳನ್ನು	-11.3531
500	-11.3532
▁flat	-11.3532
▁ಸ್ಟಾ	-11.3536
FI	-11.3539
▁stream	-11.354
▁ನಿರುದ್ಯೋಗ	-11.354
ON	-11.354
▁ನೀಡಲಾಗ	-11.354
▁ಕುಂದ	-11.3541
▁passenger	-11.3542
▁ಆವೃತ್ತಿಯ	-11.3542
▁ಬಿಹೆಚ್ಪಿ	-11.3544
▁staged	-11.3544
bel	-11.3548
▁ಧಕ್ಕೆ	-11.3548
▁ತೋಟ	-11.3549
ಗಣ	-11.3549
▁ಒಂದಾಗ	-11.355
ಗೊಳಿಸಿದ	-11.3554
das	-11.3557
▁ಯೋ	-11.3563
▁ಕೀಲಿ	-11.3565
▁preside	-11.3566
ಯಿಂದಲೂ	-11.3567
▁ಜಿಲ್ಲೆಗಳ	-11.3568
▁ಕೊಟ್ಟಿದ್ದಾರೆ	-11.3568
▁ತಂಡಗಳ	-11.3572
▁ಸದಸ್ಯರಾದ	-11.3572
▁84	-11.3572
▁Vishnu	-11.3573
▁assignment	-11.3573
▁ಎಂಜಿನಿಯರಿಂಗ್	-11.3573
▁ಗವರ್ನರ್	-11.3573
▁ಕ್ರಮೇಣ	-11.3573
▁spark	-11.3573
▁ನಿರ್ದೇಶನಾಲಯ	-11.3574
▁Master	-11.3575
▁ಚೌ	-11.3575
▁ಶಾಲೆಗಳಲ್ಲಿ	-11.3575
▁Joint	-11.3576
ಿಯೋ	-11.3577
▁retired	-11.3578
ಪಿಂಗ್	-11.3578
68	-11.3579
▁ನಿರೀಕ್ಷೆಯಿದೆ	-11.358
▁ಮಾದರಿಯಲ್ಲಿ	-11.3581
▁ಬಳಕೆದಾರರಿಗೆ	-11.3581
▁Cho	-11.3585
▁ಹಿಂದಿರುಗ	-11.3588
ಯೆಹೋವನ	-11.359
▁deeply	-11.3591
▁consideration	-11.3591
ಜೋ	-11.3594
ಗೊಳಿಸಲಾಗಿದೆ	-11.3596
▁ಪ್ರದೇಶಗಳ	-11.3597
▁thanks	-11.3597
▁5,000	-11.3599
▁ರಚಿಸಲು	-11.3602
ಥೆ	-11.3603
▁ವಾರದ	-11.3605
▁ಇತಿಹಾಸದ	-11.3605
ೆಂಬುದು	-11.3606
್ರಾ	-11.3608
▁ಸ್ಥಳವನ್ನು	-11.3609
▁ಶೈ	-11.3609
▁ಕಲ್	-11.361
▁PV	-11.3614
▁ಕಾಮ	-11.3615
98	-11.3616
▁ಉತ್ತಮವಾದ	-11.3618
▁ಹೊರಡ	-11.3618
▁ಕೆನಡಾ	-11.3619
▁ದತ್ತಾಂಶ	-11.362
▁pair	-11.3621
AS	-11.3622
▁Direct	-11.3623
▁69	-11.3625
ೀಶ್	-11.3626
▁ಮಾನ	-11.3627
▁ಆಹಾರದ	-11.3628
▁initial	-11.3628
▁exists	-11.3628
▁ಮುಂದುವರೆದ	-11.3629
▁valid	-11.3633
▁Parrikar	-11.3635
▁Support	-11.3635
▁harvest	-11.3635
▁operating	-11.3635
▁secular	-11.3635
▁ಗಲಾಟೆ	-11.3635
▁Santosh	-11.3635
▁neck	-11.3635
▁listening	-11.3635
▁ನೀರಾವರಿ	-11.3635
▁ಬ್ಯಾಂಕಿಂಗ್	-11.3635
▁ಸಮನ್ವಯ	-11.3635
▁iOS	-11.3635
▁ಸಂದೀಪ್	-11.3635
▁ಪರಿಣಾಮವನ್ನು	-11.3635
▁Vinay	-11.3635
▁blow	-11.3636
▁ಬಣ್ಣಗಳು	-11.3638
▁observe	-11.3638
▁ಹಿನ್ನಲೆಯಲ್ಲಿ	-11.3638
▁lights	-11.3638
▁ಮೊದಲಾದ	-11.364
▁constantly	-11.3641
▁poet	-11.3641
▁ಸರಿಯ	-11.3643
▁ಬಳಿಯ	-11.3644
▁ಸಂಘಟನೆಗಳು	-11.3645
▁68	-11.3646
lat	-11.3648
▁ಎಂತಹ	-11.3649
▁ಅಡಗ	-11.3652
▁ನಿಭಾಯಿಸಲು	-11.3652
test	-11.3652
▁ರಾಜಕೀಯಕ್ಕೆ	-11.3655
▁ಪ್ರಯಾಣಿಸ	-11.3658
▁ನುಡಿದ	-11.3663
▁ಲ್ಯಾ	-11.3664
▁arrangement	-11.3667
PP	-11.3668
iness	-11.3672
▁ಎಳೆಯ	-11.3673
▁ಇದೆಲ್ಲಾ	-11.3674
▁ವಿಶಾಲ	-11.3675
▁ಪೇತ್ರ	-11.3676
lur	-11.3679
▁ಬಂಗಾಳದ	-11.3679
▁Swa	-11.368
ಲಾಗಲಿಲ್ಲ	-11.3682
▁sum	-11.3683
ಕುಲ	-11.3684
cycl	-11.3685
▁practices	-11.3686
97	-11.3686
ತಪ್ಪ	-11.3687
ಭೂತ	-11.3687
▁71	-11.3687
ೋಡ	-11.3689
▁script	-11.369
▁Babylon	-11.3692
▁ನಿಯಮಗಳ	-11.3693
▁Kharge	-11.3697
▁Mitchell	-11.3697
▁Thackeray	-11.3697
▁discount	-11.3697
▁smoking	-11.3697
▁violent	-11.3697
▁ಇಂಗ್ಲೀಷ್	-11.3697
▁ಕಾರ್ಯನಿರ್ವಾಹಕ	-11.3697
▁ನಿಮಿಷ	-11.3697
▁ಸುರಕ್ಷತಾ	-11.3697
▁fraud	-11.3697
▁ರಘು	-11.3697
▁Christmas	-11.3697
▁assets	-11.3697
▁Kaif	-11.3698
▁goods	-11.3699
▁ವಿಶ್ವಸಂಸ್ಥೆಯ	-11.3701
ole	-11.3703
▁Selection	-11.3703
▁ಮಾಡಿದ್ದಾನೆ	-11.3703
ಡೊ	-11.3704
▁bed	-11.3705
▁ಹುಟ್ಟು	-11.3707
▁ಅಪರೂಪದ	-11.3708
▁tackle	-11.3708
▁ಮೂಳೆ	-11.3711
▁fla	-11.3712
▁ವ್ಯವಸ್ಥೆಯಲ್ಲಿ	-11.3713
▁suspect	-11.3714
▁ಪ್ರಶಸ್ತಿಗಳು	-11.3714
▁ರಾಯಲ್ಸ್	-11.3714
▁ಗಾಯಗೊಂಡಿದ್ದು	-11.3715
Pakistan	-11.3716
pati	-11.3718
ose	-11.3719
▁ಕೋಲ್ಕತ್ತಾ	-11.3719
▁Miss	-11.3722
ಗಡ	-11.3722
▁laugh	-11.3723
eng	-11.3729
▁nab	-11.373
▁ಪ್ರದೇಶಗಳು	-11.3732
▁winner	-11.3733
▁1.3	-11.3734
pel	-11.3734
▁wearing	-11.3735
ವಾಸ್	-11.3736
rn	-11.3738
▁ಸೇರಿದೆ	-11.374
-3	-11.3741
▁ಕೋಣೆ	-11.3743
▁finish	-11.3744
hen	-11.3746
ಷ್ಟಿ	-11.3747
▁ಸಾಹ	-11.3747
▁rumours	-11.3748
ದಾರ್	-11.3748
ಗಳೆಂದು	-11.3749
▁Working	-11.375
▁ಅಭಿಪ್ರಾಯಪಟ್ಟ	-11.375
ಗಳಲ್ಲಿನ	-11.3751
▁ಟಿಸಿ	-11.3752
▁ಮಟ್ಟವನ್ನು	-11.3754
▁fo	-11.3755
▁ಮಾದರಿಯು	-11.3756
▁ಅಯೋಧ್ಯೆ	-11.3757
▁ಸಂದೇಶವನ್ನು	-11.3758
▁ಅಖಿಲ	-11.3759
▁ಜಲಾಶಯ	-11.3759
▁pregnancy	-11.3759
▁ಕಡಿವಾಣ	-11.3759
▁ತಿರಿಗಿ	-11.3759
▁ಹಿಂಪಡೆಯ	-11.3759
▁ಲೋಕದಲ್ಲಿ	-11.376
▁ಕಾಲೇಜಿನಲ್ಲಿ	-11.376
▁ಟ್ರಸ್ಟ್	-11.376
▁ಸಾಥ್	-11.3761
▁ಸಾಧಾರಣ	-11.3763
ನಾಗಿದ್ದನು	-11.3763
▁ಮೂರನೆಯ	-11.3764
▁ಅವೆಲ್ಲ	-11.3765
▁ಭೂಮಿಯನ್ನು	-11.3765
▁band	-11.3766
▁Meeting	-11.3766
ಟಕ	-11.3767
▁ಮಾರ್ಕ್	-11.3768
▁ಪಾಲುದಾರ	-11.3768
▁ಪಥ	-11.3768
▁ಬಳಸಿಕೊಂಡು	-11.3772
▁ಉಳಿದಂತೆ	-11.3772
38	-11.3773
▁ಬಂದಿದ್ದೇನೆ	-11.3774
▁ಕೋಳಿ	-11.3774
▁contested	-11.3774
ಂತಿ	-11.3775
▁ನೀರಿಗೆ	-11.3775
▁painting	-11.3776
▁ಎಂದವರು	-11.3778
▁ಮುಸ್ಲಿಮರು	-11.3779
▁ಪತ್ರಕರ್ತ	-11.378
ಟಿನ್	-11.378
ೆಂದ	-11.3782
▁Fort	-11.3782
▁89	-11.3785
▁ಭದ್ರ	-11.379
ಡುಗ	-11.3792
▁dealing	-11.3792
ient	-11.3793
▁ಒಡಂಬಡಿಕೆ	-11.3793
▁crop	-11.3796
▁ಮಾಧ್ಯಮಗಳಲ್ಲಿ	-11.3796
▁voted	-11.38
ಯೆಂದರೆ	-11.3802
▁ಬರಹಗಾರ	-11.3807
▁ರದ್ದುಪಡಿಸ	-11.3807
▁ಶಾಖ	-11.3808
ರಗ	-11.3809
keeper	-11.3809
▁Shan	-11.3811
▁ಬಾಲಕನ	-11.3812
▁ಕೂಡಲೆ	-11.3812
▁ಗಳಾದ	-11.3813
▁ದೇಹವನ್ನು	-11.3814
▁ಆರೋಪದ	-11.3817
78	-11.3818
Co	-11.3818
▁powers	-11.3821
ುದನ್ನು	-11.3822
▁ಇತ್ಯರ್ಥ	-11.3822
▁Haasan	-11.3822
▁accurate	-11.3822
▁valley	-11.3822
▁ಕ್ವಾರ್ಟರ್	-11.3822
▁ಸ್ಮೃತಿ	-11.3822
▁saith	-11.3822
▁Indeed	-11.3822
▁Parameshwara	-11.3822
▁ರಾಘವೇಂದ್ರ	-11.3822
▁ಆಶಯ	-11.3822
▁ಪ್ರವಾದನೆ	-11.3822
▁superstar	-11.3823
▁ಮಂಜೂರು	-11.3823
ರಿಸಿ	-11.3823
▁Choose	-11.3824
▁ಹೇಳಿದ್ದೇನು	-11.3824
▁ಬೆಂಗಳೂರಿಗೆ	-11.3824
▁ಕೃತ್ಯಗಳು	-11.3825
▁Port	-11.3825
▁frequently	-11.3826
▁ಮಾಡುತ್ತ	-11.3827
▁ವ್ಯಕ್ತಿಗೆ	-11.3827
▁walls	-11.3829
▁ಉಡುಪು	-11.3829
▁ಸೇವೆಯ	-11.383
▁speaker	-11.3832
▁wine	-11.3832
▁ಅರ್ಥಮಾಡಿಕೊಳ್ಳಲು	-11.3833
▁ಪ್ರಾಮಾಣಿಕ	-11.3835
▁Devil	-11.3835
ೆಲ್ಲರೂ	-11.3836
ದ್ದಾಳೆ	-11.3837
▁ಯಶ್	-11.3837
▁closer	-11.3838
▁Want	-11.3838
▁ಗೌ	-11.3838
pha	-11.3839
▁jet	-11.384
▁Heart	-11.3843
▁ಗರ್ಭಿಣಿ	-11.3844
ಣದ	-11.3848
▁ಸುಡ	-11.385
▁ಮಳೆಯಿಂದ	-11.3852
ಾಗಿರಲಿಲ್ಲ	-11.3855
▁ಕೂಗಿ	-11.3856
ಕೈ	-11.3856
▁Olympic	-11.3857
▁ಬಿಜೆಪಿಯನ್ನು	-11.3859
ಕೊಂಡಿದ್ದ	-11.3861
▁ಫೋಟೋಗಳು	-11.3861
▁ಕಾಣಿಸಿಕೊಳ್ಳ	-11.3861
▁ಕಾರಣಗಳಿವೆ	-11.3862
▁womens	-11.3865
pit	-11.3869
▁ಗಂಗಾ	-11.3869
▁ನಮ್ಮೆಲ್ಲರ	-11.3872
ane	-11.3875
▁ಸಾಲಿನ	-11.3876
▁unfortunate	-11.3879
▁ತಾವೇ	-11.3879
58	-11.3885
▁drama	-11.3885
▁anxiety	-11.3886
▁earthquake	-11.3886
▁guarantee	-11.3886
▁ಅಂದಹಾಗೆ	-11.3886
▁ನಿರೀಕ್ಷಿತ	-11.3886
▁ಬೆಚ್ಚಗಿನ	-11.3886
▁Nikhil	-11.3886
▁ಅಡ್ವಾಣಿ	-11.3886
▁context	-11.3886
▁software	-11.3886
▁Sikh	-11.3886
▁ಪ್ರಮಾಣವಚನ	-11.3886
▁shape	-11.3886
▁ಎಬ್ಬಿಸ	-11.3887
▁ಶಿವರಾಜ್	-11.3887
▁ವೀಸಾ	-11.3887
▁ನಟಿಸುತ್ತಿದ್ದಾರೆ	-11.3887
▁outstanding	-11.3888
▁Janya	-11.3888
▁Thereafter	-11.3888
▁RJD	-11.3889
▁ಅರ್ಥವೇನು	-11.3889
▁ವರದಿಯ	-11.389
▁ತಜ್ಞರ	-11.3891
▁initially	-11.3893
▁ಟೈಮ್ಸ್	-11.3893
▁ತುಪ್ಪ	-11.3895
▁ಫಿಲ್ಮ್	-11.3897
▁ಸಾಧ್ಯತೆಗಳಿವೆ	-11.3897
▁ರಫೇಲ್	-11.3897
▁guests	-11.3898
▁ತಲೆಗೆ	-11.3899
▁ಎದುರಾಗಿದೆ	-11.3899
▁ಗಣೇಶ್	-11.3899
▁ಬಿಡುವುದಿಲ್ಲ	-11.3899
▁ಪ್ರೇರಣೆ	-11.39
igh	-11.39
pend	-11.3903
new	-11.3904
meter	-11.3904
▁256	-11.3905
▁ಹೆಮ್ಮೆಯ	-11.3907
▁ಪರೀಕ್ಷೆಯಲ್ಲಿ	-11.3909
▁Noah	-11.391
For	-11.3911
▁ಆಳವಾದ	-11.3912
▁ವಾಕ್ಯವನ್ನು	-11.3914
▁ಹಾರಿ	-11.3916
ಟ್ರೋ	-11.3916
▁rupee	-11.3921
▁ಪಾತ್ರೆ	-11.3922
fu	-11.3922
▁tribute	-11.3925
▁ಪ್ರಮಾಣವನ್ನು	-11.3933
79	-11.3933
▁repair	-11.3934
▁lift	-11.3934
▁ಶತ್ರು	-11.3937
▁constitution	-11.3937
▁ಕಾಯಿ	-11.3939
▁Vot	-11.3939
ith	-11.394
▁ಆರ್ಥಿಕವಾಗಿ	-11.3942
▁ಚಿತ್ರಣ	-11.3946
▁ಉರಿ	-11.3948
▁Saturday	-11.3949
▁behaviour	-11.3949
▁experiment	-11.3949
▁ಕಂಟ್ರೋಲ್	-11.3949
▁ದಾಂಪತ್ಯ	-11.3949
▁ಬಳ್ಳಾರಿ	-11.3949
▁ಮಾಯಾವತಿ	-11.3949
▁ರಂಜನ್	-11.3949
▁ಸಣ್ಣಪುಟ್ಟ	-11.3949
▁Shastri	-11.3949
▁mutual	-11.3949
▁ಮಂಡನೆ	-11.3949
▁ಶ್ರೇಯಾಂಕ	-11.3949
▁ಖನಿಜ	-11.3949
▁tension	-11.395
▁Programme	-11.395
▁ಸಂತೋಷದಿಂದ	-11.395
▁struck	-11.395
▁reference	-11.395
▁ಫ್ಯಾಷನ್	-11.395
▁pitch	-11.3951
▁ರಾಜೇಂದ್ರ	-11.3951
ವರಿಗೂ	-11.3951
body	-11.3952
anand	-11.3952
▁ಟು	-11.3952
▁PAN	-11.3954
▁ಬೆನ್	-11.3955
▁drawn	-11.3957
▁ಏನಾಗುತ್ತದೆ	-11.3959
▁quoted	-11.3959
▁ಮಾಡಲಾದ	-11.3961
▁ಮುರಿಯ	-11.3962
▁Address	-11.3962
▁ಶಾಖೆ	-11.3962
▁Naik	-11.3964
▁ಮಾಡೋಣ	-11.3965
▁Holy	-11.3965
▁ಪಾಲನೆ	-11.3967
▁End	-11.3967
ಸಮ	-11.3967
▁ಧಾ	-11.3968
how	-11.3969
hara	-11.3969
▁ತಿಳಿಸಿದ್ದರು	-11.3971
▁condemned	-11.3972
▁supporters	-11.3974
▁blocked	-11.3975
▁ಪೇಸ್ಟ್	-11.3975
rill	-11.3976
ಸಸ್	-11.3977
▁ಶೂ	-11.3977
▁ಗಳಿಸಿದರು	-11.3978
▁ಜೀವಿತ	-11.3979
▁Var	-11.3979
▁ಪಾಲಿ	-11.3986
▁Sat	-11.3987
▁ಕೊಡುತ್ತದೆ	-11.399
▁ಮಾಡಬೇಕಾದ	-11.3991
▁ಸಿಂಗಲ್	-11.3991
▁ಸುಂದರವಾದ	-11.3994
▁ಉತ್ಪಾದಿಸುವ	-11.4
▁rooms	-11.4002
▁ಹೆಚ್ಚಿನವರು	-11.4003
▁grams	-11.4004
rag	-11.4005
▁ಕೊಂಡು	-11.4006
▁ಲೈಟ್	-11.4006
ಚೂ	-11.4009
▁cap	-11.401
ope	-11.4012
ಟ್ಟುಕೊಳ್ಳ	-11.4012
▁Yojana	-11.4013
▁satisfied	-11.4013
▁ನಿಖಿಲ್	-11.4013
▁ಶಂಕೆ	-11.4013
▁ಸೆಂಟ್ರಲ್	-11.4013
▁Natural	-11.4013
▁Tiwari	-11.4013
▁ಫುಟ್ಬಾಲ್	-11.4013
▁Goddess	-11.4013
▁altar	-11.4013
▁Rakesh	-11.4014
▁broad	-11.4014
▁Satish	-11.4014
▁Mallya	-11.4014
▁wake	-11.4014
▁ಸಮರ್ಪಿಸ	-11.4015
▁ಬಿಲಿಯನ್	-11.4015
▁ಮಸಾಲೆ	-11.4017
▁ಕತ್ತರಿಸಿದ	-11.4018
dhar	-11.4019
93	-11.4019
▁ಬಡ್ಡಿದರ	-11.402
was	-11.4021
▁ಭರಿಸ	-11.4021
▁ಎಲ್ಲರನ್ನೂ	-11.4023
▁ಆನೆ	-11.4024
▁solutions	-11.4028
▁ನಗರಗಳಲ್ಲಿ	-11.4029
▁ಎಂಬುದೇ	-11.4029
▁ಭಾಗವಹಿಸುವ	-11.4029
▁forgotten	-11.403
▁ಕ್ರಮವನ್ನು	-11.403
▁angels	-11.403
▁taxes	-11.4032
ಯೊಂದು	-11.4034
▁ಮಗನನ್ನು	-11.4036
▁ಟೊ	-11.4041
▁ನುಡಿ	-11.4042
ula	-11.4042
▁shouldnt	-11.4043
▁ಆಶೀರ್ವದಿಸ	-11.4047
▁ತೀರ್ಥ	-11.4048
ಹಿತ	-11.4049
▁attempts	-11.4049
▁ಚೆನ್ನಾಗಿದೆ	-11.4049
phi	-11.4049
▁aspect	-11.405
▁ಗೆಲುವ	-11.4054
▁ಬರಮಾಡ	-11.4054
▁entirely	-11.4056
▁ಮುಖಾಮುಖಿ	-11.4058
ವರ್ಗ	-11.4059
▁principle	-11.406
▁sites	-11.4061
AP	-11.4062
ದರಲ್ಲಿ	-11.4063
▁ಸಂಗ್	-11.4065
ಿಸುತ್ತೇನೆ	-11.4066
ನ್ನೆಲ್ಲ	-11.4068
▁ನಡೆದವು	-11.4068
▁realize	-11.407
▁log	-11.407
▁ಎಂದೆ	-11.4073
ಯಿತ್ತು	-11.4074
▁ವಂಶ	-11.4074
▁ನಿಯೋಜಿಸ	-11.4075
▁ರಣ್	-11.4077
▁ಬಾಂಗ್ಲಾ	-11.4078
wheeler	-11.4078
▁ಗಲಭೆ	-11.4078
▁ಶುಂಠಿ	-11.4078
▁Mobile	-11.4078
▁satellite	-11.4078
▁shepherd	-11.4078
▁significance	-11.4078
▁territory	-11.4078
▁tremendous	-11.4078
▁ಕೌನ್ಸಿಲ್	-11.4078
▁ಕಂಚಿನ	-11.4078
▁electronic	-11.4078
▁ಟ್ರಾಫಿಕ್	-11.4078
ರಾವ್	-11.4078
ily	-11.4079
ನ್ನಾ	-11.408
▁ಪೋಲಿಸ್	-11.4082
ನಾಮ	-11.4082
▁fallen	-11.4083
hana	-11.4083
ನಿಗೂ	-11.4083
ಚ್ಚು	-11.4084
▁bag	-11.4086
▁sand	-11.4095
▁Benefits	-11.4096
▁ಇಸ್ರಾಯೇಲ್ಯರು	-11.4096
ೂನ್	-11.4097
ದವರೆಗೆ	-11.4099
▁ಧಾನ್ಯ	-11.41
▁ನಾಯಕ್	-11.4103
▁ಭವಿಷ್ಯದಲ್ಲಿ	-11.4107
74	-11.4108
▁ಕಡೆಯಿಂದ	-11.411
▁ವೈಟ್	-11.4111
▁ದೂರದ	-11.4113
▁preparation	-11.4116
▁bless	-11.4117
ವೆಲ್ಲ	-11.4117
▁ಪ್ರಕ್ರಿಯೆಯು	-11.4118
▁Ah	-11.4118
▁ಎಸೆತ	-11.4122
ುತ್ತಿದ್ದೆವು	-11.4123
...?	-11.4125
▁Amendment	-11.4125
▁involves	-11.4125
▁ಹೀಗೇ	-11.4125
▁ಮಾನವನ	-11.4127
▁Mor	-11.4128
ಿಸುವುದಿಲ್ಲ	-11.413
▁ಸಂಬಂಧವಿಲ್ಲ	-11.413
▁weapons	-11.413
▁ಗೆಳೆಯ	-11.4131
EC	-11.4132
▁Pauls	-11.4133
▁ಬದಲಾಯಿಸಿ	-11.4133
room	-11.4134
▁establish	-11.4138
ಸೌ	-11.4143
▁ಛಾಯಾಗ್ರಹಣ	-11.4143
▁ಸಮತೋಲನ	-11.4143
▁Jeremiah	-11.4143
▁Private	-11.4143
▁mosque	-11.4143
▁premises	-11.4143
▁prevail	-11.4143
▁ಅನಿರೀಕ್ಷಿತ	-11.4143
▁ಕಂಗನಾ	-11.4143
▁ಸ್ನಾತಕೋತ್ತರ	-11.4143
▁ನರಸಿಂಹ	-11.4143
▁ವೈವಿಧ್ಯಮಯ	-11.4143
▁Urban	-11.4143
▁ದೋಣಿ	-11.4143
▁ರವಿಶಂಕರ್	-11.4143
▁Short	-11.4143
▁ಮೆಟ್ರೋ	-11.4144
▁Sahit	-11.4144
▁supposed	-11.4144
▁boat	-11.4144
▁ಸರ್ಜಾ	-11.4145
▁anymore	-11.4145
▁capable	-11.4145
▁ತಳ್ಳಿಹಾಕ	-11.4145
▁ಕಾರಣವಾಗಬಹುದು	-11.4146
▁ಕೈಯಿಂದ	-11.4146
▁copy	-11.4147
▁Parliamentary	-11.4147
▁ಕೌ	-11.4148
▁ಕೂದಲ	-11.4148
▁ಕೇಂದ್ರೀಕರಿಸ	-11.4149
▁ಕುಸಿದಿದೆ	-11.415
▁hospitalised	-11.4151
▁ಹಿಂದ	-11.4151
▁grace	-11.4153
▁ಕೈಗಳನ್ನು	-11.4153
▁collected	-11.4153
▁selling	-11.4154
▁ಅನಂತ್	-11.4154
▁ಮುಂದೆಯೂ	-11.4155
▁ಪ್ರೀತಿಯಿಂದ	-11.4156
▁telling	-11.4157
MS	-11.4158
▁ಸಮಸ್ಯೆಗಳಿಗೆ	-11.4159
ದಾರರ	-11.416
▁ಆವಶ್ಯಕತೆ	-11.4163
ೆಡ್	-11.4163
ew	-11.4163
▁inspiration	-11.4164
▁arm	-11.4165
▁Mag	-11.4167
ದ್ರವ್ಯ	-11.4168
▁ತಿಳಿಸುತ್ತದೆ	-11.4169
ವಿಜ್ಞಾನ	-11.4171
▁ಫೋಟೋಗಳನ್ನು	-11.4171
▁ಸಿಲುಕ	-11.4172
▁ಆಯ್ಕೆಯ	-11.4172
▁ನಗು	-11.4176
▁ಮಾಡುತ್ತಾನೆ	-11.4176
▁owner	-11.4181
▁1.4	-11.4182
▁knowing	-11.4183
ature	-11.4186
▁ರಾಮನಾಥ	-11.4187
▁ಗಂಭೀರವಾಗಿದೆ	-11.4187
▁purposes	-11.4188
▁HC	-11.4194
▁ಹಂ	-11.4195
low	-11.4198
ges	-11.4198
▁declare	-11.4199
▁ಆರಿಸಿ	-11.4201
▁ತೊಳೆಯ	-11.4203
▁mi	-11.4203
ಿಸಲಾಗಿತ್ತು	-11.4203
▁ನಿವಾಸಿಗಳು	-11.4204
▁Conference	-11.4208
▁Credit	-11.4208
▁Street	-11.4208
▁headquarters	-11.4208
▁ಜೈವಿಕ	-11.4208
▁ಪ್ರಾಣಾಪಾಯ	-11.4208
▁ಮತಗಟ್ಟೆ	-11.4208
▁ಮುಷ್ಕರ	-11.4208
▁ಮೆಟ್ಟಿಲೇರ	-11.4208
▁Bombay	-11.4208
▁mild	-11.4208
▁metres	-11.4209
▁Full	-11.4209
▁ಶಾಸಕಾಂಗ	-11.421
▁Tak	-11.421
▁adults	-11.421
▁ಯೋಜಿಸ	-11.421
▁ವಿಮಾ	-11.421
▁ಹೊರಗಿನ	-11.4211
▁Nalin	-11.4211
▁herself	-11.4211
▁ಆಮ್	-11.4215
▁ಬಯಸುವುದಿಲ್ಲ	-11.4216
▁ದರವನ್ನು	-11.4218
ರಿನಲ್ಲಿ	-11.4219
▁suggested	-11.422
hri	-11.422
▁ignored	-11.422
▁ತಪ್ಪಿಸಿ	-11.4221
▁ಕರಗ	-11.4221
▁Along	-11.4221
▁Move	-11.4224
▁pot	-11.4224
▁Gar	-11.4225
ಗುಣ	-11.4225
▁ಎದ್ದ	-11.4227
ಫಿಕ್	-11.4227
46	-11.4229
▁ಕಳೆದು	-11.4229
ಾದ್	-11.4233
llow	-11.4233
ವಾನಿ	-11.4236
▁ಸೂತ್ರ	-11.4236
▁ಆರೋಗ್ಯವನ್ನು	-11.4236
ದಾರರು	-11.4236
▁ಪತ್ನಿಯ	-11.4241
▁Mani	-11.4241
election	-11.4241
▁ಮಾಡಿವೆ	-11.4241
▁ಮತಗಳ	-11.4242
▁forced	-11.4244
▁religions	-11.4248
▁ಸಮ್ಮತಿ	-11.4248
ರೆಡ್ಡಿ	-11.425
▁ರವರು	-11.4251
ೇನೋ	-11.4251
▁personally	-11.4251
MI	-11.4252
▁ಕಣ್ಣಿನ	-11.4253
ಪಾತ್ರ	-11.4253
▁ಜೊತೆಯಲ್ಲಿ	-11.4258
▁cricketers	-11.4261
▁ಮುಂ	-11.4261
▁2)	-11.4261
rid	-11.4262
▁ಪುತ್ರರು	-11.4268
▁ಅವಕಾಶವಿದೆ	-11.4273
▁ಮಾರಕ	-11.4273
▁wild	-11.4274
▁ಅಧಿಸೂಚನೆ	-11.4274
▁ಅಫ್ಘಾನಿಸ್ತಾನ	-11.4274
▁ಮೇಲ್ವಿಚಾರಣೆ	-11.4274
▁Mayawati	-11.4274
▁Uttarakhand	-11.4274
▁absconding	-11.4274
▁genuine	-11.4274
▁ಕಾನ್ಫರೆನ್ಸ್	-11.4274
▁ಟೆನಿಸ್	-11.4274
▁Robert	-11.4274
▁ಹಾಲಿವುಡ್	-11.4274
▁DMK	-11.4274
▁ದುರ್ಘಟನೆ	-11.4274
▁Rishabh	-11.4274
▁ಹೊಣೆಗಾರಿಕೆ	-11.4274
▁ಸರ್ದಾರ್	-11.4274
▁utter	-11.4274
▁keen	-11.4274
▁ಕಿರಣ್	-11.4274
▁Yuz	-11.4274
▁ಜೋಹರ್	-11.4275
▁ಮೀಸಲು	-11.4275
admi	-11.4275
ಮೆನ್	-11.4276
▁thereafter	-11.4276
▁ಪತ್ತೆಯಾಗಿಲ್ಲ	-11.4276
place	-11.4276
▁ಆಫೀಸ್	-11.4277
▁duo	-11.4278
▁ಹೀಗೆಯೇ	-11.4278
▁exhibition	-11.4279
▁ಆತ್ಮೀಯ	-11.4279
ಿಸುತ್ತಿದೆ	-11.4279
▁ಸವಾರ	-11.428
▁ಸೌರ	-11.4281
▁ನಡೆಸಲಾಗುವುದು	-11.4282
▁ನುಗ್ಗ	-11.4282
▁spotted	-11.4283
ಾಪುರ	-11.4285
▁MG	-11.4288
▁ಕಾರಣದಿಂದಾಗಿ	-11.4288
▁ಆಂಡ್	-11.4288
▁ಟೂರ್ನಿಯ	-11.4289
▁ತಿರುವು	-11.4292
▁ಜಮಾ	-11.4295
▁ವಿಶ್ವದಲ್ಲಿ	-11.4295
▁ಉಸಿರಾಟದ	-11.4296
ತೆಯು	-11.4297
▁ಡೋ	-11.4298
erial	-11.4302
▁ಸ್ವಭಾವ	-11.4302
ending	-11.4304
▁improved	-11.4305
▁Navy	-11.4306
▁speaks	-11.4306
▁ಹುಳಿ	-11.4307
02	-11.431
▁ಬಿಡುವ	-11.4313
ಗೊಂಡಿರುವ	-11.4314
ೊಳಗ	-11.4315
▁ವರದಿಗಳು	-11.4315
▁mainly	-11.4317
▁Ri	-11.4319
ಸ್ಕ್	-11.4319
▁ನಡ	-11.4319
▁ದೇಶವು	-11.4325
▁sets	-11.4328
▁ಹೋದೆ	-11.4329
▁ಜೀವಿ	-11.4329
▁ಮರಣದ	-11.433
▁ಬೀಗ	-11.4332
▁ಬೈಕುಗಳ	-11.4333
▁ಅಧಿವೇಶನದಲ್ಲಿ	-11.4333
▁ಗುಣಗಳನ್ನು	-11.4333
▁papers	-11.4335
▁ಸರಳವಾಗಿ	-11.4335
▁glass	-11.4337
▁ಉತ್ಪಾದಕ	-11.434
RR	-11.434
▁Nevertheless	-11.434
▁Smriti	-11.434
▁climate	-11.434
▁shrine	-11.434
▁sworn	-11.434
▁translation	-11.434
▁troops	-11.434
▁ಉರಿಯೂತ	-11.434
▁ಕಿರಿಕಿರಿ	-11.434
▁ಜಲಪಾತ	-11.434
▁ಬರೋಬ್ಬರ	-11.434
▁ಶಾಹಿದ್	-11.434
▁ಚಿತ್ರತಂಡ	-11.434
▁Manoj	-11.434
▁casualties	-11.434
▁ರ್ಯಾಲಿ	-11.434
iest	-11.434
▁ಹೊಸದಿಲ್ಲಿ	-11.434
▁Plus	-11.434
▁condol	-11.434
▁Prabhu	-11.434
▁Ratna	-11.4341
▁ವಾರ್ನರ್	-11.4341
▁outrage	-11.4341
▁ನಡೆದಿದ್ದ	-11.4342
▁ಫೋರ್ಡ್	-11.4342
▁tired	-11.4344
▁ಮೂತ್ರ	-11.4344
▁ಹಾಜರುಪಡಿಸ	-11.4346
▁ಹೊಂದಿರಬೇಕು	-11.4349
▁ಪತ್ರಕರ್ತರ	-11.4351
▁bound	-11.4355
▁rec	-11.4355
▁ಆಗಿರಬಹುದು	-11.4356
▁Exam	-11.4356
▁previously	-11.4356
▁Personal	-11.4358
▁Mutt	-11.4358
▁ಜಾತಿಯ	-11.4359
▁ಡ್ರ	-11.436
ಜೊ	-11.4362
▁ಯೆಹೂದದ	-11.4362
▁ಸಮಯಕ್ಕೆ	-11.4364
▁ಭಾಷೆಯನ್ನು	-11.4365
ವಾಸಿ	-11.4367
ೇನ್	-11.4367
▁ಹೋಗುವುದಿಲ್ಲ	-11.4367
▁ಉಲ್ಲಂಘಿಸ	-11.4368
ೊಳ	-11.4369
ಲ್ಯಾಂಡ್	-11.4371
▁ಗುಪ್ತ	-11.4371
ವಾಗಿರುವುದು	-11.4372
▁challenged	-11.4374
▁ಮಾಡಬೇಕ	-11.4375
ವಿದ್ದು	-11.4379
▁83	-11.438
▁ಇದ್ದೇವೆ	-11.4382
ಕನ್	-11.4382
▁aside	-11.4383
▁Right	-11.4385
ಬೇಕೋ	-11.4386
ಬೈ	-11.4388
್ನ	-11.4388
▁ರಾಜ್ಯಪಾಲರ	-11.4391
▁repeat	-11.4391
▁ಬಳಕೆದಾರ	-11.4391
ಯಾಗಲು	-11.4392
▁artists	-11.4393
▁lots	-11.4393
water	-11.4394
ಹೂ	-11.4397
▁mount	-11.4397
▁operate	-11.4397
ball	-11.4397
▁ಆಲಿಸ	-11.4397
▁ಅಂದಿನಿಂದ	-11.4398
yo	-11.4399
▁coin	-11.4399
▁ski	-11.44
▁ಸದಸ್ಯತ್ವ	-11.4401
▁responding	-11.4401
▁ಅಬ್	-11.4402
rounder	-11.4403
ject	-11.4404
▁ನಿಯಮಿತವಾಗಿ	-11.4405
▁ಅನಾವರಣ	-11.4406
▁ಗಣೇಶ	-11.4406
▁ದೂರವಿರ	-11.4407
▁Abdullah	-11.4407
▁Indonesia	-11.4407
▁Nirav	-11.4407
▁infected	-11.4407
▁premium	-11.4407
▁worst	-11.4407
▁chairperson	-11.4407
▁2-0	-11.4407
▁ಹೀನಾಯ	-11.4407
▁ಕ್ಯಾರೆಟ್	-11.4407
▁ಪ್ರಯೋಗಾಲಯ	-11.4407
arian	-11.4408
▁email	-11.4408
▁Varun	-11.4408
▁ಪುಸ್ತಕದಲ್ಲಿ	-11.4409
▁criticised	-11.441
▁ವಿಷಯವಾಗಿದೆ	-11.441
▁ಕಳ್ಳತನ	-11.4411
▁Eli	-11.4412
▁ನಿವಾರಿಸ	-11.4414
‍ಗಳು	-11.4415
▁ಕಡಿಮೆಯಾಗುತ್ತದೆ	-11.4416
▁ಬಿಹಾರಿ	-11.4416
▁ಡ್ಯಾ	-11.4417
cus	-11.4418
CL	-11.442
▁hero	-11.4421
▁ವೃತ್ತ	-11.4421
▁Account	-11.4421
▁ಹೇಳಿಲ್ಲ	-11.4421
mala	-11.4422
▁ಹುಲಿ	-11.4423
▁ಸದುಪಯೋಗ	-11.4425
▁ಅಮೆರಿಕದಲ್ಲಿ	-11.4426
▁ಸಾರ್ವಜನಿಕರಿಗೆ	-11.4426
▁ತಪ್ಪಾಗಿ	-11.4429
head	-11.4431
ಗಳಲ್ಲಿರುವ	-11.4432
▁ಸಮೃದ್ಧ	-11.4432
ೆಂಬುದನ್ನು	-11.4435
▁Satya	-11.4435
When	-11.4436
▁greatly	-11.4438
▁ಮೇಳ	-11.4443
ಗಳಿಂದಾಗಿ	-11.4444
PO	-11.4444
sar	-11.4445
▁ಧರ್ಮಶಾಸ್ತ್ರ	-11.4446
▁advantages	-11.4447
▁ಮನು	-11.4447
▁infections	-11.445
bus	-11.4451
▁ನಿರತ	-11.4452
▁ದಿಕ್ಕಿನಲ್ಲಿ	-11.4457
ತಾರ	-11.4457
kin	-11.4458
▁ದುಬೈ	-11.446
71	-11.4461
▁ಹಾಲಿನ	-11.4465
▁cha	-11.4466
▁ಸಹೋದರಿಯರ	-11.4467
▁ಪಯಣ	-11.4467
▁luck	-11.447
▁ಬ್ಯಾಂಕಿನ	-11.447
▁ದೇಹದಲ್ಲಿ	-11.4471
▁ಗಣಿತ	-11.4474
▁breast	-11.4474
▁opposing	-11.4474
▁ಕಾರ್ಖಾನೆ	-11.4474
▁ಪಂದ್ಯಾವಳಿ	-11.4474
▁ಮ್ಯಾನುವಲ್	-11.4474
▁venue	-11.4474
▁pension	-11.4474
▁ಕಡೆಗಣಿಸ	-11.4474
▁ಕ್ಯಾಪ್ಟನ್	-11.4474
▁ಗಾಬರಿ	-11.4474
▁criticism	-11.4474
[...]
