<pad>	0
<unk>	0
<s>	0
</s>	0
▁t	-0
he	-1
▁a	-2
in	-3
▁the	-4
re	-5
▁o	-6
er	-7
▁s	-8
on	-9
at	-10
▁c	-11
▁w	-12
en	-13
es	-14
an	-15
is	-16
▁b	-17
it	-18
▁p	-19
▁f	-20
or	-21
ed	-22
▁an	-23
▁m	-24
al	-25
ing	-26
▁of	-27
▁in	-28
ou	-29
ar	-30
▁to	-31
▁d	-32
ic	-33
▁and	-34
le	-35
▁h	-36
as	-37
om	-38
ion	-39
▁th	-40
▁l	-41
▁T	-42
▁e	-43
▁n	-44
us	-45
ly	-46
ent	-47
ro	-48
▁re	-49
▁is	-50
ve	-51
ct	-52
ll	-53
▁g	-54
▁be	-55
ot	-56
id	-57
▁I	-58
st	-59
ow	-60
et	-61
ut	-62
im	-63
▁A	-64
▁S	-65
ol	-66
ch	-67
▁The	-68
am	-69
ay	-70
ce	-71
▁on	-72
ig	-73
ver	-74
▁for	-75
▁that	-76
her	-77
ir	-78
▁st	-79
ur	-80
ad	-81
ation	-82
il	-83
▁y	-84
▁are	-85
▁C	-86
▁as	-87
un	-88
▁it	-89
▁wh	-90
▁W	-91
ith	-92
se	-93
ter	-94
▁with	-95
ul	-96
▁or	-97
▁M	-98
op	-99
▁con	-100
od	-101
▁you	-102
▁B	-103
if	-104
ra	-105
▁pro	-106
▁was	-107
ld	-108
▁1	-109
ke	-110
▁he	-111
▁mo	-112
▁ha	-113
um	-114
▁"	-115
▁com	-116
ers	-117
▁fr	-118
ge	-119
▁H	-120
▁(	-121
▁we	-122
▁at	-123
em	-124
th	-125
▁by	-126
ac	-127
oun	-128
ill	-129
ts	-130
▁de	-131
▁se	-132
▁ex	-133
pe	-134
ies	-135
ate	-136
▁r	-137
▁al	-138
igh	-139
os	-140
▁P	-141
res	-142
▁can	-143
▁us	-144
▁v	-145
ive	-146
▁F	-147
and	-148
▁su	-149
ess	-150
ity	-151
▁from	-152
qu	-153
est	-154
▁have	-155
ally	-156
iv	-157
▁E	-158
ome	-159
ain	-160
▁not	-161
all	-162
▁2	-163
▁N	-164
ist	-165
▁D	-166
▁do	-167
▁ne	-168
▁ch	-169
▁In	-170
ab	-171
red	-172
ud	-173
ther	-174
ich	-175
▁L	-176
ren	-177
ment	-178
00	-179
pp	-180
end	-181
oc	-182
ant	-183
▁pl	-184
gh	-185
▁they	-186
▁sh	-187
hen	-188
▁le	-189
el	-190
fe	-191
ib	-192
▁un	-193
art	-194
ure	-195
▁G	-196
ard	-197
per	-198
▁wor	-199
▁Wh	-200
ould	-201
ide	-202
▁R	-203
ight	-204
▁O	-205
ong	-206
▁comp	-207
▁k	-208
ction	-209
ame	-210
ough	-211
▁which	-212
▁their	-213
ust	-214
ort	-215
▁ab	-216
ound	-217
▁en	-218
▁U	-219
ial	-220
▁ma	-221
our	-222
aus	-223
▁all	-224
ated	-225
▁int	-226
ans	-227
out	-228
ie	-229
ood	-230
so	-231
ine	-232
▁tr	-233
pt	-234
▁J	-235
▁but	-236
▁other	-237
ous	-238
ater	-239
one	-240
▁has	-241
du	-242
▁man	-243
▁inc	-244
▁me	-245
▁more	-246
▁te	-247
ical	-248
ast	-249
ack	-250
eop	-251
ia	-252
▁bec	-253
up	-254
very	-255
ore	-256
▁this	-257
▁Th	-258
eople	-259
ike	-260
ass	-261
▁cont	-262
act	-263
iz	-264
▁his	-265
▁cl	-266
▁also	-267
ip	-268
og	-269
age	-270
ime	-271
ary	-272
cc	-273
▁one	-274
▁j	-275
ok	-276
▁Ch	-277
ice	-278
▁ar	-279
▁so	-280
▁ad	-281
ause	-282
ag	-283
ear	-284
ue	-285
▁were	-286
ber	-287
▁It	-288
▁people	-289
▁im	-290
pl	-291
der	-292
▁res	-293
ap	-294
▁when	-295
ak	-296
▁some	-297
▁sp	-298
ates	-299
te	-300
orm	-301
ind	-302
ry	-303
ish	-304
ult	-305
▁out	-306
▁Y	-307
ition	-308
▁than	-309
▁them	-310
▁go	-311
own	-312
▁per	-313
ace	-314
▁will	-315
ations	-316
ep	-317
ew	-318
ens	-319
ose	-320
▁spe	-321
ost	-322
▁like	-323
ang	-324
▁up	-325
▁dis	-326
vel	-327
▁your	-328
ell	-329
ire	-330
▁What	-331
ance	-332
▁time	-333
▁there	-334
able	-335
▁pr	-336
▁19	-337
ress	-338
▁ev	-339
ents	-340
ile	-341
ays	-342
ub	-343
▁what	-344
▁had	-345
▁tw	-346
mer	-347
ach	-348
ks	-349
ite	-350
ign	-351
ount	-352
▁most	-353
▁dif	-354
▁may	-355
▁into	-356
▁St	-357
▁about	-358
▁part	-359
av	-360
rent	-361
ild	-362
ase	-363
▁20	-364
here	-365
ence	-366
▁her	-367
▁would	-368
les	-369
ond	-370
▁sy	-371
▁who	-372
ree	-373
ions	-374
ings	-375
ook	-376
▁af	-377
▁ro	-378
▁its	-379
▁many	-380
ors	-381
ool	-382
▁.	-383
▁year	-384
irst	-385
aw	-386
▁This	-387
ord	-388
▁over	-389
▁gr	-390
▁such	-391
▁kn	-392
als	-393
▁sc	-394
▁K	-395
ces	-396
▁bl	-397
ru	-398
lud	-399
ian	-400
▁because	-401
lect	-402
▁used	-403
▁gen	-404
ne	-405
▁He	-406
▁two	-407
▁qu	-408
king	-409
▁fl	-410
▁pre	-411
we	-412
tern	-413
).	-414
▁ag	-415
are	-416
▁Un	-417
▁An	-418
▁bet	-419
reat	-420
▁get	-421
▁been	-422
▁use	-423
ory	-424
ons	-425
▁first	-426
▁imp	-427
rit	-428
ph	-429
ten	-430
rough	-431
▁water	-432
▁ph	-433
▁no	-434
▁sa	-435
ied	-436
▁sm	-437
ade	-438
▁only	-439
▁col	-440
▁car	-441
▁call	-442
erm	-443
▁stud	-444
▁am	-445
▁rec	-446
ake	-447
▁includ	-448
▁if	-449
."	-450
vers	-451
▁Be	-452
▁produ	-453
ited	-454
▁How	-455
▁any	-456
▁201	-457
ular	-458
▁fe	-459
▁diffe	-460
▁cons	-461
ually	-462
▁comm	-463
▁3	-464
▁did	-465
▁very	-466
uring	-467
oll	-468
hed	-469
ric	-470
▁act	-471
uch	-472
stem	-473
▁off	-474
amp	-475
▁my	-476
row	-477
▁form	-478
erv	-479
),	-480
form	-481
ced	-482
lic	-483
fect	-484
chool	-485
▁They	-486
▁tra	-487
▁she	-488
ning	-489
▁work	-490
other	-491
▁ear	-492
▁does	-493
ff	-494
uc	-495
▁V	-496
▁des	-497
▁through	-498
▁ind	-499
omet	-500
ious	-501
▁new	-502
ower	-503
ating	-504
▁how	-505
▁bu	-506
▁ra	-507
▁spec	-508
▁rel	-509
▁num	-510
▁system	-511
ob	-512
▁play	-513
▁200	-514
oth	-515
ily	-516
ual	-517
ork	-518
ines	-519
gan	-520
ism	-521
ark	-522
▁lar	-523
ick	-524
ific	-525
cess	-526
oin	-527
▁ac	-528
▁acc	-529
▁after	-530
old	-531
iss	-532
ased	-533
ody	-534
ail	-535
▁New	-536
ng	-537
ink	-538
▁under	-539
ween	-540
▁school	-541
ove	-542
▁app	-543
fore	-544
▁sur	-545
erg	-546
▁mus	-547
ever	-548
▁cell	-549
▁make	-550
ri	-551
▁different	-552
oy	-553
ars	-554
▁between	-555
▁much	-556
▁att	-557
hes	-558
ange	-559
▁rep	-560
ft	-561
▁could	-562
ect	-563
▁When	-564
▁hel	-565
▁where	-566
▁called	-567
▁just	-568
▁long	-569
▁need	-570
oss	-571
▁these	-572
any	-573
ting	-574
ife	-575
▁reg	-576
ble	-577
▁ty	-578
ise	-579
▁dec	-580
▁sub	-581
urn	-582
▁sec	-583
▁then	-584
▁As	-585
meric	-586
ert	-587
sel	-588
▁help	-589
▁same	-590
▁day	-591
ible	-592
gr	-593
olog	-594
ient	-595
▁high	-596
▁said	-597
imes	-598
ative	-599
▁If	-600
ational	-601
▁There	-602
ath	-603
▁met	-604
▁gener	-605
ities	-606
▁ob	-607
ather	-608
hing	-609
gen	-610
ants	-611
▁every	-612
▁5	-613
ics	-614
▁food	-615
▁18	-616
▁trans	-617
▁years	-618
ved	-619
▁often	-620
wn	-621
ys	-622
▁him	-623
▁air	-624
ict	-625
▁4	-626
▁Americ	-627
▁while	-628
▁inv	-629
▁pers	-630
▁em	-631
ically	-632
ject	-633
ergy	-634
▁world	-635
▁small	-636
▁count	-637
its	-638
▁elect	-639
▁made	-640
▁rem	-641
rib	-642
▁even	-643
▁don	-644
ward	-645
ix	-646
▁back	-647
▁body	-648
▁being	-649
▁Al	-650
▁exp	-651
cept	-652
illion	-653
▁during	-654
▁pop	-655
▁see	-656
▁child	-657
▁inst	-658
oup	-659
land	-660
velop	-661
▁_	-662
ments	-663
▁well	-664
▁sim	-665
▁good	-666
ctions	-667
ures	-668
▁inter	-669
▁add	-670
▁co	-671
▁way	-672
▁know	-673
ince	-674
▁bel	-675
▁fun	-676
get	-677
▁energy	-678
ful	-679
▁hum	-680
▁pa	-681
▁pass	-682
▁char	-683
ists	-684
ution	-685
▁somet	-686
▁found	-687
▁mem	-688
▁each	-689
ident	-690
ins	-691
▁dr	-692
ock	-693
▁che	-694
▁down	-695
▁incre	-696
▁For	-697
000	-698
ature	-699
ck	-700
▁mod	-701
ffect	-702
ample	-703
cy	-704
▁number	-705
ont	-706
ases	-707
..	-708
io	-709
▁prov	-710
▁sol	-711
▁develop	-712
ract	-713
tle	-714
▁cent	-715
▁ref	-716
▁home	-717
ows	-718
▁law	-719
▁person	-720
▁United	-721
ends	-722
▁want	-723
".	-724
▁pol	-725
▁ent	-726
▁supp	-727
▁sign	-728
ving	-729
▁set	-730
ted	-731
▁pres	-732
onc	-733
▁example	-734
▁But	-735
▁str	-736
▁look	-737
▁ke	-738
ina	-739
▁dist	-740
▁pub	-741
arm	-742
▁On	-743
ty	-744
▁br	-745
▁both	-746
▁own	-747
▁life	-748
▁She	-749
▁again	-750
▁effect	-751
▁less	-752
▁min	-753
▁occ	-754
▁organ	-755
▁fil	-756
ves	-757
way	-758
ird	-759
▁Eng	-760
ives	-761
▁def	-762
ized	-763
▁old	-764
▁You	-765
▁happ	-766
,000	-767
iet	-768
▁dep	-769
ility	-770
blem	-771
▁three	-772
ave	-773
ouse	-774
lish	-775
▁things	-776
▁cre	-777
▁ass	-778
▁ext	-779
iving	-780
▁We	-781
uro	-782
ven	-783
▁Why	-784
▁mon	-785
▁problem	-786
▁caus	-787
▁States	-788
▁fam	-789
▁York	-790
pect	-791
la	-792
▁our	-793
▁anim	-794
oney	-795
▁end	-796
▁requ	-797
▁conc	-798
acter	-799
▁Fr	-800
▁fri	-801
▁ins	-802
inal	-803
▁Some	-804
▁class	-805
▁before	-806
▁group	-807
oh	-808
ages	-809
▁common	-810
▁take	-811
ug	-812
▁,	-813
ices	-814
▁op	-815
ially	-816
▁import	-817
ize	-818
▁med	-819
▁light	-820
alth	-821
▁var	-822
orn	-823
▁$	-824
ivers	-825
▁main	-826
▁process	-827
▁large	-828
▁dire	-829
",	-830
▁should	-831
▁around	-832
▁6	-833
ec	-834
▁second	-835
▁Bey	-836
▁ap	-837
atter	-838
ros	-839
▁Com	-840
xt	-841
▁sing	-842
▁US	-843
▁tem	-844
day	-845
▁lit	-846
▁too	-847
ier	-848
owing	-849
▁lot	-850
▁million	-851
▁comple	-852
▁still	-853
▁though	-854
▁those	-855
arch	-856
▁Af	-857
vern	-858
▁So	-859
▁partic	-860
▁However	-861
the	-862
ium	-863
▁money	-864
▁sk	-865
ames	-866
▁sl	-867
▁city	-868
ax	-869
▁par	-870
ern	-871
▁state	-872
▁usually	-873
▁cur	-874
▁loc	-875
owl	-876
▁start	-877
▁fact	-878
▁inf	-879
ired	-880
▁ret	-881
▁art	-882
jor	-883
▁poin	-884
▁det	-885
ished	-886
▁gl	-887
▁prote	-888
ral	-889
▁writ	-890
▁power	-891
▁disc	-892
ids	-893
self	-894
▁serv	-895
▁say	-896
vent	-897
ason	-898
▁including	-899
ness	-900
▁lead	-901
▁term	-902
ger	-903
▁children	-904
▁foll	-905
▁result	-906
ision	-907
▁cells	-908
ale	-909
iew	-910
gg	-911
ital	-912
ues	-913
ural	-914
▁music	-915
▁typ	-916
ivid	-917
▁hand	-918
▁contro	-919
▁read	-920
▁important	-921
▁known	-922
rop	-923
▁comput	-924
▁cr	-925
▁rele	-926
▁Euro	-927
iqu	-928
▁resp	-929
kes	-930
▁hy	-931
ulation	-932
cle	-933
read	-934
hip	-935
▁find	-936
▁move	-937
pr	-938
▁At	-939
ined	-940
oncé	-941
▁Beyoncé	-942
ived	-943
▁aut	-944
▁10	-945
▁exper	-946
▁ele	-947
ank	-948
osed	-949
▁another	-950
▁eng	-951
▁leg	-952
els	-953
▁Europe	-954
▁Su	-955
▁occur	-956
▁name	-957
▁grow	-958
▁tak	-959
ience	-960
ury	-961
▁four	-962
▁poss	-963
ere	-964
leep	-965
▁think	-966
ane	-967
▁bus	-968
▁bo	-969
▁-	-970
ries	-971
▁American	-972
▁major	-973
reen	-974
ters	-975
▁without	-976
iver	-977
ways	-978
▁press	-979
▁English	-980
ull	-981
▁est	-982
▁rest	-983
xy	-984
▁build	-985
▁using	-986
,"	-987
outh	-988
▁film	-989
rain	-990
ides	-991
ute	-992
▁eas	-993
ann	-994
▁govern	-995
▁big	-996
▁hard	-997
anc	-998
ains	-999
atch	-1000
chn	-1001
▁run	-1002
▁game	-1003
▁ser	-1004
▁open	-1005
ording	-1006
ior	-1007
▁ant	-1008
▁now	-1009
▁soc	-1010
gram	-1011
▁temper	-1012
▁word	-1013
▁expl	-1014
▁One	-1015
ets	-1016
▁7	-1017
▁students	-1018
alk	-1019
az	-1020
▁8	-1021
bers	-1022
▁Re	-1023
rodu	-1024
▁Bowl	-1025
▁few	-1026
▁pat	-1027
▁head	-1028
▁something	-1029
arn	-1030
▁po	-1031
▁vis	-1032
au	-1033
▁And	-1034
con	-1035
▁bas	-1036
▁15	-1037
ton	-1038
ying	-1039
▁since	-1040
▁place	-1041
▁public	-1042
▁hig	-1043
▁desc	-1044
▁perform	-1045
oot	-1046
▁feel	-1047
oms	-1048
▁wom	-1049
▁cor	-1050
▁electr	-1051
ruct	-1052
▁later	-1053
less	-1054
▁appe	-1055
▁must	-1056
▁area	-1057
▁level	-1058
ense	-1059
▁bre	-1060
ross	-1061
ffic	-1062
ertain	-1063
▁show	-1064
▁due	-1065
▁stand	-1066
▁cap	-1067
ield	-1068
▁include	-1069
▁pay	-1070
▁bro	-1071
▁book	-1072
orts	-1073
acher	-1074
▁ve	-1075
▁equ	-1076
▁sever	-1077
▁near	-1078
▁rece	-1079
▁become	-1080
▁Z	-1081
▁contin	-1082
though	-1083
▁chang	-1084
▁These	-1085
▁cle	-1086
▁Super	-1087
▁i	-1088
▁const	-1089
opin	-1090
▁right	-1091
▁team	-1092
▁kind	-1093
▁why	-1094
▁blood	-1095
▁sound	-1096
led	-1097
ards	-1098
ones	-1099
▁rad	-1100
▁Chopin	-1101
angu	-1102
▁China	-1103
▁av	-1104
ology	-1105
▁human	-1106
▁little	-1107
▁several	-1108
▁Le	-1109
air	-1110
▁*	-1111
▁mark	-1112
▁cause	-1113
br	-1114
xygen	-1115
▁9	-1116
ared	-1117
▁best	-1118
iven	-1119
▁De	-1120
▁direct	-1121
ream	-1122
osp	-1123
▁Se	-1124
▁ey	-1125
▁val	-1126
▁program	-1127
▁pur	-1128
▁Ar	-1129
▁fin	-1130
▁animals	-1131
ats	-1132
▁health	-1133
▁Sc	-1134
▁(1	-1135
ights	-1136
formation	-1137
▁sleep	-1138
▁always	-1139
▁belie	-1140
▁diff	-1141
▁techn	-1142
lec	-1143
▁sw	-1144
▁Pro	-1145
▁conf	-1146
▁cy	-1147
▁means	-1148
▁vol	-1149
▁mil	-1150
face	-1151
iation	-1152
▁real	-1153
▁Sh	-1154
ene	-1155
▁cour	-1156
work	-1157
▁mother	-1158
▁within	-1159
▁teacher	-1160
eral	-1161
osition	-1162
iron	-1163
▁change	-1164
▁great	-1165
▁ed	-1166
▁Ear	-1167
▁low	-1168
▁orig	-1169
▁design	-1170
iness	-1171
▁beh	-1172
▁early	-1173
▁going	-1174
to	-1175
▁sal	-1176
▁others	-1177
▁ide	-1178
▁against	-1179
▁type	-1180
▁put	-1181
ilar	-1182
▁friends	-1183
▁oper	-1184
ately	-1185
▁After	-1186
▁individ	-1187
me	-1188
▁redu	-1189
▁keep	-1190
ead	-1191
▁eat	-1192
▁hour	-1193
ional	-1194
▁pressure	-1195
esla	-1196
▁government	-1197
▁product	-1198
ball	-1199
inese	-1200
▁states	-1201
▁species	-1202
cl	-1203
▁comb	-1204
▁'	-1205
▁langu	-1206
rence	-1207
▁come	-1208
ered	-1209
ured	-1210
▁Am	-1211
▁chem	-1212
▁away	-1213
▁Mr	-1214
▁record	-1215
▁X	-1216
ules	-1217
ission	-1218
▁allow	-1219
▁care	-1220
▁last	-1221
▁non	-1222
▁enough	-1223
▁single	-1224
raph	-1225
▁Tesla	-1226
▁lim	-1227
▁live	-1228
▁gu	-1229
▁land	-1230
▁space	-1231
▁became	-1232
ash	-1233
▁let	-1234
ata	-1235
man	-1236
▁object	-1237
etic	-1238
▁cond	-1239
ex	-1240
▁Chinese	-1241
▁never	-1242
▁house	-1243
und	-1244
▁Is	-1245
▁es	-1246
▁commun	-1247
com	-1248
▁order	-1249
▁phys	-1250
▁intern	-1251
▁strong	-1252
ances	-1253
▁free	-1254
atic	-1255
▁wee	-1256
▁give	-1257
▁oxygen	-1258
▁hist	-1259
iversity	-1260
ption	-1261
cent	-1262
ified	-1263
til	-1264
▁Many	-1265
eng	-1266
▁mot	-1267
▁family	-1268
ained	-1269
wards	-1270
▁times	-1271
▁mar	-1272
▁stop	-1273
▁better	-1274
▁countries	-1275
▁activ	-1276
ien	-1277
▁ask	-1278
rents	-1279
▁country	-1280
▁sit	-1281
▁dev	-1282
▁conne	-1283
▁point	-1284
▁control	-1285
▁adv	-1286
▁young	-1287
▁really	-1288
irl	-1289
ither	-1290
▁came	-1291
aces	-1292
orth	-1293
▁certain	-1294
▁information	-1295
▁study	-1296
ised	-1297
▁fore	-1298
ization	-1299
gest	-1300
▁able	-1301
▁turn	-1302
por	-1303
▁imm	-1304
▁trad	-1305
ently	-1306
lished	-1307
not	-1308
▁fre	-1309
▁days	-1310
ably	-1311
thing	-1312
▁lo	-1313
▁mean	-1314
ration	-1315
pec	-1316
▁learn	-1317
▁temperature	-1318
ember	-1319
▁line	-1320
▁Earth	-1321
ories	-1322
▁left	-1323
omes	-1324
uther	-1325
▁mag	-1326
▁earth	-1327
0.	-1328
▁net	-1329
▁break	-1330
?"	-1331
iod	-1332
ending	-1333
ret	-1334
▁describ	-1335
aves	-1336
▁opp	-1337
erest	-1338
▁company	-1339
par	-1340
▁might	-1341
▁list	-1342
▁special	-1343
▁ste	-1344
▁song	-1345
▁invol	-1346
▁Luther	-1347
port	-1348
▁199	-1349
inc	-1350
side	-1351
▁interest	-1352
▁makes	-1353
▁meas	-1354
▁speed	-1355
▁until	-1356
▁el	-1357
line	-1358
idd	-1359
gether	-1360
▁computer	-1361
▁together	-1362
▁amount	-1363
gs	-1364
▁sex	-1365
▁hal	-1366
▁molec	-1367
▁popular	-1368
augh	-1369
ots	-1370
conom	-1371
▁short	-1372
▁Sp	-1373
▁proper	-1374
bs	-1375
▁support	-1376
igure	-1377
▁Comm	-1378
▁possible	-1379
▁month	-1380
itive	-1381
▁higher	-1382
▁ann	-1383
ner	-1384
▁gas	-1385
▁rese	-1386
aterial	-1387
▁similar	-1388
uss	-1389
▁tell	-1390
▁surface	-1391
▁simp	-1392
ination	-1393
▁beg	-1394
▁wind	-1395
▁based	-1396
▁European	-1397
▁12	-1398
▁Ad	-1399
ucle	-1400
▁current	-1401
ians	-1402
▁whe	-1403
▁mass	-1404
▁next	-1405
▁pain	-1406
▁Chr	-1407
▁cir	-1408
▁Most	-1409
▁went	-1410
bon	-1411
▁City	-1412
ump	-1413
▁report	-1414
▁To	-1415
▁Intern	-1416
ided	-1417
oph	-1418
▁material	-1419
The	-1420
▁dem	-1421
▁env	-1422
▁father	-1423
▁All	-1424
ering	-1425
▁top	-1426
▁five	-1427
▁brain	-1428
itional	-1429
▁red	-1430
bo	-1431
▁given	-1432
yn	-1433
icle	-1434
▁making	-1435
ccess	-1436
▁infl	-1437
1,	-1438
most	-1439
ctor	-1440
ron	-1441
▁engine	-1442
▁sour	-1443
▁phot	-1444
▁cost	-1445
▁having	-1446
▁[	-1447
tal	-1448
aster	-1449
▁win	-1450
▁Germ	-1451
▁prof	-1452
▁period	-1453
▁That	-1454
▁far	-1455
▁iss	-1456
▁prim	-1457
ended	-1458
▁says	-1459
amm	-1460
cing	-1461
iety	-1462
▁mult	-1463
▁heat	-1464
▁side	-1465
▁along	-1466
aut	-1467
▁plan	-1468
▁Bl	-1469
▁econom	-1470
▁population	-1471
▁dig	-1472
icult	-1473
▁sometimes	-1474
▁case	-1475
▁took	-1476
▁won	-1477
ky	-1478
orld	-1479
ality	-1480
stand	-1481
4,	-1482
▁return	-1483
▁Q	-1484
iting	-1485
▁pot	-1486
▁My	-1487
▁field	-1488
ising	-1489
▁travel	-1490
▁specific	-1491
▁Gr	-1492
▁consum	-1493
▁doesn	-1494
▁chemical	-1495
▁particular	-1496
▁thought	-1497
ator	-1498
▁Ex	-1499
apt	-1500
une	-1501
▁environ	-1502
ploy	-1503
uan	-1504
▁dam	-1505
▁happen	-1506
ape	-1507
mber	-1508
▁struct	-1509
utes	-1510
▁data	-1511
▁nat	-1512
▁either	-1513
▁difficult	-1514
▁systems	-1515
cer	-1516
▁May	-1517
oid	-1518
ideo	-1519
ores	-1520
ged	-1521
▁someone	-1522
▁offic	-1523
▁Ind	-1524
▁hot	-1525
▁parents	-1526
like	-1527
cause	-1528
▁below	-1529
▁prev	-1530
▁Man	-1531
▁pract	-1532
▁war	-1533
▁black	-1534
▁Wars	-1535
▁fall	-1536
▁Pol	-1537
▁wr	-1538
▁Con	-1539
▁reason	-1540
▁view	-1541
▁Because	-1542
▁iP	-1543
▁sym	-1544
▁appro	-1545
▁character	-1546
fer	-1547
▁didn	-1548
▁ident	-1549
hat	-1550
▁tax	-1551
ym	-1552
idered	-1553
▁began	-1554
▁cla	-1555
▁cult	-1556
▁lower	-1557
▁market	-1558
▁matter	-1559
ued	-1560
vert	-1561
▁problems	-1562
▁cal	-1563
iated	-1564
ges	-1565
ults	-1566
▁circ	-1567
▁nucle	-1568
3,	-1569
iam	-1570
▁bi	-1571
itions	-1572
▁present	-1573
▁following	-1574
ode	-1575
▁treat	-1576
sh	-1577
▁Pr	-1578
ounds	-1579
▁considered	-1580
▁estab	-1581
▁Cl	-1582
▁Then	-1583
▁norm	-1584
▁color	-1585
▁success	-1586
bit	-1587
ential	-1588
ote	-1589
▁prom	-1590
isms	-1591
▁areas	-1592
▁rea	-1593
urther	-1594
ai	-1595
amed	-1596
▁event	-1597
5,	-1598
ware	-1599
▁Ph	-1600
iple	-1601
▁dise	-1602
▁claim	-1603
▁contain	-1604
▁gre	-1605
20	-1606
▁meth	-1607
▁generally	-1608
verage	-1609
▁Cal	-1610
ison	-1611
▁buy	-1612
▁quest	-1613
▁Joh	-1614
▁six	-1615
▁got	-1616
▁17	-1617
▁By	-1618
ention	-1619
▁Who	-1620
▁polit	-1621
▁16	-1622
▁language	-1623
▁With	-1624
▁tele	-1625
▁speak	-1626
▁subst	-1627
olution	-1628
ider	-1629
▁Christ	-1630
ule	-1631
▁plants	-1632
▁arr	-1633
▁repres	-1634
▁World	-1635
▁third	-1636
▁hours	-1637
▁affect	-1638
▁girl	-1639
▁general	-1640
▁increase	-1641
▁mor	-1642
▁words	-1643
▁bad	-1644
▁among	-1645
▁force	-1646
50	-1647
▁kill	-1648
asing	-1649
▁caused	-1650
▁vers	-1651
▁scient	-1652
▁Which	-1653
▁abs	-1654
▁held	-1655
▁sun	-1656
▁z	-1657
▁Other	-1658
ensive	-1659
ological	-1660
ring	-1661
▁room	-1662
▁produce	-1663
▁frequ	-1664
▁rather	-1665
▁seem	-1666
▁post	-1667
RL	-1668
▁various	-1669
▁business	-1670
▁environment	-1671
▁electric	-1672
▁Car	-1673
▁ans	-1674
hor	-1675
▁largest	-1676
▁half	-1677
▁week	-1678
▁Acc	-1679
▁skin	-1680
thern	-1681
▁appear	-1682
▁colle	-1683
▁age	-1684
by	-1685
▁quick	-1686
▁percent	-1687
▁50	-1688
▁repl	-1689
▁thing	-1690
ov	-1691
chan	-1692
▁men	-1693
▁Warsaw	-1694
iddle	-1695
ival	-1696
▁living	-1697
▁changes	-1698
▁however	-1699
▁cop	-1700
atures	-1701
▁released	-1702
▁total	-1703
▁Par	-1704
▁death	-1705
▁size	-1706
▁heart	-1707
selves	-1708
ilt	-1709
▁People	-1710
▁signific	-1711
▁actually	-1712
▁boy	-1713
▁sugg	-1714
▁games	-1715
▁white	-1716
▁App	-1717
▁assoc	-1718
▁avail	-1719
...	-1720
▁197	-1721
▁instead	-1722
▁types	-1723
▁ris	-1724
▁ter	-1725
▁foot	-1726
▁stat	-1727
2,	-1728
▁works	-1729
uen	-1730
ograph	-1731
ental	-1732
raft	-1733
▁close	-1734
▁modern	-1735
be	-1736
▁cannot	-1737
pecially	-1738
ler	-1739
▁wa	-1740
aced	-1741
▁Not	-1742
▁cho	-1743
rote	-1744
▁night	-1745
rench	-1746
▁social	-1747
xim	-1748
▁Br	-1749
▁job	-1750
▁Tr	-1751
▁et	-1752
▁John	-1753
▁humans	-1754
ands	-1755
put	-1756
ober	-1757
▁likely	-1758
▁invest	-1759
▁pred	-1760
▁fire	-1761
▁bacter	-1762
ox	-1763
▁Can	-1764
▁pe	-1765
▁hold	-1766
▁–	-1767
▁Pl	-1768
▁century	-1769
▁rate	-1770
▁sens	-1771
▁least	-1772
▁lun	-1773
▁stay	-1774
▁development	-1775
▁Tw	-1776
▁protect	-1777
oon	-1778
▁friend	-1779
▁Aust	-1780
▁iPod	-1781
▁prop	-1782
▁carbon	-1783
8,	-1784
▁la	-1785
ively	-1786
▁women	-1787
6,	-1788
ipp	-1789
▁Cent	-1790
▁deb	-1791
▁enc	-1792
▁needed	-1793
▁Mar	-1794
iot	-1795
▁liqu	-1796
▁impro	-1797
10	-1798
aring	-1799
▁separ	-1800
▁196	-1801
▁crit	-1802
▁method	-1803
yl	-1804
▁longer	-1805
▁relations	-1806
ability	-1807
▁prevent	-1808
▁history	-1809
▁asked	-1810
mit	-1811
idence	-1812
▁eyes	-1813
▁provide	-1814
ik	-1815
▁fish	-1816
▁parts	-1817
▁Brit	-1818
▁Or	-1819
ored	-1820
▁America	-1821
ibet	-1822
▁mechan	-1823
▁According	-1824
▁late	-1825
ope	-1826
▁fund	-1827
▁determ	-1828
view	-1829
▁join	-1830
▁exist	-1831
▁dest	-1832
▁plant	-1833
ining	-1834
▁full	-1835
▁comes	-1836
▁understand	-1837
9,	-1838
▁arg	-1839
sc	-1840
tic	-1841
for	-1842
▁His	-1843
▁antib	-1844
▁sell	-1845
▁cold	-1846
▁thin	-1847
▁national	-1848
▁French	-1849
erous	-1850
1.	-1851
ling	-1852
▁pie	-1853
▁video	-1854
▁complex	-1855
ators	-1856
▁indust	-1857
30	-1858
▁100	-1859
▁ground	-1860
▁begin	-1861
▁outside	-1862
▁significant	-1863
▁complete	-1864
▁flu	-1865
▁employ	-1866
▁themselves	-1867
▁bird	-1868
▁once	-1869
▁individual	-1870
ression	-1871
iol	-1872
▁lay	-1873
▁seen	-1874
▁causes	-1875
rom	-1876
anies	-1877
▁developed	-1878
▁cut	-1879
▁mach	-1880
▁test	-1881
▁available	-1882
dro	-1883
▁although	-1884
irth	-1885
▁represent	-1886
▁ep	-1887
▁fail	-1888
ms	-1889
▁started	-1890
of	-1891
▁natural	-1892
▁especially	-1893
rees	-1894
▁lab	-1895
reet	-1896
cial	-1897
▁above	-1898
▁position	-1899
▁neg	-1900
▁ball	-1901
▁coll	-1902
▁require	-1903
ried	-1904
ming	-1905
enn	-1906
hem	-1907
urb	-1908
▁cases	-1909
▁Col	-1910
acks	-1911
▁dru	-1912
▁goes	-1913
▁During	-1914
▁Do	-1915
ency	-1916
▁almost	-1917
▁mic	-1918
▁rain	-1919
▁198	-1920
▁effects	-1921
▁prob	-1922
▁news	-1923
ume	-1924
▁Go	-1925
▁ever	-1926
▁host	-1927
▁love	-1928
▁entire	-1929
▁service	-1930
uit	-1931
▁itself	-1932
▁del	-1933
▁Just	-1934
▁Tibet	-1935
▁No	-1936
ched	-1937
coh	-1938
▁flow	-1939
cohol	-1940
ister	-1941
▁sent	-1942
▁research	-1943
▁companies	-1944
▁ill	-1945
▁past	-1946
ott	-1947
▁member	-1948
▁Figure	-1949
▁30	-1950
▁woman	-1951
▁wide	-1952
▁access	-1953
▁Cour	-1954
arily	-1955
rict	-1956
▁port	-1957
▁produced	-1958
▁wrote	-1959
▁TV	-1960
▁Te	-1961
▁further	-1962
uck	-1963
apan	-1964
ires	-1965
▁tiss	-1966
oud	-1967
▁refer	-1968
go	-1969
▁super	-1970
▁idea	-1971
rown	-1972
▁Sun	-1973
▁led	-1974
▁across	-1975
▁follow	-1976
▁sum	-1977
▁members	-1978
▁function	-1979
▁oil	-1980
▁connect	-1981
ogn	-1982
omin	-1983
overed	-1984
bum	-1985
▁er	-1986
ouch	-1987
▁indic	-1988
▁takes	-1989
▁Em	-1990
▁magn	-1991
–1	-1992
atory	-1993
▁inside	-1994
use	-1995
ement	-1996
af	-1997
co	-1998
▁typically	-1999
▁soft	-2000
▁inj	-2001
uted	-2002
4.	-2003
▁front	-2004
itud	-2005
na	-2006
erc	-2007
▁obs	-2008
▁broad	-2009
▁etc	-2010
▁necess	-2011
▁shows	-2012
▁relative	-2013
▁production	-2014
▁vir	-2015
▁behav	-2016
▁average	-2017
▁syn	-2018
▁Japan	-2019
▁gra	-2020
▁range	-2021
▁exam	-2022
▁hair	-2023
▁birth	-2024
hest	-2025
▁named	-2026
▁author	-2027
▁schools	-2028
▁building	-2029
▁fat	-2030
7,	-2031
min	-2032
▁groups	-2033
▁previous	-2034
▁tit	-2035
▁season	-2036
ips	-2037
▁quickly	-2038
iforn	-2039
▁answ	-2040
▁North	-2041
▁local	-2042
fact	-2043
▁mov	-2044
imate	-2045
▁Court	-2046
▁relig	-2047
mosp	-2048
▁compet	-2049
▁required	-2050
▁Internet	-2051
▁aud	-2052
ma	-2053
▁today	-2054
▁Californ	-2055
▁talk	-2056
▁watch	-2057
▁subject	-2058
ole	-2059
▁earthqu	-2060
▁wanted	-2061
play	-2062
▁sold	-2063
used	-2064
▁ways	-2065
▁Now	-2066
▁laws	-2067
▁hydro	-2068
▁whether	-2069
▁mix	-2070
▁saw	-2071
▁concent	-2072
--	-2073
5.	-2074
▁true	-2075
▁University	-2076
▁13	-2077
NA	-2078
ites	-2079
▁loss	-2080
int	-2081
▁cat	-2082
▁working	-2083
▁sn	-2084
de	-2085
▁try	-2086
▁introdu	-2087
▁levels	-2088
aps	-2089
▁books	-2090
▁increased	-2091
▁California	-2092
▁bene	-2093
▁prot	-2094
▁doing	-2095
▁network	-2096
ches	-2097
2.	-2098
urch	-2099
▁star	-2100
lo	-2101
ples	-2102
itary	-2103
▁warm	-2104
▁Ed	-2105
▁atmosp	-2106
pa	-2107
▁While	-2108
▁price	-2109
▁minutes	-2110
▁cool	-2111
▁region	-2112
▁init	-2113
lled	-2114
▁morning	-2115
let	-2116
▁created	-2117
ze	-2118
▁walk	-2119
▁National	-2120
▁numbers	-2121
▁fem	-2122
▁attem	-2123
tain	-2124
▁theory	-2125
▁passage	-2126
ah	-2127
▁whole	-2128
▁isn	-2129
▁educ	-2130
▁physical	-2131
ria	-2132
istic	-2133
▁done	-2134
▁told	-2135
▁create	-2136
ague	-2137
▁experience	-2138
▁deg	-2139
alking	-2140
▁forms	-2141
ills	-2142
▁anal	-2143
▁political	-2144
▁original	-2145
back	-2146
▁products	-2147
cles	-2148
▁molecules	-2149
▁uses	-2150
▁occurs	-2151
▁War	-2152
▁cust	-2153
ength	-2154
▁ability	-2155
▁flo	-2156
▁En	-2157
▁bed	-2158
▁bond	-2159
ales	-2160
▁anything	-2161
uly	-2162
lands	-2163
▁lack	-2164
▁purp	-2165
▁student	-2166
rum	-2167
▁viol	-2168
▁11	-2169
fficient	-2170
elt	-2171
▁Although	-2172
▁Apple	-2173
▁steam	-2174
ables	-2175
▁fast	-2176
▁alcohol	-2177
▁card	-2178
▁road	-2179
▁priv	-2180
▁“	-2181
ibr	-2182
▁announ	-2183
ached	-2184
▁carry	-2185
ify	-2186
▁media	-2187
▁suggest	-2188
uals	-2189
▁ren	-2190
▁liquid	-2191
onse	-2192
med	-2193
eb	-2194
hib	-2195
icy	-2196
akes	-2197
▁addition	-2198
ique	-2199
rect	-2200
epend	-2201
▁grad	-2202
wh	-2203
▁Jan	-2204
▁dra	-2205
▁pict	-2206
▁relationship	-2207
vision	-2208
▁album	-2209
reme	-2210
▁gave	-2211
▁wall	-2212
▁March	-2213
▁Union	-2214
joy	-2215
▁Her	-2216
▁shop	-2217
▁phone	-2218
▁ang	-2219
▁clear	-2220
▁throughout	-2221
othes	-2222
▁here	-2223
▁cars	-2224
▁South	-2225
▁larger	-2226
▁party	-2227
▁bar	-2228
▁organisms	-2229
▁meet	-2230
lor	-2231
▁billion	-2232
duct	-2233
▁squ	-2234
ift	-2235
light	-2236
ley	-2237
▁foc	-2238
▁camp	-2239
▁movement	-2240
0,	-2241
▁cred	-2242
▁Since	-2243
▁played	-2244
▁Where	-2245
▁applic	-2246
▁release	-2247
ama	-2248
▁clean	-2249
▁response	-2250
lf	-2251
ps	-2252
eter	-2253
▁poll	-2254
▁egg	-2255
ublic	-2256
▁legal	-2257
▁mouth	-2258
▁origin	-2259
▁Austral	-2260
▁directly	-2261
ana	-2262
▁getting	-2263
ony	-2264
▁disease	-2265
▁green	-2266
ese	-2267
▁question	-2268
3.	-2269
hy	-2270
▁benef	-2271
▁animal	-2272
▁series	-2273
▁playing	-2274
▁according	-2275
▁associated	-2276
▁smaller	-2277
▁glass	-2278
itation	-2279
▁slow	-2280
▁enjoy	-2281
▁believe	-2282
▁bor	-2283
den	-2284
▁face	-2285
ressed	-2286
over	-2287
▁veh	-2288
ification	-2289
▁batter	-2290
▁months	-2291
▁key	-2292
iful	-2293
▁gets	-2294
▁miss	-2295
▁allows	-2296
▁heav	-2297
urity	-2298
ruction	-2299
▁standard	-2300
asons	-2301
ready	-2302
▁pian	-2303
▁tend	-2304
▁places	-2305
▁teachers	-2306
▁vo	-2307
▁San	-2308
▁value	-2309
▁received	-2310
▁built	-2311
▁simple	-2312
▁respons	-2313
▁Act	-2314
▁bur	-2315
▁beaut	-2316
▁measure	-2317
▁surv	-2318
ederal	-2319
▁normal	-2320
▁exc	-2321
▁model	-2322
▁cities	-2323
▁allowed	-2324
!"	-2325
▁fav	-2326
▁reported	-2327
URL	-2328
arget	-2329
aching	-2330
▁source	-2331
ufact	-2332
▁role	-2333
▁solar	-2334
amer	-2335
▁earthquake	-2336
craft	-2337
▁Inst	-2338
▁greater	-2339
▁ban	-2340
▁door	-2341
▁else	-2342
lex	-2343
▁div	-2344
▁already	-2345
▁probably	-2346
▁risk	-2347
ief	-2348
▁sense	-2349
▁growth	-2350
▁moving	-2351
▁meaning	-2352
leg	-2353
ests	-2354
onic	-2355
▁bit	-2356
eth	-2357
iction	-2358
▁fac	-2359
ference	-2360
ung	-2361
▁Gen	-2362
uel	-2363
▁Every	-2364
▁Rep	-2365
▁radio	-2366
▁Afric	-2367
▁British	-2368
uary	-2369
utions	-2370
itution	-2371
▁fut	-2372
▁published	-2373
▁bab	-2374
▁acid	-2375
▁muscle	-2376
▁cycle	-2377
▁described	-2378
omm	-2379
usion	-2380
▁commer	-2381
▁fly	-2382
▁users	-2383
▁bacteria	-2384
▁services	-2385
oke	-2386
▁mat	-2387
▁deal	-2388
sequ	-2389
▁dog	-2390
aries	-2391
▁blue	-2392
▁damage	-2393
▁dang	-2394
▁shown	-2395
▁profess	-2396
olic	-2397
▁ten	-2398
▁poor	-2399
▁rock	-2400
▁creat	-2401
▁weight	-2402
▁activity	-2403
oses	-2404
▁middle	-2405
II	-2406
ij	-2407
▁°	-2408
▁Pres	-2409
▁commonly	-2410
▁potential	-2411
ush	-2412
▁easy	-2413
▁paper	-2414
▁rights	-2415
▁emb	-2416
estern	-2417
▁bring	-2418
▁1.	-2419
osis	-2420
iding	-2421
▁path	-2422
pril	-2423
▁accept	-2424
▁established	-2425
aged	-2426
▁pen	-2427
▁communic	-2428
▁mess	-2429
dr	-2430
▁collect	-2431
▁difference	-2432
bor	-2433
ube	-2434
▁King	-2435
ney	-2436
icles	-2437
▁thus	-2438
▁spread	-2439
ging	-2440
▁included	-2441
▁court	-2442
▁contrib	-2443
▁July	-2444
▁primary	-2445
▁regular	-2446
aving	-2447
▁June	-2448
▁story	-2449
time	-2450
unch	-2451
rap	-2452
aur	-2453
▁Ge	-2454
iate	-2455
▁majority	-2456
▁dream	-2457
itiz	-2458
aking	-2459
▁pack	-2460
▁princ	-2461
▁yards	-2462
ties	-2463
▁Oct	-2464
ounts	-2465
▁easily	-2466
sy	-2467
cil	-2468
▁April	-2469
▁Sw	-2470
▁Sec	-2471
yle	-2472
▁ago	-2473
▁target	-2474
▁results	-2475
▁German	-2476
▁future	-2477
▁official	-2478
.,	-2479
▁eye	-2480
▁version	-2481
▁evidence	-2482
▁happy	-2483
ror	-2484
room	-2485
▁Nove	-2486
▁lost	-2487
▁remain	-2488
▁manufact	-2489
▁user	-2490
▁lives	-2491
▁expect	-2492
▁everyone	-2493
▁Res	-2494
▁box	-2495
itude	-2496
▁except	-2497
8.	-2498
_0	-2499
▁store	-2500
▁recogn	-2501
9.	-2502
▁14	-2503
▁West	-2504
▁waves	-2505
▁advert	-2506
▁November	-2507
▁written	-2508
▁military	-2509
iny	-2510
oes	-2511
arter	-2512
▁base	-2513
▁contains	-2514
▁structure	-2515
ster	-2516
▁situ	-2517
▁drive	-2518
fl	-2519
gar	-2520
▁mom	-2521
▁Canad	-2522
▁eight	-2523
ivity	-2524
▁soon	-2525
▁individuals	-2526
rel	-2527
▁sea	-2528
ients	-2529
▁Russ	-2530
▁earl	-2531
▁touch	-2532
ateg	-2533
▁hol	-2534
▁helps	-2535
▁January	-2536
ivil	-2537
▁course	-2538
▁reaction	-2539
▁custom	-2540
▁article	-2541
▁charge	-2542
▁October	-2543
▁UK	-2544
▁behind	-2545
▁weather	-2546
6.	-2547
▁multiple	-2548
▁sports	-2549
▁includes	-2550
▁technology	-2551
▁Me	-2552
▁atom	-2553
▁player	-2554
▁antibiot	-2555
▁increasing	-2556
▁(2	-2557
▁simply	-2558
year	-2559
▁running	-2560
ening	-2561
▁cook	-2562
▁School	-2563
itch	-2564
▁son	-2565
▁negative	-2566
sec	-2567
inary	-2568
▁atoms	-2569
▁needs	-2570
▁taken	-2571
▁volume	-2572
▁reading	-2573
▁visit	-2574
ositive	-2575
▁Sm	-2576
pite	-2577
▁ice	-2578
▁Sept	-2579
dom	-2580
ulated	-2581
▁direction	-2582
▁Hug	-2583
aches	-2584
▁observ	-2585
▁conditions	-2586
str	-2587
▁neigh	-2588
acy	-2589
ulate	-2590
outhern	-2591
▁limited	-2592
app	-2593
where	-2594
down	-2595
▁consider	-2596
▁Mus	-2597
▁swe	-2598
▁decre	-2599
▁increases	-2600
fort	-2601
oura	-2602
▁Mrs	-2603
▁taking	-2604
obal	-2605
▁piano	-2606
▁project	-2607
▁September	-2608
erve	-2609
▁beautiful	-2610
▁cry	-2611
▁From	-2612
▁sexual	-2613
▁happens	-2614
isl	-2615
▁Feb	-2616
▁Amaz	-2617
▁appl	-2618
▁industry	-2619
▁international	-2620
▁respect	-2621
▁designed	-2622
▁thous	-2623
▁center	-2624
▁answer	-2625
▁doctor	-2626
cks	-2627
▁nut	-2628
▁Comp	-2629
▁foreign	-2630
▁reprodu	-2631
son	-2632
ruary	-2633
▁autom	-2634
▁financ	-2635
umb	-2636
▁deep	-2637
▁tast	-2638
▁consist	-2639
board	-2640
ouble	-2641
▁terms	-2642
artment	-2643
▁online	-2644
undred	-2645
ulations	-2646
▁announced	-2647
▁sil	-2648
▁attempt	-2649
▁li	-2650
▁cover	-2651
▁television	-2652
hood	-2653
▁Ste	-2654
▁resist	-2655
▁stated	-2656
▁Sy	-2657
inct	-2658
▁winter	-2659
▁remember	-2660
▁1,	-2661
▁February	-2662
ceed	-2663
▁Bro	-2664
▁Des	-2665
▁Med	-2666
▁seven	-2667
▁contract	-2668
ae	-2669
▁hor	-2670
▁nerv	-2671
▁self	-2672
▁absor	-2673
▁studies	-2674
kn	-2675
▁safe	-2676
▁Don	-2677
▁objects	-2678
▁stra	-2679
▁tour	-2680
▁personal	-2681
▁leave	-2682
▁science	-2683
▁felt	-2684
▁quite	-2685
▁France	-2686
▁nothing	-2687
▁economic	-2688
▁destro	-2689
▁element	-2690
▁ge	-2691
▁added	-2692
▁atmosphere	-2693
ino	-2694
thers	-2695
rences	-2696
▁practice	-2697
](	-2698
▁memory	-2699
▁regard	-2700
tan	-2701
▁upon	-2702
▁exact	-2703
▁particles	-2704
▁$1	-2705
▁ach	-2706
▁pull	-2707
▁action	-2708
▁screen	-2709
▁hyp	-2710
▁camer	-2711
▁related	-2712
▁commercial	-2713
▁serious	-2714
▁sure	-2715
▁saying	-2716
▁tissue	-2717
cher	-2718
▁England	-2719
▁education	-2720
-1	-2721
val	-2722
iles	-2723
▁voice	-2724
rm	-2725
ises	-2726
▁Dep	-2727
▁bank	-2728
▁gives	-2729
▁station	-2730
▁defin	-2731
▁Also	-2732
▁electrons	-2733
anch	-2734
▁rap	-2735
▁ver	-2736
ground	-2737
▁medical	-2738
▁writing	-2739
▁Ming	-2740
cean	-2741
▁rot	-2742
▁elements	-2743
▁agre	-2744
▁veget	-2745
▁located	-2746
▁dry	-2747
odies	-2748
osing	-2749
▁conduct	-2750
▁experim	-2751
mon	-2752
▁necessary	-2753
▁causing	-2754
▁points	-2755
ometimes	-2756
▁via	-2757
▁calc	-2758
minist	-2759
▁compounds	-2760
ols	-2761
▁DNA	-2762
▁Dame	-2763
▁webs	-2764
▁estim	-2765
ele	-2766
ety	-2767
▁eating	-2768
▁police	-2769
▁contact	-2770
my	-2771
ocr	-2772
▁Har	-2773
▁independ	-2774
▁hands	-2775
▁formed	-2776
▁sus	-2777
oming	-2778
▁stim	-2779
▁buildings	-2780
▁fight	-2781
▁motor	-2782
▁positive	-2783
▁highest	-2784
▁km	-2785
▁town	-2786
▁react	-2787
▁write	-2788
ibility	-2789
▁becomes	-2790
▁Ne	-2791
▁looking	-2792
▁software	-2793
unt	-2794
ought	-2795
▁remo	-2796
uff	-2797
▁opt	-2798
▁altern	-2799
▁distrib	-2800
no	-2801
▁tree	-2802
▁birds	-2803
It	-2804
omen	-2805
▁provided	-2806
▁dri	-2807
▁dark	-2808
▁nature	-2809
▁fix	-2810
izing	-2811
▁feet	-2812
▁attack	-2813
▁capital	-2814
▁25	-2815
▁hit	-2816
▁ple	-2817
verse	-2818
▁feed	-2819
▁events	-2820
▁Aug	-2821
▁avoid	-2822
▁famous	-2823
▁account	-2824
▁nuclear	-2825
tes	-2826
uses	-2827
▁achie	-2828
▁influ	-2829
▁medic	-2830
▁forest	-2831
▁transfer	-2832
apor	-2833
cies	-2834
▁moved	-2835
▁resour	-2836
▁text	-2837
lement	-2838
▁devices	-2839
▁earn	-2840
▁hundred	-2841
ket	-2842
▁hear	-2843
▁Another	-2844
▁factors	-2845
▁reasons	-2846
▁24	-2847
▁eff	-2848
astic	-2849
▁defined	-2850
▁leading	-2851
▁Ap	-2852
▁mob	-2853
lling	-2854
▁harm	-2855
▁Amazon	-2856
▁experien	-2857
ilities	-2858
▁private	-2859
▁Commission	-2860
▁hous	-2861
60	-2862
rast	-2863
atur	-2864
▁Notre	-2865
▁Huguen	-2866
▁forces	-2867
rought	-2868
▁device	-2869
▁content	-2870
▁compared	-2871
cast	-2872
▁coun	-2873
▁drink	-2874
▁teams	-2875
▁digital	-2876
▁citiz	-2877
▁impact	-2878
ffe	-2879
uge	-2880
iest	-2881
▁traffic	-2882
▁aff	-2883
▁org	-2884
▁Black	-2885
▁Count	-2886
▁chann	-2887
▁players	-2888
▁everything	-2889
urt	-2890
sych	-2891
▁Dece	-2892
▁image	-2893
raction	-2894
▁NF	-2895
▁President	-2896
▁therefore	-2897
wide	-2898
xide	-2899
▁performance	-2900
▁Tom	-2901
itor	-2902
▁born	-2903
▁famil	-2904
▁minim	-2905
▁compon	-2906
▁Pan	-2907
▁jud	-2908
▁paid	-2909
eration	-2910
▁December	-2911
▁distance	-2912
▁Min	-2913
▁State	-2914
▁rules	-2915
wor	-2916
▁traditional	-2917
reg	-2918
▁God	-2919
round	-2920
▁songs	-2921
▁title	-2922
▁president	-2923
▁mind	-2924
urance	-2925
▁August	-2926
▁extreme	-2927
▁religious	-2928
▁breat	-2929
▁exerc	-2930
▁separate	-2931
oser	-2932
▁central	-2933
ogle	-2934
▁hosp	-2935
▁purch	-2936
▁whose	-2937
▁transport	-2938
▁doll	-2939
▁kinds	-2940
▁trying	-2941
vere	-2942
aught	-2943
▁stage	-2944
▁resulting	-2945
▁Your	-2946
▁mount	-2947
▁looked	-2948
illed	-2949
iverse	-2950
▁football	-2951
rew	-2952
▁Ass	-2953
▁bal	-2954
▁mid	-2955
change	-2956
▁quant	-2957
ocks	-2958
pper	-2959
fully	-2960
▁Treat	-2961
▁spend	-2962
▁attract	-2963
▁correct	-2964
▁towards	-2965
▁ur	-2966
▁membr	-2967
▁wrong	-2968
ously	-2969
▁Bill	-2970
▁metal	-2971
▁summer	-2972
▁Germany	-2973
▁address	-2974
ails	-2975
▁194	-2976
▁rul	-2977
▁gold	-2978
▁materials	-2979
▁log	-2980
phone	-2981
▁improve	-2982
wise	-2983
▁Green	-2984
▁reach	-2985
▁reduce	-2986
▁Americans	-2987
▁involved	-2988
▁referred	-2989
ened	-2990
▁dead	-2991
▁emer	-2992
▁faster	-2993
▁motion	-2994
asc	-2995
▁kil	-2996
▁vac	-2997
▁cross	-2998
▁yet	-2999
▁piece	-3000
▁believed	-3001
▁scientists	-3002
▁&	-3003
▁swim	-3004
▁performed	-3005
aly	-3006
ument	-3007
▁active	-3008
0%	-3009
▁Ir	-3010
▁Jew	-3011
▁Char	-3012
▁letter	-3013
▁street	-3014
ogen	-3015
▁prec	-3016
entially	-3017
body	-3018
ping	-3019
▁ess	-3020
▁ones	-3021
▁share	-3022
▁female	-3023
▁machine	-3024
▁behavior	-3025
▁Child	-3026
▁First	-3027
▁Sand	-3028
▁eventually	-3029
▁Air	-3030
▁fa	-3031
▁Day	-3032
▁Each	-3033
▁Hist	-3034
igr	-3035
imin	-3036
thes	-3037
▁21	-3038
ondon	-3039
▁floor	-3040
▁legisl	-3041
oo	-3042
lin	-3043
▁drin	-3044
▁step	-3045
▁basic	-3046
▁names	-3047
▁culture	-3048
▁Australia	-3049
▁particularly	-3050
▁Mont	-3051
isions	-3052
▁worked	-3053
▁den	-3054
▁radiation	-3055
▁therm	-3056
▁giving	-3057
▁reflect	-3058
▁anc	-3059
▁issue	-3060
▁issues	-3061
▁decided	-3062
▁bott	-3063
▁infe	-3064
arning	-3065
▁table	-3066
▁London	-3067
▁office	-3068
▁concept	-3069
ops	-3070
▁Paris	-3071
▁sources	-3072
▁community	-3073
ades	-3074
▁ord	-3075
ension	-3076
▁wants	-3077
▁internal	-3078
aily	-3079
house	-3080
▁sounds	-3081
ero	-3082
osite	-3083
▁final	-3084
▁disp	-3085
▁classes	-3086
▁constant	-3087
▁completely	-3088
▁Gu	-3089
▁nice	-3090
▁quality	-3091
▁2.	-3092
pped	-3093
aging	-3094
mission	-3095
▁signal	-3096
gn	-3097
▁himself	-3098
▁pattern	-3099
▁additional	-3100
bur	-3101
isc	-3102
▁poly	-3103
ensity	-3104
▁foods	-3105
▁lines	-3106
▁placed	-3107
7.	-3108
▁Vict	-3109
▁farm	-3110
▁feat	-3111
▁trees	-3112
▁former	-3113
▁threat	-3114
▁engines	-3115
ny	-3116
_0_	-3117
hold	-3118
oman	-3119
▁Rec	-3120
ellow	-3121
▁proteins	-3122
▁introduced	-3123
▁Us	-3124
▁Sky	-3125
▁sympt	-3126
▁opened	-3127
▁provides	-3128
yr	-3129
▁electrical	-3130
izes	-3131
▁pret	-3132
▁Elect	-3133
▁relatively	-3134
▁Of	-3135
▁concern	-3136
ender	-3137
▁Geor	-3138
▁mostly	-3139
▁receive	-3140
▁condition	-3141
▁der	-3142
▁surpr	-3143
▁quarter	-3144
▁learning	-3145
▁died	-3146
hattan	-3147
▁rapid	-3148
▁photos	-3149
▁nearly	-3150
▁expensive	-3151
istics	-3152
▁recent	-3153
▁wife	-3154
▁micro	-3155
▁muscles	-3156
pir	-3157
▁university	-3158
asts	-3159
▁alone	-3160
▁destroy	-3161
▁purpose	-3162
▁ut	-3163
▁milk	-3164
▁Coun	-3165
▁More	-3166
▁older	-3167
▁writer	-3168
▁Manhattan	-3169
▁temperatures	-3170
▁computers	-3171
▁financial	-3172
anced	-3173
▁symb	-3174
▁vari	-3175
▁surround	-3176
SA	-3177
▁Im	-3178
▁Mary	-3179
▁stream	-3180
:00	-3181
▁EU	-3182
▁cra	-3183
▁Best	-3184
▁tick	-3185
▁global	-3186
▁length	-3187
idge	-3188
▁offer	-3189
▁shape	-3190
▁Lee	-3191
▁Sometimes	-3192
▁repe	-3193
olved	-3194
▁extra	-3195
▁activities	-3196
see	-3197
▁adop	-3198
▁Li	-3199
iling	-3200
▁wave	-3201
▁favor	-3202
▁reactions	-3203
▁treatment	-3204
▁nor	-3205
▁code	-3206
▁histor	-3207
▁followed	-3208
▁alg	-3209
▁Will	-3210
▁inte	-3211
](_	-3212
▁recept	-3213
▁Bar	-3214
▁Nor	-3215
▁rare	-3216
▁site	-3217
▁highly	-3218
▁Justice	-3219
▁clothes	-3220
▁decision	-3221
▁languages	-3222
olar	-3223
▁Norm	-3224
▁eggs	-3225
aughter	-3226
ee	-3227
▁183	-3228
▁rat	-3229
▁weak	-3230
▁block	-3231
▁movie	-3232
▁solid	-3233
▁digest	-3234
▁changed	-3235
▁federal	-3236
ems	-3237
ken	-3238
ula	-3239
atives	-3240
▁Cath	-3241
▁band	-3242
▁kids	-3243
▁layer	-3244
▁psych	-3245
▁south	-3246
▁arch	-3247
▁Google	-3248
▁review	-3249
▁genetic	-3250
ery	-3251
▁diet	-3252
▁bodies	-3253
▁cancer	-3254
▁variety	-3255
▁allowing	-3256
▁properties	-3257
▁Art	-3258
▁bag	-3259
▁Ab	-3260
▁eth	-3261
▁rev	-3262
osure	-3263
▁fuel	-3264
▁solution	-3265
ped	-3266
▁pun	-3267
ences	-3268
▁Bronc	-3269
▁features	-3270
zy	-3271
▁esc	-3272
▁reduced	-3273
.)	-3274
ils	-3275
▁sequ	-3276
▁fluid	-3277
▁focus	-3278
▁likes	-3279
▁protein	-3280
key	-3281
▁II	-3282
atin	-3283
▁earlier	-3284
▁opening	-3285
▁workers	-3286
▁attention	-3287
▁Soc	-3288
▁drug	-3289
▁pick	-3290
▁divid	-3291
▁advant	-3292
▁passed	-3293
▁useful	-3294
▁Broncos	-3295
▁battery	-3296
▁leaves	-3297
▁mobile	-3298
▁ir	-3299
▁wear	-3300
▁critic	-3301
▁mainly	-3302
▁requires	-3303
▁Ma	-3304
▁supply	-3305
erson	-3306
▁baby	-3307
▁drop	-3308
▁exec	-3309
▁drugs	-3310
▁Center	-3311
▁approxim	-3312
▁property	-3313
▁...	-3314
gress	-3315
▁Great	-3316
▁hydrogen	-3317
hel	-3318
▁evolution	-3319
▁Game	-3320
▁Kore	-3321
▁Link	-3322
▁horm	-3323
▁pair	-3324
▁credit	-3325
▁stress	-3326
▁diss	-3327
▁lose	-3328
▁display	-3329
off	-3330
omp	-3331
aign	-3332
char	-3333
odes	-3334
▁saf	-3335
anned	-3336
▁Canada	-3337
Th	-3338
mb	-3339
▁capt	-3340
▁lots	-3341
▁capac	-3342
▁income	-3343
▁moment	-3344
adem	-3345
rest	-3346
based	-3347
▁Park	-3348
▁brought	-3349
▁security	-3350
▁civil	-3351
▁coming	-3352
iday	-3353
oday	-3354
umn	-3355
▁returned	-3356
itute	-3357
▁establish	-3358
ollo	-3359
▁Fin	-3360
▁acqu	-3361
▁prior	-3362
▁Den	-3363
▁train	-3364
▁college	-3365
cts	-3366
▁ult	-3367
▁continu	-3368
ocide	-3369
▁square	-3370
25	-3371
oe	-3372
▁mut	-3373
▁Cong	-3374
.[	-3375
▁u	-3376
▁acids	-3377
▁weeks	-3378
▁Victor	-3379
▁opposite	-3380
▁3.	-3381
▁liter	-3382
▁sales	-3383
▁slight	-3384
▁continue	-3385
▁maintain	-3386
ijing	-3387
ements	-3388
▁immed	-3389
▁round	-3390
▁functions	-3391
▁resources	-3392
▁40	-3393
▁Sch	-3394
▁die	-3395
arden	-3396
▁demon	-3397
▁feature	-3398
▁healthy	-3399
▁phen	-3400
▁minor	-3401
▁north	-3402
▁safety	-3403
▁60	-3404
▁lic	-3405
▁Republic	-3406
amin	-3407
otic	-3408
▁Add	-3409
▁Net	-3410
idents	-3411
▁interp	-3412
▁nation	-3413
▁plane	-3414
▁feeling	-3415
rs	-3416
▁Gl	-3417
▁programs	-3418
tr	-3419
enty	-3420
gency	-3421
▁pump	-3422
▁symptoms	-3423
▁interesting	-3424
bed	-3425
▁Stud	-3426
▁Franc	-3427
▁chrom	-3428
ography	-3429
▁nervous	-3430
lim	-3431
anks	-3432
anded	-3433
oring	-3434
▁killed	-3435
ysis	-3436
▁adj	-3437
▁dio	-3438
▁dom	-3439
orpor	-3440
▁Even	-3441
▁meat	-3442
▁rates	-3443
ript	-3444
▁policy	-3445
▁Mic	-3446
▁dyn	-3447
▁growing	-3448
ech	-3449
ius	-3450
▁Part	-3451
▁wood	-3452
▁Their	-3453
▁prices	-3454
▁widely	-3455
▁restaur	-3456
load	-3457
▁pow	-3458
▁style	-3459
itionally	-3460
ords	-3461
resh	-3462
▁ves	-3463
▁unit	-3464
▁concentr	-3465
met	-3466
iber	-3467
▁grav	-3468
irect	-3469
▁enter	-3470
▁International	-3471
reng	-3472
▁tea	-3473
▁weap	-3474
lection	-3475
▁colors	-3476
ki	-3477
▁Two	-3478
▁Here	-3479
▁chance	-3480
▁Council	-3481
oul	-3482
forest	-3483
▁(19	-3484
▁equal	-3485
▁il	-3486
▁din	-3487
▁sister	-3488
▁Japanese	-3489
▁citizens	-3490
▁Sim	-3491
▁coup	-3492
▁influence	-3493
▁scientific	-3494
▁burn	-3495
▁link	-3496
▁becoming	-3497
▁NA	-3498
tenoph	-3499
▁heavy	-3500
▁limit	-3501
▁lived	-3502
▁commit	-3503
▁instrum	-3504
▁estimated	-3505
iers	-3506
▁ful	-3507
▁sugar	-3508
▁examples	-3509
▁happened	-3510
▁(3	-3511
ented	-3512
▁jump	-3513
▁mamm	-3514
▁River	-3515
▁ideas	-3516
▁Polish	-3517
▁hospital	-3518
att	-3519
ancy	-3520
iled	-3521
rupt	-3522
▁Per	-3523
▁vot	-3524
▁vict	-3525
▁taste	-3526
▁degree	-3527
acters	-3528
▁homes	-3529
utch	-3530
uries	-3531
▁fir	-3532
▁park	-3533
▁vary	-3534
▁track	-3535
▁campaign	-3536
▁Op	-3537
▁mis	-3538
▁cand	-3539
▁2013,	-3540
▁insurance	-3541
▁generation	-3542
▁resistance	-3543
You	-3544
▁waste	-3545
▁flight	-3546
▁Montana	-3547
▁reached	-3548
▁presence	-3549
▁continued	-3550
oly	-3551
▁Pa	-3552
▁Mon	-3553
▁aren	-3554
▁neut	-3555
▁send	-3556
▁picture	-3557
▁investig	-3558
aled	-3559
uman	-3560
cious	-3561
▁organs	-3562
▁unique	-3563
▁Beijing	-3564
▁yourself	-3565
pro	-3566
such	-3567
anish	-3568
known	-3569
▁East	-3570
▁easier	-3571
agn	-3572
▁aw	-3573
▁184	-3574
▁Carol	-3575
▁ocean	-3576
▁effective	-3577
▁characters	-3578
▁antibiotics	-3579
▁electricity	-3580
▁0.	-3581
▁draw	-3582
▁discuss	-3583
▁society	-3584
▁Panthers	-3585
inger	-3586
▁male	-3587
▁influen	-3588
ha	-3589
bre	-3590
▁ast	-3591
▁basket	-3592
▁forced	-3593
▁consists	-3594
▁exercise	-3595
oint	-3596
▁trade	-3597
▁depend	-3598
▁toward	-3599
rem	-3600
▁Red	-3601
▁dia	-3602
adium	-3603
▁mill	-3604
▁costs	-3605
▁pretty	-3606
▁window	-3607
▁applied	-3608
riage	-3609
▁spent	-3610
▁aircraft	-3611
**	-3612
book	-3613
▁Once	-3614
▁adult	-3615
▁orbit	-3616
▁conver	-3617
ners	-3618
▁trig	-3619
▁illeg	-3620
que	-3621
▁looks	-3622
▁George	-3623
▁pieces	-3624
ingu	-3625
▁rout	-3626
▁adapt	-3627
▁noise	-3628
▁responsible	-3629
roph	-3630
▁nit	-3631
▁flat	-3632
othing	-3633
▁encoura	-3634
▁location	-3635
iar	-3636
set	-3637
▁doc	-3638
▁frequency	-3639
▁NFL	-3640
▁sat	-3641
▁Ange	-3642
▁explain	-3643
▁regions	-3644
▁neighbor	-3645
▁actual	-3646
▁dangerous	-3647
▁concentration	-3648
▁check	-3649
▁detect	-3650
▁secret	-3651
▁respond	-3652
▁numerous	-3653
come	-3654
ibly	-3655
▁instance	-3656
▁beginning	-3657
▁couldn	-3658
▁networ	-3659
▁showed	-3660
▁talking	-3661
▁membrane	-3662
▁previously	-3663
ask	-3664
ios	-3665
amic	-3666
▁heard	-3667
▁miles	-3668
▁tried	-3669
▁units	-3670
▁Church	-3671
▁choose	-3672
▁manufacture	-3673
▁clim	-3674
thesis	-3675
▁Congress	-3676
▁("	-3677
▁mel	-3678
peror	-3679
▁Apollo	-3680
▁streng	-3681
▁contrast	-3682
▁differences	-3683
ipl	-3684
▁Pal	-3685
▁dro	-3686
lying	-3687
▁Today	-3688
▁corpor	-3689
▁exactly	-3690
▁Over	-3691
▁emot	-3692
▁reve	-3693
▁House	-3694
▁Street	-3695
▁suggested	-3696
▁frequently	-3697
▁sem	-3698
atell	-3699
▁Both	-3700
▁occup	-3701
▁worth	-3702
▁turned	-3703
▁William	-3704
▁distinct	-3705
▁broadcast	-3706
")	-3707
bl	-3708
head	-3709
uits	-3710
celer	-3711
▁stom	-3712
▁James	-3713
▁White	-3714
▁describe	-3715
▁determine	-3716
▁date	-3717
▁jour	-3718
▁factor	-3719
▁select	-3720
▁musical	-3721
▁affected	-3722
uls	-3723
orage	-3724
▁seems	-3725
▁Jack	-3726
▁smell	-3727
▁thousands	-3728
iff	-3729
▁El	-3730
yard	-3731
▁lif	-3732
▁rob	-3733
▁fair	-3734
▁rule	-3735
encies	-3736
▁homework	-3737
▁appearance	-3738
▁inn	-3739
▁Love	-3740
▁rich	-3741
▁approximately	-3742
▁Thom	-3743
▁anti	-3744
ichuan	-3745
▁particip	-3746
▁Thus	-3747
▁plays	-3748
▁dioxide	-3749
▁learned	-3750
▁primarily	-3751
▁processes	-3752
11	-3753
cell	-3754
▁fit	-3755
denly	-3756
▁domin	-3757
▁grand	-3758
ription	-3759
▁transl	-3760
▁princip	-3761
istry	-3762
▁maxim	-3763
ception	-3764
▁situation	-3765
cking	-3766
oking	-3767
▁spir	-3768
▁Assoc	-3769
▁bonds	-3770
▁produces	-3771
▁questions	-3772
order	-3773
▁gain	-3774
▁Island	-3775
▁artist	-3776
▁concert	-3777
▁kilomet	-3778
▁genocide	-3779
▁discovered	-3780
▁0	-3781
▁file	-3782
▁church	-3783
▁climate	-3784
▁overall	-3785
itan	-3786
urning	-3787
▁exchange	-3788
▁adults	-3789
▁worldwide	-3790
80	-3791
▁2010	-3792
▁sett	-3793
▁writes	-3794
▁remains	-3795
▁depending	-3796
unic	-3797
▁Dav	-3798
▁fra	-3799
▁acts	-3800
▁evening	-3801
▁vegetables	-3802
▁Are	-3803
▁wat	-3804
▁Cont	-3805
▁cele	-3806
▁vehicle	-3807
▁Co	-3808
▁Ze	-3809
▁bra	-3810
antic	-3811
▁Mars	-3812
▁rise	-3813
▁tall	-3814
▁wire	-3815
ternal	-3816
vention	-3817
▁manage	-3818
▁economy	-3819
▁composed	-3820
▁Pe	-3821
ledge	-3822
which	-3823
▁salt	-3824
▁basis	-3825
▁substances	-3826
band	-3827
▁sud	-3828
▁kept	-3829
▁nine	-3830
▁demand	-3831
▁removed	-3832
▁substance	-3833
alled	-3834
▁couple	-3835
▁diseases	-3836
▁=	-3837
pts	-3838
▁Ob	-3839
▁Mong	-3840
▁save	-3841
▁snow	-3842
irt	-3843
oles	-3844
wood	-3845
▁Bas	-3846
▁Mich	-3847
▁bone	-3848
▁meant	-3849
▁noted	-3850
▁models	-3851
▁families	-3852
▁connected	-3853
ours	-3854
anted	-3855
▁rang	-3856
▁turb	-3857
▁2014,	-3858
▁graph	-3859
but	-3860
iced	-3861
▁Mod	-3862
▁Bond	-3863
▁images	-3864
▁African	-3865
▁Carolina	-3866
nic	-3867
now	-3868
▁Like	-3869
▁input	-3870
▁administ	-3871
He	-3872
▁speech	-3873
But	-3874
▁193	-3875
▁High	-3876
▁clock	-3877
▁Scient	-3878
▁driver	-3879
▁planet	-3880
▁conflic	-3881
▁structures	-3882
▁unc	-3883
rogen	-3884
ropri	-3885
iminal	-3886
▁genes	-3887
▁univers	-3888
▁imag	-3889
▁award	-3890
▁helped	-3891
▁molecule	-3892
men	-3893
ray	-3894
▁2015	-3895
▁doct	-3896
▁stores	-3897
▁daughter	-3898
alle	-3899
▁gam	-3900
▁Gree	-3901
▁rank	-3902
▁trip	-3903
isp	-3904
▁fif	-3905
▁inse	-3906
▁Rober	-3907
▁demonstr	-3908
nal	-3909
isco	-3910
▁nar	-3911
▁aspect	-3912
▁applications	-3913
▁Ac	-3914
▁angry	-3915
can	-3916
▁Fl	-3917
more	-3918
▁bul	-3919
active	-3920
▁excess	-3921
▁normally	-3922
In	-3923
▁Wind	-3924
▁stomach	-3925
▁storage	-3926
▁knowledge	-3927
iency	-3928
▁films	-3929
▁river	-3930
▁prefer	-3931
▁stimul	-3932
▁southern	-3933
andom	-3934
▁Under	-3935
▁shoot	-3936
▁stock	-3937
▁movies	-3938
▁independent	-3939
mark	-3940
▁189	-3941
▁huge	-3942
▁crime	-3943
▁career	-3944
▁ox	-3945
▁Let	-3946
ocking	-3947
▁Spect	-3948
▁cloud	-3949
▁express	-3950
▁rub	-3951
mitted	-3952
▁scale	-3953
▁degrees	-3954
perm	-3955
▁knew	-3956
▁daily	-3957
▁moves	-3958
▁novel	-3959
▁Kingdom	-3960
▁accident	-3961
▁successful	-3962
▁composition	-3963
yp	-3964
mas	-3965
▁195	-3966
▁Bay	-3967
ibrary	-3968
▁India	-3969
▁Awards	-3970
▁ctenoph	-3971
rial	-3972
▁colon	-3973
▁girls	-3974
▁methods	-3975
▁phenomen	-3976
▁straight	-3977
We	-3978
fast	-3979
▁suff	-3980
estival	-3981
▁integr	-3982
▁carried	-3983
▁chromos	-3984
ara	-3985
▁Mc	-3986
▁ju	-3987
estic	-3988
▁refers	-3989
izations	-3990
▁electron	-3991
▁recorded	-3992
▁definition	-3993
40	-3994
▁Fres	-3995
iately	-3996
▁Music	-3997
▁accur	-3998
▁signals	-3999
▁machines	-4000
orith	-4001
▁capacity	-4002
▁creating	-4003
▁cultural	-4004
aff	-4005
unk	-4006
vey	-4007
▁--	-4008
▁Poland	-4009
▁anyone	-4010
▁vessel	-4011
▁Catholic	-4012
▁magnetic	-4013
▁thinking	-4014
ipe	-4015
▁).	-4016
ocal	-4017
ocol	-4018
▁website	-4019
▁professional	-4020
TV	-4021
▁hon	-4022
▁hope	-4023
▁habit	-4024
▁depends	-4025
▁replace	-4026
▁rainforest	-4027
▁combination	-4028
rab	-4029
force	-4030
▁2013	-4031
▁Phil	-4032
▁quiet	-4033
▁tempor	-4034
▁Tibetan	-4035
▁efficient	-4036
omb	-4037
▁Wi	-4038
ault	-4039
overy	-4040
▁dogs	-4041
▁audio	-4042
liam	-4043
▁ran	-4044
apers	-4045
▁camera	-4046
▁slowly	-4047
▁construction	-4048
action	-4049
▁County	-4050
▁acceler	-4051
▁complexity	-4052
▁consumption	-4053
gin	-4054
▁Dr	-4055
▁chall	-4056
▁illegal	-4057
▁vehicles	-4058
resp	-4059
▁plat	-4060
▁Water	-4061
▁bound	-4062
▁upper	-4063
▁starting	-4064
▁>	-4065
asm	-4066
anes	-4067
▁Its	-4068
enses	-4069
unity	-4070
▁bones	-4071
▁Fresno	-4072
▁Middle	-4073
▁severe	-4074
▁secondary	-4075
▁collection	-4076
orter	-4077
▁fear	-4078
▁fresh	-4079
▁gases	-4080
▁settle	-4081
▁Spectre	-4082
▁Therefore	-4083
▁web	-4084
ushed	-4085
▁prin	-4086
▁seed	-4087
▁Dutch	-4088
▁Roman	-4089
▁Newton	-4090
▁patients	-4091
▁training	-4092
▁Que	-4093
▁wet	-4094
▁iron	-4095
ashing	-4096
▁launch	-4097
▁mathem	-4098
▁respir	-4099
atically	-4100
▁illness	-4101
▁Christian	-4102
▁Ant	-4103
▁ens	-4104
itect	-4105
▁onto	-4106
▁fully	-4107
▁labor	-4108
▁fourth	-4109
urs	-4110
▁categ	-4111
▁notes	-4112
▁search	-4113
▁counter	-4114
▁operating	-4115
▁basketball	-4116
han	-4117
▁od	-4118
▁188	-4119
▁tal	-4120
erals	-4121
place	-4122
ashion	-4123
▁driving	-4124
▁walking	-4125
▁combined	-4126
▁fruit	-4127
▁nutri	-4128
▁status	-4129
▁General	-4130
▁currently	-4131
do	-4132
fered	-4133
▁fine	-4134
▁load	-4135
▁moon	-4136
▁bright	-4137
▁arrived	-4138
▁algorith	-4139
▁involves	-4140
▁advantage	-4141
erts	-4142
chers	-4143
▁debt	-4144
▁mist	-4145
▁closed	-4146
▁forward	-4147
xic	-4148
▁crew	-4149
ilight	-4150
▁recomm	-4151
▁satell	-4152
▁slightly	-4153
utive	-4154
▁Moon	-4155
▁phase	-4156
▁teeth	-4157
▁visible	-4158
▁appeared	-4159
▁otherwise	-4160
▁Peter	-4161
▁claimed	-4162
vin	-4163
▁gluc	-4164
▁sick	-4165
▁dollars	-4166
▁parties	-4167
zing	-4168
▁pig	-4169
iring	-4170
▁Before	-4171
▁Health	-4172
▁visual	-4173
▁predict	-4174
▁Bel	-4175
▁URL	-4176
▁defe	-4177
ipment	-4178
▁Spanish	-4179
airs	-4180
tage	-4181
term	-4182
▁soil	-4183
▁serve	-4184
▁behavi	-4185
▁patient	-4186
▁external	-4187
▁featured	-4188
5%	-4189
▁ded	-4190
▁mir	-4191
asion	-4192
▁Serv	-4193
▁coin	-4194
▁shot	-4195
▁mammals	-4196
▁mechanical	-4197
comp	-4198
writ	-4199
▁cards	-4200
▁letters	-4201
▁perfect	-4202
▁birthday	-4203
▁proposed	-4204
olf	-4205
▁Denver	-4206
▁organization	-4207
▁?	-4208
ares	-4209
oted	-4210
▁magaz	-4211
▁perce	-4212
▁amounts	-4213
▁nucleus	-4214
▁Jim	-4215
pring	-4216
igence	-4217
▁fixed	-4218
▁choice	-4219
▁Angeles	-4220
▁stopped	-4221
▁Mil	-4222
▁Mart	-4223
▁club	-4224
▁flav	-4225
▁jobs	-4226
liament	-4227
▁bottom	-4228
▁territ	-4229
▁Manning	-4230
15	-4231
orms	-4232
▁Reg	-4233
▁stored	-4234
▁comment	-4235
▁offered	-4236
▁Twilight	-4237
alt	-4238
▁bill	-4239
▁indu	-4240
▁whom	-4241
▁History	-4242
▁convers	-4243
▁mention	-4244
▁supported	-4245
ef	-4246
tered	-4247
▁goal	-4248
▁lungs	-4249
▁percentage	-4250
kary	-4251
▁Hall	-4252
▁stars	-4253
▁stuff	-4254
▁broken	-4255
▁victim	-4256
▁extremely	-4257
▁22	-4258
▁sad	-4259
▁sch	-4260
▁2000	-4261
▁catch	-4262
▁random	-4263
▁connection	-4264
▁originally	-4265
▁Ro	-4266
rend	-4267
teen	-4268
▁Lis	-4269
▁ing	-4270
▁tow	-4271
vious	-4272
▁tired	-4273
▁Russia	-4274
▁leaving	-4275
▁stories	-4276
▁basically	-4277
ocy	-4278
▁4.	-4279
exic	-4280
▁marriage	-4281
▁strength	-4282
▁universe	-4283
▁immediately	-4284
▁alle	-4285
ifying	-4286
tained	-4287
▁Robert	-4288
▁begins	-4289
▁largely	-4290
▁Association	-4291
▁kid	-4292
▁rail	-4293
▁stru	-4294
▁Later	-4295
▁lunch	-4296
▁claims	-4297
▁Central	-4298
▁minimum	-4299
BC	-4300
ams	-4301
▁Prot	-4302
▁impl	-4303
▁)	-4304
▁/	-4305
▁—	-4306
tra	-4307
water	-4308
▁Time	-4309
urally	-4310
▁immune	-4311
▁passes	-4312
▁organic	-4313
gi	-4314
fall	-4315
▁bud	-4316
▁ions	-4317
itable	-4318
▁suppl	-4319
▁Emperor	-4320
▁finished	-4321
▁competition	-4322
ees	-4323
ternoon	-4324
▁Africa	-4325
▁double	-4326
▁Instead	-4327
▁density	-4328
▁flowers	-4329
▁Rob	-4330
▁spl	-4331
▁2008	-4332
▁Jews	-4333
▁ship	-4334
▁virt	-4335
▁division	-4336
▁teaching	-4337
ulf	-4338
bits	-4339
rows	-4340
▁aim	-4341
▁vill	-4342
▁Mexic	-4343
▁instit	-4344
▁selling	-4345
▁whereas	-4346
▁channels	-4347
▁infection	-4348
▁communication	-4349
▁AC	-4350
gers	-4351
▁Bra	-4352
▁Life	-4353
▁polic	-4354
▁maximum	-4355
▁compound	-4356
▁Jer	-4357
▁Los	-4358
▁ion	-4359
ushing	-4360
▁listen	-4361
▁comfort	-4362
▁possess	-4363
▁thermal	-4364
▁changing	-4365
▁networks	-4366
▁ax	-4367
▁ign	-4368
iders	-4369
▁metab	-4370
▁90	-4371
▁Cr	-4372
▁Ser	-4373
▁epis	-4374
▁gene	-4375
▁west	-4376
orders	-4377
▁Colle	-4378
▁files	-4379
▁notice	-4380
▁resear	-4381
▁conclud	-4382
▁pollution	-4383
gy	-4384
aped	-4385
▁Dem	-4386
venue	-4387
▁desk	-4388
▁laun	-4389
▁sperm	-4390
▁dinner	-4391
▁garden	-4392
ica	-4393
▁La	-4394
haps	-4395
▁trib	-4396
acterial	-4397
▁Despite	-4398
▁divided	-4399
▁entirely	-4400
▁watching	-4401
▁di	-4402
▁ec	-4403
▁seat	-4404
▁Brown	-4405
▁Resear	-4406
▁phones	-4407
▁exposure	-4408
▁intended	-4409
▁medicine	-4410
car	-4411
▁Hot	-4412
▁sod	-4413
▁simpl	-4414
▁injury	-4415
▁despite	-4416
▁initial	-4417
▁implement	-4418
ading	-4419
▁failed	-4420
▁Western	-4421
▁finally	-4422
▁gravity	-4423
▁application	-4424
umin	-4425
▁qual	-4426
▁owner	-4427
▁unless	-4428
▁subsequ	-4429
▁tissues	-4430
▁customers	-4431
▁generated	-4432
▁protection	-4433
▁**	-4434
apes	-4435
▁1990	-4436
▁hurt	-4437
▁effic	-4438
▁Thomas	-4439
▁yellow	-4440
▁standing	-4441
ona	-4442
▁Bu	-4443
uate	-4444
paper	-4445
▁Year	-4446
▁wild	-4447
▁teach	-4448
ossible	-4449
▁parent	-4450
▁glucose	-4451
▁hearing	-4452
▁observed	-4453
▁sand	-4454
olitan	-4455
▁verte	-4456
ael	-4457
▁Irish	-4458
▁Smith	-4459
▁chlor	-4460
▁match	-4461
▁Christmas	-4462
▁characteristics	-4463
opl	-4464
▁corn	-4465
respond	-4466
▁charged	-4467
▁covered	-4468
▁benefits	-4469
▁equipment	-4470
▁standards	-4471
het	-4472
abor	-4473
▁Isl	-4474
▁arm	-4475
▁calls	-4476
▁items	-4477
▁brother	-4478
▁involve	-4479
▁telephone	-4480
▁Qu	-4481
▁sky	-4482
▁Arab	-4483
▁vote	-4484
▁Satur	-4485
▁dress	-4486
▁earned	-4487
▁fields	-4488
oub	-4489
rier	-4490
▁hus	-4491
▁failure	-4492
▁drinking	-4493
▁specifically	-4494
press	-4495
▁nose	-4496
▁surf	-4497
▁assum	-4498
▁survive	-4499
▁weapons	-4500
▁expected	-4501
▁afternoon	-4502
▁Ag	-4503
▁ft	-4504
ayer	-4505
▁Met	-4506
erior	-4507
▁Russian	-4508
▁conserv	-4509
▁powerful	-4510
▁Department	-4511
▁2012	-4512
▁2014	-4513
▁twice	-4514
▁lights	-4515
▁nations	-4516
▁western	-4517
24	-4518
▁2,	-4519
ishes	-4520
▁excl	-4521
▁note	-4522
▁sort	-4523
▁susp	-4524
▁explan	-4525
▁adopted	-4526
▁defense	-4527
▁seconds	-4528
▁sunlight	-4529
:30	-4530
inem	-4531
iable	-4532
pping	-4533
▁compl	-4534
▁plate	-4535
▁raise	-4536
▁depression	-4537
▁Je	-4538
iter	-4539
agers	-4540
▁cere	-4541
▁waiting	-4542
▁Victoria	-4543
irty	-4544
▁uns	-4545
▁Cons	-4546
▁tube	-4547
▁Treaty	-4548
▁bought	-4549
▁determined	-4550
▁developing	-4551
SP	-4552
zym	-4553
asty	-4554
icks	-4555
▁reb	-4556
▁celebr	-4557
▁significantly	-4558
);	-4559
arks	-4560
▁hom	-4561
▁Song	-4562
▁decl	-4563
▁foss	-4564
▁solo	-4565
▁consequ	-4566
▁advertising	-4567
▁environmental	-4568
Ch	-4569
gl	-4570
ux	-4571
▁gun	-4572
▁houses	-4573
▁switch	-4574
▁internet	-4575
▁pictures	-4576
ament	-4577
▁thick	-4578
unction	-4579
▁served	-4580
ropolitan	-4581
▁movements	-4582
kele	-4583
▁kit	-4584
actions	-4585
igration	-4586
cop	-4587
iang	-4588
itis	-4589
▁bey	-4590
rency	-4591
▁Paul	-4592
▁shared	-4593
▁shopping	-4594
▁Ke	-4595
icit	-4596
▁runs	-4597
▁opport	-4598
▁attacks	-4599
▁recently	-4600
▁stronger	-4601
▁principle	-4602
▁correspond	-4603
▁Val	-4604
imens	-4605
▁Dest	-4606
▁Const	-4607
▁System	-4608
▁immigr	-4609
▁thinks	-4610
▁measured	-4611
▁operations	-4612
▁fert	-4613
▁vent	-4614
▁effort	-4615
▁criminal	-4616
▁domestic	-4617
▁touchdown	-4618
12	-4619
osen	-4620
▁mal	-4621
icial	-4622
▁Fire	-4623
▁walls	-4624
▁controlled	-4625
▁institutions	-4626
lyn	-4627
uth	-4628
iant	-4629
once	-4630
urban	-4631
▁asks	-4632
▁conv	-4633
▁rough	-4634
▁throw	-4635
▁annual	-4636
▁intell	-4637
▁appears	-4638
▁husband	-4639
▁breakfast	-4640
▁expressed	-4641
▁components	-4642
▁alternative	-4643
hal	-4644
road	-4645
▁scen	-4646
▁cryst	-4647
▁leads	-4648
▁unable	-4649
▁mechanism	-4650
▁Tra	-4651
▁lat	-4652
▁prey	-4653
▁spect	-4654
▁patent	-4655
▁stations	-4656
▁authority	-4657
arian	-4658
▁loud	-4659
▁prep	-4660
▁goods	-4661
▁perman	-4662
▁College	-4663
▁actions	-4664
▁fashion	-4665
▁opposed	-4666
▁approach	-4667
▁Huguenots	-4668
well	-4669
▁Rev	-4670
▁Sever	-4671
▁brand	-4672
▁spring	-4673
ropriate	-4674
▁advertis	-4675
▁interview	-4676
ald	-4677
semb	-4678
▁Jay	-4679
▁cav	-4680
▁fro	-4681
▁opin	-4682
▁academ	-4683
▁records	-4684
BS	-4685
__	-4686
▁Mo	-4687
▁har	-4688
▁2011	-4689
▁king	-4690
ishing	-4691
rently	-4692
ustion	-4693
▁sites	-4694
amental	-4695
▁achieve	-4696
▁singing	-4697
itutional	-4698
▁analysis	-4699
▁restrict	-4700
▁experienced	-4701
nel	-4702
▁hop	-4703
▁pan	-4704
acing	-4705
▁Long	-4706
▁busy	-4707
▁race	-4708
▁horse	-4709
▁Indian	-4710
▁Second	-4711
▁beyond	-4712
▁wouldn	-4713
▁balance	-4714
▁mathemat	-4715
▁nitrogen	-4716
ady	-4717
ext	-4718
▁23	-4719
▁26	-4720
edom	-4721
▁Korea	-4722
▁board	-4723
▁detail	-4724
▁twenty	-4725
▁Michael	-4726
▁typical	-4727
▁greatest	-4728
▁Scientists	-4729
▁Bob	-4730
▁Pat	-4731
▁mer	-4732
▁wasn	-4733
ansion	-4734
▁relax	-4735
▁Sunday	-4736
▁leader	-4737
▁Institute	-4738
▁nutrients	-4739
What	-4740
ller	-4741
▁tre	-4742
▁Brook	-4743
▁apart	-4744
uration	-4745
▁confir	-4746
▁Several	-4747
▁benefit	-4748
▁chemicals	-4749
▁Mid	-4750
▁Mike	-4751
▁Prin	-4752
▁legs	-4753
▁Micro	-4754
▁banks	-4755
▁leaders	-4756
▁periods	-4757
edy	-4758
ola	-4759
▁Pre	-4760
amples	-4761
▁taxes	-4762
▁starts	-4763
▁USA	-4764
▁cart	-4765
▁empt	-4766
▁mixt	-4767
▁shut	-4768
ancing	-4769
ricult	-4770
▁infect	-4771
▁creates	-4772
▁platform	-4773
▁controvers	-4774
This	-4775
▁vit	-4776
▁Mark	-4777
▁prem	-4778
▁pure	-4779
▁Latin	-4780
▁taught	-4781
▁architect	-4782
▁technique	-4783
▁populations	-4784
vant	-4785
▁Gold	-4786
▁Grand	-4787
▁vision	-4788
▁biggest	-4789
▁suggests	-4790
▁completed	-4791
▁consumers	-4792
▁providing	-4793
ham	-4794
ophy	-4795
▁190	-4796
▁Space	-4797
▁chick	-4798
▁outer	-4799
▁copies	-4800
▁height	-4801
▁prohib	-4802
▁soccer	-4803
▁Huguenot	-4804
▁accepted	-4805
▁violence	-4806
▁Parliament	-4807
No	-4808
▁Hen	-4809
igned	-4810
ipped	-4811
atever	-4812
▁nerve	-4813
velength	-4814
▁distribution	-4815
99	-4816
cers	-4817
grad	-4818
▁Aut	-4819
▁Rad	-4820
▁Wii	-4821
▁pet	-4822
▁cash	-4823
▁fill	-4824
▁astron	-4825
▁disorder	-4826
▁document	-4827
AC	-4828
sp	-4829
organ	-4830
▁Dist	-4831
▁Rich	-4832
▁tiny	-4833
isters	-4834
▁metals	-4835
▁wonder	-4836
▁Destiny	-4837
▁Stadium	-4838
▁passing	-4839
Sky	-4840
equ	-4841
▁hun	-4842
▁2009	-4843
▁NASA	-4844
icated	-4845
▁2008,	-4846
▁symbol	-4847
▁audience	-4848
ooth	-4849
▁hem	-4850
▁2012,	-4851
▁moist	-4852
▁tells	-4853
▁compar	-4854
▁household	-4855
They	-4856
imal	-4857
ocket	-4858
▁chain	-4859
▁paint	-4860
▁burning	-4861
▁organism	-4862
▁ctenophores	-4863
ek	-4864
▁191	-4865
▁Our	-4866
▁arms	-4867
▁beat	-4868
isation	-4869
▁owners	-4870
▁hypothes	-4871
▁replaced	-4872
▁Francisco	-4873
za	-4874
ager	-4875
bing	-4876
▁aid	-4877
▁Such	-4878
▁wake	-4879
▁trial	-4880
▁assist	-4881
▁proced	-4882
▁proport	-4883
▁voltage	-4884
▁newspaper	-4885
▁impossible	-4886
rael	-4887
▁wheel	-4888
▁output	-4889
▁raised	-4890
▁Service	-4891
▁reports	-4892
▁progress	-4893
▁formation	-4894
otes	-4895
▁187	-4896
▁boys	-4897
ampions	-4898
▁argued	-4899
▁complic	-4900
▁electro	-4901
▁surrounding	-4902
▁fib	-4903
itors	-4904
▁east	-4905
▁danger	-4906
▁listed	-4907
▁evolved	-4908
▁married	-4909
▁sitting	-4910
▁vessels	-4911
▁organizations	-4912
ste	-4913
▁du	-4914
osph	-4915
▁Mill	-4916
▁elev	-4917
▁vapor	-4918
▁reserv	-4919
▁Charles	-4920
▁versions	-4921
▁agreement	-4922
ka	-4923
cont	-4924
▁carb	-4925
astern	-4926
ection	-4927
▁ratio	-4928
▁ready	-4929
▁Martin	-4930
▁latter	-4931
▁therap	-4932
▁unlike	-4933
▁Sa	-4934
pire	-4935
▁bub	-4936
▁fle	-4937
▁spirit	-4938
▁Sichuan	-4939
▁ancient	-4940
▁indicate	-4941
▁messages	-4942
▁component	-4943
▁emergency	-4944
▁Hy	-4945
bird	-4946
▁Hol	-4947
▁tro	-4948
▁decide	-4949
▁walked	-4950
▁strateg	-4951
▁swimming	-4952
▁producing	-4953
▁understanding	-4954
▁map	-4955
aling	-4956
iques	-4957
▁News	-4958
▁circuit	-4959
▁composer	-4960
▁distingu	-4961
ned	-4962
berg	-4963
▁Ann	-4964
▁Mac	-4965
▁mixed	-4966
▁sweet	-4967
▁caught	-4968
▁circum	-4969
▁remove	-4970
▁smoking	-4971
ashington	-4972
▁occurred	-4973
▁phenomenon	-4974
aint	-4975
ench	-4976
ille	-4977
alian	-4978
▁Star	-4979
▁2010,	-4980
▁About	-4981
▁island	-4982
▁nearby	-4983
▁Princess	-4984
▁clothing	-4985
▁incorpor	-4986
▁measures	-4987
▁selection	-4988
PU	-4989
▁x	-4990
▁Bet	-4991
▁und	-4992
▁Miss	-4993
▁grew	-4994
▁hall	-4995
▁meal	-4996
▁stick	-4997
▁flying	-4998
▁paying	-4999
▁photosyn	-5000
lig	-5001
▁35	-5002
anged	-5003
produ	-5004
▁hole	-5005
▁wait	-5006
▁Trans	-5007
▁formal	-5008
▁skills	-5009
▁Further	-5010
▁rapidly	-5011
▁controls	-5012
crib	-5013
xual	-5014
▁fig	-5015
state	-5016
under	-5017
▁Well	-5018
▁enem	-5019
▁tent	-5020
▁hotel	-5021
▁intest	-5022
▁seeing	-5023
▁Southern	-5024
▁launched	-5025
▁transmission	-5026
LI	-5027
rim	-5028
rete	-5029
▁Sur	-5030
▁Hong	-5031
▁cast	-5032
▁clin	-5033
▁plague	-5034
▁Brooklyn	-5035
▁hundreds	-5036
▁containing	-5037
wing	-5038
▁zero	-5039
▁fewer	-5040
▁frame	-5041
▁passw	-5042
▁virus	-5043
▁escape	-5044
▁figure	-5045
▁28	-5046
▁Ev	-5047
heng	-5048
iler	-5049
lete	-5050
▁Greek	-5051
▁experiments	-5052
500	-5053
ford	-5054
▁lob	-5055
▁Wall	-5056
▁exhib	-5057
▁candid	-5058
▁theore	-5059
▁Beyonce	-5060
▁Britain	-5061
▁mission	-5062
▁magazine	-5063
An	-5064
onom	-5065
phas	-5066
▁Off	-5067
▁fal	-5068
heric	-5069
▁diam	-5070
ulating	-5071
▁Mongol	-5072
▁capable	-5073
▁mountain	-5074
▁DV	-5075
lets	-5076
▁alt	-5077
▁dut	-5078
attle	-5079
▁scene	-5080
▁promin	-5081
▁holding	-5082
▁breathing	-5083
▁intercept	-5084
sm	-5085
▁:	-5086
▁Shan	-5087
▁2015,	-5088
▁strange	-5089
▁studying	-5090
▁Washington	-5091
▁sufficient	-5092
enny	-5093
ensus	-5094
gment	-5095
Americ	-5096
▁bread	-5097
▁dance	-5098
▁evapor	-5099
▁obtain	-5100
▁message	-5101
▁identity	-5102
▁batteries	-5103
▁naturally	-5104
ani	-5105
iat	-5106
▁cats	-5107
▁2011,	-5108
▁suffe	-5109
▁bigger	-5110
▁exclus	-5111
▁prison	-5112
▁Protest	-5113
▁cameras	-5114
▁section	-5115
ded	-5116
ohy	-5117
▁$2	-5118
▁Bud	-5119
▁2007	-5120
▁core	-5121
▁dust	-5122
▁stre	-5123
▁knows	-5124
▁atomic	-5125
▁decrease	-5126
▁identify	-5127
▁expression	-5128
▁wavelength	-5129
ida	-5130
ache	-5131
▁thank	-5132
▁exposed	-5133
▁expansion	-5134
▁tradition	-5135
▁influenced	-5136
▁antibacterial	-5137
▁Leg	-5138
clock	-5139
olars	-5140
olute	-5141
▁Good	-5142
▁cable	-5143
▁eleph	-5144
▁efforts	-5145
▁favorite	-5146
▁millions	-5147
▁purchase	-5148
▁combustion	-5149
▁management	-5150
▁respectively	-5151
OS	-5152
arp	-5153
iger	-5154
▁lin	-5155
empor	-5156
▁fell	-5157
▁falls	-5158
▁sport	-5159
▁heating	-5160
▁insects	-5161
▁metropolitan	-5162
dra	-5163
part	-5164
▁cup	-5165
▁gal	-5166
ohydr	-5167
▁Stat	-5168
▁resc	-5169
stream	-5170
▁Light	-5171
▁stops	-5172
▁stable	-5173
ographic	-5174
▁damaged	-5175
▁Research	-5176
▁classroom	-5177
▁efficiency	-5178
▁restaurant	-5179
che	-5180
▁thr	-5181
▁1970	-5182
imately	-5183
ocratic	-5184
▁belief	-5185
▁elimin	-5186
▁Company	-5187
▁missing	-5188
▁destroyed	-5189
▁recording	-5190
▁reference	-5191
▁+	-5192
▁Sat	-5193
▁phr	-5194
asses	-5195
eding	-5196
▁2006	-5197
▁Foot	-5198
▁analy	-5199
▁coast	-5200
▁coffe	-5201
▁signs	-5202
▁Israel	-5203
▁filled	-5204
▁ranked	-5205
▁Federal	-5206
▁portion	-5207
▁religion	-5208
EU	-5209
▁pool	-5210
▁Asian	-5211
▁Inter	-5212
▁joint	-5213
▁attrib	-5214
▁ticket	-5215
citation	-5216
▁artists	-5217
▁sequence	-5218
▁engineering	-5219
▁neighborhood	-5220
ev	-5221
och	-5222
hips	-5223
▁sav	-5224
▁appa	-5225
▁unus	-5226
▁smoke	-5227
agnetic	-5228
▁context	-5229
▁Children	-5230
▁suddenly	-5231
▁programming	-5232
ta	-5233
hab	-5234
▁mi	-5235
▁Look	-5236
hemical	-5237
▁asking	-5238
▁explos	-5239
▁medium	-5240
▁Saturday	-5241
▁Billboard	-5242
▁conscious	-5243
alm	-5244
▁Inc	-5245
▁dynasty	-5246
▁possibly	-5247
▁remaining	-5248
mn	-5249
zer	-5250
▁Law	-5251
▁lip	-5252
▁ped	-5253
rible	-5254
▁Human	-5255
inction	-5256
▁closer	-5257
▁coffee	-5258
▁clearly	-5259
▁whatever	-5260
▁classified	-5261
▁authorities	-5262
PS	-5263
iffe	-5264
▁Atl	-5265
▁Port	-5266
▁phil	-5267
▁ring	-5268
▁faith	-5269
▁roads	-5270
▁Social	-5271
▁minute	-5272
▁trouble	-5273
▁reproduction	-5274
▁Bo	-5275
orph	-5276
soft	-5277
with	-5278
▁sin	-5279
▁setting	-5280
▁ven	-5281
▁Khan	-5282
▁coal	-5283
▁oxid	-5284
▁unif	-5285
▁brown	-5286
ivation	-5287
▁channel	-5288
▁plastic	-5289
▁request	-5290
▁conducted	-5291
▁Jose	-5292
▁David	-5293
▁sides	-5294
▁border	-5295
▁buying	-5296
▁signed	-5297
▁speaking	-5298
▁construct	-5299
▁molecular	-5300
▁researchers	-5301
rec	-5302
rol	-5303
isis	-5304
▁Jes	-5305
▁teen	-5306
▁2007,	-5307
▁Obama	-5308
▁apply	-5309
▁gross	-5310
▁defend	-5311
▁dreams	-5312
▁holiday	-5313
▁consumer	-5314
▁revealed	-5315
▁background	-5316
rav	-5317
▁Any	-5318
▁tor	-5319
allel	-5320
power	-5321
▁neur	-5322
▁sche	-5323
▁ancest	-5324
▁format	-5325
▁league	-5326
▁sleeping	-5327
▁explained	-5328
▁businesses	-5329
▁amb	-5330
ronic	-5331
papers	-5332
▁oldest	-5333
▁Science	-5334
▁enforce	-5335
▁currency	-5336
ds	-5337
▁45	-5338
▁XX	-5339
uing	-5340
ustr	-5341
▁plans	-5342
▁urban	-5343
ologies	-5344
▁feelings	-5345
▁northern	-5346
▁remained	-5347
▁supposed	-5348
▁antibiotic	-5349
▁5,	-5350
▁fu	-5351
chen	-5352
endo	-5353
olve	-5354
▁delay	-5355
▁empty	-5356
▁persons	-5357
▁electrom	-5358
▁describes	-5359
▁biological	-5360
▁industrial	-5361
▁investment	-5362
ilia	-5363
▁Due	-5364
▁bot	-5365
▁Asia	-5366
▁dipl	-5367
▁courts	-5368
▁exceed	-5369
▁arrange	-5370
▁thousand	-5371
▁interpret	-5372
▁represented	-5373
ano	-5374
ini	-5375
▁mur	-5376
▁scr	-5377
wered	-5378
▁firm	-5379
▁shell	-5380
▁smart	-5381
▁split	-5382
▁Palace	-5383
▁narrow	-5384
inghouse	-5385
▁herself	-5386
▁wearing	-5387
▁continues	-5388
▁newspapers	-5389
▁Westinghouse	-5390
FC	-5391
zen	-5392
▁Web	-5393
▁tack	-5394
▁polar	-5395
▁toxic	-5396
▁punish	-5397
▁meeting	-5398
▁existing	-5399
▁purposes	-5400
▁substant	-5401
▁extensive	-5402
▁transform	-5403
▁experiment	-5404
mers	-5405
▁Dal	-5406
▁Sol	-5407
zymes	-5408
▁Food	-5409
▁vide	-5410
engers	-5411
▁arter	-5412
▁rocks	-5413
▁worse	-5414
related	-5415
▁neighb	-5416
▁poison	-5417
▁Windows	-5418
▁Additionally	-5419
Don	-5420
appe	-5421
raid	-5422
▁Dis	-5423
▁Rel	-5424
▁tun	-5425
▁1980	-5426
▁Lama	-5427
ologist	-5428
▁drives	-5429
▁survey	-5430
▁techniques	-5431
▁Cur	-5432
▁Mal	-5433
▁ads	-5434
acent	-5435
mates	-5436
ocked	-5437
▁Hill	-5438
▁Party	-5439
▁Those	-5440
▁argue	-5441
▁Govern	-5442
▁League	-5443
▁afraid	-5444
▁founded	-5445
▁partners	-5446
▁identified	-5447
▁processing	-5448
lda	-5449
field	-5450
▁Rock	-5451
▁bike	-5452
▁2006,	-5453
▁smile	-5454
▁falling	-5455
▁preserv	-5456
▁interested	-5457
▁essentially	-5458
13	-5459
▁,.	-5460
▁Du	-5461
rich	-5462
what	-5463
▁jur	-5464
▁vert	-5465
luding	-5466
▁Gramm	-5467
▁juice	-5468
▁Unlike	-5469
▁colour	-5470
▁trading	-5471
▁agricult	-5472
▁intelligence	-5473
75	-5474
ifts	-5475
▁Foll	-5476
▁util	-5477
▁Zelda	-5478
▁conce	-5479
▁joined	-5480
▁Similar	-5481
▁equival	-5482
▁install	-5483
▁markets	-5484
▁spending	-5485
▁surprised	-5486
▁communities	-5487
ST	-5488
▁(4	-5489
athe	-5490
rons	-5491
▁zone	-5492
ighter	-5493
▁Henry	-5494
▁amino	-5495
iveness	-5496
▁acting	-5497
▁budget	-5498
▁seemed	-5499
▁speeds	-5500
▁strugg	-5501
▁mixture	-5502
▁absolute	-5503
▁answered	-5504
▁conflict	-5505
▁critical	-5506
▁permanent	-5507
▁presented	-5508
▁fundamental	-5509
▁necessarily	-5510
rine	-5511
▁Mond	-5512
▁push	-5513
uation	-5514
▁borrow	-5515
▁emphas	-5516
▁mental	-5517
▁regist	-5518
▁obvious	-5519
li	-5520
nes	-5521
pan	-5522
bert	-5523
▁Mel	-5524
▁era	-5525
▁gone	-5526
▁spok	-5527
▁Times	-5528
▁blind	-5529
▁ended	-5530
▁horiz	-5531
▁agreed	-5532
cription	-5533
ple	-5534
spe	-5535
uma	-5536
ums	-5537
▁3,	-5538
SkyB	-5539
▁Tai	-5540
▁Vir	-5541
erate	-5542
▁(200	-5543
▁Spec	-5544
▁copy	-5545
Figure	-5546
acific	-5547
▁BSkyB	-5548
▁pregn	-5549
▁condens	-5550
▁derived	-5551
▁visited	-5552
▁operation	-5553
▁satellite	-5554
▁appropriate	-5555
aked	-5556
▁DVD	-5557
▁label	-5558
▁laugh	-5559
▁lunar	-5560
▁rooms	-5561
▁prosec	-5562
▁hormones	-5563
IV	-5564
town	-5565
▁Sen	-5566
▁stem	-5567
▁loved	-5568
▁peace	-5569
▁score	-5570
▁gender	-5571
▁inform	-5572
▁library	-5573
▁worried	-5574
▁accounts	-5575
▁friendly	-5576
▁reduction	-5577
zh	-5578
▁Squ	-5579
icular	-5580
▁roots	-5581
▁Public	-5582
▁adjust	-5583
▁forget	-5584
▁issued	-5585
▁unknown	-5586
▁bacterial	-5587
▁quarterback	-5588
▁4,	-5589
▁6.	-5590
miss	-5591
▁Cor	-5592
▁Lin	-5593
▁pil	-5594
▁crop	-5595
▁page	-5596
▁holes	-5597
▁neuro	-5598
▁advice	-5599
▁values	-5600
▁wealth	-5601
▁physics	-5602
▁attached	-5603
▁receiving	-5604
▁governments	-5605
apse	-5606
lder	-5607
▁sac	-5608
▁cert	-5609
▁Italy	-5610
▁depos	-5611
▁doors	-5612
▁belong	-5613
▁sodium	-5614
▁extended	-5615
▁connections	-5616
ET	-5617
ss	-5618
She	-5619
asks	-5620
elve	-5621
icon	-5622
▁Bus	-5623
▁Tur	-5624
▁lik	-5625
▁plug	-5626
▁sees	-5627
▁Class	-5628
▁hyper	-5629
▁stone	-5630
▁branch	-5631
▁franch	-5632
▁orange	-5633
▁refused	-5634
▁contained	-5635
▁atmospheric	-5636
ww	-5637
ya	-5638
▁80	-5639
_0_)	-5640
▁300	-5641
▁purs	-5642
▁subs	-5643
▁chair	-5644
▁guess	-5645
▁turns	-5646
▁vocal	-5647
▁drinks	-5648
▁expand	-5649
▁fertil	-5650
▁layers	-5651
▁Finally	-5652
▁landing	-5653
▁operate	-5654
▁interact	-5655
▁Following	-5656
▁explanation	-5657
gery	-5658
▁Lib	-5659
ctive	-5660
iance	-5661
▁isol	-5662
brates	-5663
▁funds	-5664
▁tooth	-5665
▁worry	-5666
▁exists	-5667
▁option	-5668
▁Through	-5669
▁answers	-5670
▁cooling	-5671
▁decades	-5672
▁breaking	-5673
▁algorithm	-5674
▁legislation	-5675
rors	-5676
vest	-5677
▁192	-5678
obile	-5679
▁ampl	-5680
▁ends	-5681
omatic	-5682
▁spaces	-5683
▁hormone	-5684
▁monitor	-5685
▁mentioned	-5686
▁officials	-5687
2)	-5688
").	-5689
▁27	-5690
life	-5691
▁tim	-5692
acles	-5693
uments	-5694
▁chart	-5695
ascular	-5696
▁arrest	-5697
▁ethnic	-5698
▁rescue	-5699
inations	-5700
▁doctors	-5701
▁election	-5702
▁patterns	-5703
▁immigrants	-5704
▁instrument	-5705
DA	-5706
aret	-5707
ding	-5708
unes	-5709
asure	-5710
pired	-5711
▁crow	-5712
▁Video	-5713
▁solve	-5714
▁asleep	-5715
▁funding	-5716
▁officer	-5717
▁studied	-5718
▁employees	-5719
▁practical	-5720
How	-5721
sis	-5722
aker	-5723
anda	-5724
▁182	-5725
▁CBS	-5726
ilding	-5727
▁Three	-5728
▁wides	-5729
▁Direct	-5730
▁Mexico	-5731
▁constit	-5732
EC	-5733
If	-5734
▁Zh	-5735
▁Top	-5736
▁lie	-5737
▁Fort	-5738
▁Muse	-5739
▁Only	-5740
▁Wang	-5741
▁Alice	-5742
▁Maria	-5743
▁adding	-5744
▁powers	-5745
▁retail	-5746
▁cooking	-5747
▁helping	-5748
▁proceed	-5749
▁Football	-5750
▁achieved	-5751
▁improved	-5752
▁locations	-5753
17	-5754
aks	-5755
orry	-5756
rian	-5757
▁gift	-5758
▁sets	-5759
▁Frank	-5760
▁depth	-5761
▁feels	-5762
▁crisis	-5763
▁planned	-5764
ucky	-5765
▁152	-5766
▁cab	-5767
ittle	-5768
point	-5769
▁Post	-5770
▁tail	-5771
ipping	-5772
▁Scout	-5773
▁grade	-5774
▁quake	-5775
▁recip	-5776
▁ensure	-5777
▁harder	-5778
▁wireless	-5779
box	-5780
ghai	-5781
▁Def	-5782
▁Mad	-5783
▁upd	-5784
isher	-5785
▁boat	-5786
▁flex	-5787
▁shoes	-5788
▁debate	-5789
▁philos	-5790
▁reject	-5791
▁troops	-5792
▁volcan	-5793
▁charges	-5794
▁younger	-5795
▁suffered	-5796
▁effectively	-5797
▁potentially	-5798
sey	-5799
▁UN	-5800
anta	-5801
onds	-5802
▁anx	-5803
▁fan	-5804
ystem	-5805
▁stri	-5806
▁humid	-5807
ocolate	-5808
▁greatly	-5809
▁partial	-5810
▁reality	-5811
▁repeated	-5812
▁carbohydr	-5813
▁involving	-5814
zz	-5815
yal	-5816
▁mit	-5817
▁muc	-5818
apter	-5819
▁dial	-5820
▁sale	-5821
▁agree	-5822
▁awarded	-5823
▁closely	-5824
▁Festival	-5825
▁academic	-5826
▁parallel	-5827
▁properly	-5828
▁concluded	-5829
▁franchise	-5830
▁residents	-5831
16	-5832
oys	-5833
ude	-5834
viet	-5835
▁lib	-5836
oline	-5837
▁Organ	-5838
▁iPods	-5839
▁Common	-5840
▁inches	-5841
▁stages	-5842
▁attempts	-5843
▁speakers	-5844
200	-5845
mar	-5846
roc	-5847
tee	-5848
aser	-5849
unte	-5850
▁Naz	-5851
▁gar	-5852
enger	-5853
pread	-5854
uting	-5855
▁mode	-5856
▁pron	-5857
▁vacu	-5858
▁Major	-5859
▁Maybe	-5860
▁shout	-5861
▁steps	-5862
ilation	-5863
▁fossil	-5864
ologists	-5865
▁cutting	-5866
▁finding	-5867
▁neutral	-5868
▁village	-5869
▁importance	-5870
MA	-5871
pted	-5872
stood	-5873
▁math	-5874
▁recy	-5875
▁spot	-5876
▁wish	-5877
▁accum	-5878
▁crust	-5879
▁freedom	-5880
▁therapy	-5881
ago	-5882
isf	-5883
atom	-5884
▁Big	-5885
▁Sub	-5886
idden	-5887
ession	-5888
▁alarm	-5889
▁cheap	-5890
▁toler	-5891
▁tools	-5892
▁Monday	-5893
▁discover	-5894
▁interface	-5895
▁recognized	-5896
▁respiration	-5897
ads	-5898
ston	-5899
▁500	-5900
▁Che	-5901
▁Fox	-5902
▁fing	-5903
▁yuan	-5904
▁2009,	-5905
intendo	-5906
▁Soviet	-5907
▁collaps	-5908
▁Security	-5909
▁entertain	-5910
▁mechanisms	-5911
▁situations	-5912
rium	-5913
▁Yes	-5914
▁sed	-5915
▁2005	-5916
▁cort	-5917
▁cinem	-5918
▁paras	-5919
▁Grammy	-5920
▁Nether	-5921
▁Pacific	-5922
▁Nintendo	-5923
▁Shanghai	-5924
▁Australian	-5925
▁ultimately	-5926
dam	-5927
amps	-5928
elly	-5929
▁Sam	-5930
▁enh	-5931
itals	-5932
▁epid	-5933
▁multi	-5934
▁smooth	-5935
▁chicken	-5936
▁travels	-5937
▁download	-5938
▁websites	-5939
▁listening	-5940
▁statement	-5941
65	-5942
▁vel	-5943
▁lift	-5944
▁mort	-5945
▁eaten	-5946
▁staff	-5947
▁extent	-5948
▁mirror	-5949
▁details	-5950
▁viruses	-5951
▁Microsoft	-5952
▁difficulty	-5953
▁widespread	-5954
35	-5955
bra	-5956
etr	-5957
norm	-5958
onym	-5959
aming	-5960
inity	-5961
▁analog	-5962
▁finger	-5963
▁meters	-5964
▁customer	-5965
▁automatically	-5966
OT	-5967
SI	-5968
dit	-5969
rad	-5970
ander	-5971
▁Last	-5972
▁perp	-5973
▁stret	-5974
▁tight	-5975
▁trave	-5976
iations	-5977
▁babies	-5978
▁butter	-5979
▁invent	-5980
▁phosph	-5981
▁relief	-5982
64	-5983
you	-5984
asma	-5985
long	-5986
that	-5987
▁Ver	-5988
▁pra	-5989
ogens	-5990
▁neck	-5991
orters	-5992
▁Techn	-5993
▁steel	-5994
▁Norman	-5995
▁attend	-5996
▁awards	-5997
▁button	-5998
▁injured	-5999
▁keeping	-6000
▁suspect	-6001
▁Northern	-6002
▁generate	-6003
▁photosynthesis	-6004
',	-6005
2%	-6006
BA	-6007
ita	-6008
win	-6009
▁edge	-6010
▁limits	-6011
▁losing	-6012
▁promot	-6013
▁Italian	-6014
▁enzymes	-6015
▁cultures	-6016
▁officers	-6017
▁traveling	-6018
▁mm	-6019
oyal	-6020
▁Rem	-6021
▁sen	-6022
iment	-6023
right	-6024
▁Four	-6025
▁lawy	-6026
▁sust	-6027
▁grass	-6028
▁renew	-6029
▁skele	-6030
▁chosen	-6031
emporary	-6032
▁artific	-6033
▁shorter	-6034
▁treated	-6035
▁expanded	-6036
▁scholars	-6037
▁transmit	-6038
▁principles	-6039
▁relationships	-6040
zil	-6041
▁NP	-6042
▁Exp	-6043
▁Sea	-6044
▁rib	-6045
ordin	-6046
▁2016	-6047
▁Scot	-6048
▁wash	-6049
▁false	-6050
▁inner	-6051
▁studio	-6052
▁carries	-6053
▁entered	-6054
▁opinion	-6055
▁roughly	-6056
▁winning	-6057
▁electronic	-6058
18	-6059
III	-6060
▁HD	-6061
▁ov	-6062
▁Fre	-6063
ocity	-6064
▁Alex	-6065
▁tons	-6066
▁judge	-6067
▁Oxygen	-6068
▁profit	-6069
▁District	-6070
▁particle	-6071
▁receiver	-6072
▁disorders	-6073
▁contribute	-6074
▁spacecraft	-6075
uts	-6076
etes	-6077
▁Sup	-6078
▁raw	-6079
▁Kong	-6080
▁Play	-6081
▁bind	-6082
▁2016,	-6083
▁Among	-6084
▁inhib	-6085
▁photo	-6086
▁subsc	-6087
▁truth	-6088
▁Friday	-6089
▁gained	-6090
▁rarely	-6091
▁terror	-6092
▁videos	-6093
piration	-6094
▁Administ	-6095
▁advanced	-6096
▁resulted	-6097
▁regarding	-6098
▁constantly	-6099
EM	-6100
eed	-6101
eper	-6102
▁muse	-6103
▁Award	-6104
▁Broad	-6105
▁holds	-6106
▁Brazil	-6107
▁glands	-6108
▁kitchen	-6109
▁essential	-6110
▁understood	-6111
▁requirements	-6112
'.	-6113
zt	-6114
▁5.	-6115
▁Ire	-6116
▁row	-6117
▁vul	-6118
rooms	-6119
▁Club	-6120
▁Conf	-6121
atural	-6122
▁faces	-6123
▁lesson	-6124
ifferent	-6125
▁Ireland	-6126
▁Richard	-6127
▁streets	-6128
▁hardware	-6129
▁passengers	-6130
eps	-6131
inn	-6132
kin	-6133
aper	-6134
idal	-6135
▁aer	-6136
rical	-6137
▁offs	-6138
▁delic	-6139
▁males	-6140
▁Museum	-6141
▁Office	-6142
▁fruits	-6143
▁ingred	-6144
▁carrying	-6145
▁reducing	-6146
▁subjects	-6147
▁centuries	-6148
▁initially	-6149
▁equivalent	-6150
▁historical	-6151
▁perception	-6152
▁manufacturers	-6153
ora	-6154
▁(18	-6155
▁Cap	-6156
▁Wil	-6157
▁tom	-6158
ennis	-6159
▁Arch	-6160
▁Mend	-6161
▁fans	-6162
charge	-6163
ortion	-6164
▁Saturn	-6165
▁promote	-6166
▁willing	-6167
▁separated	-6168
▁touchdowns	-6169
lla	-6170
west	-6171
▁kin	-6172
abled	-6173
uated	-6174
▁tong	-6175
▁Jesus	-6176
▁cream	-6177
▁juris	-6178
▁uncle	-6179
osystem	-6180
▁cavity	-6181
▁eastern	-6182
▁lessons	-6183
▁converted	-6184
▁happening	-6185
▁magnitude	-6186
▁chromosomes	-6187
mic	-6188
▁Er	-6189
▁Kn	-6190
▁Lou	-6191
▁hur	-6192
▁pit	-6193
▁Bank	-6194
▁Oper	-6195
▁doub	-6196
▁usage	-6197
▁allerg	-6198
▁orient	-6199
▁singles	-6200
▁windows	-6201
▁Electric	-6202
▁dominant	-6203
▁existence	-6204
▁performances	-6205
ods	-6206
inson	-6207
▁beer	-6208
▁tool	-6209
▁Dalai	-6210
▁flows	-6211
▁linked	-6212
▁metres	-6213
▁glasses	-6214
▁surfaces	-6215
▁restaurants	-6216
▁increasingly	-6217
tt	-6218
lym	-6219
ota	-6220
cons	-6221
oral	-6222
▁Hel	-6223
▁sne	-6224
▁dense	-6225
▁column	-6226
▁divide	-6227
▁fibers	-6228
▁microw	-6229
▁convent	-6230
▁turning	-6231
▁calories	-6232
▁releases	-6233
▁digestive	-6234
▁positions	-6235
▁sensitive	-6236
▁experiences	-6237
70	-6238
ype	-6239
▁70	-6240
▁unf	-6241
▁Sing	-6242
▁trop	-6243
▁Group	-6244
▁sacks	-6245
▁trend	-6246
▁native	-6247
▁volunte	-6248
▁accurate	-6249
▁cellular	-6250
▁spectrum	-6251
▁practices	-6252
AN	-6253
Is	-6254
des	-6255
▁oz	-6256
cope	-6257
greg	-6258
iped	-6259
mail	-6260
ontal	-6261
▁1960	-6262
▁Area	-6263
▁Flor	-6264
▁Fore	-6265
▁Rome	-6266
▁cann	-6267
▁refe	-6268
▁vast	-6269
aneous	-6270
iences	-6271
▁liver	-6272
▁trust	-6273
▁Empire	-6274
▁Queens	-6275
▁crimes	-6276
▁varies	-6277
▁critics	-6278
▁metabol	-6279
▁fighting	-6280
▁injuries	-6281
▁perceived	-6282
▁electromagnetic	-6283
ses	-6284
▁Up	-6285
▁Cam	-6286
▁Die	-6287
▁Dig	-6288
▁Sum	-6289
▁gly	-6290
▁Kill	-6291
▁loan	-6292
▁mand	-6293
▁spin	-6294
icking	-6295
▁Dream	-6296
▁angle	-6297
▁liked	-6298
▁titles	-6299
▁twelve	-6300
aneously	-6301
▁perhaps	-6302
▁surgery	-6303
▁agencies	-6304
▁challeng	-6305
▁astronaut	-6306
ls	-6307
▁£	-6308
col	-6309
▁7,	-6310
▁CD	-6311
ticus	-6312
▁1950	-6313
▁Games	-6314
▁draft	-6315
▁seeds	-6316
▁assemb	-6317
▁myself	-6318
ructions	-6319
▁affects	-6320
▁sending	-6321
▁reaching	-6322
▁superior	-6323
▁terrible	-6324
▁offspring	-6325
▁predators	-6326
▁subsequent	-6327
AT	-6328
rag	-6329
▁Int	-6330
etary	-6331
icted	-6332
▁Budd	-6333
▁Mount	-6334
▁theat	-6335
▁covers	-6336
▁payment	-6337
▁reverse	-6338
▁obtained	-6339
▁tourists	-6340
▁dedicated	-6341
▁ecosystem	-6342
▁infections	-6343
bal	-6344
▁PC	-6345
gypt	-6346
▁tur	-6347
Tunes	-6348
▁Lind	-6349
▁ride	-6350
cation	-6351
icians	-6352
iology	-6353
linder	-6354
▁Liszt	-6355
▁condu	-6356
▁manner	-6357
▁rising	-6358
▁stayed	-6359
▁warmer	-6360
American	-6361
▁episode	-6362
▁massive	-6363
▁revenue	-6364
▁invented	-6365
▁surprise	-6366
Oh	-6367
▁•	-6368
▁Win	-6369
▁ath	-6370
▁fet	-6371
uable	-6372
▁Army	-6373
▁dram	-6374
ercury	-6375
esides	-6376
▁Found	-6377
▁brief	-6378
▁tract	-6379
▁breaks	-6380
including	-6381
▁realized	-6382
▁decisions	-6383
▁architecture	-6384
100	-6385
nam	-6386
▁185	-6387
▁Cra	-6388
▁ble	-6389
▁fol	-6390
oster	-6391
▁Cold	-6392
▁porn	-6393
▁Midna	-6394
▁haven	-6395
▁roles	-6396
oration	-6397
▁flower	-6398
▁lowest	-6399
▁magnet	-6400
▁scenes	-6401
▁Atticus	-6402
▁Atlantic	-6403
▁minerals	-6404
▁velocity	-6405
ockingbird	-6406
▁wonderful	-6407
14	-6408
lar	-6409
▁Oh	-6410
free	-6411
▁suc	-6412
▁Chic	-6413
▁bath	-6414
▁gear	-6415
▁task	-6416
▁Islam	-6417
▁fifth	-6418
▁fuels	-6419
▁meals	-6420
▁ruler	-6421
▁sizes	-6422
▁phrase	-6423
▁plasma	-6424
▁tongue	-6425
▁elected	-6426
▁granted	-6427
▁absorbed	-6428
▁Protestant	-6429
▁represents	-6430
▁resolution	-6431
Cl	-6432
iac	-6433
▁8,	-6434
going	-6435
▁wine	-6436
▁2005,	-6437
▁binary	-6438
▁decade	-6439
▁repair	-6440
▁journal	-6441
▁weekend	-6442
vis	-6443
▁Dec	-6444
▁yes	-6445
stein	-6446
erally	-6447
rative	-6448
▁Death	-6449
▁Egypt	-6450
▁boxes	-6451
▁embar	-6452
▁depart	-6453
▁micros	-6454
▁traits	-6455
▁dropped	-6456
▁noticed	-6457
▁painting	-6458
▁encourage	-6459
▁demonstrated	-6460
▁administration	-6461
7%	-6462
fish	-6463
pass	-6464
▁Mor	-6465
▁Sal	-6466
lines	-6467
▁diagn	-6468
▁Turing	-6469
▁pulled	-6470
▁heavily	-6471
▁imagine	-6472
▁unusual	-6473
▁everyday	-6474
▁policies	-6475
▁survival	-6476
▁emotional	-6477
▁consisting	-6478
▁specialized	-6479
▁technologies	-6480
▁Luc	-6481
adies	-6482
atoes	-6483
▁Free	-6484
▁none	-6485
lusion	-6486
▁Bible	-6487
▁Power	-6488
▁worst	-6489
▁Square	-6490
▁reform	-6491
▁strict	-6492
▁Usually	-6493
▁planets	-6494
▁victims	-6495
▁technical	-6496
▁settlement	-6497
19	-6498
▁tub	-6499
▁heads	-6500
▁maybe	-6501
▁afford	-6502
▁racial	-6503
▁drivers	-6504
▁patents	-6505
▁showing	-6506
▁uniform	-6507
▁earliest	-6508
▁presidential	-6509
Yes	-6510
ato	-6511
▁Fry	-6512
▁cyt	-6513
enter	-6514
▁exha	-6515
▁root	-6516
▁Civil	-6517
▁flood	-6518
pective	-6519
▁encoun	-6520
▁jurisd	-6521
▁pocket	-6522
iological	-6523
▁entering	-6524
▁explains	-6525
▁carefully	-6526
3%	-6527
aph	-6528
▁Cy	-6529
▁Ha	-6530
also	-6531
ilit	-6532
they	-6533
▁Fel	-6534
idays	-6535
using	-6536
▁Cell	-6537
▁ears	-6538
▁genet	-6539
endment	-6540
▁iTunes	-6541
▁cheaper	-6542
▁disappe	-6543
▁filming	-6544
▁neither	-6545
▁ordered	-6546
▁trigger	-6547
▁prominent	-6548
▁hypothesis	-6549
asal	-6550
enge	-6551
laim	-6552
icing	-6553
itter	-6554
lease	-6555
▁Phys	-6556
▁cham	-6557
▁stro	-6558
▁email	-6559
▁explo	-6560
▁honor	-6561
▁tests	-6562
▁killing	-6563
▁precise	-6564
▁reduces	-6565
▁collapse	-6566
▁inspired	-6567
▁memories	-6568
▁behaviors	-6569
▁receptors	-6570
▁reproduce	-6571
cel	-6572
▁7.	-6573
▁pul	-6574
istan	-6575
▁funny	-6576
▁sweat	-6577
ructure	-6578
▁clouds	-6579
▁Society	-6580
▁calling	-6581
▁quantum	-6582
▁Examples	-6583
▁concerns	-6584
When	-6585
omer	-6586
▁Liu	-6587
▁pup	-6588
▁wid	-6589
grade	-6590
▁Back	-6591
▁evac	-6592
itness	-6593
▁owned	-6594
▁views	-6595
▁agents	-6596
▁reflex	-6597
▁calcium	-6598
▁realize	-6599
▁Revolution	-6600
ram	-6601
udi	-6602
outs	-6603
▁Old	-6604
▁Typ	-6605
lined	-6606
▁Lily	-6607
▁Wench	-6608
▁encry	-6609
▁nomin	-6610
▁usual	-6611
▁Virgin	-6612
▁offers	-6613
▁boiling	-6614
▁decline	-6615
▁settled	-6616
▁acquired	-6617
▁chemistry	-6618
▁gradually	-6619
▁occurring	-6620
▁physically	-6621
▁Netherlands	-6622
IT	-6623
su	-6624
▁31	-6625
lymp	-6626
oids	-6627
ylum	-6628
▁rear	-6629
▁abund	-6630
▁absorb	-6631
▁contra	-6632
▁conven	-6633
▁fairly	-6634
▁rivers	-6635
▁figures	-6636
▁serving	-6637
abilities	-6638
▁adjacent	-6639
▁recovery	-6640
▁sentence	-6641
ifications	-6642
▁popularity	-6643
90	-6644
Why	-6645
abis	-6646
idel	-6647
▁Have	-6648
▁Karm	-6649
▁amaz	-6650
▁bits	-6651
phones	-6652
▁embry	-6653
▁sharp	-6654
anguage	-6655
▁bridge	-6656
▁pounds	-6657
▁viewed	-6658
idential	-6659
▁anxiety	-6660
▁creation	-6661
▁interpre	-6662
▁discovery	-6663
▁recommended	-6664
▁concentrated	-6665
St	-6666
ao	-6667
ias	-6668
▁fee	-6669
level	-6670
▁lake	-6671
▁Cross	-6672
▁Early	-6673
▁displ	-6674
▁ships	-6675
▁tends	-6676
stances	-6677
▁satisf	-6678
▁Business	-6679
▁Wenchuan	-6680
▁director	-6681
▁chocolate	-6682
▁Mockingbird	-6683
45	-6684
"),	-6685
she	-6686
roat	-6687
▁Hum	-6688
▁Tem	-6689
imals	-6690
ukary	-6691
▁Care	-6692
▁suit	-6693
▁sulf	-6694
▁Never	-6695
▁Using	-6696
▁fungi	-6697
▁grows	-6698
▁legit	-6699
▁pitch	-6700
▁shall	-6701
▁tears	-6702
ication	-6703
▁Muslim	-6704
▁farmer	-6705
▁shapes	-6706
▁formula	-6707
▁housing	-6708
▁teenagers	-6709
▁kilometers	-6710
▁comfortable	-6711
▁interceptions	-6712
umes	-6713
▁Tex	-6714
▁cig	-6715
▁cos	-6716
▁cru	-6717
▁orb	-6718
▁rid	-6719
cling	-6720
riend	-6721
throp	-6722
▁Jane	-6723
▁flag	-6724
▁snee	-6725
▁alter	-6726
▁corner	-6727
▁compens	-6728
▁invited	-6729
▁turbine	-6730
▁dependent	-6731
▁protected	-6732
▁photograph	-6733
▁complicated	-6734
▁characterized	-6735
wan	-6736
oper	-6737
▁180	-6738
▁Sud	-6739
ierce	-6740
inite	-6741
▁bowl	-6742
▁nutr	-6743
▁vibr	-6744
▁Diego	-6745
▁finds	-6746
▁urine	-6747
▁centre	-6748
▁singer	-6749
▁baseball	-6750
▁regional	-6751
▁confirmed	-6752
▁communicate	-6753
22	-6754
ER	-6755
bes	-6756
▁CO	-6757
▁Sl	-6758
▁ru	-6759
That	-6760
obic	-6761
oned	-6762
ymph	-6763
▁186	-6764
▁CPU	-6765
▁Men	-6766
▁Nob	-6767
▁Var	-6768
▁cou	-6769
There	-6770
ifies	-6771
orial	-6772
track	-6773
▁Fred	-6774
▁blog	-6775
aining	-6776
effect	-6777
▁fiber	-6778
▁sorry	-6779
▁Jersey	-6780
▁marked	-6781
▁longest	-6782
▁Basically	-6783
▁marketing	-6784
▁recovered	-6785
▁kilometres	-6786
dy	-6787
amb	-6788
▁Mu	-6789
▁Edu	-6790
▁Fil	-6791
eters	-6792
riers	-6793
▁agent	-6794
▁basin	-6795
▁initi	-6796
▁keeps	-6797
▁Edison	-6798
▁Energy	-6799
▁Everyone	-6800
▁territory	-6801
▁32	-6802
racy	-6803
rick	-6804
ucks	-6805
▁Ben	-6806
▁Mot	-6807
▁Book	-6808
▁Edit	-6809
▁scar	-6810
rolled	-6811
thetic	-6812
▁decay	-6813
▁fault	-6814
▁Jewish	-6815
▁Modern	-6816
▁bottle	-6817
▁favour	-6818
▁flavor	-6819
▁script	-6820
▁string	-6821
▁Supreme	-6822
▁centers	-6823
▁harmful	-6824
▁anywhere	-6825
▁district	-6826
▁classical	-6827
▁employment	-6828
▁frequencies	-6829
▁Hu	-6830
dery	-6831
▁Fam	-6832
asant	-6833
▁duty	-6834
person	-6835
yright	-6836
▁Produ	-6837
▁Scott	-6838
▁galax	-6839
▁differ	-6840
▁serves	-6841
▁suffer	-6842
▁Chicago	-6843
▁projects	-6844
ampionship	-6845
▁exception	-6846
Wh	-6847
▁alk	-6848
icide	-6849
▁Prov	-6850
▁Swed	-6851
▁item	-6852
called	-6853
ellect	-6854
▁Solar	-6855
▁branc	-6856
▁dirty	-6857
▁theme	-6858
▁habits	-6859
▁salary	-6860
▁Florida	-6861
▁Without	-6862
▁deliver	-6863
▁factory	-6864
▁Treaties	-6865
▁selected	-6866
▁universities	-6867
▁characteristic	-6868
SC	-6869
mod	-6870
▁AI	-6871
▁ce	-6872
aine	-6873
burg	-6874
care	-6875
ilty	-6876
▁bicy	-6877
▁hymn	-6878
▁seek	-6879
▁tape	-6880
▁Olymp	-6881
▁shock	-6882
▁sought	-6883
▁females	-6884
▁occasion	-6885
▁certainly	-6886
▁container	-6887
▁recognize	-6888
▁instruments	-6889
78	-6890
bu	-6891
hu	-6892
aren	-6893
fess	-6894
iary	-6895
▁Non	-6896
deryk	-6897
▁soap	-6898
ieties	-6899
ulates	-6900
▁chest	-6901
▁seats	-6902
▁Though	-6903
▁cycles	-6904
▁nerves	-6905
▁Eastern	-6906
▁Johnson	-6907
▁exhaust	-6908
▁seasons	-6909
▁Fryderyk	-6910
▁concerts	-6911
▁exciting	-6912
▁friction	-6913
▁directions	-6914
rep	-6915
▁AT	-6916
ogue	-6917
ompl	-6918
oval	-6919
▁pal	-6920
trans	-6921
▁Blue	-6922
▁bags	-6923
▁compr	-6924
▁lakes	-6925
▁royal	-6926
▁shops	-6927
▁uncom	-6928
ruption	-6929
▁finish	-6930
▁shares	-6931
standing	-6932
▁aspects	-6933
▁excited	-6934
▁counties	-6935
▁familiar	-6936
▁challenge	-6937
▁collected	-6938
▁identical	-6939
▁indicated	-6940
▁professor	-6941
▁association	-6942
▁legislative	-6943
▁measurement	-6944
SM	-6945
een	-6946
▁."	-6947
appy	-6948
bles	-6949
bour	-6950
▁Out	-6951
▁ham	-6952
adder	-6953
ograp	-6954
owled	-6955
▁soul	-6956
terior	-6957
▁Jenny	-6958
igation	-6959
sterdam	-6960
ulatory	-6961
▁breath	-6962
▁chains	-6963
▁vacuum	-6964
▁disturb	-6965
▁withdra	-6966
▁offering	-6967
▁ordinary	-6968
▁childhood	-6969
▁committed	-6970
▁scientist	-6971
▁artificial	-6972
▁criticized	-6973
ski	-6974
▁Lu	-6975
iana	-6976
▁Jul	-6977
▁Str	-6978
orous	-6979
reens	-6980
▁wolf	-6981
▁armed	-6982
▁debut	-6983
▁decla	-6984
▁Comput	-6985
▁blocks	-6986
▁dollar	-6987
▁handle	-6988
▁contest	-6989
▁focused	-6990
▁notable	-6991
▁stating	-6992
▁tickets	-6993
▁prepared	-6994
▁smallest	-6995
▁soldiers	-6996
▁executive	-6997
▁indicates	-6998
▁mountains	-6999
▁Government	-7000
▁conversion	-7001
▁constitutional	-7002
32	-7003
_1	-7004
aded	-7005
roll	-7006
▁Gra	-7007
about	-7008
▁odor	-7009
▁Watch	-7010
▁Histor	-7011
▁accomp	-7012
▁config	-7013
▁rating	-7014
▁offices	-7015
▁freezing	-7016
▁discussed	-7017
▁regardless	-7018
▁contributed	-7019
▁translation	-7020
▁psychological	-7021
cur	-7022
sts	-7023
▁IP	-7024
osal	-7025
▁Ber	-7026
▁Ins	-7027
▁Kenn	-7028
▁pill	-7029
▁Buddh	-7030
▁Tower	-7031
▁alive	-7032
▁encod	-7033
▁entry	-7034
▁gifts	-7035
▁goals	-7036
▁ideal	-7037
▁stood	-7038
▁union	-7039
unities	-7040
▁revers	-7041
▁sample	-7042
▁stands	-7043
▁accompl	-7044
▁forming	-7045
▁succeed	-7046
▁generations	-7047
AA	-7048
gu	-7049
▁Ca	-7050
▁pm	-7051
▁hen	-7052
▁rig	-7053
drome	-7054
▁Prote	-7055
▁Women	-7056
▁alumin	-7057
▁engage	-7058
▁licens	-7059
▁please	-7060
▁server	-7061
▁advance	-7062
▁Canadian	-7063
▁colleges	-7064
▁disaster	-7065
▁excessive	-7066
▁sensation	-7067
fr	-7068
ye	-7069
▁‘	-7070
▁34	-7071
▁Ep	-7072
Well	-7073
aken	-7074
asha	-7075
▁Mem	-7076
▁Rom	-7077
▁cod	-7078
▁unh	-7079
ceans	-7080
ource	-7081
▁warn	-7082
▁Force	-7083
▁grown	-7084
▁helic	-7085
▁irrit	-7086
▁define	-7087
▁Studies	-7088
▁illustr	-7089
▁ranging	-7090
▁telling	-7091
▁charging	-7092
▁planning	-7093
▁variable	-7094
▁decreases	-7095
▁XL	-7096
brid	-7097
eman	-7098
rics	-7099
▁150	-7100
▁Lar	-7101
▁Vol	-7102
,000.	-7103
anges	-7104
cular	-7105
▁Dani	-7106
▁Think	-7107
▁negot	-7108
▁assess	-7109
▁remote	-7110
▁borough	-7111
▁convert	-7112
▁descend	-7113
▁sensory	-7114
▁theories	-7115
▁Amsterdam	-7116
▁reflected	-7117
▁solutions	-7118
1%	-7119
33	-7120
oca	-7121
▁8.	-7122
▁pu	-7123
aryn	-7124
tion	-7125
▁Kub	-7126
▁mac	-7127
▁Bern	-7128
▁bear	-7129
▁cogn	-7130
▁luck	-7131
▁pist	-7132
▁rose	-7133
▁sole	-7134
itudes	-7135
▁broke	-7136
▁crops	-7137
verages	-7138
▁copper	-7139
▁precip	-7140
▁refuge	-7141
▁strike	-7142
ependent	-7143
▁protest	-7144
▁recover	-7145
▁attended	-7146
▁missions	-7147
▁prevents	-7148
▁possibility	-7149
▁interactions	-7150
"?	-7151
zi	-7152
omot	-7153
ulin	-7154
▁gro	-7155
▁nav	-7156
▁rhy	-7157
▁unp	-7158
isted	-7159
cribed	-7160
▁aware	-7161
▁oblig	-7162
▁robot	-7163
▁storm	-7164
▁multip	-7165
▁testing	-7166
▁diameter	-7167
▁supplies	-7168
▁interests	-7169
▁responses	-7170
▁chromosome	-7171
▁structural	-7172
▁environments	-7173
sex	-7174
bial	-7175
▁Tor	-7176
▁fer	-7177
▁haz	-7178
▁Conc	-7179
▁Orig	-7180
▁hung	-7181
▁lies	-7182
▁Louis	-7183
▁guilty	-7184
▁treaty	-7185
▁follows	-7186
▁speaker	-7187
▁statements	-7188
zo	-7189
300	-7190
enth	-7191
▁ton	-7192
normal	-7193
▁command	-7194
▁helicop	-7195
▁license	-7196
▁theoret	-7197
▁consumed	-7198
▁directed	-7199
▁graphics	-7200
▁strongly	-7201
imensional	-7202
▁attempted	-7203
▁featuring	-7204
▁organized	-7205
▁Christians	-7206
▁destruction	-7207
▁difficulties	-7208
▁successfully	-7209
▁manufacturing	-7210
My	-7211
obe	-7212
rist	-7213
arant	-7214
▁cord	-7215
▁champ	-7216
▁pairs	-7217
▁driven	-7218
▁Develop	-7219
▁dissolved	-7220
▁attractive	-7221
▁Constitution	-7222
law	-7223
rey	-7224
illa	-7225
▁Ice	-7226
▁adm	-7227
akers	-7228
▁2014.	-7229
▁affil	-7230
▁cabin	-7231
▁route	-7232
▁Native	-7233
▁murder	-7234
▁secure	-7235
▁talent	-7236
▁careful	-7237
▁diverse	-7238
▁Building	-7239
▁festival	-7240
▁visitors	-7241
▁synthesis	-7242
▁distributed	-7243
▁transferred	-7244
▁acceleration	-7245
▁restrictions	-7246
aid	-7247
iva	-7248
▁ly	-7249
ello	-7250
▁tot	-7251
ching	-7252
while	-7253
▁Yuan	-7254
▁lens	-7255
gments	-7256
orrect	-7257
▁Texas	-7258
▁flash	-7259
▁Rights	-7260
▁proved	-7261
▁simult	-7262
▁capture	-7263
▁fingers	-7264
▁neurons	-7265
▁writers	-7266
▁vertical	-7267
▁Different	-7268
▁Similarly	-7269
▁manufacturer	-7270
26	-7271
AM	-7272
pm	-7273
sl	-7274
600	-7275
osh	-7276
hors	-7277
▁Jud	-7278
▁gay	-7279
▁tel	-7280
eless	-7281
▁Home	-7282
▁Soon	-7283
▁disk	-7284
▁wage	-7285
▁Saudi	-7286
▁Prince	-7287
▁Secret	-7288
▁capill	-7289
▁desert	-7290
▁oceans	-7291
▁decreased	-7292
▁spiritual	-7293
▁continuous	-7294
▁opportunity	-7295
▁computational	-7296
IC	-7297
apa	-7298
fit	-7299
▁MP	-7300
roid	-7301
▁Lev	-7302
▁Mer	-7303
▁aqu	-7304
aints	-7305
chest	-7306
heast	-7307
night	-7308
▁puts	-7309
▁Media	-7310
▁excell	-7311
▁silver	-7312
▁protons	-7313
▁reaches	-7314
▁watched	-7315
▁branches	-7316
▁gasoline	-7317
▁suitable	-7318
generation	-7319
▁instructions	-7320
▁Fe	-7321
▁kg	-7322
▁Ham	-7323
▁Jon	-7324
▁guy	-7325
arked	-7326
ftime	-7327
ingly	-7328
▁Yong	-7329
▁fold	-7330
▁mere	-7331
▁migr	-7332
▁plus	-7333
ackson	-7334
▁ruled	-7335
▁toile	-7336
▁tries	-7337
▁valid	-7338
▁grades	-7339
▁Airport	-7340
▁choices	-7341
▁declared	-7342
unications	-7343
▁passenger	-7344
▁performing	-7345
▁radioactive	-7346
1)	-7347
6%	-7348
SD	-7349
▁#	-7350
ris	-7351
vol	-7352
▁($	-7353
▁48	-7354
acco	-7355
pers	-7356
rary	-7357
▁Van	-7358
antly	-7359
▁Cast	-7360
▁Does	-7361
▁Near	-7362
▁butt	-7363
asters	-7364
ulsion	-7365
▁bunch	-7366
▁drawn	-7367
▁elder	-7368
▁links	-7369
▁Father	-7370
aturated	-7371
▁Command	-7372
▁journey	-7373
▁clinical	-7374
▁password	-7375
▁concerned	-7376
▁pathogens	-7377
▁circumstances	-7378
anz	-7379
war	-7380
▁10,	-7381
▁Sil	-7382
▁Sus	-7383
▁Ter	-7384
▁Face	-7385
▁ages	-7386
▁blow	-7387
▁tone	-7388
elling	-7389
▁Ocean	-7390
▁coach	-7391
▁Mother	-7392
▁Taiwan	-7393
▁actors	-7394
▁attach	-7395
▁brings	-7396
▁enters	-7397
▁tennis	-7398
▁vulner	-7399
▁wheels	-7400
▁pointed	-7401
▁champion	-7402
▁comments	-7403
▁cylinder	-7404
▁halftime	-7405
▁shooting	-7406
▁Generally	-7407
▁alongside	-7408
▁installed	-7409
▁substantial	-7410
ado	-7411
▁AD	-7412
ilib	-7413
▁Dar	-7414
▁Pur	-7415
▁Spe	-7416
▁emit	-7417
▁epic	-7418
▁hang	-7419
▁vice	-7420
▁Sasha	-7421
▁bases	-7422
▁index	-7423
▁Academ	-7424
▁Within	-7425
▁hosted	-7426
▁Jackson	-7427
▁partner	-7428
▁Robinson	-7429
▁articles	-7430
▁coverage	-7431
▁regarded	-7432
▁criticism	-7433
▁universal	-7434
▁facilities	-7435
▁Furthermore	-7436
▁mathematical	-7437
▁advertisements	-7438
ogl	-7439
rin	-7440
▁vs	-7441
▁nic	-7442
▁Tour	-7443
arters	-7444
ometer	-7445
▁Daily	-7446
▁tasks	-7447
▁veter	-7448
▁winds	-7449
▁Columb	-7450
▁intent	-7451
▁shower	-7452
▁Minister	-7453
▁presents	-7454
▁somewhat	-7455
▁syndrome	-7456
▁targeted	-7457
▁apartment	-7458
▁functional	-7459
▁evolutionary	-7460
34	-7461
rd	-7462
bec	-7463
raq	-7464
▁pH	-7465
affe	-7466
ship	-7467
▁Hou	-7468
▁dim	-7469
▁wel	-7470
▁Belg	-7471
▁Tele	-7472
▁buys	-7473
▁hack	-7474
▁obst	-7475
▁proud	-7476
century	-7477
knowled	-7478
▁autumn	-7479
▁scheme	-7480
▁intense	-7481
▁restric	-7482
▁warming	-7483
▁arranged	-7484
▁fraction	-7485
▁infected	-7486
▁rotation	-7487
▁communications	-7488
38	-7489
As	-7490
alf	-7491
▁29	-7492
just	-7493
then	-7494
▁10%	-7495
▁Del	-7496
▁sty	-7497
aning	-7498
▁Ford	-7499
▁intr	-7500
▁tank	-7501
▁pharm	-7502
▁prope	-7503
▁rises	-7504
▁swall	-7505
▁Little	-7506
▁circle	-7507
▁facing	-7508
▁joints	-7509
▁chronic	-7510
▁designs	-7511
▁kinetic	-7512
▁cleaning	-7513
▁investors	-7514
▁Republican	-7515
▁classmates	-7516
▁comparison	-7517
▁receptions	-7518
▁transmitted	-7519
▁investigation	-7520
▁ID	-7521
▁fo	-7522
itled	-7523
ushes	-7524
▁Spir	-7525
▁gall	-7526
▁thor	-7527
▁Color	-7528
▁bands	-7529
▁inher	-7530
▁innov	-7531
▁inver	-7532
ighting	-7533
▁Corpor	-7534
▁Others	-7535
▁Sports	-7536
▁dating	-7537
▁deaths	-7538
▁packet	-7539
▁strang	-7540
▁thread	-7541
▁Digital	-7542
▁islands	-7543
▁reviews	-7544
▁tension	-7545
▁publicly	-7546
▁instances	-7547
▁producers	-7548
▁tentacles	-7549
▁preventing	-7550
▁registered	-7551
▁transition	-7552
usi	-7553
yes	-7554
▁Kar	-7555
▁Vis	-7556
▁Whe	-7557
burgh	-7558
▁Bell	-7559
▁kick	-7560
▁rely	-7561
▁beach	-7562
▁cilia	-7563
▁heated	-7564
ilibrium	-7565
▁absence	-7566
▁package	-7567
▁undergo	-7568
▁equation	-7569
▁literally	-7570
▁officially	-7571
▁ingredients	-7572
▁conventional	-7573
▁carbohydrates	-7574
-4	-7575
zed	-7576
Tube	-7577
▁12,	-7578
▁Han	-7579
▁rou	-7580
▁Qing	-7581
▁hero	-7582
▁tied	-7583
▁Santa	-7584
▁enemy	-7585
▁imper	-7586
▁loans	-7587
▁Commit	-7588
▁combat	-7589
▁correl	-7590
▁filter	-7591
▁prepar	-7592
▁Records	-7593
▁blocked	-7594
▁combine	-7595
▁dancing	-7596
▁fishing	-7597
▁violent	-7598
▁delicious	-7599
▁intestine	-7600
▁procedure	-7601
3)	-7602
AP	-7603
asy	-7604
omy	-7605
▁(5	-7606
▁tu	-7607
emic	-7608
itar	-7609
▁(20	-7610
▁Boy	-7611
▁NOT	-7612
▁Tob	-7613
▁wed	-7614
aline	-7615
athan	-7616
iolet	-7617
ipher	-7618
▁Jean	-7619
▁army	-7620
▁shel	-7621
▁toys	-7622
onents	-7623
unning	-7624
▁abdom	-7625
▁crack	-7626
▁giant	-7627
▁mouse	-7628
▁rhyth	-7629
▁rural	-7630
▁telec	-7631
▁wider	-7632
▁frozen	-7633
▁Animals	-7634
▁forcing	-7635
▁inflamm	-7636
▁province	-7637
▁receives	-7638
▁copyright	-7639
▁corporate	-7640
▁diversity	-7641
▁principal	-7642
▁traditionally	-7643
ED	-7644
aby	-7645
onst	-7646
▁Tre	-7647
▁iPh	-7648
amine	-7649
itzer	-7650
restr	-7651
umble	-7652
▁Crit	-7653
ointed	-7654
▁Often	-7655
▁fatty	-7656
▁manip	-7657
ocation	-7658
versely	-7659
▁Korean	-7660
▁Thanks	-7661
ployment	-7662
▁accused	-7663
▁consume	-7664
▁putting	-7665
▁politics	-7666
▁producer	-7667
▁quantity	-7668
▁Education	-7669
▁attracted	-7670
▁digestion	-7671
▁intellect	-7672
▁seriously	-7673
▁Foundation	-7674
▁mathematics	-7675
96	-7676
ava	-7677
eor	-7678
lls	-7679
agon	-7680
ipal	-7681
nect	-7682
▁BBC	-7683
▁Gal	-7684
orses	-7685
udson	-7686
▁2004	-7687
▁Down	-7688
▁forg	-7689
▁hits	-7690
▁rays	-7691
▁rein	-7692
ativity	-7693
▁campus	-7694
▁picked	-7695
▁authors	-7696
▁cigaret	-7697
▁apparent	-7698
▁category	-7699
▁detailed	-7700
▁elephant	-7701
▁employed	-7702
▁strategy	-7703
▁variations	-7704
IN	-7705
rot	-7706
alls	-7707
game	-7708
this	-7709
éric	-7710
▁11,	-7711
▁NFC	-7712
▁Pak	-7713
▁Pri	-7714
▁nom	-7715
otype	-7716
▁Iraq	-7717
▁Land	-7718
▁caps	-7719
▁fees	-7720
▁rice	-7721
arting	-7722
▁Exper	-7723
▁conqu	-7724
▁coval	-7725
▁inhab	-7726
▁tower	-7727
▁valve	-7728
▁nobody	-7729
▁ranges	-7730
▁rushed	-7731
▁sevent	-7732
restrial	-7733
▁airport	-7734
▁stadium	-7735
▁believes	-7736
▁isolated	-7737
▁removing	-7738
▁behaviour	-7739
▁requiring	-7740
▁respiratory	-7741
▁contemporary	-7742
eds	-7743
ras	-7744
too	-7745
▁sq	-7746
▁Haw	-7747
▁mes	-7748
▁vom	-7749
cript	-7750
orted	-7751
ulous	-7752
▁Kate	-7753
▁abst	-7754
ocytes	-7755
▁Linda	-7756
▁Small	-7757
▁gland	-7758
▁neare	-7759
theless	-7760
▁Fierce	-7761
▁apples	-7762
▁dishes	-7763
▁eukary	-7764
▁headqu	-7765
▁overse	-7766
▁tracks	-7767
▁Academy	-7768
▁biology	-7769
▁notably	-7770
▁tackles	-7771
▁vitamin	-7772
▁payments	-7773
▁valuable	-7774
▁greenhouse	-7775
▁literature	-7776
▁punishment	-7777
▁quantities	-7778
▁enforcement	-7779
ker	-7780
dipp	-7781
igen	-7782
▁deli	-7783
▁vacc	-7784
▁Again	-7785
▁chief	-7786
▁hence	-7787
▁nasal	-7788
▁pages	-7789
ictions	-7790
▁agency	-7791
▁sudden	-7792
▁talked	-7793
▁applies	-7794
▁warning	-7795
▁altitude	-7796
▁bringing	-7797
▁credited	-7798
▁defeated	-7799
▁profession	-7800
▁arrangement	-7801
▁temporarily	-7802
▁consequences	-7803
28	-7804
US	-7805
ymn	-7806
▁6,	-7807
abil	-7808
hour	-7809
▁End	-7810
▁cas	-7811
ureau	-7812
▁enth	-7813
▁abuse	-7814
▁penal	-7815
▁Yongle	-7816
▁spoken	-7817
▁towers	-7818
▁Teacher	-7819
▁guarant	-7820
▁returns	-7821
▁frequent	-7822
▁candidate	-7823
▁partially	-7824
▁beneficial	-7825
▁underlying	-7826
▁equilibrium	-7827
▁$5	-7828
▁00	-7829
▁CE	-7830
▁Wik	-7831
▁rac	-7832
▁san	-7833
etime	-7834
idges	-7835
▁drum	-7836
▁gent	-7837
▁lung	-7838
▁oral	-7839
▁swit	-7840
ocrine	-7841
ogenic	-7842
▁shift	-7843
utation	-7844
▁Joseph	-7845
▁Senate	-7846
▁appeal	-7847
▁hybrid	-7848
▁plates	-7849
▁YouTube	-7850
▁colours	-7851
▁washing	-7852
▁cannabis	-7853
▁moisture	-7854
▁turbines	-7855
▁acknowled	-7856
▁purchased	-7857
▁regularly	-7858
▁opposition	-7859
66	-7860
▁je	-7861
▁Use	-7862
▁tex	-7863
ether	-7864
oglob	-7865
▁1930	-7866
ankton	-7867
▁2015.	-7868
▁codes	-7869
▁diver	-7870
▁lucky	-7871
▁sixth	-7872
▁Artist	-7873
▁Hudson	-7874
▁Spring	-7875
▁master	-7876
▁shield	-7877
▁Project	-7878
▁varying	-7879
▁Scotland	-7880
▁excellent	-7881
▁attributed	-7882
▁maintained	-7883
▁perspective	-7884
iti	-7885
yan	-7886
▁TR	-7887
▁cm	-7888
yram	-7889
▁XLV	-7890
break	-7891
olves	-7892
ontin	-7893
▁Clin	-7894
▁Iran	-7895
▁germ	-7896
arians	-7897
resent	-7898
shaped	-7899
▁Medic	-7900
▁faced	-7901
▁guide	-7902
▁lymph	-7903
▁sched	-7904
▁county	-7905
lections	-7906
▁carrier	-7907
▁feeding	-7908
▁Suddenly	-7909
▁inflation	-7910
▁membranes	-7911
▁streaming	-7912
▁requirement	-7913
TO	-7914
nd	-7915
-20	-7916
empt	-7917
esis	-7918
uled	-7919
bling	-7920
gence	-7921
overs	-7922
stone	-7923
▁2001	-7924
▁Inte	-7925
▁Nick	-7926
▁Open	-7927
▁hate	-7928
▁mice	-7929
▁Stand	-7930
▁chose	-7931
▁defic	-7932
▁Engine	-7933
▁weapon	-7934
▁delivery	-7935
rastructure	-7936
▁attraction	-7937
▁department	-7938
▁extinction	-7939
▁revolution	-7940
▁constructed	-7941
▁interaction	-7942
▁establishment	-7943
.'	-7944
4%	-7945
oma	-7946
orf	-7947
born	-7948
indu	-7949
look	-7950
uana	-7951
▁120	-7952
▁Ell	-7953
▁toy	-7954
▁encl	-7955
▁Cheng	-7956
▁Lower	-7957
▁Trade	-7958
▁balls	-7959
▁bills	-7960
▁beings	-7961
▁extend	-7962
▁linear	-7963
▁marine	-7964
▁ruling	-7965
▁thanks	-7966
▁experts	-7967
▁facilit	-7968
▁whenever	-7969
▁variation	-7970
▁soundtrack	-7971
▁reproductive	-7972
98	-7973
DS	-7974
▁Lo	-7975
orse	-7976
▁Det	-7977
▁Joe	-7978
▁Mom	-7979
▁wal	-7980
archy	-7981
oured	-7982
▁Fund	-7983
▁Mass	-7984
▁logo	-7985
▁pand	-7986
father	-7987
▁deals	-7988
▁drain	-7989
▁prime	-7990
idering	-7991
▁Miller	-7992
▁enable	-7993
▁planes	-7994
▁termin	-7995
▁Houston	-7996
▁equally	-7997
▁thereby	-7998
▁modified	-7999
▁withdraw	-8000
▁elections	-8001
▁paintings	-8002
▁recommend	-8003
▁introduction	-8004
▁controversial	-8005
9%	-8006
DR	-8007
NS	-8008
aj	-8009
mo	-8010
tw	-8011
cal	-8012
zes	-8013
▁Hi	-8014
comb	-8015
▁Dad	-8016
amins	-8017
icill	-8018
▁cuts	-8019
▁hide	-8020
▁subt	-8021
market	-8022
▁2013.	-8023
▁Hotel	-8024
▁dates	-8025
▁argues	-8026
▁assume	-8027
▁commod	-8028
▁hidden	-8029
▁citizen	-8030
▁covalent	-8031
▁displays	-8032
▁Committee	-8033
▁induction	-8034
▁metabolic	-8035
▁encouraged	-8036
▁regulation	-8037
▁agriculture	-8038
▁alternating	-8039
▁publication	-8040
▁underground	-8041
▁interpretation	-8042
wa	-8043
don	-8044
log	-8045
pow	-8046
▁ca	-8047
▁ow	-8048
from	-8049
▁80%	-8050
▁Ast	-8051
▁Cat	-8052
▁hip	-8053
▁tob	-8054
eness	-8055
erted	-8056
▁Sign	-8057
▁hier	-8058
▁libr	-8059
▁Craig	-8060
▁ozone	-8061
▁10,000	-8062
▁Valley	-8063
▁orders	-8064
pressure	-8065
▁argument	-8066
▁sexually	-8067
▁estimates	-8068
▁lightning	-8069
▁somewhere	-8070
▁Convention	-8071
▁advantages	-8072
▁astronauts	-8073
▁everywhere	-8074
▁exceptions	-8075
▁metabolism	-8076
▁occasionally	-8077
py	-8078
whe	-8079
▁Iv	-8080
adow	-8081
high	-8082
wear	-8083
▁XXX	-8084
▁dad	-8085
esity	-8086
ieval	-8087
iosis	-8088
▁Five	-8089
▁Mach	-8090
▁Rail	-8091
ijuana	-8092
ocated	-8093
▁drove	-8094
▁sheep	-8095
osphere	-8096
▁Bureau	-8097
▁compat	-8098
▁preced	-8099
▁sector	-8100
▁smiled	-8101
▁throat	-8102
▁Library	-8103
▁colored	-8104
▁donated	-8105
▁managed	-8106
▁raising	-8107
▁Facebook	-8108
▁Students	-8109
▁emotions	-8110
▁findings	-8111
▁numerals	-8112
▁reasonable	-8113
▁educational	-8114
▁corporations	-8115
55	-8116
éd	-8117
2).	-8118
700	-8119
lus	-8120
▁id	-8121
igue	-8122
uous	-8123
▁20%	-8124
▁lam	-8125
agine	-8126
ommod	-8127
▁Holy	-8128
▁Week	-8129
▁ment	-8130
▁worn	-8131
ocracy	-8132
▁1,000	-8133
▁Event	-8134
▁Prize	-8135
▁Touch	-8136
▁conve	-8137
▁drops	-8138
▁solub	-8139
▁Master	-8140
▁denied	-8141
▁nuclei	-8142
▁worker	-8143
▁Kennedy	-8144
▁Special	-8145
▁enthusi	-8146
▁mistake	-8147
▁staying	-8148
▁viewers	-8149
▁approved	-8150
▁throwing	-8151
▁treaties	-8152
▁addresses	-8153
▁collapsed	-8154
▁incorrect	-8155
▁returning	-8156
▁temporary	-8157
▁horizontal	-8158
▁controversy	-8159
▁recognition	-8160
▁replacement	-8161
▁Championship	-8162
▁continuously	-8163
79	-8164
je	-8165
cul	-8166
ups	-8167
▁TF	-8168
anol	-8169
imic	-8170
neys	-8171
▁fur	-8172
▁mph	-8173
▁tum	-8174
bered	-8175
ports	-8176
▁Expl	-8177
▁Form	-8178
▁Wood	-8179
▁bomb	-8180
▁radi	-8181
▁Syria	-8182
▁error	-8183
▁merch	-8184
▁yield	-8185
tenance	-8186
▁abroad	-8187
▁incomp	-8188
▁waters	-8189
▁Chengdu	-8190
▁Conserv	-8191
▁Profess	-8192
▁accommod	-8193
▁estimate	-8194
▁incident	-8195
▁algorithms	-8196
▁opportunities	-8197
▁transportation	-8198
.”	-8199
Be	-8200
HC	-8201
....	-8202
even	-8203
spec	-8204
▁unw	-8205
▁Know	-8206
▁Yang	-8207
▁mush	-8208
▁smok	-8209
▁algae	-8210
▁awake	-8211
▁hosts	-8212
▁weigh	-8213
▁youth	-8214
▁Daniel	-8215
▁Econom	-8216
▁arrive	-8217
▁colony	-8218
▁partly	-8219
▁coordin	-8220
▁customs	-8221
▁descent	-8222
▁drawing	-8223
▁options	-8224
▁contents	-8225
▁visiting	-8226
▁happiness	-8227
▁suspended	-8228
▁Conference	-8229
▁laboratory	-8230
▁earthquakes	-8231
▁exclusively	-8232
▁regulations	-8233
▁infrastructure	-8234
_)	-8235
▁−	-8236
olt	-8237
▁NY	-8238
irds	-8239
lers	-8240
▁12.	-8241
▁15,	-8242
▁400	-8243
▁Der	-8244
▁meg	-8245
agues	-8246
copic	-8247
▁lact	-8248
illing	-8249
oplasm	-8250
▁crash	-8251
▁heter	-8252
▁stere	-8253
▁voting	-8254
▁Austria	-8255
▁Besides	-8256
▁consent	-8257
▁tobacco	-8258
▁trained	-8259
▁supports	-8260
▁weekends	-8261
▁improving	-8262
▁microwave	-8263
▁preferred	-8264
▁designated	-8265
▁inspiration	-8266
yg	-8267
▁GM	-8268
haus	-8269
irls	-8270
requ	-8271
▁$1.	-8272
▁Pop	-8273
cence	-8274
▁Road	-8275
▁Supp	-8276
▁gast	-8277
▁mine	-8278
▁pros	-8279
fortun	-8280
ourage	-8281
▁buses	-8282
▁ionic	-8283
▁munic	-8284
areness	-8285
▁Ladies	-8286
▁advent	-8287
▁lawyer	-8288
▁slower	-8289
▁Islamic	-8290
▁forests	-8291
▁orchest	-8292
▁pronoun	-8293
▁pushing	-8294
▁readers	-8295
▁readily	-8296
▁strains	-8297
▁assigned	-8298
▁engineer	-8299
▁operated	-8300
▁correctly	-8301
▁strongest	-8302
▁wavelengths	-8303
▁subsequently	-8304
▁corresponding	-8305
TC	-8306
UE	-8307
rup	-8308
top	-8309
unc	-8310
bral	-8311
▁Far	-8312
▁Mat	-8313
▁Mur	-8314
▁gap	-8315
ashed	-8316
iotic	-8317
omers	-8318
scale	-8319
▁Peps	-8320
▁exch	-8321
▁jury	-8322
▁mail	-8323
second	-8324
▁ahead	-8325
▁risks	-8326
▁Staten	-8327
▁battle	-8328
▁buried	-8329
▁horses	-8330
▁iPhone	-8331
▁assumed	-8332
▁helpful	-8333
▁hunting	-8334
▁lighter	-8335
▁obesity	-8336
▁offense	-8337
▁removal	-8338
▁witness	-8339
▁doctrine	-8340
▁graduate	-8341
▁homeless	-8342
▁indirect	-8343
▁rejected	-8344
▁stimulus	-8345
▁cognitive	-8346
▁neighbors	-8347
▁proportion	-8348
▁maintenance	-8349
AR	-8350
▁64	-8351
▁Put	-8352
▁coc	-8353
▁van	-8354
ermis	-8355
owski	-8356
rison	-8357
▁Bron	-8358
▁Show	-8359
▁Take	-8360
▁Vist	-8361
▁Work	-8362
▁merg	-8363
iments	-8364
▁Sleep	-8365
▁Spain	-8366
▁aband	-8367
▁rings	-8368
▁saved	-8369
▁sight	-8370
▁Humans	-8371
▁guitar	-8372
▁employee	-8373
▁lighting	-8374
▁regulate	-8375
▁computing	-8376
▁displayed	-8377
▁immediate	-8378
▁intensity	-8379
▁mutations	-8380
▁sentences	-8381
▁conclusion	-8382
▁provisions	-8383
▁differently	-8384
▁distinguish	-8385
▁constitution	-8386
▁Administration	-8387
21	-8388
ett	-8389
▁AM	-8390
▁CC	-8391
▁Ts	-8392
▁Nik	-8393
after	-8394
oston	-8395
▁chim	-8396
▁seal	-8397
istent	-8398
untary	-8399
▁Chris	-8400
▁Wales	-8401
▁airpl	-8402
▁newly	-8403
itivity	-8404
▁estate	-8405
▁intake	-8406
▁nights	-8407
▁physic	-8408
▁spinal	-8409
▁subsid	-8410
▁prokary	-8411
▁railway	-8412
▁unhappy	-8413
▁humidity	-8414
▁pleasure	-8415
ologically	-8416
▁virtually	-8417
▁consistent	-8418
▁traditions	-8419
▁conversation	-8420
nie	-8421
agan	-8422
aton	-8423
four	-8424
▁Nic	-8425
▁Son	-8426
▁Ten	-8427
▁spr	-8428
▁von	-8429
▁bell	-8430
▁jack	-8431
▁rape	-8432
backer	-8433
▁2001,	-8434
▁Charl	-8435
▁Harry	-8436
▁Pepsi	-8437
▁bears	-8438
▁click	-8439
▁climb	-8440
▁guard	-8441
▁loves	-8442
▁proof	-8443
▁prove	-8444
atively	-8445
jection	-8446
oglobin	-8447
▁crying	-8448
▁pushed	-8449
▁Mongols	-8450
▁powered	-8451
▁scoring	-8452
▁symbols	-8453
ederation	-8454
▁brothers	-8455
▁resource	-8456
▁unlikely	-8457
▁conductor	-8458
▁switching	-8459
▁developers	-8460
▁households	-8461
▁incorporated	-8462
.:	-8463
39	-8464
8%	-8465
▁bid	-8466
▁Fréd	-8467
▁Hope	-8468
▁Levi	-8469
▁Nazi	-8470
▁axis	-8471
▁beef	-8472
▁2004,	-8473
▁actor	-8474
▁monop	-8475
▁mucus	-8476
▁Agency	-8477
▁Indust	-8478
▁broadc	-8479
▁eleven	-8480
▁Nations	-8481
▁chamber	-8482
▁manager	-8483
▁stimuli	-8484
▁Frédéric	-8485
▁chloride	-8486
rimination	-8487
▁favourite	-8488
▁improvements	-8489
▁representation	-8490
Ts	-8491
One	-8492
def	-8493
▁Uk	-8494
agen	-8495
illy	-8496
sole	-8497
▁pix	-8498
▁vag	-8499
ctors	-8500
olics	-8501
tains	-8502
▁Lake	-8503
▁boun	-8504
lywood	-8505
▁2003,	-8506
▁brows	-8507
▁cited	-8508
▁lists	-8509
▁print	-8510
▁weren	-8511
▁wings	-8512
▁Altern	-8513
▁geomet	-8514
▁merely	-8515
▁Program	-8516
▁compete	-8517
▁extract	-8518
▁farmers	-8519
▁liquids	-8520
▁mineral	-8521
▁optical	-8522
▁teaches	-8523
▁Province	-8524
▁collabor	-8525
▁declined	-8526
▁backwards	-8527
▁categories	-8528
▁collecting	-8529
ran	-8530
▁UV	-8531
mony	-8532
onna	-8533
▁$10	-8534
▁(0.	-8535
▁Get	-8536
▁Try	-8537
▁rod	-8538
▁Real	-8539
▁alph	-8540
▁gate	-8541
▁roof	-8542
▁Along	-8543
▁aired	-8544
▁badly	-8545
▁chips	-8546
▁vital	-8547
onymous	-8548
▁clocks	-8549
▁desire	-8550
▁Medical	-8551
▁alleged	-8552
▁council	-8553
▁portray	-8554
▁sustain	-8555
ochemical	-8556
▁concepts	-8557
▁holidays	-8558
▁interior	-8559
▁overcome	-8560
▁relevant	-8561
▁vacation	-8562
▁beverages	-8563
▁confusion	-8564
▁continent	-8565
dimensional	-8566
▁healthcare	-8567
▁satellites	-8568
▁supporting	-8569
▁implemented	-8570
EP	-8571
▁Gy	-8572
ieve	-8573
▁osc	-8574
jiang	-8575
▁$100	-8576
▁1920	-8577
▁Sunn	-8578
▁Tang	-8579
▁Hello	-8580
▁cough	-8581
▁energ	-8582
▁innoc	-8583
▁spont	-8584
▁Norway	-8585
▁Portug	-8586
▁cheese	-8587
▁colder	-8588
▁cortex	-8589
▁editor	-8590
▁helium	-8591
▁breathe	-8592
▁dealing	-8593
▁default	-8594
▁legally	-8595
▁sisters	-8596
▁Remember	-8597
▁creative	-8598
▁abilities	-8599
▁explosion	-8600
▁referring	-8601
▁restricted	-8602
▁terrestrial	-8603
▁conservative	-8604
VP	-8605
Day	-8606
cos	-8607
elf	-8608
phen	-8609
▁Gel	-8610
▁See	-8611
▁ket	-8612
ashes	-8613
ricts	-8614
▁mild	-8615
▁tens	-8616
alysis	-8617
ilater	-8618
ivores	-8619
uclear	-8620
▁Press	-8621
▁flour	-8622
▁grant	-8623
▁sends	-8624
▁Boston	-8625
▁cataly	-8626
▁deeply	-8627
▁fluids	-8628
▁freely	-8629
▁senses	-8630
▁stones	-8631
▁stroke	-8632
▁adapted	-8633
▁enemies	-8634
▁existed	-8635
▁publish	-8636
▁shortly	-8637
▁Computer	-8638
▁captured	-8639
▁covering	-8640
▁Victorian	-8641
▁contracts	-8642
▁intention	-8643
▁surrounded	-8644
IP	-8645
bar	-8646
ugh	-8647
▁46	-8648
aste	-8649
bris	-8650
ipes	-8651
urse	-8652
▁Ang	-8653
▁Sax	-8654
▁Tel	-8655
▁Yan	-8656
erman	-8657
erver	-8658
▁Tina	-8659
▁aged	-8660
▁apps	-8661
▁dedu	-8662
▁lady	-8663
▁shit	-8664
giving	-8665
ivered	-8666
▁Radio	-8667
▁gains	-8668
▁loose	-8669
usually	-8670
▁robots	-8671
▁amazing	-8672
▁flights	-8673
▁screens	-8674
▁accompan	-8675
▁annually	-8676
▁entitled	-8677
▁explicit	-8678
▁overseas	-8679
▁protects	-8680
▁relation	-8681
▁vertebrates	-8682
▁independence	-8683
RM	-8684
aug	-8685
anas	-8686
held	-8687
omed	-8688
▁Pot	-8689
▁pap	-8690
iates	-8691
▁Heat	-8692
▁Next	-8693
▁Plan	-8694
▁Stan	-8695
▁fasc	-8696
▁isot	-8697
▁rebu	-8698
▁rope	-8699
ivated	-8700
urches	-8701
▁2017,	-8702
▁acres	-8703
▁disag	-8704
▁femin	-8705
▁outdo	-8706
▁secre	-8707
▁skill	-8708
▁spoke	-8709
writing	-8710
▁Democr	-8711
▁proxim	-8712
▁Skyfall	-8713
▁bottles	-8714
▁buttons	-8715
▁outcome	-8716
▁replied	-8717
▁abundant	-8718
▁arteries	-8719
▁formally	-8720
▁register	-8721
▁accidents	-8722
▁automatic	-8723
▁defensive	-8724
▁libraries	-8725
▁procedures	-8726
▁responsibility	-8727
ears	-8728
gage	-8729
zyme	-8730
▁18,	-8731
▁Bur	-8732
▁Ven	-8733
gered	-8734
itory	-8735
rance	-8736
▁Snow	-8737
▁bass	-8738
▁exit	-8739
▁unex	-8740
acchar	-8741
dering	-8742
gender	-8743
orient	-8744
▁fraud	-8745
▁magic	-8746
▁truck	-8747
▁Police	-8748
▁hungry	-8749
▁insect	-8750
▁barrier	-8751
▁classic	-8752
▁concrete	-8753
▁feedback	-8754
▁operates	-8755
▁skeletal	-8756
▁delivered	-8757
▁discharge	-8758
▁epicenter	-8759
▁circulation	-8760
▁entertainment	-8761
//	-8762
DP	-8763
OR	-8764
bag	-8765
how	-8766
iov	-8767
rhe	-8768
▁55	-8769
asis	-8770
flow	-8771
otyp	-8772
▁154	-8773
▁Low	-8774
▁MTV	-8775
▁Max	-8776
▁USB	-8777
there	-8778
▁2003	-8779
▁Jord	-8780
▁Pict	-8781
▁acet	-8782
▁eval	-8783
▁fort	-8784
▁taxi	-8785
ipedia	-8786
▁memor	-8787
▁stays	-8788
▁swing	-8789
▁wound	-8790
▁Bridge	-8791
▁cinema	-8792
▁cydipp	-8793
▁facial	-8794
▁senior	-8795
▁solids	-8796
▁grounds	-8797
▁orbital	-8798
▁valence	-8799
▁literary	-8800
▁mutation	-8801
▁neutrons	-8802
▁boundaries	-8803
▁distinctive	-8804
▁immigration	-8805
▁proportional	-8806
▁representing	-8807
On	-8808
://	-8809
days	-8810
erty	-8811
hers	-8812
izza	-8813
lind	-8814
rass	-8815
real	-8816
▁50%	-8817
▁Num	-8818
▁hat	-8819
▁shy	-8820
▁sug	-8821
▁tip	-8822
emale	-8823
ested	-8824
icate	-8825
osers	-8826
▁Arts	-8827
▁bars	-8828
▁cake	-8829
▁gang	-8830
▁oxide	-8831
▁Andrew	-8832
▁Arabia	-8833
▁discip	-8834
▁losses	-8835
▁waking	-8836
▁keyboard	-8837
▁thoughts	-8838
▁distances	-8839
▁elephants	-8840
▁describing	-8841
▁destination	-8842
IA	-8843
nom	-8844
▁(8	-8845
▁33	-8846
▁65	-8847
hand	-8848
keys	-8849
ople	-8850
utor	-8851
▁oct	-8852
child	-8853
▁grid	-8854
▁loop	-8855
▁spon	-8856
▁uter	-8857
enders	-8858
friend	-8859
▁Blood	-8860
▁Third	-8861
▁curve	-8862
▁dying	-8863
▁firms	-8864
▁laser	-8865
▁votes	-8866
isphere	-8867
▁Disney	-8868
▁Module	-8869
▁cylind	-8870
▁rubber	-8871
cellular	-8872
▁Imagine	-8873
▁Perhaps	-8874
▁autonom	-8875
▁compare	-8876
▁crystal	-8877
▁printed	-8878
▁duration	-8879
▁episodes	-8880
▁struggle	-8881
▁Hollywood	-8882
▁hospitals	-8883
▁passwords	-8884
▁Democratic	-8885
▁separation	-8886
▁simultaneously	-8887
76	-8888
CO	-8889
bel	-8890
ima	-8891
low	-8892
Cube	-8893
bish	-8894
▁Mos	-8895
▁jer	-8896
▁zoo	-8897
annel	-8898
backs	-8899
books	-8900
ocial	-8901
rimin	-8902
ughed	-8903
▁Lady	-8904
▁blur	-8905
rupted	-8906
▁Jones	-8907
isition	-8908
▁Summer	-8909
▁breast	-8910
▁clever	-8911
▁styles	-8912
▁Perform	-8913
▁bladder	-8914
▁deliber	-8915
▁laughed	-8916
▁radical	-8917
▁shouted	-8918
▁GameCube	-8919
▁restored	-8920
▁districts	-8921
▁pressures	-8922
▁suffering	-8923
▁Eventually	-8924
▁instruction	-8925
▁identification	-8926
hn	-8927
va	-8928
-19	-8929
ada	-8930
add	-8931
exp	-8932
rug	-8933
ttp	-8934
ione	-8935
oves	-8936
▁Jem	-8937
▁NBA	-8938
▁tou	-8939
atech	-8940
chron	-8941
elect	-8942
ockey	-8943
raine	-8944
uests	-8945
▁Dear	-8946
▁Lord	-8947
▁Ross	-8948
▁adds	-8949
▁bulk	-8950
▁depr	-8951
▁pays	-8952
▁rect	-8953
▁semi	-8954
writer	-8955
▁2010.	-8956
▁Swiss	-8957
▁nurse	-8958
▁Avenue	-8959
▁beauty	-8960
▁debris	-8961
▁mixing	-8962
▁plenty	-8963
▁triple	-8964
▁Karmapa	-8965
▁Knowles	-8966
▁deficit	-8967
▁fastest	-8968
▁infring	-8969
▁interfe	-8970
▁Beichuan	-8971
▁judicial	-8972
▁mistakes	-8973
▁moderate	-8974
▁refugees	-8975
▁tendency	-8976
▁extension	-8977
▁pregnancy	-8978
▁prevented	-8979
▁Technology	-8980
▁industries	-8981
▁territories	-8982
▁precipitation	-8983
▁concentrations	-8984
:.	-8985
oor	-8986
▁Na	-8987
rule	-8988
▁1.5	-8989
▁HIV	-8990
▁osm	-8991
aland	-8992
ingle	-8993
▁TRUE	-8994
▁bare	-8995
▁inhe	-8996
▁keys	-8997
▁lets	-8998
▁pref	-8999
▁Bronx	-9000
▁anger	-9001
▁guest	-9002
▁optim	-9003
▁races	-9004
istical	-9005
▁Forbes	-9006
▁Global	-9007
▁Orange	-9008
▁consec	-9009
▁decomp	-9010
▁gentle	-9011
▁polite	-9012
▁rocket	-9013
▁safely	-9014
▁sphere	-9015
▁tastes	-9016
▁tested	-9017
language	-9018
▁Bernard	-9019
▁fifteen	-9020
▁prepare	-9021
▁Williams	-9022
▁hydrocar	-9023
▁elsewhere	-9024
▁undergrad	-9025
▁absorption	-9026
▁connecting	-9027
▁travelling	-9028
▁intellectual	-9029
▁participants	-9030
At	-9031
▁!	-9032
avy	-9033
owed	-9034
▁ELI	-9035
▁Obs	-9036
▁fab	-9037
endar	-9038
rehen	-9039
▁Coll	-9040
▁Gall	-9041
▁Name	-9042
▁Rose	-9043
▁coat	-9044
▁dish	-9045
▁gest	-9046
▁wars	-9047
necess	-9048
▁Royal	-9049
▁aster	-9050
▁boost	-9051
▁fatal	-9052
▁fires	-9053
▁honey	-9054
▁sheet	-9055
ogether	-9056
▁expert	-9057
▁manual	-9058
▁oscill	-9059
▁busiest	-9060
▁diagram	-9061
▁enables	-9062
▁footage	-9063
▁insulin	-9064
▁liberal	-9065
▁profits	-9066
▁suicide	-9067
imensions	-9068
▁crystals	-9069
▁perceive	-9070
▁Amendment	-9071
▁documents	-9072
▁mechanics	-9073
▁complement	-9074
▁integrated	-9075
▁treatments	-9076
▁influential	-9077
▁participate	-9078
And	-9079
pel	-9080
▁BC	-9081
..."	-9082
olph	-9083
phib	-9084
▁Bre	-9085
adows	-9086
arynx	-9087
owned	-9088
▁flew	-9089
▁maps	-9090
celled	-9091
otroph	-9092
▁apple	-9093
▁genus	-9094
▁pilot	-9095
▁defect	-9096
▁Foreign	-9097
▁Normans	-9098
▁Zealand	-9099
▁virtual	-9100
▁bankrupt	-9101
▁floating	-9102
▁peripher	-9103
▁settings	-9104
▁diffusion	-9105
▁exclusive	-9106
▁municipal	-9107
▁policeman	-9108
▁apparently	-9109
▁supplement	-9110
▁departments	-9111
▁maintaining	-9112
▁orientation	-9113
▁manufactured	-9114
hin	-9115
éon	-9116
▁Ly	-9117
rhea	-9118
vard	-9119
▁Ren	-9120
▁mad	-9121
▁rab	-9122
aping	-9123
iture	-9124
onent	-9125
phase	-9126
uster	-9127
▁100%	-9128
▁Sony	-9129
▁chat	-9130
▁dies	-9131
▁drag	-9132
▁Prior	-9133
▁Queen	-9134
▁Stock	-9135
▁calor	-9136
▁opens	-9137
▁resid	-9138
itarian	-9139
▁dental	-9140
▁landed	-9141
▁margin	-9142
▁preval	-9143
▁reward	-9144
▁solely	-9145
▁tunnel	-9146
▁charity	-9147
▁parking	-9148
▁passive	-9149
itational	-9150
▁penicill	-9151
▁terminal	-9152
▁measuring	-9153
▁accompanied	-9154
▁observations	-9155
▁physiological	-9156
BI	-9157
nia	-9158
▁1/	-9159
▁GB	-9160
▁OS	-9161
icts	-9162
pson	-9163
▁Gas	-9164
▁hob	-9165
▁lig	-9166
▁pin	-9167
oxide	-9168
▁Ying	-9169
▁fant	-9170
▁leak	-9171
mental	-9172
▁forth	-9173
▁occas	-9174
▁remem	-9175
lements	-9176
▁barrel	-9177
▁enzyme	-9178
▁manned	-9179
▁masses	-9180
▁ongoing	-9181
▁origins	-9182
▁currents	-9183
▁historic	-9184
▁tropical	-9185
▁engineers	-9186
▁everybody	-9187
▁objective	-9188
▁considering	-9189
▁effectiveness	-9190
?.	-9191
xi	-9192
ów	-9193
–4	-9194
▁9.	-9195
▁Av	-9196
▁Ms	-9197
irts	-9198
▁11.	-9199
▁Pit	-9200
▁RNA	-9201
▁dat	-9202
▁eru	-9203
oderm	-9204
▁Bang	-9205
▁Viet	-9206
▁fats	-9207
▁pest	-9208
advant	-9209
bourne	-9210
ousers	-9211
weight	-9212
▁enact	-9213
▁marks	-9214
▁newer	-9215
▁surve	-9216
▁topic	-9217
▁trait	-9218
istance	-9219
mediate	-9220
natural	-9221
▁Carbon	-9222
▁Castle	-9223
▁Johann	-9224
▁proven	-9225
▁trains	-9226
idelines	-9227
▁Article	-9228
▁desired	-9229
▁inhabit	-9230
▁polynom	-9231
▁announce	-9232
▁ceremony	-9233
▁confused	-9234
▁awareness	-9235
▁candidates	-9236
▁friendship	-9237
▁contraction	-9238
▁correlation	-9239
▁distinction	-9240
37	-9241
⁄2	-9242
asa	-9243
his	-9244
nid	-9245
oir	-9246
ura	-9247
Then	-9248
burn	-9249
case	-9250
iami	-9251
name	-9252
offs	-9253
some	-9254
▁AFC	-9255
▁bat	-9256
▁Phot	-9257
▁Toby	-9258
▁clos	-9259
▁glac	-9260
▁pink	-9261
anning	-9262
ournal	-9263
▁2011.	-9264
▁Antib	-9265
▁Gelug	-9266
▁facts	-9267
▁lions	-9268
▁manif	-9269
▁numer	-9270
▁overw	-9271
▁veins	-9272
▁wages	-9273
▁Almost	-9274
▁brands	-9275
▁propag	-9276
▁riding	-9277
▁scores	-9278
▁tradem	-9279
raviolet	-9280
▁bananas	-9281
▁bicycle	-9282
▁funeral	-9283
▁segment	-9284
▁threats	-9285
▁Fighting	-9286
▁Pakistan	-9287
▁assembly	-9288
▁circular	-9289
▁telecomm	-9290
▁vitamins	-9291
▁invention	-9292
▁musicians	-9293
▁influences	-9294
▁philosophy	-9295
▁Corporation	-9296
▁personality	-9297
▁interference	-9298
▁independently	-9299
68	-9300
95	-9301
RI	-9302
fts	-9303
gent	-9304
ifer	-9305
made	-9306
olid	-9307
pled	-9308
▁Kit	-9309
▁les	-9310
▁nin	-9311
▁ure	-9312
lysis	-9313
ouses	-9314
▁Ball	-9315
▁Mult	-9316
▁Prem	-9317
▁ants	-9318
▁boss	-9319
season	-9320
▁Fault	-9321
▁Nobel	-9322
▁spons	-9323
itative	-9324
urities	-9325
▁Flight	-9326
▁Plants	-9327
▁banned	-9328
▁burned	-9329
▁cooler	-9330
▁deeper	-9331
▁needle	-9332
▁thirty	-9333
▁torque	-9334
tebrates	-9335
▁Olympic	-9336
▁bedroom	-9337
▁happily	-9338
▁transpl	-9339
▁approval	-9340
▁certific	-9341
▁churches	-9342
▁Melbourne	-9343
▁eliminate	-9344
▁dimensions	-9345
▁prediction	-9346
▁selections	-9347
27	-9348
fa	-9349
Cra	-9350
abs	-9351
aws	-9352
bell	-9353
bone	-9354
▁Fle	-9355
▁Mov	-9356
▁ate	-9357
▁sle	-9358
berry	-9359
eterm	-9360
worth	-9361
▁1000	-9362
▁Trad	-9363
▁epit	-9364
▁lock	-9365
▁oven	-9366
▁unem	-9367
atitis	-9368
inking	-9369
pelled	-9370
▁Guard	-9371
▁flies	-9372
rection	-9373
selling	-9374
▁Garden	-9375
▁cooked	-9376
▁gather	-9377
▁remind	-9378
▁advised	-9379
▁comprom	-9380
▁console	-9381
▁matters	-9382
▁totally	-9383
itzerland	-9384
▁Lutheran	-9385
▁equipped	-9386
▁reflects	-9387
▁introduce	-9388
▁triggered	-9389
▁agreements	-9390
▁discussion	-9391
▁protective	-9392
▁reputation	-9393
▁threatened	-9394
▁Development	-9395
▁organisation	-9396
Hz	-9397
ey	-9398
ić	-9399
amy	-9400
bow	-9401
▁36	-9402
____	-9403
ambo	-9404
feld	-9405
zhou	-9406
▁14,	-9407
▁Aff	-9408
▁Lim	-9409
orrow	-9410
▁Base	-9411
▁TFEU	-9412
▁conj	-9413
health	-9414
▁advoc	-9415
▁intra	-9416
▁lying	-9417
▁recre	-9418
▁museum	-9419
▁pencil	-9420
▁phylum	-9421
▁stamps	-9422
▁violin	-9423
▁aftersh	-9424
▁earning	-9425
▁locomot	-9426
▁premium	-9427
▁unclear	-9428
▁Virginia	-9429
▁blocking	-9430
▁claiming	-9431
▁definite	-9432
▁protocol	-9433
▁simplest	-9434
▁suppress	-9435
fortunately	-9436
▁legitimate	-9437
▁Switzerland	-9438
▁technically	-9439
▁consciousness	-9440
ban	-9441
vae	-9442
▁$4	-9443
amus	-9444
bons	-9445
unar	-9446
▁Gan	-9447
▁REM	-9448
inter	-9449
sored	-9450
▁Alab	-9451
▁Come	-9452
▁Mean	-9453
▁Town	-9454
▁bund	-9455
▁dorm	-9456
▁2018,	-9457
▁Short	-9458
▁Stone	-9459
▁edges	-9460
▁nodes	-9461
▁param	-9462
▁stead	-9463
▁talks	-9464
▁Jordan	-9465
▁assets	-9466
▁client	-9467
▁fumble	-9468
▁storms	-9469
▁Network	-9470
▁praised	-9471
▁samples	-9472
▁sharing	-9473
▁streams	-9474
▁abnormal	-9475
▁gambling	-9476
▁minister	-9477
▁momentum	-9478
▁trousers	-9479
▁Catholics	-9480
▁headaches	-9481
▁ownership	-9482
▁accurately	-9483
▁polynomial	-9484
▁prohibited	-9485
87	-9486
obs	-9487
ogs	-9488
–10	-9489
ario	-9490
hard	-9491
▁Sym	-9492
▁Yet	-9493
▁arc	-9494
iants	-9495
▁Expo	-9496
▁beam	-9497
▁dent	-9498
▁mood	-9499
▁peak	-9500
▁ties	-9501
▁Davis	-9502
▁Steam	-9503
▁aimed	-9504
▁Market	-9505
▁Series	-9506
▁brains	-9507
▁ending	-9508
▁infant	-9509
▁piston	-9510
▁solved	-9511
▁Mexican	-9512
▁chances	-9513
▁exhibit	-9514
▁matches	-9515
▁pigment	-9516
▁Teachers	-9517
▁occupied	-9518
▁pregnant	-9519
▁wetlands	-9520
▁embarrass	-9521
▁marijuana	-9522
▁processed	-9523
▁residence	-9524
▁possession	-9525
▁corporation	-9526
▁genetically	-9527
▁Organization	-9528
▁configuration	-9529
";	-9530
GB	-9531
Now	-9532
deg	-9533
▁49	-9534
athy	-9535
brit	-9536
dule	-9537
onia	-9538
▁13,	-9539
▁Occ	-9540
▁dil	-9541
utors	-9542
▁Cind	-9543
▁Gary	-9544
▁Note	-9545
▁forb	-9546
▁rept	-9547
earing	-9548
▁Grade	-9549
▁adequ	-9550
▁burns	-9551
▁fever	-9552
▁filed	-9553
▁fluor	-9554
▁inaug	-9555
▁teles	-9556
▁towns	-9557
▁truly	-9558
athetic	-9559
brities	-9560
ressive	-9561
▁Deréon	-9562
▁accent	-9563
▁titled	-9564
although	-9565
▁Alabama	-9566
▁Vistula	-9567
▁coastal	-9568
▁feather	-9569
▁infants	-9570
▁synthes	-9571
ibilities	-9572
▁employer	-9573
▁inferior	-9574
▁minority	-9575
▁prompted	-9576
▁proposal	-9577
▁somebody	-9578
▁nutrition	-9579
▁regulated	-9580
▁statistics	-9581
▁vulnerable	-9582
▁agricultural	-9583
▁representatives	-9584
-3	-9585
HD	-9586
.25	-9587
dem	-9588
▁Jr	-9589
five	-9590
kins	-9591
paid	-9592
▁Cub	-9593
▁Wit	-9594
first	-9595
▁Ober	-9596
▁fumb	-9597
▁panc	-9598
▁wore	-9599
irable	-9600
lisher	-9601
pected	-9602
▁Trump	-9603
▁lamas	-9604
▁pills	-9605
▁skull	-9606
iversal	-9607
▁saving	-9608
▁viable	-9609
▁weaker	-9610
▁absorbs	-9611
▁enhance	-9612
▁enjoyed	-9613
▁explore	-9614
▁mercury	-9615
▁aluminum	-9616
▁dramatic	-9617
▁orbitals	-9618
▁calculate	-9619
▁maintains	-9620
▁posterior	-9621
▁providers	-9622
▁discipline	-9623
▁encryption	-9624
▁productive	-9625
▁measurements	-9626
▁prescription	-9627
▁discrimination	-9628
-2	-9629
GM	-9630
Un	-9631
▁IC	-9632
▁Os	-9633
aria	-9634
ifth	-9635
thod	-9636
wart	-9637
▁Say	-9638
amboo	-9639
auses	-9640
ifier	-9641
▁bias	-9642
▁bron	-9643
▁mile	-9644
▁torn	-9645
ondorf	-9646
▁Being	-9647
▁loses	-9648
▁stuck	-9649
instein	-9650
▁Capote	-9651
▁Golden	-9652
▁athlet	-9653
▁mining	-9654
▁sugars	-9655
▁trauma	-9656
▁vector	-9657
angerous	-9658
▁Between	-9659
▁Journal	-9660
▁compact	-9661
▁knowing	-9662
▁nearest	-9663
▁quietly	-9664
▁Colorado	-9665
▁detected	-9666
▁deterior	-9667
▁traveled	-9668
▁Ganondorf	-9669
▁releasing	-9670
▁reporting	-9671
▁compression	-9672
▁legislature	-9673
ca	-9674
2),	-9675
For	-9676
ala	-9677
ali	-9678
dig	-9679
mes	-9680
rog	-9681
▁MS	-9682
arat	-9683
bian	-9684
▁(15	-9685
▁21,	-9686
▁90%	-9687
▁Cle	-9688
▁Dub	-9689
▁Mag	-9690
ludes	-9691
oning	-9692
umann	-9693
▁Greg	-9694
▁Main	-9695
▁Tues	-9696
▁Writ	-9697
▁anch	-9698
▁bump	-9699
▁fict	-9700
▁pipe	-9701
▁plot	-9702
▁rows	-9703
▁shif	-9704
coming	-9705
parent	-9706
▁Chang	-9707
▁Sound	-9708
▁doubt	-9709
▁kills	-9710
▁pizza	-9711
▁poles	-9712
fection	-9713
ighters	-9714
issions	-9715
▁kidney	-9716
▁lenses	-9717
▁meteor	-9718
▁papers	-9719
▁sneeze	-9720
onscious	-9721
▁Individ	-9722
▁Whether	-9723
▁dietary	-9724
▁melting	-9725
▁targets	-9726
ictionary	-9727
▁anterior	-9728
▁emphasis	-9729
▁Secretary	-9730
▁appointed	-9731
▁conflicts	-9732
▁obviously	-9733
▁parasites	-9734
▁responded	-9735
▁originated	-9736
▁penicillin	-9737
▁capillaries	-9738
▁advertisement	-9739
-8	-9740
Al	-9741
Do	-9742
eg	-9743
fly	-9744
rix	-9745
▁66	-9746
▁ED	-9747
▁FM	-9748
▁Ol	-9749
oger	-9750
only	-9751
▁Equ	-9752
▁sir	-9753
black	-9754
uates	-9755
▁Bush	-9756
▁Card	-9757
▁Cult	-9758
▁Lucy	-9759
▁furn	-9760
▁http	-9761
forced	-9762
icious	-9763
▁Enter	-9764
▁Night	-9765
▁Saint	-9766
▁anten	-9767
▁plain	-9768
▁pyram	-9769
▁safer	-9770
▁Around	-9771
▁Please	-9772
▁apprec	-9773
▁drying	-9774
▁errors	-9775
▁mature	-9776
▁penetr	-9777
▁undert	-9778
▁voices	-9779
ferences	-9780
▁debuted	-9781
▁shouldn	-9782
▁Anderson	-9783
▁Columbia	-9784
▁Exchange	-9785
▁choosing	-9786
▁colorful	-9787
▁downward	-9788
▁periodic	-9789
▁reserves	-9790
▁subscrib	-9791
▁competing	-9792
▁migration	-9793
▁resistant	-9794
▁sequences	-9795
▁similarly	-9796
▁controlling	-9797
▁limitations	-9798
▁photographs	-9799
▁ultraviolet	-9800
▁considerable	-9801
▁inflammation	-9802
▁contributions	-9803
BO	-9804
SS	-9805
So	-9806
enz	-9807
itz	-9808
–20	-9809
▁38	-9810
▁39	-9811
grow	-9812
oons	-9813
rate	-9814
▁16,	-9815
▁Att	-9816
▁Ext	-9817
▁GPS	-9818
▁III	-9819
▁Ted	-9820
▁fog	-9821
▁maz	-9822
Crazy	-9823
acked	-9824
antle	-9825
dered	-9826
hetic	-9827
opsis	-9828
print	-9829
▁diab	-9830
▁joke	-9831
▁lapt	-9832
▁mini	-9833
▁wing	-9834
osomes	-9835
screen	-9836
▁Block	-9837
▁Helen	-9838
▁Zhang	-9839
▁arbit	-9840
▁fract	-9841
▁moral	-9842
▁overl	-9843
▁salts	-9844
prising	-9845
▁larvae	-9846
▁refuse	-9847
▁scales	-9848
▁struck	-9849
▁toilet	-9850
,000,000	-9851
pathetic	-9852
▁Alcohol	-9853
▁Denmark	-9854
▁delayed	-9855
▁endorse	-9856
▁finance	-9857
▁forever	-9858
▁jumping	-9859
necessary	-9860
▁sections	-9861
▁cytoplasm	-9862
▁factories	-9863
▁nominated	-9864
▁poisoning	-9865
▁preserved	-9866
▁qualities	-9867
▁indicating	-9868
▁recordings	-9869
▁definitions	-9870
▁experimental	-9871
RE	-9872
–0	-9873
cut	-9874
ibl	-9875
net	-9876
uce	-9877
▁9,	-9878
core	-9879
east	-9880
fare	-9881
icip	-9882
mate	-9883
mble	-9884
uten	-9885
zart	-9886
▁10.	-9887
▁Cir	-9888
▁Jac	-9889
▁Lud	-9890
▁Ret	-9891
▁dys	-9892
▁fed	-9893
▁jet	-9894
cycle	-9895
eping	-9896
ivest	-9897
llers	-9898
▁Dead	-9899
▁Duke	-9900
▁Head	-9901
▁Ring	-9902
▁drew	-9903
Single	-9904
▁Fried	-9905
▁Table	-9906
▁lasts	-9907
▁overt	-9908
osexual	-9909
vereign	-9910
▁Having	-9911
▁bubble	-9912
▁fought	-9913
▁housed	-9914
▁notion	-9915
oriented	-9916
▁filling	-9917
▁justice	-9918
▁monthly	-9919
▁placing	-9920
▁pulling	-9921
▁servers	-9922
▁crossing	-9923
▁dreaming	-9924
▁invasion	-9925
▁schedule	-9926
▁vertebra	-9927
▁vomiting	-9928
▁headlined	-9929
▁interfere	-9930
▁oxidation	-9931
▁uncertain	-9932
▁protecting	-9933
▁reflection	-9934
▁descendants	-9935
▁grandfather	-9936
▁residential	-9937
▁jurisdiction	-9938
Can	-9939
RNA	-9940
cie	-9941
lai	-9942
rif	-9943
wid	-9944
▁1%	-9945
aque	-9946
▁50?	-9947
▁CEO	-9948
▁rum	-9949
izers	-9950
otton	-9951
▁1900	-9952
▁Code	-9953
▁Side	-9954
▁Walt	-9955
▁melt	-9956
ricane	-9957
robial	-9958
▁Would	-9959
▁spong	-9960
▁spots	-9961
▁trick	-9962
dration	-9963
▁Census	-9964
▁guests	-9965
▁incent	-9966
▁inject	-9967
▁symmet	-9968
▁themes	-9969
function	-9970
▁arguing	-9971
▁balloon	-9972
▁farther	-9973
▁gametes	-9974
▁strikes	-9975
placement	-9976
▁admitted	-9977
▁connects	-9978
▁develops	-9979
▁protests	-9980
▁reliable	-9981
▁rotating	-9982
▁offensive	-9983
▁ourselves	-9984
▁populated	-9985
▁proximity	-9986
▁sovereign	-9987
▁tolerance	-9988
▁accessible	-9989
▁determines	-9990
▁theoretical	-9991
▁transported	-9992
▁unconscious	-9993
▁experiencing	-9994
▁significance	-9995
BM	-9996
kel	-9997
mia	-9998
▁Jo	-9999
▁OK	-10000
▁Ox	-10001
▁SI	-10002
▁Ul	-10003
oked	-10004
olen	-10005
▁3.5	-10006
▁Blu	-10007
▁Ron	-10008
▁Wal	-10009
▁jun	-10010
▁pic	-10011
arner	-10012
▁Hosp	-10013
▁cycl	-10014
▁tire	-10015
▁whis	-10016
erning	-10017
▁2002,	-10018
▁Creat	-10019
▁Prime	-10020
▁Steve	-10021
▁limbs	-10022
▁nause	-10023
▁pumps	-10024
▁reson	-10025
▁shore	-10026
▁voted	-10027
acteria	-10028
▁Hyrule	-10029
▁albums	-10030
▁fusion	-10031
▁trucks	-10032
▁Twitter	-10033
▁bubbles	-10034
▁chapter	-10035
▁circles	-10036
▁dismiss	-10037
▁fatigue	-10038
▁highway	-10039
▁imposed	-10040
▁monkeys	-10041
▁trapped	-10042
▁attacked	-10043
▁damaging	-10044
▁flexible	-10045
▁galaxies	-10046
▁infinite	-10047
▁portions	-10048
▁vascular	-10049
imicrobial	-10050
▁Meanwhile	-10051
▁illnesses	-10052
▁commission	-10053
▁foundation	-10054
▁repeatedly	-10055
▁distinguished	-10056
uk	-10057
Let	-10058
anj	-10059
ogy	-10060
oli	-10061
pot	-10062
run	-10063
▁2-	-10064
▁IR	-10065
▁Mi	-10066
andy	-10067
izer	-10068
izon	-10069
ulum	-10070
▁(10	-10071
▁Div	-10072
▁tie	-10073
class	-10074
rator	-10075
redit	-10076
rophy	-10077
verty	-10078
▁Less	-10079
▁insu	-10080
▁jail	-10081
▁pige	-10082
▁pole	-10083
making	-10084
▁Sally	-10085
▁grain	-10086
▁screw	-10087
▁strip	-10088
▁Calvin	-10089
▁incred	-10090
▁lesser	-10091
▁prince	-10092
▁Clinton	-10093
▁consult	-10094
▁dispers	-10095
▁drought	-10096
▁emotion	-10097
▁focuses	-10098
▁mothers	-10099
▁tribute	-10100
▁wealthy	-10101
▁Moreover	-10102
▁Scottish	-10103
▁boroughs	-10104
▁governor	-10105
▁muscular	-10106
▁trillion	-10107
▁economics	-10108
▁volunteer	-10109
▁Background	-10110
▁calculated	-10111
▁consecutive	-10112
▁exploration	-10113
▁Nevertheless	-10114
▁transactions	-10115
▁fertilization	-10116
PP	-10117
hi	-10118
All	-10119
cin	-10120
pre	-10121
–15	-10122
igan	-10123
olis	-10124
▁28,	-10125
▁Blo	-10126
▁DRM	-10127
▁Hun	-10128
▁Von	-10129
adian	-10130
letic	-10131
osion	-10132
style	-10133
▁1940	-10134
▁Bach	-10135
▁Read	-10136
▁guns	-10137
▁kiss	-10138
▁laid	-10139
▁sink	-10140
▁tort	-10141
lights	-10142
vation	-10143
▁alleg	-10144
▁cried	-10145
▁fired	-10146
▁texts	-10147
▁tires	-10148
▁wheat	-10149
▁cables	-10150
▁fright	-10151
▁naming	-10152
▁spokes	-10153
▁stabil	-10154
▁strain	-10155
▁surviv	-10156
▁Francis	-10157
▁Tuesday	-10158
▁aggress	-10159
▁arrival	-10160
▁borders	-10161
▁distant	-10162
▁poverty	-10163
▁profile	-10164
efficient	-10165
▁Chemical	-10166
▁climates	-10167
▁justified	-10168
▁phenomena	-10169
▁predicted	-10170
▁vegetation	-10171
▁inhabitants	-10172
77	-10173
Am	-10174
hol	-10175
▁,"	-10176
▁ul	-10177
oler	-10178
opes	-10179
rose	-10180
▁Did	-10181
▁Pet	-10182
▁nap	-10183
afety	-10184
aters	-10185
comes	-10186
helle	-10187
▁Fair	-10188
▁Mess	-10189
▁Phag	-10190
▁Test	-10191
▁Watt	-10192
▁atop	-10193
▁cnid	-10194
▁glad	-10195
▁hill	-10196
▁3,000	-10197
▁Domin	-10198
▁Labor	-10199
▁fragr	-10200
▁gramm	-10201
▁hired	-10202
▁tiger	-10203
▁tubes	-10204
▁Felipe	-10205
▁Spirit	-10206
▁Temper	-10207
▁duties	-10208
▁fellow	-10209
▁frames	-10210
▁judges	-10211
▁median	-10212
▁shaped	-10213
fortable	-10214
ivestock	-10215
▁categor	-10216
▁edition	-10217
▁grossed	-10218
▁painful	-10219
▁theater	-10220
▁disabled	-10221
▁breakdown	-10222
▁competitive	-10223
▁consequence	-10224
▁conservation	-10225
▁establishing	-10226
bi	-10227
▁~	-10228
Man	-10229
emi	-10230
izz	-10231
▁AS	-10232
▁DC	-10233
▁Kr	-10234
▁Ni	-10235
0000	-10236
ghan	-10237
seud	-10238
uper	-10239
▁Cup	-10240
▁Fer	-10241
▁NYC	-10242
borne	-10243
rared	-10244
▁dehy	-10245
▁eats	-10246
▁hapl	-10247
▁nail	-10248
▁tear	-10249
▁tips	-10250
asting	-10251
hauser	-10252
itting	-10253
urable	-10254
▁Album	-10255
▁Betty	-10256
▁Linux	-10257
▁Nancy	-10258
▁Store	-10259
▁humor	-10260
▁Carter	-10261
▁Singap	-10262
▁boiler	-10263
▁genome	-10264
▁grains	-10265
▁lining	-10266
▁monkey	-10267
▁pandas	-10268
▁racing	-10269
▁sulfur	-10270
complete	-10271
phibians	-10272
▁Century	-10273
▁Certain	-10274
▁Nothing	-10275
▁anymore	-10276
▁banking	-10277
▁dynamic	-10278
▁Function	-10279
▁circuits	-10280
▁entrance	-10281
▁disappear	-10282
▁attempting	-10283
▁medications	-10284
▁availability	-10285
▁gravitational	-10286
*.	-10287
–7	-10288
9).	-10289
iak	-10290
▁37	-10291
▁51	-10292
ador	-10293
anic	-10294
olas	-10295
reas	-10296
▁Aud	-10297
▁pel	-10298
agnet	-10299
ivals	-10300
ivate	-10301
orney	-10302
osaur	-10303
ourse	-10304
thood	-10305
wheel	-10306
width	-10307
▁Chen	-10308
▁Cook	-10309
▁Dire	-10310
▁Fish	-10311
▁deaf	-10312
▁dict	-10313
▁tact	-10314
abling	-10315
eroids	-10316
essive	-10317
ployed	-10318
▁Large	-10319
▁dynam	-10320
▁embed	-10321
▁inequ	-10322
▁pants	-10323
powered	-10324
▁Commer	-10325
▁cartil	-10326
▁finite	-10327
▁hardly	-10328
▁myster	-10329
▁orbits	-10330
▁pollen	-10331
▁sensor	-10332
▁100,000	-10333
▁Natural	-10334
▁actress	-10335
▁differs	-10336
▁extinct	-10337
▁ferment	-10338
▁Buddhism	-10339
▁Schumann	-10340
▁actively	-10341
▁colonies	-10342
▁descript	-10343
▁tracking	-10344
▁ultimate	-10345
▁Community	-10346
▁consensus	-10347
▁disadvant	-10348
▁saturated	-10349
▁Bernardino	-10350
▁Oberhauser	-10351
▁activation	-10352
▁elementary	-10353
▁generating	-10354
▁networking	-10355
▁prosecution	-10356
Go	-10357
arc	-10358
uct	-10359
▁Ty	-10360
adel	-10361
atso	-10362
flix	-10363
▁Rub	-10364
▁Six	-10365
▁bin	-10366
▁jew	-10367
▁joy	-10368
elles	-10369
othal	-10370
panze	-10371
▁1830	-10372
▁Disc	-10373
▁Exec	-10374
▁Make	-10375
▁coil	-10376
▁folk	-10377
iances	-10378
inally	-10379
ochond	-10380
▁Donna	-10381
▁marry	-10382
▁mazur	-10383
▁onset	-10384
▁seism	-10385
imeters	-10386
▁Effect	-10387
▁Gyatso	-10388
▁lifest	-10389
▁silent	-10390
▁static	-10391
▁varied	-10392
▁versus	-10393
▁winner	-10394
gression	-10395
ractions	-10396
▁courses	-10397
▁daytime	-10398
▁enabled	-10399
▁lateral	-10400
▁seeking	-10401
▁Military	-10402
▁airplane	-10403
▁lifetime	-10404
▁musician	-10405
▁Alexander	-10406
▁Wikipedia	-10407
▁suspected	-10408
▁completing	-10409
▁invitation	-10410
▁evaporation	-10411
Put	-10412
lif	-10413
oen	-10414
pes	-10415
sim	-10416
two	-10417
▁?"	-10418
▁LM	-10419
hall	-10420
rite	-10421
when	-10422
▁20,	-10423
▁ech	-10424
▁gig	-10425
▁rom	-10426
ilers	-10427
leted	-10428
▁buff	-10429
▁cure	-10430
▁dirt	-10431
▁lips	-10432
inding	-10433
longed	-10434
mology	-10435
venues	-10436
▁Incre	-10437
▁Quant	-10438
▁cargo	-10439
▁jelly	-10440
▁rigid	-10441
iarrhea	-10442
▁Nikola	-10443
▁Rivers	-10444
▁checks	-10445
▁extrem	-10446
▁funded	-10447
▁latest	-10448
▁lyrics	-10449
▁mutual	-10450
▁poorly	-10451
▁routes	-10452
▁triang	-10453
▁Germans	-10454
▁Reserve	-10455
▁appoint	-10456
▁extends	-10457
▁impacts	-10458
▁knocked	-10459
▁minimal	-10460
▁routine	-10461
▁transit	-10462
▁bleeding	-10463
▁facility	-10464
▁headache	-10465
▁opinions	-10466
angerously	-10467
▁Directive	-10468
▁Mountains	-10469
▁confident	-10470
▁processor	-10471
▁destroying	-10472
▁diplomatic	-10473
▁playground	-10474
▁unexpected	-10475
▁determining	-10476
▁functioning	-10477
▁combinations	-10478
mal	-10479
▁2:	-10480
▁OP	-10481
arms	-10482
arsh	-10483
bury	-10484
dney	-10485
ruit	-10486
sohn	-10487
usic	-10488
▁Eth	-10489
▁TEU	-10490
ulose	-10491
▁Camp	-10492
▁Term	-10493
▁Tony	-10494
▁dear	-10495
▁evil	-10496
▁fung	-10497
▁leaf	-10498
ithium	-10499
olving	-10500
ursday	-10501
▁ammon	-10502
▁blank	-10503
▁prost	-10504
▁sword	-10505
▁Greece	-10506
▁Legend	-10507
▁commut	-10508
▁honest	-10509
▁nonmet	-10510
▁prompt	-10511
▁retire	-10512
▁solute	-10513
▁stolen	-10514
▁thrown	-10515
▁Mercury	-10516
▁aquatic	-10517
▁blowing	-10518
▁credits	-10519
▁elderly	-10520
▁habitat	-10521
▁harvest	-10522
▁mirrors	-10523
▁museums	-10524
▁painted	-10525
▁perpetr	-10526
▁sensors	-10527
▁solvent	-10528
▁colonial	-10529
▁deposits	-10530
▁expenses	-10531
▁laughter	-10532
▁overwhel	-10533
▁reactive	-10534
▁sciences	-10535
▁spinning	-10536
▁temporal	-10537
▁tomatoes	-10538
▁Democrats	-10539
▁Singapore	-10540
▁perfectly	-10541
▁acquisition	-10542
▁demonstrate	-10543
▁Christianity	-10544
▁insufficient	-10545
▁intervention	-10546
▁antimicrobial	-10547
MS	-10548
asp	-10549
▁75	-10550
▁Es	-10551
Here	-10552
brev	-10553
ette	-10554
otal	-10555
oung	-10556
uchy	-10557
umer	-10558
wich	-10559
▁20.	-10560
▁30-	-10561
▁FDA	-10562
▁Mir	-10563
▁sla	-10564
▁tat	-10565
iscal	-10566
itage	-10567
▁Live	-10568
▁Pers	-10569
▁Turn	-10570
▁cage	-10571
▁cans	-10572
▁shoe	-10573
▁2,000	-10574
▁Money	-10575
▁aging	-10576
▁clubs	-10577
▁walks	-10578
fficial	-10579
ructive	-10580
▁Family	-10581
▁Turkey	-10582
▁allele	-10583
▁anyway	-10584
▁coined	-10585
▁nausea	-10586
▁recall	-10587
▁retain	-10588
▁thrust	-10589
▁implies	-10590
▁penalty	-10591
▁restore	-10592
▁Coldplay	-10593
▁Ministry	-10594
▁gradient	-10595
▁monopoly	-10596
▁patented	-10597
▁shoulder	-10598
▁skeleton	-10599
▁equations	-10600
▁fictional	-10601
▁healthier	-10602
▁livestock	-10603
▁societies	-10604
▁Throughout	-10605
▁acceptable	-10606
▁assistance	-10607
▁convention	-10608
▁expressions	-10609
▁illustrated	-10610
▁observation	-10611
▁stimulation	-10612
▁capabilities	-10613
▁considerably	-10614
▁technological	-10615
hot	-10616
iao	-10617
www	-10618
▁Id	-10619
ican	-10620
inte	-10621
zant	-10622
▁14.	-10623
▁Hig	-10624
▁Way	-10625
▁dip	-10626
▁gel	-10627
enced	-10628
icell	-10629
ilton	-10630
insic	-10631
▁fake	-10632
iotics	-10633
▁2008.	-10634
▁Miami	-10635
▁Roger	-10636
▁advis	-10637
▁arise	-10638
▁cones	-10639
▁craft	-10640
▁digit	-10641
▁mayor	-10642
▁ranks	-10643
leading	-10644
▁Female	-10645
▁comedy	-10646
▁curved	-10647
▁domain	-10648
▁indeed	-10649
ogenesis	-10650
▁decides	-10651
▁fumbles	-10652
▁secular	-10653
▁viewing	-10654
▁Broadway	-10655
▁advances	-10656
▁ancestor	-10657
▁protists	-10658
▁writings	-10659
▁alcoholic	-10660
▁dominated	-10661
▁employers	-10662
▁evacuated	-10663
▁execution	-10664
▁licensing	-10665
▁performer	-10666
▁platforms	-10667
▁programme	-10668
▁scheduled	-10669
▁permission	-10670
▁Performance	-10671
▁accomplished	-10672
▁subscription	-10673
▁Unfortunately	-10674
▁administrative	-10675
36	-10676
AS	-10677
ois	-10678
▁3-	-10679
▁au	-10680
anna	-10681
coin	-10682
mits	-10683
▁Cop	-10684
▁Hur	-10685
▁cam	-10686
▁Lang	-10687
▁Lion	-10688
▁Meth	-10689
▁arts	-10690
▁fest	-10691
▁nort	-10692
▁proc	-10693
▁roll	-10694
▁scal	-10695
▁acute	-10696
▁lands	-10697
▁prone	-10698
▁surge	-10699
▁trips	-10700
▁zones	-10701
atching	-10702
version	-10703
▁Justin	-10704
▁entity	-10705
heastern	-10706
imentary	-10707
specific	-10708
▁Premier	-10709
▁Ukraine	-10710
▁lasting	-10711
▁relaxed	-10712
▁rubbish	-10713
▁veteran	-10714
istically	-10715
▁compress	-10716
▁elevated	-10717
▁feathers	-10718
▁medieval	-10719
▁priority	-10720
▁stopping	-10721
▁strictly	-10722
especially	-10723
▁Professor	-10724
▁confidence	-10725
▁celebrities	-10726
▁institution	-10727
▁probability	-10728
▁sensitivity	-10729
▁uncomfortable	-10730
AD	-10731
CC	-10732
MP	-10733
800	-10734
cled	-10735
kers	-10736
owns	-10737
seys	-10738
▁$20	-10739
▁22,	-10740
▁Eve	-10741
▁Ger	-10742
▁Pen	-10743
▁Syn	-10744
▁cel	-10745
▁god	-10746
asers	-10747
atile	-10748
leans	-10749
ulses	-10750
▁Jeff	-10751
▁Luck	-10752
▁Much	-10753
▁Peck	-10754
▁Trib	-10755
▁Zant	-10756
▁guys	-10757
▁lone	-10758
▁phon	-10759
▁rent	-10760
assium	-10761
▁2000,	-10762
▁2012.	-10763
▁Altan	-10764
▁crazy	-10765
▁parad	-10766
▁pupil	-10767
▁tuber	-10768
▁Albert	-10769
▁Byzant	-10770
▁Sweden	-10771
▁Warner	-10772
▁attain	-10773
▁confer	-10774
▁evolve	-10775
▁export	-10776
▁motors	-10777
▁repeat	-10778
▁sharks	-10779
▁shells	-10780
▁altered	-10781
▁bridges	-10782
▁farming	-10783
▁flowing	-10784
▁formats	-10785
▁privacy	-10786
▁shelter	-10787
▁suscept	-10788
▁Hamilton	-10789
▁Standard	-10790
▁Uprising	-10791
▁assuming	-10792
▁avoiding	-10793
▁calendar	-10794
▁hypothal	-10795
▁psychiat	-10796
iovascular	-10797
▁replacing	-10798
▁Conversely	-10799
▁absolutely	-10800
▁automobile	-10801
▁connective	-10802
▁positively	-10803
▁biochemical	-10804
▁identifying	-10805
▁jurisdictions	-10806
29	-10807
IF	-10808
10,	-10809
dep	-10810
wik	-10811
▁ST	-10812
alog	-10813
ogly	-10814
onal	-10815
▁178	-10816
▁ash	-10817
▁inh	-10818
▁twe	-10819
ancer	-10820
ogene	-10821
pered	-10822
▁Alan	-10823
▁Shen	-10824
▁Walk	-10825
▁bees	-10826
▁calm	-10827
▁mask	-10828
▁trem	-10829
monary	-10830
sembly	-10831
▁2006.	-10832
▁Kitty	-10833
▁Songs	-10834
▁begun	-10835
▁canal	-10836
▁enorm	-10837
▁forty	-10838
▁panda	-10839
▁parks	-10840
▁pulls	-10841
▁radar	-10842
▁reads	-10843
otrophs	-10844
▁Kublai	-10845
▁embryo	-10846
▁fabric	-10847
▁forgot	-10848
▁gloves	-10849
▁pumped	-10850
▁uterus	-10851
ications	-10852
missions	-10853
▁Channel	-10854
▁Orleans	-10855
▁jerseys	-10856
▁solving	-10857
▁stretch	-10858
▁diarrhea	-10859
▁immunity	-10860
▁monetary	-10861
▁activated	-10862
▁chimpanze	-10863
▁collision	-10864
▁comprehen	-10865
▁cylinders	-10866
▁expanding	-10867
▁promoting	-10868
▁reactants	-10869
▁stability	-10870
▁continuing	-10871
▁convenient	-10872
▁linebacker	-10873
▁Reformation	-10874
▁bloodstream	-10875
▁interpreted	-10876
▁pornography	-10877
▁Thanksgiving	-10878
▁headquarters	-10879
▁intermediate	-10880
EE	-10881
GN	-10882
ON	-10883
SPN	-10884
azz	-10885
imp	-10886
kas	-10887
pit	-10888
▁(9	-10889
arct	-10890
cycl	-10891
ethe	-10892
host	-10893
▁(1,	-10894
▁160	-10895
▁24,	-10896
▁Fun	-10897
▁Kra	-10898
▁Wor	-10899
▁bes	-10900
▁ske	-10901
▁tab	-10902
Tsang	-10903
aired	-10904
igate	-10905
▁nick	-10906
▁nurs	-10907
▁quad	-10908
ifiers	-10909
lihood	-10910
▁Brand	-10911
▁Donny	-10912
▁Right	-10913
▁bikes	-10914
▁dimin	-10915
▁hopes	-10916
▁jeans	-10917
▁lingu	-10918
▁modes	-10919
holders	-10920
ulators	-10921
▁Author	-10922
▁Battle	-10923
▁Mendes	-10924
▁Source	-10925
▁halluc	-10926
▁lipids	-10927
▁oxides	-10928
▁phases	-10929
▁rhythm	-10930
▁stocks	-10931
▁upward	-10932
iversary	-10933
▁Grandma	-10934
▁Netflix	-10935
▁Station	-10936
▁closest	-10937
▁defines	-10938
▁elastic	-10939
▁emperor	-10940
▁haploid	-10941
▁interse	-10942
operation	-10943
▁Downtown	-10944
▁abstract	-10945
▁arrested	-10946
▁artistic	-10947
▁athletes	-10948
▁balanced	-10949
▁integral	-10950
▁limiting	-10951
▁promoted	-10952
▁touching	-10953
▁convicted	-10954
▁defendant	-10955
▁dimension	-10956
▁discontin	-10957
▁initiated	-10958
▁cnidarians	-10959
▁surprising	-10960
▁unnecessary	-10961
▁compensation	-10962
▁competitions	-10963
▁representative	-10964
31	-10965
4)	-10966
▁Ü	-10967
alo	-10968
hop	-10969
ohn	-10970
who	-10971
▁Sn	-10972
itic	-10973
neum	-10974
olds	-10975
ommy	-10976
ragm	-10977
stru	-10978
▁40%	-10979
▁800	-10980
▁Box	-10981
▁Sak	-10982
▁bow	-10983
▁wra	-10984
anium	-10985
igers	-10986
viron	-10987
white	-10988
world	-10989
▁EDIT	-10990
▁Lisa	-10991
▁Prim	-10992
▁Rest	-10993
▁biom	-10994
▁dose	-10995
atomic	-10996
hentic	-10997
isting	-10998
▁2005.	-10999
▁Patri	-11000
▁Pitts	-11001
▁Princ	-11002
▁burst	-11003
▁hoped	-11004
▁meets	-11005
▁snake	-11006
▁straw	-11007
▁wires	-11008
igenous	-11009
limited	-11010
tenberg	-11011
▁Reddit	-11012
▁Sydney	-11013
▁Travel	-11014
▁acidic	-11015
▁bitter	-11016
▁floors	-11017
▁jumped	-11018
▁landsc	-11019
▁mantle	-11020
▁metall	-11021
▁presum	-11022
▁reader	-11023
▁resemb	-11024
▁retina	-11025
▁saliva	-11026
▁supper	-11027
▁transf	-11028
attering	-11029
▁200,000	-11030
▁Verizon	-11031
▁beaches	-11032
▁engaged	-11033
▁flavors	-11034
▁reserve	-11035
▁silicon	-11036
▁trailer	-11037
▁carriers	-11038
▁founding	-11039
▁predomin	-11040
▁rainfall	-11041
▁thermody	-11042
▁Universal	-11043
▁endocrine	-11044
▁hierarchy	-11045
▁highlight	-11046
▁publisher	-11047
▁Wittenberg	-11048
▁concerning	-11049
▁generators	-11050
▁helicopter	-11051
▁occurrence	-11052
▁preference	-11053
▁appearances	-11054
▁citizenship	-11055
▁concentrate	-11056
▁efficiently	-11057
▁improvement	-11058
▁transaction	-11059
▁differential	-11060
▁surroundings	-11061
▁Commissioners	-11062
AL	-11063
Dr	-11064
EG	-11065
ID	-11066
Mr	-11067
oos	-11068
udy	-11069
▁5-	-11070
▁NC	-11071
▁QQ	-11072
okes	-11073
rant	-11074
uese	-11075
zech	-11076
▁13.	-11077
▁cow	-11078
▁gut	-11079
▁wax	-11080
every	-11081
leyel	-11082
oints	-11083
party	-11084
▁1999	-11085
▁Late	-11086
▁Marx	-11087
▁cous	-11088
▁pets	-11089
aseous	-11090
encing	-11091
irling	-11092
ockets	-11093
omorph	-11094
profit	-11095
thodox	-11096
▁2016.	-11097
▁Susan	-11098
▁Until	-11099
▁coins	-11100
▁decor	-11101
▁fluct	-11102
▁logic	-11103
▁pione	-11104
▁slows	-11105
illance	-11106
regular	-11107
through	-11108
western	-11109
▁Mozart	-11110
▁Pleyel	-11111
▁Safety	-11112
▁angles	-11113
▁permit	-11114
▁Chapter	-11115
▁Stewart	-11116
▁antenna	-11117
▁damages	-11118
▁ethanol	-11119
▁grandpa	-11120
▁pharmac	-11121
▁seventh	-11122
▁elevator	-11123
▁embedded	-11124
▁notation	-11125
▁pointing	-11126
▁supplied	-11127
▁survived	-11128
accharides	-11129
▁abandoned	-11130
▁arguments	-11131
▁connector	-11132
▁democracy	-11133
▁relatives	-11134
▁reporters	-11135
▁synthetic	-11136
ampionships	-11137
▁Pittsburgh	-11138
▁approaches	-11139
▁cigarettes	-11140
▁conference	-11141
▁intestinal	-11142
▁anniversary	-11143
▁description	-11144
▁explanations	-11145
▁historically	-11146
▁classification	-11147
Me	-11148
ih	-11149
---	-11150
irm	-11151
sen	-11152
was	-11153
▁2)	-11154
▁44	-11155
▁Bi	-11156
▁EC	-11157
▁SS	-11158
atre	-11159
fter	-11160
good	-11161
ptic	-11162
rene	-11163
thon	-11164
zzle	-11165
▁(2,	-11166
▁Est	-11167
▁Hem	-11168
▁Ivy	-11169
▁Init	-11170
▁Poly	-11171
▁cens	-11172
▁dual	-11173
▁gard	-11174
▁styl	-11175
people	-11176
▁Czech	-11177
▁Phill	-11178
▁adren	-11179
▁arous	-11180
▁diaph	-11181
▁prize	-11182
▁pseud	-11183
▁schem	-11184
▁Invest	-11185
▁Living	-11186
▁Philip	-11187
▁Yellow	-11188
▁bamboo	-11189
▁banana	-11190
▁disapp	-11191
▁freeze	-11192
▁pollut	-11193
▁regime	-11194
▁Muslims	-11195
▁Philipp	-11196
▁Various	-11197
▁adverse	-11198
▁disrupt	-11199
▁epithel	-11200
▁gaseous	-11201
▁instant	-11202
▁mounted	-11203
▁outdoor	-11204
▁Thompson	-11205
▁diabetes	-11206
▁executed	-11207
▁populous	-11208
▁donations	-11209
▁generator	-11210
▁specified	-11211
▁travelled	-11212
▁Electronic	-11213
▁acceptance	-11214
▁challenged	-11215
▁hemoglobin	-11216
▁mainstream	-11217
▁relativity	-11218
▁respective	-11219
▁examination	-11220
▁accidentally	-11221
▁consideration	-11222
▁cardiovascular	-11223
49	-11224
:0	-11225
Fi	-11226
OM	-11227
▁×	-11228
ari	-11229
obl	-11230
pox	-11231
▁(6	-11232
▁AP	-11233
airy	-11234
anny	-11235
best	-11236
date	-11237
elle	-11238
heim	-11239
mond	-11240
▁360	-11241
▁CSM	-11242
▁Lyn	-11243
▁ink	-11244
▁tag	-11245
eries	-11246
izona	-11247
▁1985	-11248
▁Made	-11249
▁Math	-11250
▁Pole	-11251
▁Vill	-11252
▁Wild	-11253
▁aest	-11254
▁aims	-11255
▁bite	-11256
▁bull	-11257
▁euro	-11258
▁rats	-11259
▁refr	-11260
▁soda	-11261
▁wise	-11262
aments	-11263
amorph	-11264
mother	-11265
orship	-11266
▁2007.	-11267
▁Clara	-11268
▁Franz	-11269
▁Young	-11270
▁crowd	-11271
▁float	-11272
▁immun	-11273
▁posts	-11274
▁tanks	-11275
▁Annual	-11276
▁Arabic	-11277
▁criter	-11278
▁labour	-11279
▁noting	-11280
▁radius	-11281
▁speaks	-11282
▁valued	-11283
▁valves	-11284
▁voters	-11285
hemistry	-11286
iability	-11287
lligence	-11288
▁Belgium	-11289
▁Stephen	-11290
▁closing	-11291
▁crowded	-11292
▁encoded	-11293
▁erosion	-11294
▁fission	-11295
▁reconst	-11296
▁secrete	-11297
▁texture	-11298
▁wedding	-11299
roduction	-11300
▁Starting	-11301
▁Thursday	-11302
▁meanings	-11303
▁Typically	-11304
▁injection	-11305
▁magazines	-11306
▁personnel	-11307
▁prisoners	-11308
▁adaptation	-11309
▁decreasing	-11310
▁medication	-11311
▁propulsion	-11312
▁strengthen	-11313
▁Commissioner	-11314
▁unemployment	-11315
NY	-11316
Pl	-11317
].	-11318
aer	-11319
fee	-11320
ila	-11321
imm	-11322
phy	-11323
▁Od	-11324
foot	-11325
igma	-11326
ilst	-11327
role	-11328
stic	-11329
▁24-	-11330
▁250	-11331
▁60%	-11332
▁Age	-11333
▁Dod	-11334
▁Dor	-11335
▁Hit	-11336
▁ISI	-11337
▁Nep	-11338
▁Ray	-11339
▁Ref	-11340
▁asc	-11341
▁bio	-11342
▁cul	-11343
inder	-11344
range	-11345
speed	-11346
▁Barb	-11347
▁Prop	-11348
▁abol	-11349
▁fool	-11350
▁hunt	-11351
boards	-11352
▁Edict	-11353
▁Psych	-11354
▁Swann	-11355
▁datab	-11356
▁fetus	-11357
▁reply	-11358
▁tough	-11359
▁condem	-11360
▁cotton	-11361
▁harass	-11362
▁priest	-11363
▁washed	-11364
▁wishes	-11365
jections	-11366
omething	-11367
transmit	-11368
▁adequate	-11369
▁allergic	-11370
▁receptor	-11371
▁unhealth	-11372
▁Executive	-11373
▁Represent	-11374
▁celebrate	-11375
▁mortality	-11376
▁provision	-11377
▁trademark	-11378
▁variables	-11379
▁volcanoes	-11380
▁constitute	-11381
▁ctenophore	-11382
▁eukaryotic	-11383
▁motivation	-11384
▁peripheral	-11385
▁Republicans	-11386
▁compositions	-11387
▁undergraduate	-11388
1-	-11389
és	-11390
isy	-11391
sub	-11392
ysc	-11393
rele	-11394
thal	-11395
▁600	-11396
▁Cry	-11397
▁GDP	-11398
▁Tax	-11399
Thank	-11400
anner	-11401
inate	-11402
isons	-11403
ville	-11404
▁Call	-11405
▁herb	-11406
racted	-11407
upiter	-11408
▁Hawai	-11409
▁acted	-11410
▁adopt	-11411
▁flora	-11412
▁pipes	-11413
▁rival	-11414
etition	-11415
iration	-11416
▁accord	-11417
▁boring	-11418
▁digits	-11419
▁divers	-11420
▁quoted	-11421
▁spider	-11422
▁tables	-11423
▁volley	-11424
▁Arizona	-11425
▁Charter	-11426
▁Islands	-11427
▁alleles	-11428
▁assault	-11429
▁fitness	-11430
▁justify	-11431
▁lawsuit	-11432
▁packets	-11433
▁privile	-11434
unciation	-11435
▁Stanford	-11436
▁barriers	-11437
▁genetics	-11438
▁operator	-11439
▁synchron	-11440
▁triggers	-11441
▁affecting	-11442
▁emissions	-11443
▁indicator	-11444
▁stimulate	-11445
▁Protection	-11446
▁ecosystems	-11447
▁microorgan	-11448
▁organelles	-11449
▁photography	-11450
86	-11451
rh	-11452
vo	-11453
aft	-11454
ema	-11455
ili	-11456
ova	-11457
uty	-11458
▁4-	-11459
card	-11460
cten	-11461
eder	-11462
gged	-11463
rays	-11464
thra	-11465
word	-11466
▁25%	-11467
▁Bos	-11468
▁Ess	-11469
▁Gag	-11470
▁Hes	-11471
▁Nap	-11472
▁Sar	-11473
▁Sir	-11474
▁Tim	-11475
▁cub	-11476
▁dot	-11477
▁ecl	-11478
▁fox	-11479
eline	-11480
luded	-11481
opher	-11482
ridge	-11483
roxim	-11484
worms	-11485
▁Beck	-11486
▁Benj	-11487
▁Cele	-11488
▁Cost	-11489
▁Line	-11490
▁aunt	-11491
▁beta	-11492
▁derm	-11493
▁limb	-11494
▁rupt	-11495
cially	-11496
gative	-11497
nament	-11498
▁Hence	-11499
▁fails	-11500
▁milit	-11501
▁spark	-11502
achelor	-11503
artered	-11504
because	-11505
effects	-11506
ensions	-11507
inistic	-11508
▁Berlin	-11509
▁Commun	-11510
▁Rather	-11511
▁Review	-11512
▁assign	-11513
▁facult	-11514
▁filmed	-11515
▁fiscal	-11516
▁induce	-11517
▁pestis	-11518
▁purple	-11519
▁update	-11520
activity	-11521
idepress	-11522
▁cardiac	-11523
▁devoted	-11524
▁failing	-11525
▁lawyers	-11526
▁logical	-11527
▁simpler	-11528
▁ventric	-11529
▁airlines	-11530
▁enhanced	-11531
▁focusing	-11532
▁instinct	-11533
▁promised	-11534
▁reciproc	-11535
▁reptiles	-11536
▁Depending	-11537
▁animation	-11538
▁electroly	-11539
▁lifestyle	-11540
▁succeeded	-11541
▁violation	-11542
▁democratic	-11543
▁documentary	-11544
▁antibacterials	-11545
73	-11546
CD	-11547
ga	-11548
mm	-11549
awa	-11550
oto	-11551
rid	-11552
sur	-11553
▁5%	-11554
▁Ku	-11555
Most	-11556
fill	-11557
mann	-11558
onto	-11559
oven	-11560
rens	-11561
sens	-11562
type	-11563
yang	-11564
▁Inf	-11565
▁RAM	-11566
adays	-11567
brate	-11568
metic	-11569
works	-11570
▁Feng	-11571
▁Hard	-11572
▁Sund	-11573
▁Upon	-11574
▁bugs	-11575
▁lion	-11576
▁marg	-11577
▁obsc	-11578
▁slip	-11579
ancial	-11580
icidal	-11581
rained	-11582
school	-11583
wealth	-11584
▁Duchy	-11585
▁Polit	-11586
▁Steel	-11587
▁Sunni	-11588
▁cloth	-11589
▁drunk	-11590
▁empir	-11591
▁peers	-11592
▁skysc	-11593
▁squee	-11594
▁threw	-11595
issance	-11596
▁Legisl	-11597
▁absent	-11598
▁behave	-11599
▁casual	-11600
▁devast	-11601
▁hazard	-11602
▁labels	-11603
▁router	-11604
▁upload	-11605
▁visits	-11606
ilateral	-11607
▁Android	-11608
▁calorie	-11609
▁couples	-11610
▁dispute	-11611
▁embargo	-11612
▁spiders	-11613
▁volcano	-11614
▁warfare	-11615
▁watches	-11616
icellular	-11617
sequently	-11618
▁Assembly	-11619
▁Benjamin	-11620
▁attitude	-11621
▁checking	-11622
▁incoming	-11623
▁mazurkas	-11624
▁printing	-11625
▁recycled	-11626
▁sickness	-11627
▁bandwidth	-11628
▁epidermis	-11629
▁inability	-11630
▁practiced	-11631
▁recycling	-11632
▁vertebrae	-11633
▁bankruptcy	-11634
▁controller	-11635
▁convection	-11636
▁leadership	-11637
▁suggesting	-11638
▁Information	-11639
▁politicians	-11640
▁hydrocarbons	-11641
▁productivity	-11642
▁justification	-11643
▁professionals	-11644
ES	-11645
OK	-11646
cr	-11647
dis	-11648
erk	-11649
–16	-11650
▁Sk	-11651
▁TL	-11652
▁VH	-11653
ront	-11654
sive	-11655
ulus	-11656
wall	-11657
weet	-11658
▁30%	-11659
▁Ill	-11660
▁Mao	-11661
▁Pey	-11662
▁pir	-11663
_0_).	-11664
human	-11665
ollow	-11666
shine	-11667
sized	-11668
▁bats	-11669
▁beds	-11670
▁pean	-11671
▁twin	-11672
▁wins	-11673
roleum	-11674
▁1998,	-11675
▁2009.	-11676
▁genre	-11677
▁terra	-11678
▁upset	-11679
▁Donald	-11680
▁assert	-11681
▁defeat	-11682
▁disput	-11683
▁exempt	-11684
▁galaxy	-11685
▁headed	-11686
▁loudly	-11687
▁metric	-11688
▁missed	-11689
▁picnic	-11690
▁reveal	-11691
▁rotate	-11692
▁scream	-11693
▁spends	-11694
▁Country	-11695
▁Nuclear	-11696
▁accents	-11697
▁anthrop	-11698
▁beliefs	-11699
▁browser	-11700
▁dealers	-11701
▁surpass	-11702
endicular	-11703
▁climbing	-11704
▁steering	-11705
▁reservoir	-11706
▁amphibians	-11707
▁enthusiasm	-11708
▁publishing	-11709
▁strategies	-11710
▁helicopters	-11711
▁settlements	-11712
▁transgender	-11713
▁expectations	-11714
ńs	-11715
awn	-11716
oln	-11717
pat	-11718
–18	-11719
▁cu	-11720
Some	-11721
arin	-11722
emed	-11723
inch	-11724
opia	-11725
udes	-11726
velt	-11727
▁16.	-11728
▁Adv	-11729
▁Aon	-11730
▁Bad	-11731
▁Bon	-11732
▁CST	-11733
▁Cre	-11734
▁FBI	-11735
▁Xin	-11736
▁spo	-11737
▁unl	-11738
const	-11739
elled	-11740
flies	-11741
found	-11742
namic	-11743
rates	-11744
▁1995	-11745
▁Vien	-11746
▁XXXV	-11747
▁auto	-11748
▁fles	-11749
▁glob	-11750
▁info	-11751
▁mate	-11752
▁menu	-11753
▁oils	-11754
▁peop	-11755
igious	-11756
otypes	-11757
▁Monro	-11758
▁Movie	-11759
▁Roose	-11760
▁magma	-11761
▁panel	-11762
develop	-11763
lecular	-11764
▁Aonuma	-11765
▁Harper	-11766
▁Peyton	-11767
▁abbrev	-11768
▁census	-11769
▁darker	-11770
▁encomp	-11771
▁impair	-11772
▁interc	-11773
▁matrix	-11774
▁miscon	-11775
▁pedest	-11776
▁racism	-11777
▁wounds	-11778
atechism	-11779
tainment	-11780
▁Fleming	-11781
▁Vietnam	-11782
▁Writing	-11783
▁bonding	-11784
▁ceiling	-11785
▁expense	-11786
▁fossils	-11787
▁generic	-11788
▁integer	-11789
▁meiosis	-11790
▁moments	-11791
▁pricing	-11792
▁silence	-11793
▁theorem	-11794
▁Director	-11795
▁backbone	-11796
▁enormous	-11797
▁infrared	-11798
▁licensed	-11799
roximately	-11800
▁Roosevelt	-11801
▁addressed	-11802
▁allergies	-11803
▁authentic	-11804
▁consuming	-11805
▁diagnosis	-11806
▁diaphragm	-11807
▁generates	-11808
▁prolonged	-11809
▁requested	-11810
▁behavioral	-11811
▁capability	-11812
▁Dangerously	-11813
▁microscopic	-11814
▁developments	-11815
PN	-11816
Con	-11817
bad	-11818
fil	-11819
itt	-11820
lem	-11821
non	-11822
nut	-11823
oge	-11824
olk	-11825
orb	-11826
shi	-11827
▁1:	-11828
▁Ra	-11829
boxy	-11830
▁$50	-11831
▁700	-11832
▁ISP	-11833
▁Pay	-11834
▁Pir	-11835
▁iOS	-11836
▁sam	-11837
3,000	-11838
ighth	-11839
sters	-11840
▁1080	-11841
▁Data	-11842
▁Drug	-11843
▁List	-11844
▁Mand	-11845
▁Pope	-11846
▁Vice	-11847
▁asex	-11848
▁carp	-11849
▁hell	-11850
▁horn	-11851
▁nest	-11852
▁thir	-11853
abolic	-11854
formed	-11855
hester	-11856
usions	-11857
▁Years	-11858
▁discs	-11859
▁doses	-11860
▁juven	-11861
▁tapes	-11862
reement	-11863
▁Julian	-11864
▁anatom	-11865
▁curves	-11866
▁discom	-11867
▁firing	-11868
▁inputs	-11869
▁lovely	-11870
▁pilots	-11871
▁pursue	-11872
▁reacts	-11873
▁termed	-11874
▁wooden	-11875
▁captain	-11876
▁divides	-11877
▁ratings	-11878
▁resting	-11879
▁savings	-11880
▁terrain	-11881
▁updated	-11882
▁variant	-11883
ationally	-11884
ustration	-11885
▁aviation	-11886
▁centered	-11887
▁contacts	-11888
▁contamin	-11889
▁passages	-11890
▁pathogen	-11891
▁plankton	-11892
▁playoffs	-11893
▁potatoes	-11894
▁weakness	-11895
▁abdominal	-11896
▁admission	-11897
▁irregular	-11898
▁ministers	-11899
▁operators	-11900
▁membership	-11901
▁regulatory	-11902
▁translated	-11903
▁investigate	-11904
▁speculation	-11905
▁transparent	-11906
▁civilization	-11907
▁contractions	-11908
▁sufficiently	-11909
▁surveillance	-11910
SO	-11911
SR	-11912
acc	-11913
jac	-11914
psy	-11915
ugg	-11916
▁42	-11917
▁52	-11918
▁54	-11919
▁Ve	-11920
Cola	-11921
ania	-11922
avia	-11923
ogan	-11924
omal	-11925
prin	-11926
▁Lab	-11927
▁mol	-11928
▁unt	-11929
arity	-11930
atics	-11931
aware	-11932
ciech	-11933
istor	-11934
▁2017	-11935
▁Airl	-11936
▁Coca	-11937
▁NATO	-11938
▁Pass	-11939
▁scul	-11940
apping	-11941
laimed	-11942
▁Kelly	-11943
▁Nazis	-11944
▁enlar	-11945
▁fifty	-11946
▁paths	-11947
▁pound	-11948
ishment	-11949
▁Easter	-11950
▁Hiller	-11951
▁XLVIII	-11952
▁blades	-11953
▁degrad	-11954
▁fallen	-11955
▁lasted	-11956
▁polona	-11957
▁prayer	-11958
▁thirst	-11959
pleasant	-11960
▁Control	-11961
▁Jupiter	-11962
▁Quantum	-11963
▁Section	-11964
▁Toronto	-11965
▁beneath	-11966
▁emerged	-11967
▁imaging	-11968
▁induced	-11969
▁overlap	-11970
▁promise	-11971
▁victory	-11972
▁ancestry	-11973
▁droplets	-11974
▁illusion	-11975
▁opposing	-11976
▁retained	-11977
▁Evolution	-11978
▁Riverside	-11979
▁Transport	-11980
▁exploring	-11981
▁inherited	-11982
▁specially	-11983
▁discomfort	-11984
▁monitoring	-11985
▁personally	-11986
▁processors	-11987
▁remembered	-11988
▁specialist	-11989
▁certificate	-11990
▁Entertainment	-11991
▁differentiate	-11992
OH	-11993
TL	-11994
bus	-11995
die	-11996
gia	-11997
uto	-11998
▁Wu	-11999
acle	-12000
amma	-12001
code	-12002
unge	-12003
▁(2)	-12004
▁Row	-12005
▁Set	-12006
▁tox	-12007
▁vig	-12008
ammad	-12009
estab	-12010
often	-12011
pling	-12012
ylene	-12013
▁8:00	-12014
▁Adam	-12015
▁Corn	-12016
▁Ginn	-12017
▁Nort	-12018
▁Rank	-12019
▁noon	-12020
atched	-12021
obiles	-12022
ptions	-12023
▁2001.	-12024
▁cents	-12025
▁jewel	-12026
▁loyal	-12027
▁panic	-12028
▁shirt	-12029
▁stiff	-12030
▁width	-12031
etitive	-12032
▁Edward	-12033
▁Oxford	-12034
▁Person	-12035
▁Vienna	-12036
▁golden	-12037
▁pixels	-12038
▁prefix	-12039
aughters	-12040
ervation	-12041
othermic	-12042
tymology	-12043
▁anticip	-12044
▁bubonic	-12045
▁confirm	-12046
▁tourism	-12047
amination	-12048
▁Economic	-12049
▁Hospital	-12050
▁applying	-12051
▁entities	-12052
▁equality	-12053
▁meetings	-12054
▁railroad	-12055
▁stressed	-12056
▁switches	-12057
▁alternate	-12058
▁encounter	-12059
▁religions	-12060
▁signaling	-12061
▁definitely	-12062
▁Independent	-12063
▁deprivation	-12064
▁flexibility	-12065
▁associations	-12066
▁contribution	-12067
▁displacement	-12068
▁substantially	-12069
FL	-12070
Get	-12071
apy	-12072
pin	-12073
pop	-12074
–19	-12075
▁Ec	-12076
inst	-12077
urbs	-12078
wika	-12079
▁(1)	-12080
▁19,	-12081
▁Lem	-12082
▁Muh	-12083
cogen	-12084
inent	-12085
quake	-12086
▁2002	-12087
▁Chan	-12088
▁Dave	-12089
▁Prob	-12090
▁dece	-12091
▁deer	-12092
▁fuse	-12093
▁noct	-12094
▁sail	-12095
▁unst	-12096
atonin	-12097
cessor	-12098
elcome	-12099
incoln	-12100
onomic	-12101
▁Based	-12102
▁Cells	-12103
▁Field	-12104
▁manus	-12105
▁recur	-12106
▁regen	-12107
▁trace	-12108
▁tribe	-12109
▁tumor	-12110
▁viral	-12111
factory	-12112
working	-12113
▁Mobile	-12114
▁dining	-12115
▁patron	-12116
▁propri	-12117
▁slaves	-12118
▁subway	-12119
▁wastes	-12120
ophistic	-12121
▁Defense	-12122
▁Ludwika	-12123
▁amongst	-12124
▁fiction	-12125
▁pianist	-12126
unication	-12127
▁accuracy	-12128
▁asteroid	-12129
▁chloropl	-12130
▁confront	-12131
▁converts	-12132
▁crystall	-12133
▁shipping	-12134
▁Currently	-12135
▁Europeans	-12136
▁celebrity	-12137
▁guarantee	-12138
▁mitochond	-12139
▁repeating	-12140
▁terrorist	-12141
▁facilitate	-12142
▁stationary	-12143
▁volleyball	-12144
▁constitutes	-12145
▁continually	-12146
▁contributes	-12147
▁incorporate	-12148
▁integration	-12149
▁carbohydrate	-12150
▁commercially	-12151
▁condensation	-12152
▁consistently	-12153
▁dramatically	-12154
▁neurotransmit	-12155
Ir	-12156
erb	-12157
igo	-12158
▁mg	-12159
hasa	-12160
ixon	-12161
plus	-12162
rape	-12163
wind	-12164
▁2.5	-12165
▁Beh	-12166
▁cit	-12167
▁tet	-12168
Every	-12169
Super	-12170
ampoo	-12171
ateur	-12172
aying	-12173
gical	-12174
iking	-12175
names	-12176
stage	-12177
▁1973	-12178
▁1997	-12179
▁Coke	-12180
▁Font	-12181
▁hasn	-12182
▁hire	-12183
▁myth	-12184
▁seiz	-12185
icting	-12186
istant	-12187
▁Board	-12188
▁Falls	-12189
▁Sakya	-12190
▁Seism	-12191
▁inert	-12192
▁noisy	-12193
▁persu	-12194
▁ports	-12195
▁weird	-12196
branded	-12197
culosis	-12198
▁Morgan	-12199
▁genius	-12200
▁hockey	-12201
▁hunger	-12202
▁suited	-12203
ographer	-12204
speaking	-12205
▁Lincoln	-12206
▁Someone	-12207
▁approve	-12208
▁cookies	-12209
▁grammar	-12210
▁joining	-12211
▁menstru	-12212
effective	-12213
gregation	-12214
▁emerging	-12215
▁innocent	-12216
▁manifest	-12217
▁observer	-12218
▁Insurance	-12219
▁commented	-12220
▁committee	-12221
▁creatures	-12222
▁receivers	-12223
▁seemingly	-12224
▁disruption	-12225
▁indication	-12226
▁indigenous	-12227
▁automobiles	-12228
▁continental	-12229
▁susceptible	-12230
▁deliberately	-12231
▁hypothalamus	-12232
▁presentation	-12233
42	-12234
48	-12235
Le	-12236
Pa	-12237
RC	-12238
ał	-12239
ée	-12240
squ	-12241
▁nu	-12242
eous	-12243
ipts	-12244
obia	-12245
usal	-12246
usty	-12247
▁Rap	-12248
▁Wed	-12249
▁XLI	-12250
▁irr	-12251
▁luc	-12252
cient	-12253
copes	-12254
green	-12255
iatus	-12256
odore	-12257
ollar	-12258
osity	-12259
owers	-12260
plate	-12261
▁1998	-12262
▁Carl	-12263
▁Gate	-12264
▁Teen	-12265
▁belt	-12266
▁boot	-12267
▁chip	-12268
▁cock	-12269
▁yard	-12270
acular	-12271
anging	-12272
comput	-12273
itamin	-12274
rophic	-12275
static	-12276
ulator	-12277
▁Citiz	-12278
▁Intel	-12279
▁Moore	-12280
▁Plate	-12281
▁Still	-12282
▁Tommy	-12283
▁cools	-12284
▁draws	-12285
▁overr	-12286
▁salty	-12287
glasses	-12288
viously	-12289
▁Animal	-12290
▁Hitler	-12291
▁Syrian	-12292
▁counts	-12293
▁equity	-12294
▁inland	-12295
▁supers	-12296
▁venues	-12297
▁Antarct	-12298
▁Ctenoph	-12299
▁Liberty	-12300
▁Madison	-12301
▁Sundays	-12302
▁Swedish	-12303
▁Theatre	-12304
▁acquire	-12305
▁denomin	-12306
▁diploid	-12307
▁hackers	-12308
▁homeost	-12309
▁kidneys	-12310
▁peoples	-12311
▁scholar	-12312
▁singers	-12313
▁worship	-12314
lementary	-12315
▁humanity	-12316
▁kindness	-12317
▁mainland	-12318
▁mortgage	-12319
▁outbreak	-12320
▁packages	-12321
▁portable	-12322
▁provider	-12323
▁toxicity	-12324
controlled	-12325
▁addiction	-12326
▁appearing	-12327
▁attacking	-12328
▁attending	-12329
▁packaging	-12330
▁aggressive	-12331
▁challenges	-12332
▁completion	-12333
▁guidelines	-12334
▁likelihood	-12335
▁financially	-12336
▁neighboring	-12337
▁nominations	-12338
▁tuberculosis	-12339
▁Communications	-12340
)?	-12341
Sh	-12342
da	-12343
1),	-12344
Who	-12345
enh	-12346
hma	-12347
pur	-12348
▁(/	-12349
▁Gü	-12350
▁Mn	-12351
▁ok	-12352
bies	-12353
odzi	-12354
ouri	-12355
usts	-12356
▁$15	-12357
▁27,	-12358
▁IGN	-12359
▁jaw	-12360
▁lux	-12361
Tibet	-12362
akota	-12363
girls	-12364
ibern	-12365
offee	-12366
ungle	-12367
▁Diet	-12368
▁ESPN	-12369
▁Film	-12370
▁Keep	-12371
▁Ping	-12372
▁Roll	-12373
▁Wolf	-12374
▁biod	-12375
▁cave	-12376
▁cups	-12377
▁deck	-12378
▁seaw	-12379
▁vine	-12380
entral	-12381
iously	-12382
retion	-12383
uating	-12384
▁Diana	-12385
▁Imper	-12386
▁Wodzi	-12387
▁artic	-12388
▁breed	-12389
▁bytes	-12390
▁crown	-12391
▁exped	-12392
▁hairs	-12393
▁morph	-12394
▁scope	-12395
▁trash	-12396
▁blacks	-12397
▁gastro	-12398
etheless	-12399
▁Barbara	-12400
▁checked	-12401
▁conspir	-12402
▁crucial	-12403
▁decimal	-12404
▁desktop	-12405
▁enacted	-12406
▁equator	-12407
▁escaped	-12408
▁filters	-12409
▁founder	-12410
▁nucleot	-12411
▁posting	-12412
▁rushing	-12413
▁Baseball	-12414
▁Jonathan	-12415
▁Normandy	-12416
▁Physical	-12417
▁marketed	-12418
▁referend	-12419
▁amendment	-12420
▁campaigns	-12421
▁fragrance	-12422
▁pulmonary	-12423
▁purchases	-12424
▁recipient	-12425
▁remainder	-12426
▁travelers	-12427
▁broadcasts	-12428
▁compatible	-12429
▁complaints	-12430
▁eliminated	-12431
▁inequality	-12432
▁underwater	-12433
▁unpleasant	-12434
▁commodities	-12435
▁arrangements	-12436
▁conditioning	-12437
,[	-12438
,”	-12439
OC	-12440
yo	-12441
▁€	-12442
$1.	-12443
May	-12444
kan	-12445
owa	-12446
zoa	-12447
▁WW	-12448
clic	-12449
iano	-12450
ombs	-12451
▁Lew	-12452
▁lag	-12453
▁sew	-12454
aphro	-12455
athon	-12456
frequ	-12457
shirt	-12458
▁2018	-12459
▁Cole	-12460
▁Full	-12461
▁Hans	-12462
▁Trev	-12463
▁herm	-12464
▁poet	-12465
▁pour	-12466
▁quit	-12467
▁seas	-12468
▁shed	-12469
attles	-12470
determ	-12471
▁Crown	-12472
▁Disco	-12473
▁Finch	-12474
▁Signs	-12475
▁admit	-12476
▁erect	-12477
▁hymns	-12478
▁melan	-12479
▁penis	-12480
▁skirt	-12481
autiful	-12482
ometown	-12483
ractive	-12484
▁Afghan	-12485
▁Report	-12486
▁Single	-12487
▁Winter	-12488
▁artery	-12489
▁bullet	-12490
▁hiatus	-12491
▁neural	-12492
▁posted	-12493
▁pupils	-12494
▁quarks	-12495
outheast	-12496
▁Critics	-12497
▁Environ	-12498
▁abdomen	-12499
▁enterpr	-12500
▁hazards	-12501
▁session	-12502
▁sponges	-12503
conscious	-12504
▁adoption	-12505
▁animated	-12506
▁bathroom	-12507
▁embarked	-12508
▁matching	-12509
▁outcomes	-12510
▁predator	-12511
▁socially	-12512
▁cellulose	-12513
▁qualified	-12514
▁reasoning	-12515
▁recessive	-12516
▁renewable	-12517
▁schoolbag	-12518
▁sponsored	-12519
▁afterwards	-12520
▁colleagues	-12521
▁collisions	-12522
▁compressed	-12523
▁negatively	-12524
▁purchasing	-12525
▁subjective	-12526
▁Regulations	-12527
▁accommodate	-12528
▁chimpanzees	-12529
▁countryside	-12530
▁partnership	-12531
▁announcement	-12532
▁standardized	-12533
,.	-12534
Ex	-12535
Gr	-12536
3),	-12537
bet	-12538
osa	-12539
wen	-12540
xis	-12541
–14	-12542
ilot	-12543
orus	-12544
rane	-12545
utic	-12546
▁(1.	-12547
▁(16	-12548
▁---	-12549
▁23,	-12550
▁70%	-12551
▁Boo	-12552
▁Inn	-12553
▁Lat	-12554
▁Tal	-12555
▁Toy	-12556
▁voc	-12557
heres	-12558
▁1979	-12559
▁Nano	-12560
▁bapt	-12561
▁gran	-12562
▁nost	-12563
▁rook	-12564
▁tune	-12565
estone	-12566
former	-12567
houses	-12568
letion	-12569
ocaust	-12570
urtles	-12571
▁alumn	-12572
▁array	-12573
▁blogs	-12574
▁bored	-12575
▁brack	-12576
▁loads	-12577
▁meter	-12578
▁plast	-12579
▁thumb	-12580
affeine	-12581
inition	-12582
▁Darwin	-12583
▁Hispan	-12584
▁archae	-12585
▁crimin	-12586
▁hearts	-12587
▁ignore	-12588
▁purely	-12589
▁rulers	-12590
▁steady	-12591
otherapy	-12592
▁Machine	-12593
▁affairs	-12594
▁courage	-12595
▁faculty	-12596
▁heavier	-12597
▁illumin	-12598
▁needing	-12599
▁schemes	-12600
▁skilled	-12601
▁thunder	-12602
▁utilize	-12603
▁Muhammad	-12604
▁Together	-12605
▁conquest	-12606
▁enabling	-12607
▁geograph	-12608
▁midnight	-12609
▁pleasant	-12610
▁refriger	-12611
▁sunshine	-12612
▁thankful	-12613
▁arbitrary	-12614
▁cartilage	-12615
▁hermaphro	-12616
▁mushrooms	-12617
▁selective	-12618
▁sophistic	-12619
▁strangers	-12620
▁survivors	-12621
▁chemically	-12622
▁explicitly	-12623
▁reportedly	-12624
▁separately	-12625
▁Historically	-12626
▁invertebrates	-12627
▁implementation	-12628
):	-12629
–2	-12630
New	-12631
aux	-12632
bro	-12633
ete	-12634
igg	-12635
▁1-	-12636
▁56	-12637
▁Kh	-12638
▁Po	-12639
...]	-12640
acic	-12641
away	-12642
bage	-12643
omic	-12644
pine	-12645
rett	-12646
uent	-12647
ński	-12648
▁17,	-12649
▁30,	-12650
▁50.	-12651
▁Amy	-12652
▁Mum	-12653
▁Raw	-12654
▁gau	-12655
▁sue	-12656
aceut	-12657
agger	-12658
cribe	-12659
neath	-12660
ocols	-12661
othic	-12662
uming	-12663
usive	-12664
ussia	-12665
▁Bene	-12666
▁Cape	-12667
▁Comb	-12668
▁imit	-12669
▁itch	-12670
▁pigs	-12671
▁unre	-12672
estion	-12673
igible	-12674
lessly	-12675
master	-12676
▁Crime	-12677
▁Lhasa	-12678
▁Putin	-12679
▁alien	-12680
▁coinc	-12681
▁dairy	-12682
▁dolph	-12683
▁pries	-12684
▁quart	-12685
▁troub	-12686
▁wears	-12687
keleton	-12688
▁Contin	-12689
▁Forest	-12690
▁Sexual	-12691
▁bronch	-12692
▁equals	-12693
▁execut	-12694
▁fisher	-12695
▁gaming	-12696
▁hiring	-12697
▁legend	-12698
▁praise	-12699
▁shadow	-12700
▁tigers	-12701
▁unions	-12702
▁Rankine	-12703
▁emitted	-12704
▁envelop	-12705
▁grandma	-12706
▁hitting	-12707
▁ignored	-12708
▁lacking	-12709
▁lithium	-12710
▁planted	-12711
▁volumes	-12712
sometimes	-12713
▁Patriots	-12714
▁breeding	-12715
▁dinosaur	-12716
▁dropping	-12717
▁educated	-12718
▁formerly	-12719
▁handling	-12720
▁hometown	-12721
▁imperial	-12722
▁inherent	-12723
▁switched	-12724
▁systemic	-12725
▁collapses	-12726
▁comparing	-12727
▁divisions	-12728
▁empirical	-12729
▁immigrant	-12730
▁occasions	-12731
▁rendering	-12732
▁voluntary	-12733
▁Depression	-12734
▁Portuguese	-12735
▁divisional	-12736
▁freshwater	-12737
▁geographic	-12738
▁horsepower	-12739
▁impression	-12740
▁microscope	-12741
▁volunteers	-12742
▁Protestants	-12743
▁participation	-12744
▁transcription	-12745
EN	-12746
IL	-12747
PM	-12748
MVP	-12749
aqu	-12750
cht	-12751
▁".	-12752
▁95	-12753
▁Si	-12754
fund	-12755
ldom	-12756
olip	-12757
▁avo	-12758
▁hub	-12759
▁mum	-12760
▁pad	-12761
▁shr	-12762
arded	-12763
essed	-12764
immer	-12765
sleep	-12766
tened	-12767
third	-12768
▁Marc	-12769
▁Move	-12770
▁odds	-12771
adelph	-12772
eopard	-12773
except	-12774
gences	-12775
▁Could	-12776
▁brush	-12777
▁camps	-12778
▁hatch	-12779
▁moons	-12780
▁opera	-12781
▁reign	-12782
▁renov	-12783
▁steal	-12784
attered	-12785
ometric	-12786
uations	-12787
▁Rockne	-12788
▁blamed	-12789
▁bounce	-12790
▁hotels	-12791
▁neuron	-12792
▁orgasm	-12793
▁tonnes	-12794
▁trials	-12795
emiopsis	-12796
lication	-12797
▁Express	-12798
▁Parents	-12799
▁avoided	-12800
▁observe	-12801
▁storing	-12802
▁whereby	-12803
aceutical	-12804
▁Language	-12805
▁Missouri	-12806
▁borrowed	-12807
▁boundary	-12808
▁classify	-12809
▁congress	-12810
▁enrolled	-12811
▁imprison	-12812
▁laughing	-12813
▁severely	-12814
▁severity	-12815
▁stranger	-12816
▁unwanted	-12817
▁Architect	-12818
▁butterfly	-12819
▁civilians	-12820
▁opponents	-12821
▁permitted	-12822
▁precisely	-12823
▁searching	-12824
▁unhealthy	-12825
▁Additional	-12826
▁appliances	-12827
▁attachment	-12828
▁prescribed	-12829
▁psychology	-12830
▁scattering	-12831
▁initiatives	-12832
▁prokaryotes	-12833
▁microorganisms	-12834
ja	-12835
wu	-12836
-14	-12837
eda	-12838
fat	-12839
nan	-12840
acon	-12841
alph	-12842
boat	-12843
erto	-12844
fire	-12845
mary	-12846
▁Ali	-12847
▁Eye	-12848
▁Fat	-12849
▁Roc	-12850
▁Tun	-12851
▁blo	-12852
▁bol	-12853
,000,	-12854
emini	-12855
inery	-12856
ogurt	-12857
ucius	-12858
vable	-12859
▁1992	-12860
▁Cond	-12861
▁Dill	-12862
▁Ealy	-12863
▁Fact	-12864
▁Gina	-12865
▁Girl	-12866
▁Pack	-12867
▁Scro	-12868
▁Ward	-12869
▁dens	-12870
▁knee	-12871
▁masc	-12872
▁ping	-12873
erting	-12874
illary	-12875
ombard	-12876
▁1997,	-12877
▁Carey	-12878
▁Frame	-12879
▁Heart	-12880
▁Jimmy	-12881
▁Karma	-12882
▁[...]	-12883
▁brave	-12884
▁candy	-12885
▁chord	-12886
▁deter	-12887
▁pools	-12888
▁Policy	-12889
▁hibern	-12890
▁innate	-12891
▁learns	-12892
▁locked	-12893
▁portra	-12894
▁raises	-12895
▁ratios	-12896
▁sticky	-12897
▁tribes	-12898
adelphia	-12899
osterone	-12900
▁Mendels	-12901
▁debated	-12902
▁demands	-12903
▁imports	-12904
▁outlets	-12905
▁picking	-12906
▁printer	-12907
▁smiling	-12908
▁Orthodox	-12909
▁Stirling	-12910
▁counting	-12911
▁database	-12912
▁examined	-12913
▁judgment	-12914
▁managing	-12915
▁utilized	-12916
▁longitude	-12917
▁penetrate	-12918
▁secretion	-12919
▁spreading	-12920
▁transfers	-12921
▁vegetable	-12922
▁compromise	-12923
▁deficiency	-12924
▁occupation	-12925
▁suspension	-12926
▁transplant	-12927
▁transverse	-12928
▁antidepress	-12929
▁commercials	-12930
▁contracting	-12931
▁discovering	-12932
▁importantly	-12933
▁sympathetic	-12934
▁Philadelphia	-12935
▁contributing	-12936
▁recreational	-12937
▁pronunciation	-12938
88	-12939
Op	-12940
To	-12941
”.	-12942
Bec	-12943
iph	-12944
kpa	-12945
oux	-12946
ugs	-12947
▁1)	-12948
_1_)	-12949
bean	-12950
chat	-12951
eted	-12952
iece	-12953
orce	-12954
oult	-12955
▁140	-12956
▁ATP	-12957
▁Bol	-12958
▁Dev	-12959
▁Ele	-12960
▁Imm	-12961
▁Kat	-12962
▁Kim	-12963
▁Len	-12964
▁rit	-12965
▁tap	-12966
aylor	-12967
brity	-12968
ester	-12969
ulent	-12970
yroid	-12971
▁1994	-12972
▁Circ	-12973
▁Cust	-12974
▁Mail	-12975
▁Nant	-12976
▁Nino	-12977
▁Xbox	-12978
▁carn	-12979
▁corp	-12980
▁hook	-12981
▁rehe	-12982
▁rods	-12983
▁spam	-12984
teenth	-12985
▁Billy	-12986
▁Coast	-12987
▁Hindu	-12988
▁aside	-12989
▁fears	-12990
▁inapp	-12991
▁picks	-12992
▁ponds	-12993
▁prede	-12994
▁ridic	-12995
ketball	-12996
rencies	-12997
▁Dakota	-12998
▁Deshin	-12999
▁Freder	-13000
▁Higher	-13001
▁commem	-13002
▁cooled	-13003
▁donate	-13004
▁hambur	-13005
▁sleepy	-13006
▁trough	-13007
▁upheld	-13008
▁whales	-13009
▁Belgian	-13010
▁Scrooge	-13011
▁apparat	-13012
▁clients	-13013
▁exports	-13014
▁kingdom	-13015
▁outward	-13016
▁resolve	-13017
▁spirits	-13018
▁urinary	-13019
roportion	-13020
▁Airlines	-13021
▁Specific	-13022
▁encoding	-13023
▁ideology	-13024
▁informed	-13025
▁mistaken	-13026
▁nutrient	-13027
▁pictured	-13028
▁pressing	-13029
▁rational	-13030
▁romantic	-13031
▁treating	-13032
▁wildlife	-13033
▁Treatment	-13034
▁assistant	-13035
▁blindness	-13036
▁commodity	-13037
▁cydippids	-13038
▁detection	-13039
▁exceeding	-13040
▁gentleman	-13041
▁instantly	-13042
▁liability	-13043
▁mandatory	-13044
▁varieties	-13045
▁conductors	-13046
▁encourages	-13047
▁interviews	-13048
▁irritation	-13049
▁referendum	-13050
▁underneath	-13051
▁accordingly	-13052
▁conjunction	-13053
▁encountered	-13054
▁preparation	-13055
▁collectively	-13056
▁investigated	-13057
▁publications	-13058
▁registration	-13059
],	-13060
ko	-13061
_1_	-13062
▁$3	-13063
▁ol	-13064
aved	-13065
aver	-13066
disc	-13067
enez	-13068
iner	-13069
inos	-13070
leys	-13071
loor	-13072
oped	-13073
osyn	-13074
star	-13075
upid	-13076
▁23.	-13077
▁CIA	-13078
▁laz	-13079
▁tin	-13080
amous	-13081
gebra	-13082
ierre	-13083
parts	-13084
ppers	-13085
▁Kids	-13086
▁Poll	-13087
▁alve	-13088
▁anem	-13089
▁cows	-13090
▁kern	-13091
▁node	-13092
▁sits	-13093
▁subd	-13094
▁woke	-13095
eville	-13096
sexual	-13097
▁Güshi	-13098
▁McDon	-13099
▁Yanke	-13100
▁annoy	-13101
▁farms	-13102
▁halls	-13103
▁hypot	-13104
▁jumps	-13105
▁knock	-13106
▁sorts	-13107
▁telev	-13108
▁twins	-13109
Because	-13110
Chinese	-13111
▁Dreams	-13112
▁Nearly	-13113
▁behalf	-13114
▁cattle	-13115
▁interv	-13116
▁makeup	-13117
▁powder	-13118
▁waited	-13119
olutions	-13120
▁carboxy	-13121
▁chewing	-13122
▁counsel	-13123
▁gardens	-13124
▁happier	-13125
▁healing	-13126
▁hostile	-13127
▁labeled	-13128
▁multipl	-13129
▁percept	-13130
▁pumping	-13131
▁removes	-13132
dependent	-13133
▁Criminal	-13134
▁Michigan	-13135
▁Phillips	-13136
▁Pictures	-13137
▁chickens	-13138
▁defining	-13139
▁epidemic	-13140
▁impaired	-13141
▁impulses	-13142
▁initiate	-13143
▁missiles	-13144
▁revenues	-13145
▁unstable	-13146
▁consisted	-13147
▁discrimin	-13148
▁explosive	-13149
▁northeast	-13150
▁protocols	-13151
▁reception	-13152
▁authorized	-13153
▁performers	-13154
▁solubility	-13155
▁stimulates	-13156
▁vibrations	-13157
▁attractions	-13158
▁statistical	-13159
▁economically	-13160
▁overwhelming	-13161
89	-13162
_2	-13163
ige	-13164
rys	-13165
▁AR	-13166
▁lb	-13167
▁rh	-13168
Look	-13169
iard	-13170
ilic	-13171
iots	-13172
phal	-13173
said	-13174
supp	-13175
them	-13176
▁29,	-13177
▁Bal	-13178
▁Buy	-13179
▁Cad	-13180
▁Hor	-13181
▁Lob	-13182
▁ric	-13183
▁umb	-13184
▁zyg	-13185
iarra	-13186
igent	-13187
imacy	-13188
iping	-13189
peare	-13190
ptide	-13191
▁Cats	-13192
▁edit	-13193
▁nood	-13194
▁retr	-13195
▁spat	-13196
▁ster	-13197
▁vest	-13198
People	-13199
isible	-13200
nected	-13201
▁Cinem	-13202
▁Guang	-13203
▁Lunar	-13204
▁Twain	-13205
▁Venus	-13206
▁adhes	-13207
▁blast	-13208
▁chore	-13209
▁deriv	-13210
▁diets	-13211
▁discl	-13212
▁naked	-13213
▁scent	-13214
▁theor	-13215
berries	-13216
enezuel	-13217
ivities	-13218
▁Coffee	-13219
▁Hawaii	-13220
▁Shakes	-13221
▁Strong	-13222
▁adoles	-13223
▁assass	-13224
▁beside	-13225
▁junior	-13226
▁premie	-13227
▁thesis	-13228
▁warned	-13229
▁whilst	-13230
itudinal	-13231
▁Iceland	-13232
▁Sanders	-13233
▁Sciarra	-13234
▁Solange	-13235
▁Studios	-13236
▁ammonia	-13237
▁angular	-13238
▁conform	-13239
▁dialect	-13240
▁dischar	-13241
▁hardest	-13242
▁persist	-13243
▁sixteen	-13244
▁soluble	-13245
▁strings	-13246
▁suburbs	-13247
▁theolog	-13248
▁upwards	-13249
▁utility	-13250
expensive	-13251
▁Medicine	-13252
▁compiled	-13253
▁consoles	-13254
▁creature	-13255
▁discount	-13256
▁enforced	-13257
▁monaster	-13258
▁peaceful	-13259
▁reporter	-13260
▁theaters	-13261
▁thirteen	-13262
▁cancelled	-13263
▁economies	-13264
▁furniture	-13265
▁neighbour	-13266
▁potassium	-13267
▁surviving	-13268
▁Electrical	-13269
▁Industrial	-13270
▁aggression	-13271
▁complained	-13272
▁contracept	-13273
▁distortion	-13274
▁nomination	-13275
▁succession	-13276
▁Researchers	-13277
▁Shakespeare	-13278
▁electronics	-13279
▁nutritional	-13280
▁problematic	-13281
▁concentrating	-13282
▁extracellular	-13283
▁theoretically	-13284
83	-13285
td	-13286
adi	-13287
bul	-13288
due	-13289
rah	-13290
▁9/	-13291
▁99	-13292
beit	-13293
educ	-13294
eway	-13295
link	-13296
shop	-13297
ńska	-13298
▁$40	-13299
▁17.	-13300
▁179	-13301
▁Isa	-13302
▁Opp	-13303
▁Pul	-13304
▁Spr	-13305
▁Tok	-13306
▁hep	-13307
▁phy	-13308
▁unm	-13309
▁upr	-13310
athew	-13311
comed	-13312
ician	-13313
inals	-13314
oenix	-13315
tosis	-13316
▁Bing	-13317
▁Gaga	-13318
▁Java	-13319
▁Navy	-13320
▁Soft	-13321
▁bend	-13322
▁intu	-13323
▁pale	-13324
▁palm	-13325
▁pose	-13326
▁quar	-13327
▁rush	-13328
▁sear	-13329
aceous	-13330
▁Beeth	-13331
▁Birds	-13332
▁Milan	-13333
▁Peace	-13334
▁Saxon	-13335
▁Speed	-13336
▁Sympt	-13337
▁Types	-13338
▁freed	-13339
▁indul	-13340
▁pores	-13341
▁slide	-13342
▁steep	-13343
▁stems	-13344
▁twent	-13345
earning	-13346
▁Advent	-13347
▁Mathew	-13348
▁Wednes	-13349
▁bonded	-13350
▁burden	-13351
▁diving	-13352
▁elabor	-13353
▁laptop	-13354
▁seller	-13355
▁Members	-13356
▁Players	-13357
▁battles	-13358
▁bearing	-13359
▁beating	-13360
▁diamond	-13361
▁letting	-13362
▁missile	-13363
▁optimal	-13364
▁pharynx	-13365
▁ranking	-13366
▁tourist	-13367
frequency	-13368
producing	-13369
▁Creative	-13370
▁Imperial	-13371
▁Venezuel	-13372
▁adjusted	-13373
▁airports	-13374
▁commands	-13375
▁deforest	-13376
▁instruct	-13377
▁segments	-13378
▁uncommon	-13379
▁Beethoven	-13380
▁Financial	-13381
▁accepting	-13382
▁apparatus	-13383
▁cigarette	-13384
▁composers	-13385
▁daughters	-13386
▁machinery	-13387
▁sustained	-13388
▁homosexual	-13389
▁indirectly	-13390
▁meaningful	-13391
▁pronounced	-13392
▁securities	-13393
▁Monroeville	-13394
▁involvement	-13395
▁transformed	-13396
▁Commonwealth	-13397
▁confidential	-13398
▁grandparents	-13399
▁installation	-13400
▁functionality	-13401
▁internationally	-13402
-5	-13403
TF	-13404
UP	-13405
lu	-13406
sw	-13407
▁É	-13408
▁Ż	-13409
gun	-13410
idy	-13411
jan	-13412
lan	-13413
phe	-13414
▁41	-13415
▁Hz	-13416
----	-13417
arse	-13418
city	-13419
degC	-13420
oule	-13421
went	-13422
▁26,	-13423
▁Hom	-13424
▁Wet	-13425
giene	-13426
polar	-13427
▁CCTV	-13428
▁Hung	-13429
▁Self	-13430
▁USSR	-13431
▁adul	-13432
▁barg	-13433
▁cues	-13434
▁deny	-13435
▁ease	-13436
▁fibr	-13437
▁fuck	-13438
▁nuts	-13439
▁punt	-13440
▁rust	-13441
▁verb	-13442
ailand	-13443
ailing	-13444
izable	-13445
▁2019,	-13446
▁Arist	-13447
▁Ralph	-13448
▁Rosen	-13449
▁Thank	-13450
▁punch	-13451
▁spite	-13452
▁spray	-13453
▁Batter	-13454
▁Kubiak	-13455
▁Theory	-13456
▁Toyota	-13457
▁Wilson	-13458
▁diplom	-13459
▁marrow	-13460
▁seldom	-13461
▁yogurt	-13462
▁Current	-13463
▁broader	-13464
▁exploit	-13465
▁intoxic	-13466
▁noodles	-13467
▁paradox	-13468
▁polymer	-13469
▁Buddhist	-13470
▁Symptoms	-13471
▁enjoying	-13472
▁pathways	-13473
▁resemble	-13474
▁salaries	-13475
▁scenario	-13476
▁striking	-13477
▁triangle	-13478
▁variants	-13479
▁belonging	-13480
▁dominance	-13481
▁ethnicity	-13482
▁fragments	-13483
▁numerical	-13484
▁shoulders	-13485
▁Basketball	-13486
▁Commercial	-13487
▁Federation	-13488
▁celebrated	-13489
▁comparable	-13490
▁corruption	-13491
▁hemisphere	-13492
▁incredibly	-13493
▁pollutants	-13494
▁Engineering	-13495
▁cooperation	-13496
▁dehydration	-13497
▁permanently	-13498
▁restriction	-13499
▁smartphones	-13500
▁Intelligence	-13501
▁modification	-13502
▁disproportion	-13503
▁spontaneously	-13504
85	-13505
LC	-13506
ME	-13507
.).	-13508
▁"[	-13509
▁Ju	-13510
home	-13511
oice	-13512
orer	-13513
week	-13514
▁110	-13515
▁25,	-13516
▁Ath	-13517
▁Cos	-13518
▁Dam	-13519
▁Dia	-13520
▁Dyn	-13521
▁Run	-13522
▁USD	-13523
▁bod	-13524
▁dub	-13525
▁lum	-13526
▁odd	-13527
adequ	-13528
arbon	-13529
earch	-13530
esium	-13531
ycten	-13532
▁Ages	-13533
▁Brun	-13534
▁Eliz	-13535
▁Rain	-13536
▁Turk	-13537
▁cran	-13538
▁damp	-13539
▁gram	-13540
▁sons	-13541
lusive	-13542
modern	-13543
ucking	-13544
▁Elway	-13545
▁Opera	-13546
▁Plant	-13547
▁Pluto	-13548
▁Users	-13549
▁Warsz	-13550
▁alert	-13551
▁align	-13552
▁beard	-13553
▁cakes	-13554
▁crypt	-13555
▁globe	-13556
▁inhal	-13557
▁reset	-13558
▁resur	-13559
▁skins	-13560
▁spicy	-13561
▁stamp	-13562
aerobic	-13563
essions	-13564
looking	-13565
ophical	-13566
written	-13567
▁alphab	-13568
▁leaked	-13569
▁mating	-13570
▁mouths	-13571
▁stairs	-13572
▁submar	-13573
▁submit	-13574
▁turkey	-13575
▁vagina	-13576
ibration	-13577
▁Culture	-13578
▁Thunder	-13579
▁Village	-13580
▁binding	-13581
▁crashed	-13582
▁lowered	-13583
▁marking	-13584
▁monarch	-13585
▁nucleic	-13586
▁rockets	-13587
▁routing	-13588
▁smokers	-13589
▁useless	-13590
▁venture	-13591
developed	-13592
ilization	-13593
▁Marshall	-13594
▁consolid	-13595
▁contrary	-13596
▁discoura	-13597
▁dissolve	-13598
▁expelled	-13599
▁reviewed	-13600
▁situated	-13601
▁welcomed	-13602
▁Celebrity	-13603
▁aluminium	-13604
▁melatonin	-13605
▁workplace	-13606
▁accordance	-13607
▁converting	-13608
▁dictionary	-13609
▁documented	-13610
▁harassment	-13611
▁references	-13612
▁supporters	-13613
▁swallowing	-13614
▁Mendelssohn	-13615
▁adaptations	-13616
▁celebration	-13617
▁grandmother	-13618
▁homeostasis	-13619
▁politically	-13620
▁spontaneous	-13621
▁supermarket	-13622
▁Conservatory	-13623
▁Approximately	-13624
▁perpendicular	-13625
GS	-13626
ét	-13627
afe	-13628
gel	-13629
ibo	-13630
igm	-13631
jud	-13632
rob	-13633
▁IT	-13634
▁TH	-13635
▁Yu	-13636
Hisp	-13637
ahoo	-13638
erns	-13639
fred	-13640
lyde	-13641
oard	-13642
oths	-13643
reek	-13644
rise	-13645
▁22.	-13646
▁Wol	-13647
▁que	-13648
▁til	-13649
eling	-13650
oding	-13651
olden	-13652
rated	-13653
▁Appe	-13654
▁Capt	-13655
▁Dark	-13656
▁Gene	-13657
▁Glac	-13658
▁Maur	-13659
▁inqu	-13660
▁lobb	-13661
▁unsu	-13662
access	-13663
energy	-13664
idding	-13665
social	-13666
terday	-13667
themed	-13668
▁Ellen	-13669
▁Train	-13670
▁Yours	-13671
▁alpha	-13672
▁cheer	-13673
▁flesh	-13674
▁knife	-13675
▁rainy	-13676
▁worms	-13677
atories	-13678
herical	-13679
▁Motion	-13680
▁Saints	-13681
▁Shekpa	-13682
▁alumni	-13683
▁bypass	-13684
▁capita	-13685
▁cousin	-13686
▁curric	-13687
▁fitted	-13688
▁frustr	-13689
▁hollow	-13690
▁interf	-13691
▁operas	-13692
▁remark	-13693
▁spices	-13694
Hispanic	-13695
▁Freedom	-13696
▁Lombard	-13697
▁Rowland	-13698
▁Running	-13699
▁Shadows	-13700
▁charter	-13701
▁cluster	-13702
▁contrad	-13703
▁cookers	-13704
▁corners	-13705
▁counted	-13706
▁dresses	-13707
▁expands	-13708
▁handled	-13709
▁nocturn	-13710
▁tightly	-13711
▁welcome	-13712
▁Austrian	-13713
▁Einstein	-13714
▁boarding	-13715
▁civilian	-13716
▁earnings	-13717
▁habitats	-13718
▁imported	-13719
▁mushroom	-13720
▁overhead	-13721
▁preserve	-13722
▁starring	-13723
▁Engineers	-13724
▁criminals	-13725
▁metamorph	-13726
▁observing	-13727
▁preparing	-13728
▁realistic	-13729
▁unlimited	-13730
▁vertebral	-13731
▁Increasing	-13732
▁accidental	-13733
▁eukaryotes	-13734
▁frightened	-13735
▁programmes	-13736
▁systematic	-13737
▁withdrawal	-13738
▁Temperature	-13739
▁accessories	-13740
▁ventilation	-13741
▁administered	-13742
▁interception	-13743
▁neighborhoods	-13744
LL	-13745
PA	-13746
PR	-13747
kh	-13748
MAX	-13749
cap	-13750
hua	-13751
ito	-13752
typ	-13753
▁43	-13754
▁Sz	-13755
▁Ta	-13756
Wire	-13757
empl	-13758
inge	-13759
mitt	-13760
oded	-13761
open	-13762
page	-13763
rots	-13764
▁Arm	-13765
▁GPU	-13766
▁Kaz	-13767
▁Ken	-13768
▁Ltd	-13769
▁Pra	-13770
▁Wan	-13771
▁ost	-13772
▁pee	-13773
▁por	-13774
▁vas	-13775
1,000	-13776
azine	-13777
ighed	-13778
ocene	-13779
odied	-13780
▁15–1	-13781
▁Anti	-13782
▁Body	-13783
▁Deep	-13784
▁Eric	-13785
▁True	-13786
▁bulb	-13787
▁gray	-13788
▁mRNA	-13789
around	-13790
inated	-13791
inging	-13792
little	-13793
ranean	-13794
ricket	-13795
urized	-13796
▁Clyde	-13797
▁Fifth	-13798
▁Front	-13799
▁Quick	-13800
▁Tokyo	-13801
▁amend	-13802
▁niche	-13803
▁shaft	-13804
▁sinks	-13805
▁slave	-13806
▁stake	-13807
▁thres	-13808
aternal	-13809
replace	-13810
▁Doctor	-13811
▁Recent	-13812
▁barely	-13813
▁buyers	-13814
▁lonely	-13815
▁panels	-13816
▁sculpt	-13817
▁traces	-13818
▁uncont	-13819
▁unfair	-13820
▁Climate	-13821
▁Yorkers	-13822
▁bitcoin	-13823
▁congest	-13824
▁coupled	-13825
▁demonst	-13826
▁densely	-13827
▁intoler	-13828
▁lactose	-13829
▁pleased	-13830
▁rubbing	-13831
▁shampoo	-13832
▁summers	-13833
▁weighed	-13834
▁Whenever	-13835
▁alliance	-13836
▁attorney	-13837
▁caffeine	-13838
▁disputed	-13839
▁dividing	-13840
▁primates	-13841
▁profiles	-13842
▁shouting	-13843
▁swelling	-13844
▁assembled	-13845
▁conceived	-13846
▁considers	-13847
▁extending	-13848
▁menstrual	-13849
▁obtaining	-13850
▁placement	-13851
▁prevalent	-13852
▁sexuality	-13853
▁spaceship	-13854
replaceable	-13855
▁Dreamgirls	-13856
▁Everything	-13857
▁currencies	-13858
▁historians	-13859
▁infectious	-13860
▁parameters	-13861
▁physicians	-13862
▁substitute	-13863
▁Competition	-13864
▁Traditional	-13865
▁aftershocks	-13866
▁territorial	-13867
▁Architecture	-13868
▁collaboration	-13869
*,	-13870
52	-13871
ims	-13872
ogr	-13873
ozy	-13874
viv	-13875
▁EM	-13876
▁da	-13877
Life	-13878
boys	-13879
conf	-13880
ders	-13881
ials	-13882
infl	-13883
inyl	-13884
lude	-13885
oton	-13886
ovol	-13887
thur	-13888
ugen	-13889
▁(12	-13890
▁16-	-13891
▁18.	-13892
▁Deb	-13893
▁McC	-13894
▁ben	-13895
▁sup	-13896
antom	-13897
asive	-13898
cture	-13899
gener	-13900
mount	-13901
orate	-13902
rying	-13903
▁Cher	-13904
▁Core	-13905
▁Leon	-13906
▁Past	-13907
▁Spot	-13908
▁Very	-13909
▁bree	-13910
▁heal	-13911
▁inch	-13912
▁lamp	-13913
▁mast	-13914
▁null	-13915
▁peer	-13916
▁pens	-13917
▁veto	-13918
emeter	-13919
flight	-13920
olland	-13921
▁Check	-13922
▁Hydro	-13923
▁elite	-13924
▁gauge	-13925
▁medal	-13926
▁relay	-13927
▁shame	-13928
▁shelf	-13929
▁spins	-13930
▁sunny	-13931
iencies	-13932
quality	-13933
▁aggreg	-13934
▁allies	-13935
▁dispar	-13936
▁eighth	-13937
▁fungus	-13938
▁holder	-13939
▁loaded	-13940
▁scared	-13941
▁smells	-13942
icularly	-13943
▁Complex	-13944
▁Welcome	-13945
▁airline	-13946
▁analogy	-13947
▁analyze	-13948
▁besides	-13949
▁deposit	-13950
▁hydroph	-13951
▁inherit	-13952
▁spreads	-13953
▁Bacteria	-13954
▁FireWire	-13955
▁Manufact	-13956
▁Michelle	-13957
▁Romantic	-13958
▁alkaline	-13959
▁arriving	-13960
▁chambers	-13961
▁criteria	-13962
▁deployed	-13963
▁distress	-13964
▁engaging	-13965
▁fourteen	-13966
▁geometry	-13967
▁highways	-13968
▁informal	-13969
▁inventor	-13970
▁relating	-13971
▁settlers	-13972
▁thoracic	-13973
▁Initially	-13974
▁allocated	-13975
▁comprises	-13976
▁electrone	-13977
▁evaporate	-13978
▁exchanges	-13979
▁exercises	-13980
▁incidents	-13981
▁integrity	-13982
▁intrinsic	-13983
▁investing	-13984
▁projected	-13985
▁signature	-13986
▁threshold	-13987
▁Television	-13988
▁applicable	-13989
▁assumption	-13990
▁continents	-13991
▁innovation	-13992
▁Individuals	-13993
▁circulatory	-13994
▁consequently	-13995
▁occupational	-13996
▁headquartered	-13997
PG	-13998
ati	-13999
nex	-14000
org	-14001
▁),	-14002
▁3:	-14003
▁CH	-14004
▁XI	-14005
▁ps	-14006
agle	-14007
comm	-14008
helm	-14009
irus	-14010
ondo	-14011
pack	-14012
wave	-14013
▁162	-14014
▁Viv	-14015
▁dop	-14016
▁lod	-14017
andes	-14018
brain	-14019
ieves	-14020
inian	-14021
iquid	-14022
ophag	-14023
space	-14024
years	-14025
▁Milk	-14026
▁Peru	-14027
▁Salt	-14028
▁cerv	-14029
▁foil	-14030
▁golf	-14031
▁lawn	-14032
▁suck	-14033
▁trap	-14034
Christ	-14035
elsius	-14036
ighted	-14037
minute	-14038
rosion	-14039
uitary	-14040
▁Cindy	-14041
▁Laird	-14042
▁Nixon	-14043
▁Realm	-14044
▁Sandy	-14045
▁blade	-14046
▁blame	-14047
▁downs	-14048
▁dried	-14049
▁fetal	-14050
▁flage	-14051
▁flame	-14052
▁grape	-14053
▁harsh	-14054
▁hobby	-14055
▁whist	-14056
ceptors	-14057
grounds	-14058
oblasts	-14059
▁Gemini	-14060
▁Mechan	-14061
▁Taylor	-14062
▁Walter	-14063
▁fights	-14064
▁fundra	-14065
▁makers	-14066
▁modest	-14067
▁outlet	-14068
▁persec	-14069
▁rookie	-14070
▁snacks	-14071
▁toothp	-14072
▁trends	-14073
▁Aristot	-14074
▁Charlie	-14075
▁Harvard	-14076
▁Israeli	-14077
▁Maycomb	-14078
▁Phoenix	-14079
▁derives	-14080
▁exagger	-14081
▁imagery	-14082
▁pathway	-14083
▁shallow	-14084
▁starred	-14085
▁urethra	-14086
oskeleton	-14087
▁Memorial	-14088
▁harmless	-14089
▁improves	-14090
▁opponent	-14091
▁reversed	-14092
▁volcanic	-14093
▁Countries	-14094
▁Dominican	-14095
▁Everybody	-14096
▁amplitude	-14097
▁ancestors	-14098
▁developer	-14099
▁disasters	-14100
▁incentive	-14101
▁paralysis	-14102
▁Directives	-14103
▁Operations	-14104
▁initiative	-14105
▁reasonably	-14106
▁recognised	-14107
▁computation	-14108
▁convenience	-14109
▁corresponds	-14110
▁destructive	-14111
▁endorsement	-14112
▁Consequently	-14113
▁complications	-14114
,'	-14115
His	-14116
abi	-14117
wic	-14118
▁NO	-14119
▁PL	-14120
John	-14121
acro	-14122
ctic	-14123
cult	-14124
ella	-14125
llus	-14126
ropy	-14127
rous	-14128
▁105	-14129
▁15-	-14130
▁19.	-14131
▁Eis	-14132
▁HHC	-14133
▁Jun	-14134
▁Nev	-14135
being	-14136
marks	-14137
ocyte	-14138
perms	-14139
▁Flat	-14140
▁Webb	-14141
▁cute	-14142
▁dock	-14143
▁ejac	-14144
▁fled	-14145
▁neon	-14146
▁pork	-14147
▁sang	-14148
anjing	-14149
apolis	-14150
govern	-14151
imeter	-14152
rition	-14153
thirds	-14154
usters	-14155
▁Barry	-14156
▁Nepal	-14157
▁Susie	-14158
▁aspir	-14159
▁excit	-14160
▁liber	-14161
▁lifes	-14162
▁minds	-14163
▁paste	-14164
▁pneum	-14165
▁tails	-14166
efinite	-14167
olester	-14168
▁Active	-14169
▁Alfred	-14170
▁Indeed	-14171
▁Millie	-14172
▁Romans	-14173
▁Shuman	-14174
▁bodily	-14175
▁clowns	-14176
▁deemed	-14177
▁detrim	-14178
▁emails	-14179
▁indoor	-14180
▁intact	-14181
▁landsl	-14182
▁occupy	-14183
▁taller	-14184
▁traced	-14185
ocytosis	-14186
▁Fontana	-14187
▁Georgia	-14188
▁Majorca	-14189
▁Wilhelm	-14190
▁aerobic	-14191
▁climbed	-14192
▁compass	-14193
▁dislike	-14194
▁horizon	-14195
▁inadequ	-14196
▁mitosis	-14197
▁reactor	-14198
▁relieve	-14199
▁updates	-14200
▁Franklin	-14201
▁Thailand	-14202
▁complain	-14203
▁metallic	-14204
▁seawater	-14205
▁thorough	-14206
▁Telephone	-14207
▁capillary	-14208
▁carbonate	-14209
▁circadian	-14210
▁intervals	-14211
▁originate	-14212
▁physicist	-14213
▁royalties	-14214
▁underwent	-14215
▁Mnemiopsis	-14216
▁Prevention	-14217
▁alcoholism	-14218
▁collectors	-14219
▁commentary	-14220
▁nationwide	-14221
▁researcher	-14222
▁indulgences	-14223
▁threatening	-14224
▁contamination	-14225
▁multicellular	-14226
po	-14227
yd	-14228
400	-14229
Are	-14230
Pro	-14231
Say	-14232
cha	-14233
hum	-14234
ref	-14235
ylv	-14236
zig	-14237
▁3)	-14238
▁4:	-14239
▁8-	-14240
▁Fu	-14241
▁Ur	-14242
math	-14243
rust	-14244
ulas	-14245
wick	-14246
▁10-	-14247
▁50-	-14248
▁Cro	-14249
▁Mut	-14250
▁Tea	-14251
▁Yun	-14252
▁bip	-14253
▁omn	-14254
arted	-14255
brand	-14256
frame	-14257
group	-14258
urers	-14259
▁1842	-14260
▁Carn	-14261
▁Days	-14262
▁Gott	-14263
▁Ryan	-14264
▁clay	-14265
▁dess	-14266
▁lend	-14267
▁owns	-14268
▁pear	-14269
▁perf	-14270
▁spor	-14271
iating	-14272
ophyte	-14273
reated	-14274
▁Felix	-14275
▁Mouse	-14276
▁Titan	-14277
▁debts	-14278
▁donor	-14279
▁frogs	-14280
▁ghost	-14281
▁infer	-14282
▁masks	-14283
▁noble	-14284
▁spare	-14285
lecules	-14286
rowning	-14287
▁Astron	-14288
▁Causes	-14289
▁Ground	-14290
▁Harris	-14291
▁Proper	-14292
▁backup	-14293
▁grands	-14294
▁graves	-14295
▁handed	-14296
▁incons	-14297
▁locate	-14298
▁packed	-14299
▁passer	-14300
▁prelim	-14301
▁proton	-14302
▁relies	-14303
▁resort	-14304
▁viscos	-14305
▁Phagmod	-14306
▁arousal	-14307
▁asserts	-14308
▁briefly	-14309
▁gaining	-14310
▁hanging	-14311
▁pigeons	-14312
▁sectors	-14313
▁symptom	-14314
▁Interest	-14315
▁Olympics	-14316
▁Recently	-14317
▁Services	-14318
▁Theodore	-14319
▁conclude	-14320
▁confined	-14321
▁dolphins	-14322
▁envelope	-14323
▁insisted	-14324
▁lowering	-14325
▁requests	-14326
▁traction	-14327
iterranean	-14328
▁graduates	-14329
▁juveniles	-14330
▁merchants	-14331
▁orchestra	-14332
▁petroleum	-14333
▁phosphate	-14334
▁promotion	-14335
▁publicity	-14336
▁successor	-14337
▁Antarctica	-14338
▁accelerate	-14339
▁collective	-14340
▁commitment	-14341
▁ingredient	-14342
▁inventions	-14343
▁reductions	-14344
▁stretching	-14345
▁Afghanistan	-14346
▁accelerated	-14347
▁eliminating	-14348
▁intercourse	-14349
▁nationality	-14350
▁operational	-14351
▁preliminary	-14352
▁productions	-14353
▁prokaryotic	-14354
▁additionally	-14355
▁longitudinal	-14356
▁Administrator	-14357
▁compatibility	-14358
▁demonstration	-14359
▁intentionally	-14360
▁possibilities	-14361
▁pharmaceutical	-14362
Or	-14363
arg	-14364
bye	-14365
cor	-14366
cry	-14367
ira	-14368
occ	-14369
oxy	-14370
ère	-14371
▁Pu	-14372
Come	-14373
chle	-14374
hill	-14375
ieth	-14376
uity	-14377
▁$2.	-14378
▁15.	-14379
▁31,	-14380
▁Fra	-14381
▁Gol	-14382
▁Gre	-14383
▁Hal	-14384
▁Rod	-14385
▁Sex	-14386
▁dup	-14387
▁nan	-14388
▁soy	-14389
Manus	-14390
acerb	-14391
angle	-14392
etics	-14393
itism	-14394
osals	-14395
proof	-14396
prote	-14397
▁200,	-14398
▁Anna	-14399
▁Dogs	-14400
▁Drag	-14401
▁Fung	-14402
▁Half	-14403
▁McCl	-14404
▁Sure	-14405
▁Talk	-14406
▁asym	-14407
▁bent	-14408
▁cuis	-14409
▁pier	-14410
▁sack	-14411
▁silk	-14412
▁soup	-14413
keeper	-14414
rapers	-14415
record	-14416
▁Anton	-14417
▁boats	-14418
▁flags	-14419
▁fleet	-14420
▁proto	-14421
▁rated	-14422
▁suits	-14423
▁yours	-14424
agement	-14425
athered	-14426
▁40,000	-14427
▁Barack	-14428
▁Nevada	-14429
▁Pirate	-14430
▁builds	-14431
▁chairs	-14432
▁concur	-14433
▁copied	-14434
▁feared	-14435
▁namely	-14436
▁stupid	-14437
▁summar	-14438
▁tricks	-14439
▁Ancient	-14440
▁McManus	-14441
▁Overall	-14442
▁Reading	-14443
▁crossed	-14444
▁cycling	-14445
▁dressed	-14446
▁easiest	-14447
▁evident	-14448
▁exacerb	-14449
▁fasting	-14450
▁oranges	-14451
▁photons	-14452
▁pyramid	-14453
▁sadness	-14454
▁thinner	-14455
▁toilets	-14456
▁Industry	-14457
▁Magazine	-14458
▁attracts	-14459
▁billions	-14460
▁combines	-14461
▁donation	-14462
▁intercon	-14463
▁interval	-14464
▁latitude	-14465
▁mentally	-14466
▁minimize	-14467
▁preludes	-14468
▁sweating	-14469
▁symmetry	-14470
▁tomorrow	-14471
▁Holocaust	-14472
▁Wednesday	-14473
▁achieving	-14474
▁anonymous	-14475
▁borrowing	-14476
▁demanding	-14477
▁desirable	-14478
▁dinosaurs	-14479
▁landscape	-14480
▁motivated	-14481
▁telescope	-14482
▁Originally	-14483
▁antibodies	-14484
▁headphones	-14485
▁Essentially	-14486
▁degradation	-14487
▁discoveries	-14488
▁incorrectly	-14489
▁proprietary	-14490
Irreplaceable	-14491
▁calculations	-14492
▁discontinued	-14493
▁implications	-14494
▁similarities	-14495
▁Mediterranean	-14496
▁architectural	-14497
▁determination	-14498
▁reciprocating	-14499
)"	-14500
82	-14501
BT	-14502
Ph	-14503
^^	-14504
ioc	-14505
lli	-14506
osl	-14507
▁63	-14508
Euro	-14509
anim	-14510
emen	-14511
hyde	-14512
iden	-14513
imum	-14514
mans	-14515
pose	-14516
unks	-14517
▁170	-14518
▁Ask	-14519
▁Bit	-14520
▁Fri	-14521
▁Mei	-14522
▁Ora	-14523
▁Pub	-14524
▁Sit	-14525
▁Tro	-14526
▁Woy	-14527
▁bee	-14528
▁lou	-14529
abeth	-14530
alone	-14531
angar	-14532
think	-14533
three	-14534
ubric	-14535
uffle	-14536
umber	-14537
▁(199	-14538
▁1500	-14539
▁Bent	-14540
▁IMAX	-14541
▁NCAA	-14542
▁Oswe	-14543
▁Pand	-14544
▁Plus	-14545
▁Same	-14546
▁awak	-14547
▁bail	-14548
▁dump	-14549
▁fame	-14550
▁hats	-14551
▁sore	-14552
▁tech	-14553
▁vend	-14554
▁volt	-14555
▁weld	-14556
atible	-14557
imming	-14558
income	-14559
lected	-14560
ported	-14561
stairs	-14562
▁Bruno	-14563
▁Carib	-14564
▁Haiti	-14565
▁Lewis	-14566
▁Therm	-14567
▁asset	-14568
▁comic	-14569
▁cords	-14570
▁embra	-14571
▁escal	-14572
▁imped	-14573
▁melts	-14574
▁plugs	-14575
▁sells	-14576
▁setup	-14577
▁theft	-14578
▁virtu	-14579
estinal	-14580
ophytes	-14581
pelling	-14582
verning	-14583
winning	-14584
▁Change	-14585
▁Colomb	-14586
▁Danish	-14587
▁Friend	-14588
▁Nature	-14589
▁Player	-14590
▁Search	-14591
▁Silver	-14592
▁Tunnel	-14593
▁biomes	-14594
▁evenly	-14595
▁overhe	-14596
▁pepper	-14597
▁spiral	-14598
▁worlds	-14599
othermal	-14600
ressions	-14601
▁Nanjing	-14602
▁Problem	-14603
▁Springs	-14604
▁curious	-14605
▁hygiene	-14606
▁jewelry	-14607
▁posture	-14608
▁shifted	-14609
▁Division	-14610
▁Normally	-14611
▁Steelers	-14612
▁Teaching	-14613
▁Tibetans	-14614
▁Woyciech	-14615
▁alphabet	-14616
▁appropri	-14617
▁auditory	-14618
▁cydippid	-14619
▁defended	-14620
▁energies	-14621
▁republic	-14622
▁youngest	-14623
▁Agreement	-14624
▁balancing	-14625
▁combining	-14626
▁designers	-14627
▁exhibited	-14628
▁favorable	-14629
▁inaugural	-14630
▁narrative	-14631
▁proposals	-14632
▁accomplish	-14633
▁disability	-14634
▁emphasized	-14635
▁indefinite	-14636
▁microwaves	-14637
▁navigation	-14638
▁phospholip	-14639
▁simplified	-14640
▁extensively	-14641
▁inefficient	-14642
▁proceedings	-14643
▁skyscrapers	-14644
▁broadcasting	-14645
▁fermentation	-14646
▁infringement	-14647
▁interpreting	-14648
▁Woyciechowski	-14649
▁sophisticated	-14650
Bl	-14651
aq	-14652
aud	-14653
ała	-14654
ela	-14655
gra	-14656
ori	-14657
sit	-14658
ucl	-14659
var	-14660
wed	-14661
▁NT	-14662
▁Ok	-14663
aska	-14664
atal	-14665
gate	-14666
olly	-14667
onel	-14668
osit	-14669
ozyg	-14670
post	-14671
zone	-14672
▁720	-14673
▁Hin	-14674
▁ect	-14675
▁gir	-14676
▁ray	-14677
ephal	-14678
lfare	-14679
ortes	-14680
spect	-14681
store	-14682
▁1972	-14683
▁1991	-14684
▁Chev	-14685
▁Gram	-14686
▁Thai	-14687
▁buoy	-14688
▁duck	-14689
▁extr	-14690
▁font	-14691
▁junk	-14692
▁mold	-14693
ervers	-14694
esthes	-14695
estial	-14696
holder	-14697
iliary	-14698
makers	-14699
namics	-14700
otechn	-14701
ptical	-14702
vinced	-14703
ylogen	-14704
zymała	-14705
▁Chrys	-14706
▁Ident	-14707
▁Month	-14708
▁Praag	-14709
▁Price	-14710
▁Sarah	-14711
▁blown	-14712
▁bombs	-14713
▁buyer	-14714
▁crude	-14715
▁dealt	-14716
▁deton	-14717
▁lease	-14718
▁sings	-14719
▁versa	-14720
forcing	-14721
forward	-14722
meaning	-14723
organic	-14724
product	-14725
▁Adults	-14726
▁Arthur	-14727
▁Centre	-14728
▁Desert	-14729
▁Graham	-14730
▁Lisbon	-14731
▁Malays	-14732
▁Radley	-14733
▁anchor	-14734
▁catast	-14735
▁cement	-14736
▁citing	-14737
▁derive	-14738
▁dissip	-14739
▁grocer	-14740
▁hotter	-14741
▁impose	-14742
▁pushes	-14743
▁tattoo	-14744
▁timing	-14745
▁Affairs	-14746
▁Counter	-14747
▁Indians	-14748
▁Nicolas	-14749
▁columns	-14750
▁compuls	-14751
▁crushed	-14752
▁examine	-14753
▁pressed	-14754
▁qualify	-14755
▁rolling	-14756
▁welfare	-14757
olesterol	-14758
▁Grzymała	-14759
▁McDonald	-14760
▁Osweiler	-14761
▁beverage	-14762
▁darkness	-14763
▁enclosed	-14764
▁memorize	-14765
▁oriented	-14766
▁secreted	-14767
▁sneezing	-14768
▁supervis	-14769
▁Caribbean	-14770
▁Confucius	-14771
▁Etymology	-14772
▁Saturdays	-14773
▁abundance	-14774
▁certified	-14775
▁dissolves	-14776
▁encrypted	-14777
▁miniature	-14778
▁prototype	-14779
▁retailers	-14780
▁separates	-14781
▁textbooks	-14782
▁unrelated	-14783
▁accumulate	-14784
▁compensate	-14785
▁conspiracy	-14786
▁contracted	-14787
▁distribute	-14788
▁explaining	-14789
▁hypotheses	-14790
▁misleading	-14791
▁parliament	-14792
▁stimulated	-14793
▁intercepted	-14794
▁preferences	-14795
▁Contemporary	-14796
▁instrumental	-14797
▁participating	-14798
FO	-14799
.),	-14800
9),	-14801
agu	-14802
sea	-14803
▁1⁄	-14804
▁MI	-14805
▁PS	-14806
▁nm	-14807
Book	-14808
acre	-14809
ante	-14810
iser	-14811
ixed	-14812
lier	-14813
prom	-14814
tube	-14815
▁Dou	-14816
▁Lei	-14817
▁Ple	-14818
▁Sed	-14819
▁Shi	-14820
▁VPN	-14821
▁ber	-14822
▁bon	-14823
World	-14824
chlor	-14825
count	-14826
icity	-14827
icken	-14828
onica	-14829
ordon	-14830
utter	-14831
▁Beat	-14832
▁Cuba	-14833
▁Emer	-14834
▁Grav	-14835
▁Guin	-14836
▁Hair	-14837
▁Muir	-14838
▁Path	-14839
▁Penn	-14840
▁Skin	-14841
▁grey	-14842
[...]
