<pad>	0
<unk>	0
<s>	0
</s>	0
.	-2.72724
,	-3.67428
▁the	-3.95959
▁	-4.38355
s	-4.65187
▁of	-4.67639
▁to	-4.72393
▁and	-4.73625
▁in	-4.8837
▁is	-4.99706
▁a	-5.05275
?	-5.13895
ು	-5.26269
▁The	-5.30262
▁ಈ	-5.50494
:	-5.52034
▁ಮತ್ತು	-5.53271
▁for	-5.76504
ing	-5.76542
-	-5.83676
▁was	-5.84419
ದ	-5.86709
▁are	-5.868
▁that	-5.86894
▁be	-5.90919
▁has	-5.92153
ನ್ನು	-5.92294
ed	-5.93299
▁ಎಂದು	-5.94173
▁on	-5.98026
▁not	-6.00631
ವನ್ನು	-6.0463
ಗೆ	-6.05266
▁have	-6.06861
▁I	-6.11244
ಕ್ಕೆ	-6.15483
▁this	-6.15558
▁it	-6.1595
▁with	-6.18411
'	-6.19473
▁will	-6.20051
▁(	-6.22535
)	-6.27892
್	-6.29033
▁ಆದರೆ	-6.30169
▁ಅವರು	-6.37342
ಗಳನ್ನು	-6.40132
ೂ	-6.40614
▁by	-6.41513
▁ಇದು	-6.48909
▁been	-6.50004
▁at	-6.50392
▁said	-6.52312
ಿ	-6.52722
▁It	-6.55258
▁as	-6.55903
▁A	-6.55953
ಗಳು	-6.57087
ಿಗೆ	-6.57212
▁you	-6.57549
▁were	-6.57917
▁But	-6.59504
▁he	-6.60504
▁from	-6.60671
ರು	-6.60881
▁He	-6.62025
▁India	-6.63882
▁This	-6.6455
ದಲ್ಲಿ	-6.67876
▁also	-6.68495
ಯ	-6.70244
▁his	-6.70898
t	-6.71637
▁ಹಾಗೂ	-6.73503
ಲ್ಲಿ	-6.73873
ವು	-6.75127
ಯನ್ನು	-6.75361
d	-6.79027
ಾ	-6.81211
!	-6.83733
▁ಅವರ	-6.84354
."	-6.86451
▁all	-6.8727
▁had	-6.8891
ನ	-6.89534
▁ಬಗ್ಗೆ	-6.89973
▁no	-6.90298
▁ಆ	-6.90702
ೆ	-6.91569
▁an	-6.92157
▁ಒಂದು	-6.92416
▁What	-6.95825
e	-6.96254
▁We	-6.99925
▁There	-6.99992
ಿದ್ದಾರೆ	-7.00581
ರ	-7.02121
▁BJP	-7.04465
ಗಳ	-7.06129
ly	-7.07171
▁do	-7.07282
▁can	-7.0762
▁ನಾನು	-7.07666
▁their	-7.08113
▁"	-7.09998
▁ನಾವು	-7.10107
▁Minister	-7.11765
▁we	-7.13037
a	-7.13522
al	-7.13577
ಸ್	-7.13924
▁"""	-7.14408
ಿದೆ	-7.18002
ೇ	-7.18437
▁them	-7.19511
▁one	-7.19813
y	-7.20135
▁ಮೇಲೆ	-7.21263
▁-	-7.21404
▁should	-7.23542
▁ಬಿಜೆಪಿ	-7.24278
ವಾಗಿ	-7.2436
ಲು	-7.24565
▁they	-7.24797
▁police	-7.25057
▁people	-7.25186
▁your	-7.26262
▁ನ	-7.27037
▁ನಮ್ಮ	-7.27363
▁They	-7.28791
▁ಇಲ್ಲ	-7.2919
▁government	-7.29382
▁or	-7.29469
ನ್	-7.29832
▁S	-7.30372
▁about	-7.31255
’	-7.32535
▁who	-7.32578
▁Congress	-7.34476
▁‘	-7.34591
▁there	-7.36077
▁“	-7.36854
ಯಲ್ಲಿ	-7.37872
▁ನಿಮ್ಮ	-7.38139
▁Rs	-7.38323
▁ಯಾವುದೇ	-7.39716
▁ಅದು	-7.39912
▁case	-7.39991
ಿಂದ	-7.40264
▁time	-7.40476
▁Modi	-7.408
▁In	-7.42437
▁ಕಾಂಗ್ರೆಸ್	-7.42922
▁ತನ್ನ	-7.43947
▁ಸರ್ಕಾರ	-7.44368
▁ನಲ್ಲಿ	-7.45043
▁ನೀವು	-7.45894
▁out	-7.46304
▁up	-7.46525
er	-7.47188
▁what	-7.49878
▁film	-7.51242
ದಿಂದ	-7.51672
▁more	-7.53005
▁ಮೋದಿ	-7.53248
▁1	-7.53599
▁ತಮ್ಮ	-7.53633
▁against	-7.54421
▁our	-7.54624
ರ್	-7.54738
▁Indian	-7.55228
ಿರುವ	-7.56118
ಗಳಲ್ಲಿ	-7.57095
▁ಪ್ರಕರಣ	-7.58409
▁ಏನು	-7.58493
ನು	-7.59006
▁ಭಾರತ	-7.5943
▁ಪೊಲೀಸರು	-7.59535
▁over	-7.596
▁him	-7.60371
ುವ	-7.60417
▁her	-7.61032
▁2	-7.61713
▁two	-7.61721
▁”	-7.62452
▁How	-7.626
▁first	-7.62759
ದೆ	-7.63016
▁ಹೆಚ್ಚು	-7.63389
▁so	-7.63611
▁ವಿರುದ್ಧ	-7.64083
▁ನಂತರ	-7.64169
ಯೇ	-7.64212
n	-7.65204
▁its	-7.66228
▁ಹೇಗೆ	-7.6744
▁ಮೂಲಕ	-7.67724
ಗಳಿಗೆ	-7.68313
▁other	-7.68828
ಲ್ಲ	-7.69072
▁us	-7.69204
▁ಎಂಬ	-7.69532
▁No	-7.69688
ಿಲ್ಲ	-7.69905
▁ಅಥವಾ	-7.70363
▁which	-7.70913
ವೇ	-7.71093
▁Jehovah	-7.71296
▁ಕೆಲಸ	-7.73039
▁ಕೂಡ	-7.7304
ಲ್	-7.73831
▁However	-7.74976
""	-7.75153
ಯೂ	-7.75627
▁did	-7.75878
▁""	-7.76556
▁C	-7.76569
ಕ	-7.77435
▁would	-7.77747
ಾದ	-7.78003
▁ಗೆ	-7.78092
▁You	-7.7814
ವಾದ	-7.78776
▁ಅ	-7.79515
ವ	-7.80085
▁So	-7.80854
▁ಹೊಸ	-7.81016
▁into	-7.81206
▁need	-7.81713
▁ಇದೆ	-7.81864
▁Police	-7.81883
▁ಎಂದರು	-7.82123
ವಾಗಿದೆ	-7.82412
▁state	-7.83168
▁any	-7.83337
▁ರೂ	-7.83338
▁ಅದನ್ನು	-7.83527
▁'	-7.83766
ೋ	-7.84055
▁God	-7.84814
▁new	-7.84951
ವೂ	-7.85049
▁such	-7.85527
▁ಪ್ರಧಾನಿ	-7.8561
▁ಅವರಿಗೆ	-7.85928
es	-7.86309
▁me	-7.8632
▁ನನಗೆ	-7.86944
▁after	-7.88179
▁ಕೇಂದ್ರ	-7.88183
▁very	-7.88859
▁being	-7.89095
▁many	-7.89125
▁get	-7.8957
▁Prime	-7.90251
▁3	-7.90494
▁ಯಾವ	-7.90986
▁work	-7.9126
▁ಇದನ್ನು	-7.91262
▁ಮೊದಲ	-7.91829
ಗ	-7.92229
▁some	-7.92593
▁water	-7.93127
▁10	-7.9376
▁country	-7.94196
ಂತೆ	-7.94656
▁but	-7.9468
▁B	-7.9494
▁know	-7.95277
ವೆ	-7.95309
▁registered	-7.95655
▁good	-7.95889
▁ಸಹ	-7.96095
▁made	-7.96136
▁like	-7.96291
i	-7.96311
▁And	-7.96504
▁Its	-7.96884
▁ಅವರನ್ನು	-7.96887
▁P	-7.96924
▁ಮಾಹಿತಿ	-7.97236
ಿತ್ತು	-7.97486
ತ	-7.97641
▁ಮಾಡಿ	-7.97823
▁taken	-7.97882
ರೆ	-7.98476
▁ಎಲ್ಲಾ	-7.98503
▁Singh	-7.98591
▁She	-7.98726
ಾಗಿ	-7.99139
▁life	-7.99206
ೀ	-7.99385
▁ಪೊಲೀಸ್	-7.99592
▁my	-8.00066
▁ನನ್ನ	-8.00215
▁day	-8.00302
ಾಗ	-8.00812
▁ರಾಜ್ಯ	-8.01089
▁ಎಲ್ಲ	-8.01201
▁ಹೇಳಿದರು	-8.01638
▁ಎರಡು	-8.02153
▁take	-8.02425
▁ಭಾರತದ	-8.02906
(	-8.03228
▁ಯಾರ	-8.03339
▁these	-8.0357
▁children	-8.04481
ಬೇಕು	-8.04559
ಯಿಂದ	-8.05315
I	-8.05386
▁ಚಿತ್ರ	-8.0541
▁ಅದರ	-8.05512
▁ಉತ್ತರ	-8.05517
"""	-8.05964
ಂ	-8.06163
▁ಇ	-8.06933
▁ಎ	-8.07137
▁help	-8.07392
▁when	-8.07441
▁than	-8.07729
▁ಕಾರಣ	-8.0805
ಕ್ಕೂ	-8.0806
▁That	-8.0818
▁ಹೇಳಿದ್ದಾರೆ	-8.08279
▁ಕೆಲವು	-8.08332
▁ಯೆಹೋವನ	-8.08552
▁ಎಸ್	-8.08744
▁5	-8.09121
▁Narendra	-8.09358
▁ಕುರಿತು	-8.0952
S	-8.10234
r	-8.11263
▁am	-8.11322
ುತ್ತದೆ	-8.11953
ಿಗೂ	-8.1208
ೊಂದಿಗೆ	-8.12097
▁K	-8.12748
▁ಸಿಂಗ್	-8.12857
▁T	-8.13381
ಟ್	-8.13741
▁well	-8.13951
▁ಇನ್ನೂ	-8.14515
▁ಇಲ್ಲಿ	-8.14672
ರಿ	-8.1493
ಕ್	-8.14967
▁ಸಚಿವ	-8.15094
▁ಇದಕ್ಕೆ	-8.15129
th	-8.15175
▁ಭಾರತೀಯ	-8.15343
▁ಕ್ರಮ	-8.15845
▁For	-8.1593
ಸಿ	-8.16142
▁Why	-8.163
▁does	-8.16378
▁ಬಳಿಕ	-8.16573
ಿದ್ದರು	-8.1747
▁ಅಲ್ಲ	-8.17516
▁here	-8.17517
▁ಲಕ್ಷ	-8.17597
▁ನಮಗೆ	-8.1797
▁under	-8.18364
▁15	-8.18695
▁she	-8.19059
▁ತಿಳಿಸಿದ್ದಾರೆ	-8.19273
▁present	-8.19622
),	-8.19627
▁ಸ	-8.1978
▁Delhi	-8.1988
▁come	-8.19937
▁ಇದರ	-8.2025
ಲ	-8.20417
▁ಇದರಿಂದ	-8.2064
▁Chief	-8.20803
ಸ	-8.20879
▁only	-8.21594
▁ಅಧ್ಯಕ್ಷ	-8.21685
▁ಆಸ್ಪತ್ರೆ	-8.22235
▁ಮಾಜಿ	-8.22373
▁ಇಬ್ಬರ	-8.22385
▁ವಿ	-8.22413
▁ಅವನ	-8.22454
▁dont	-8.22493
ನ್ನೂ	-8.23007
▁R	-8.23047
▁ಉತ್ತಮ	-8.2326
▁between	-8.23322
able	-8.2333
ುವುದು	-8.23499
▁per	-8.23512
ಿತು	-8.23696
▁just	-8.23989
▁then	-8.24157
▁ಕೋಟಿ	-8.24161
ಯು	-8.24491
▁party	-8.24651
▁incident	-8.24947
ಿನ	-8.25344
▁ಅವನು	-8.25523
ನೇ	-8.25907
▁three	-8.25907
in	-8.26114
▁Gandhi	-8.26232
]	-8.26235
▁:	-8.26786
▁ಹೆಚ್ಚಿನ	-8.26916
▁ದೊಡ್ಡ	-8.27265
▁ಕೆ	-8.27428
▁ಜನರು	-8.27465
▁ಜನರ	-8.27795
▁20	-8.27974
▁ಅನೇಕ	-8.28025
▁ಬಿ	-8.28639
▁ಮುಖ್ಯ	-8.2878
▁ಸಂಬಂಧ	-8.29101
▁ಸ್ಥಳ	-8.29365
▁ಮಾತ್ರ	-8.29495
▁make	-8.29759
▁too	-8.29821
▁ಆಗ	-8.30106
▁lakh	-8.30352
ಿದ್ದು	-8.30485
▁must	-8.30596
▁ನರೇಂದ್ರ	-8.306
ಿವೆ	-8.30625
▁ಅನ್ನು	-8.30941
▁Do	-8.30991
m	-8.31037
ಲಿ	-8.31433
ve	-8.31488
nt	-8.31859
ಮ್	-8.31945
▁world	-8.3243
▁ಪ್ರಮುಖ	-8.32533
ಡ್	-8.3257
▁ಮಾಡಲು	-8.32797
▁ಆರೋಗ್ಯ	-8.32861
▁ಮಂದಿ	-8.32975
▁ಮುಖ್ಯಮಂತ್ರಿ	-8.33083
▁crore	-8.33159
▁go	-8.33332
▁ದೇವರ	-8.33397
▁ಕ	-8.33872
▁M	-8.34001
▁[	-8.34143
ous	-8.35113
ದ್ದು	-8.35117
an	-8.35221
▁love	-8.35429
▁those	-8.35521
▁Jesus	-8.35888
▁ದಿನ	-8.36177
l	-8.36406
▁12	-8.3682
▁E	-8.36831
ದು	-8.37091
▁ತನಿಖೆ	-8.37173
▁ದೇಶದ	-8.37178
▁most	-8.37189
▁could	-8.37238
ಕ್ಕಾಗಿ	-8.37293
▁—	-8.37706
▁All	-8.37742
▁ಡಿ	-8.37962
▁New	-8.38299
▁ಸಿ	-8.39068
▁family	-8.3919
▁done	-8.39255
▁place	-8.39268
▁8	-8.39385
▁ತಂಡ	-8.394
ರುವ	-8.39432
ುವುದಿಲ್ಲ	-8.39893
▁how	-8.39982
/	-8.40241
▁Karnataka	-8.40714
▁given	-8.40728
ಿದ್ದ	-8.41043
ಡಿ	-8.41355
▁minister	-8.41693
▁ಘಟನೆ	-8.417
▁ಆರ್	-8.4172
ವರು	-8.41729
▁V	-8.42187
▁ಹಣ	-8.42395
ುತ್ತಾರೆ	-8.4295
▁regard	-8.4301
▁if	-8.43171
▁number	-8.43606
▁way	-8.44145
▁hospital	-8.4438
▁ರ	-8.4459
▁shall	-8.44972
▁arrested	-8.45005
,""	-8.45376
▁President	-8.4538
▁ಮಾಡುವ	-8.45482
▁ಎನ್	-8.4551
▁Khan	-8.45767
▁ಸಿನಿಮಾ	-8.46212
▁ಕುಮಾರ್	-8.4627
during	-8.4658
▁accused	-8.4658
o	-8.4662
st	-8.46704
▁13	-8.46756
ಟ	-8.46814
▁ಅಲ್ಲಿ	-8.46852
ವಿ	-8.46872
▁yet	-8.46985
▁ವೇಳೆ	-8.47179
▁F	-8.47183
ಮ	-8.47249
▁Pakistan	-8.47371
ರೂ	-8.47491
▁ಇದೇ	-8.47506
▁ಮುಂದೆ	-8.47532
re	-8.47546
▁ಗಾಂಧಿ	-8.47613
▁power	-8.47634
▁Kumar	-8.47735
h	-8.47755
▁ಹಲವು	-8.4778
▁ಆಗಿದೆ	-8.47924
▁ಸಮಯ	-8.48093
▁much	-8.48183
▁ಅದಕ್ಕೆ	-8.48605
▁president	-8.48677
▁ಪಕ್ಷ	-8.48927
▁ಜೊತೆ	-8.49267
▁man	-8.49359
C	-8.49415
▁50	-8.49433
▁D	-8.49495
▁ಇನ್ನು	-8.49905
ಗಾಗಿ	-8.50059
▁took	-8.50451
▁ಭೇಟಿ	-8.5058
▁say	-8.50659
▁Here	-8.51202
ಲಾಗಿದೆ	-8.51318
c	-8.5133
▁meeting	-8.51494
▁important	-8.51508
▁others	-8.51563
▁before	-8.5194
▁ರಾಹುಲ್	-8.5195
▁ವಿಷಯ	-8.5215
ಹ	-8.52226
▁chief	-8.52357
▁injured	-8.52359
▁ವಿಶೇಷ	-8.52547
▁ಹೀಗೆ	-8.5267
▁ನಿನ್ನ	-8.52734
▁ವಿವಿಧ	-8.52785
▁ಸುಮಾರ	-8.52939
▁same	-8.53644
▁PM	-8.53791
▁’	-8.53878
ಿಂಗ್	-8.53914
▁ಎಲ್ಲರ	-8.54073
▁Rahul	-8.54096
u	-8.54177
ಲ್ಲೂ	-8.54285
▁health	-8.54426
▁6	-8.54526
▁both	-8.54755
▁even	-8.54823
A	-8.54922
▁ಕೇವಲ	-8.54949
▁ರೀತಿಯ	-8.55033
▁25	-8.55457
▁ನಡೆದ	-8.55557
▁7	-8.55605
▁An	-8.55783
▁students	-8.56021
▁ಬಹಳ	-8.56283
ir	-8.56308
▁back	-8.56415
▁ನಡುವೆ	-8.56725
▁ನಾಯಕ	-8.56733
▁ನಿಮಗೆ	-8.57053
▁Court	-8.57159
b	-8.57303
▁ಸರಕಾರ	-8.57477
ದ್ದ	-8.57511
ರಲ್ಲಿ	-8.58402
▁ಸಾಕಷ್ಟು	-8.58524
▁ಮಾಡಿದ್ದಾರೆ	-8.58581
▁ಇಂಡಿಯಾ	-8.58955
ೊ	-8.59086
▁4	-8.59387
▁State	-8.59871
▁ಶೇ	-8.59946
▁ತುಂಬಾ	-8.6054
ar	-8.60664
on	-8.60772
▁through	-8.60788
▁ರಾಜಕೀಯ	-8.60897
ಗಳಿಂದ	-8.6092
▁ಜೊತೆಗೆ	-8.6107
▁un	-8.61091
ಬಹುದು	-8.61202
▁spot	-8.61266
▁while	-8.61272
▁ಸಂಪೂರ್ಣ	-8.61272
▁Bible	-8.61278
▁ಹಿಂದೆ	-8.61296
▁action	-8.61315
ತೆ	-8.61349
▁As	-8.61738
▁ಒಬ್ಬ	-8.6183
▁former	-8.61836
ಡ	-8.6191
▁ಆತನ	-8.61943
▁Government	-8.62187
▁down	-8.62268
▁son	-8.62317
▁won	-8.62563
▁19	-8.6273
▁where	-8.62735
out	-8.62745
▁ಖಾನ್	-8.62753
▁ಯಾರು	-8.62758
ಳ	-8.62765
ನಲ್ಲಿ	-8.6284
▁home	-8.63145
▁court	-8.63154
▁His	-8.63307
▁ಇದರಲ್ಲಿ	-8.63384
▁ಪ್ರತಿ	-8.63533
▁going	-8.63579
▁every	-8.63637
▁ಸೇರಿದಂತೆ	-8.6364
▁G	-8.63748
▁16	-8.63855
▁women	-8.64108
or	-8.64112
▁ಶ್ರೀ	-8.64236
k	-8.64355
▁ಬೇರೆ	-8.64376
ion	-8.64381
▁ಇತರ	-8.64735
▁18	-8.64805
▁ಆಯ್ಕೆ	-8.64838
▁ಮ	-8.65054
▁ಗ	-8.65063
▁last	-8.65073
▁ಮೂರು	-8.65101
▁ಸಂದರ್ಭದಲ್ಲಿ	-8.65105
▁?	-8.65273
▁ಬಂದ	-8.65354
▁ಅವಕಾಶ	-8.6539
ಳು	-8.65432
▁ಠಾಣೆಯಲ್ಲಿ	-8.65584
▁different	-8.66038
▁sever	-8.66042
▁ಆದ್ದರಿಂದ	-8.66065
▁If	-8.66297
▁ಡಾ	-8.66357
▁ಚಿಕಿತ್ಸೆ	-8.66492
ಲಿಲ್ಲ	-8.67076
▁ಮಾಡಿದ	-8.67131
ers	-8.67157
▁ಆಹಾರ	-8.67177
ic	-8.67204
▁100	-8.67354
▁ಕಾರ್ಯ	-8.67424
‍	-8.67552
▁11	-8.67748
▁ಗಳ	-8.67829
▁off	-8.6826
ನಾ	-8.68417
▁leaders	-8.68432
▁city	-8.68525
▁ತಿಳಿಸಿದರು	-8.68533
▁says	-8.68655
▁ಹಾಗೆ	-8.68765
▁Is	-8.68789
▁Thats	-8.69259
le	-8.69301
▁ಬಾರಿ	-8.69503
▁matter	-8.69582
▁farmers	-8.69614
▁ನಟ	-8.69661
ಯಾಗಿ	-8.69736
ಿದರು	-8.69759
▁ಅಂತ	-8.6983
▁decision	-8.70097
▁social	-8.70104
▁ಏಕೆ	-8.70567
▁ಮತ್ತೆ	-8.70804
ಿರಿ	-8.70826
▁ಕಡಿಮೆ	-8.71017
▁wife	-8.71107
▁ಕಾರ್ಯಕ್ರಮ	-8.71299
▁ಹೀಗಾಗಿ	-8.71369
▁look	-8.71373
▁ನೋಡಿ	-8.71412
▁next	-8.71574
▁ಮುಂದಿನ	-8.71622
▁movie	-8.71652
▁Then	-8.72052
▁name	-8.7207
▁never	-8.72079
▁second	-8.72092
▁Mumbai	-8.72116
▁ಹೊಂದಿದೆ	-8.72126
▁house	-8.72216
▁ಸಹಾಯ	-8.72476
la	-8.72667
▁ಬೆಲೆ	-8.72668
ಾದರೂ	-8.72786
▁ಸಾಮಾಜಿಕ	-8.73137
▁ಆದರೂ	-8.73169
▁ಇಂತಹ	-8.73279
ುತ್ತಿದೆ	-8.73357
▁may	-8.73614
▁ಅತಿ	-8.73637
▁leader	-8.73809
▁see	-8.74015
▁ವರದಿ	-8.7435
ೆಂದು	-8.74476
▁days	-8.74594
▁want	-8.7465
▁30	-8.74674
▁money	-8.74724
▁ಪಿ	-8.74844
▁ಚುನಾವಣೆ	-8.74929
▁great	-8.75105
▁ಹ	-8.75216
▁another	-8.75259
▁district	-8.75377
▁team	-8.7541
▁ಏನ	-8.75751
▁each	-8.75801
▁part	-8.75945
ಟಿ	-8.76393
▁death	-8.76465
▁problem	-8.76471
▁ದೇಶ	-8.76583
ಕೆ	-8.7662
▁ಪ್ರಕಾರ	-8.76837
▁ದಾಖಲಾಗಿದೆ	-8.76903
▁right	-8.77132
”	-8.77276
▁ಕೈ	-8.77616
▁These	-8.77661
▁ಬಿಡುಗಡೆ	-8.77892
▁To	-8.77985
▁Who	-8.78226
▁ಕಾಲ	-8.78226
▁ರಾಷ್ಟ್ರೀಯ	-8.7826
▁ನೀರು	-8.7836
▁got	-8.78515
▁ಪೊಲೀಸರ	-8.7906
ಣ	-8.79068
▁due	-8.79146
▁ಸಮಸ್ಯೆ	-8.79244
▁/	-8.79252
ುವಂತೆ	-8.79342
ತ್	-8.79497
▁Shah	-8.79523
▁ಬ್ಯಾಂಕ್	-8.79536
▁cases	-8.79556
▁At	-8.79563
▁ಪಕ್ಷದ	-8.79652
▁immediately	-8.79659
▁ಅತ್ಯಂತ	-8.79661
▁ನೀಡಿದ್ದಾರೆ	-8.79698
▁ಮಾಡಬೇಕು	-8.79706
▁ಟಿ	-8.7977
▁station	-8.79799
▁killed	-8.80242
▁called	-8.80289
▁held	-8.80323
▁long	-8.80349
en	-8.8035
ment	-8.80357
▁things	-8.80429
▁ಪ್ರಯತ್ನ	-8.80625
▁media	-8.80641
▁give	-8.80857
▁ಮಕ್ಕಳ	-8.8114
▁ಭಾರತದಲ್ಲಿ	-8.8125
▁ಯೋಜನೆ	-8.81293
▁again	-8.81316
▁Some	-8.81332
▁Kohli	-8.81338
▁14	-8.81385
▁found	-8.81554
▁law	-8.81601
▁support	-8.81609
▁ಅಧಿಕಾರಿಗಳು	-8.81655
▁ಶಿಕ್ಷಣ	-8.81775
▁ಸಂಖ್ಯೆ	-8.82435
▁Pradesh	-8.82484
▁ಈಗಾಗಲೇ	-8.82489
ಯಾಗಿದೆ	-8.82646
▁own	-8.82705
ದೇ	-8.82824
▁On	-8.82918
2	-8.82994
▁already	-8.83083
▁died	-8.83122
▁Gods	-8.83177
▁ಬ	-8.83179
ನ್ನ	-8.83226
▁ಜೀವನ	-8.83394
▁ಅದೇ	-8.83483
▁When	-8.83718
▁came	-8.83777
▁vari	-8.84208
▁soon	-8.8429
▁ಅಗತ್ಯ	-8.84568
ಿರಲಿಲ್ಲ	-8.84635
▁situation	-8.84817
ting	-8.85186
ತ್ತ	-8.85312
▁ಎಂ	-8.85323
▁World	-8.85408
▁ಹಲವಾರು	-8.85409
▁among	-8.85412
▁use	-8.85504
ಪ್ಪ	-8.85724
▁ಸ್ಥಾನ	-8.85823
▁cent	-8.85829
▁still	-8.86004
▁asked	-8.86091
▁40	-8.86285
5	-8.86454
▁ಕೊಹ್ಲಿ	-8.86602
▁ಬೆಂಬಲ	-8.86912
▁used	-8.86976
▁ಅಭಿವೃದ್ಧಿ	-8.87012
ಪ	-8.87031
▁ಕನ್ನಡ	-8.87625
▁After	-8.87853
▁few	-8.87853
▁ಎಂಬುದು	-8.87873
▁ವಾಹನ	-8.87937
ವಿದೆ	-8.8795
▁investigation	-8.88066
▁role	-8.88074
ಲಾ	-8.88075
ಿದ	-8.88351
▁ನಗರ	-8.88351
▁away	-8.88535
▁ರೈತರ	-8.88622
▁members	-8.88735
1	-8.88897
▁ಗಳು	-8.89031
▁Sharma	-8.89042
▁ನಟಿ	-8.89212
▁set	-8.89428
led	-8.89584
▁Tamil	-8.89651
▁One	-8.89869
ಗಳಿವೆ	-8.89936
ಿದ್ದೇವೆ	-8.90038
f	-8.90165
▁21	-8.90213
▁ಕ್ರಿಕೆಟ್	-8.90273
▁direct	-8.90279
▁issue	-8.9049
▁ತೀವ್ರ	-8.9061
▁ರಾಜ್ಯದ	-8.90698
ೀಯ	-8.90703
▁true	-8.90917
▁woman	-8.90918
▁ಸ್ವಲ್ಪ	-8.90931
▁ಆರೋಪ	-8.9103
▁ಹೆಸರು	-8.91042
ನೆ	-8.91095
▁elections	-8.91126
▁ಪ್ರಶಸ್ತಿ	-8.91358
▁ಹಿರಿಯ	-8.91358
ವರೆಗೂ	-8.91513
ವರ	-8.91571
ಜಿ	-8.91576
▁father	-8.91821
▁become	-8.91829
▁food	-8.92093
▁ಬಾಲಿವುಡ್	-8.9216
▁development	-8.92161
▁ಕಾನೂನು	-8.92215
▁ಅರ್ಜಿ	-8.92376
▁far	-8.92411
▁ಪರಿಸ್ಥಿತಿ	-8.92431
7	-8.9244
▁car	-8.92475
▁question	-8.92519
▁best	-8.92661
▁high	-8.92732
▁four	-8.92769
▁ಕಳೆದ	-8.92887
▁ಪರಿಣಾಮ	-8.934
▁special	-8.93438
▁Union	-8.93446
▁includ	-8.9371
▁Kannada	-8.94083
▁lot	-8.94083
▁ಕಾರು	-8.94121
D	-8.94306
ಬ	-8.94454
▁ನಿರ್ಮಾಣ	-8.94596
▁ನಿಂದ	-8.94619
▁ಕೆಲ	-8.94626
▁later	-8.94744
▁ಬೆಂಗಳೂರು	-8.94808
ವರೆಗೆ	-8.94885
ೊಂದು	-8.94914
▁17	-8.95033
ುತ್ತೇವೆ	-8.95145
▁ಚಿತ್ರದ	-8.95241
▁available	-8.9541
▁seen	-8.95448
▁known	-8.95544
▁N	-8.95605
▁Ram	-8.95691
p	-8.95792
▁nothing	-8.96045
▁ಒಟ್ಟು	-8.96144
▁Whats	-8.96456
ary	-8.9656
▁political	-8.96615
▁win	-8.96617
▁ಶಾ	-8.96657
▁information	-8.96706
▁cannot	-8.96712
▁ಓದಿ	-8.96802
ತ್ತು	-8.9685
▁ಪ್ರತಿಭಟನೆ	-8.96907
▁years	-8.96913
ದ್	-8.97165
▁ಪರೀಕ್ಷೆ	-8.97198
The	-8.97314
▁ಮಕ್ಕಳು	-8.97327
▁Sabha	-8.97373
--	-8.9741
▁People	-8.97444
ರಿಗೆ	-8.97446
ಾಗಿದೆ	-8.9749
ಲೆ	-8.97558
▁ಜಿ	-8.97564
▁land	-8.97682
▁system	-8.97889
▁ದಕ್ಷಿಣ	-8.98107
ಂತ	-8.98293
ಲಾಯಿತು	-8.98469
▁problems	-8.98552
"	-8.98697
▁why	-8.98719
▁ಮಾಡಿದೆ	-8.9893
ri	-8.98938
▁thing	-8.9917
▁24	-8.99178
▁Kashmir	-8.9931
ಶ	-8.99611
▁Vira	-8.9972
▁ಯೇಸು	-8.99776
ಬ್	-8.99787
▁keep	-8.99876
▁ಸಂಗೀತ	-8.999
▁National	-9.00113
▁didnt	-9.00222
▁reported	-9.00309
ur	-9.00432
▁ಕರ್ನಾಟಕ	-9.00636
▁body	-9.0073
ುತ್ತೇನೆ	-9.00767
▁ನಿರ್ಧಾರ	-9.0078
cross	-9.00885
▁Let	-9.00924
ಯಾ	-9.00929
▁200	-9.00965
▁Don	-9.0097
ಮಾ	-9.01001
▁ರನ್	-9.01033
ುತ್ತವೆ	-9.01196
R	-9.01341
▁heart	-9.01365
▁Bollywood	-9.0147
▁lead	-9.01518
▁ದಾಳಿ	-9.01679
ಲಿದೆ	-9.01824
▁temple	-9.01902
▁hand	-9.01981
▁fire	-9.02051
▁ಸಾವಿರ	-9.02192
▁ಆಫ್	-9.0224
▁ಸೇವೆ	-9.02275
▁around	-9.02283
▁re	-9.02285
▁ಮೊದಲು	-9.02366
▁started	-9.02412
▁video	-9.02622
ಜ	-9.02689
▁ಹೇಳಿಕೆ	-9.02713
▁occasion	-9.02872
▁ಸಾಧ್ಯವಿಲ್ಲ	-9.02881
▁ಸತ್ಯ	-9.02886
▁ತುಂಬ	-9.02898
▁ಎರಡೂ	-9.02904
ವಾ	-9.02978
▁ನೀನು	-9.0314
▁ಸರ್ಕಾರದ	-9.03171
ಪಿ	-9.03184
▁ಅವುಗಳ	-9.03496
▁ಪರಿಹಾರ	-9.03584
▁ಎಂಬುದನ್ನು	-9.03628
▁put	-9.03684
▁ಸದ್ಯ	-9.03761
▁ಬಳಿ	-9.03822
ies	-9.0392
▁ಗೌರವ	-9.03971
▁ಇರುವ	-9.04164
▁ಪ್ರಧಾನ	-9.04207
▁ಎಷ್ಟು	-9.04493
▁attack	-9.04503
ive	-9.04594
ಲೇ	-9.04624
▁reason	-9.04768
ta	-9.04856
▁Not	-9.05136
ವಲ್ಲ	-9.05218
▁ವ	-9.05302
▁school	-9.05509
▁ಬರ	-9.05592
20	-9.05727
▁because	-9.0574
il	-9.05766
ಿಕ	-9.05966
▁year	-9.0603
▁ದೂರು	-9.06099
am	-9.06114
▁ರೀತಿ	-9.06129
▁ಗಮನ	-9.06132
ದಂತೆ	-9.06254
▁ರಾಜ್ಯದಲ್ಲಿ	-9.06285
▁2020	-9.06495
▁Home	-9.06514
ದ್ದಾರೆ	-9.06589
B	-9.06646
ಪ್	-9.0672
▁ವಿಚಾರಣೆ	-9.06846
▁ಐ	-9.06916
▁complaint	-9.06959
▁ಪ್ರಶ್ನೆ	-9.07125
▁ಸಣ್ಣ	-9.072
ಿತ	-9.07204
▁ವಿರಾಟ್	-9.07205
▁ಯಾಕೆ	-9.07306
▁ಪಾತ್ರ	-9.07331
▁ಅಲ್ಲದೆ	-9.07351
▁happened	-9.07401
▁Be	-9.0751
▁ಸಾಮಾನ್ಯ	-9.07645
ಗ್	-9.07692
▁Dr	-9.07729
ation	-9.07809
▁election	-9.07817
▁Man	-9.0785
▁Bengaluru	-9.07997
▁ಇಲಾಖೆ	-9.08111
▁ಜೆಡಿಎಸ್	-9.08149
ರಷ್ಟು	-9.08153
▁L	-9.08244
▁ದರ	-9.08434
▁US	-9.08441
ness	-9.08533
ಂತಹ	-9.08642
▁further	-9.08692
▁Lok	-9.08696
▁ಹಾಗಾಗಿ	-9.08781
▁Many	-9.08854
▁ಆರ್ಥಿಕ	-9.08909
▁ಮನೆ	-9.09023
▁ಸಾಲ	-9.09049
▁face	-9.09182
▁mother	-9.09213
▁Shri	-9.09486
ರಿಂದ	-9.09609
▁order	-9.09723
▁example	-9.10003
▁ನೀಡಿ	-9.10022
ುತ್ತಿದ್ದಾರೆ	-9.1005
▁ಪಾಕಿಸ್ತಾನ	-9.10052
▁times	-9.10061
▁ಕಡೆ	-9.10117
▁ಚಿತ್ರದಲ್ಲಿ	-9.1014
▁ರಸ್ತೆ	-9.10164
▁ಮಳೆ	-9.10303
▁ಇವೆ	-9.10396
ಎ	-9.10398
▁ದ	-9.10472
-19	-9.10494
▁men	-9.10534
▁needs	-9.10593
ಲಾಗಿತ್ತು	-9.107
▁ದೇವರು	-9.1074
ity	-9.10826
▁ಇವರ	-9.10857
ಅ	-9.10863
▁start	-9.10869
▁public	-9.10871
▁ಸಂಪರ್ಕ	-9.10904
▁story	-9.1096
ುತ್ತಾನೆ	-9.11099
um	-9.1112
▁ತಂಡದ	-9.11191
▁ಗಳನ್ನು	-9.11212
▁ತಂದೆ	-9.11283
▁ಸು	-9.114
ಚ	-9.11613
ವಾಗಿತ್ತು	-9.11837
▁ಆದೇಶ	-9.11995
▁ತ	-9.12077
ರಾ	-9.12182
▁change	-9.12217
M	-9.1228
▁cricket	-9.12434
ಳಿ	-9.12487
▁anything	-9.12522
▁left	-9.12544
▁ಎಂದಿದ್ದಾರೆ	-9.12594
▁form	-9.12746
▁news	-9.128
ಬಿ	-9.12912
▁ಅಧಿಕಾರ	-9.13098
▁end	-9.13358
▁doing	-9.13406
▁ಸೂಕ್ತ	-9.13489
▁working	-9.13572
▁ಇನ್	-9.13677
▁actor	-9.13916
▁ಸುದ್ದಿ	-9.1394
▁ಮನವಿ	-9.14086
ಜ್	-9.14178
▁ಮಾಡಿದರು	-9.14326
▁ಪತ್ನಿ	-9.14344
ಲ್ಲೇ	-9.14447
ಗೂ	-9.14469
▁small	-9.14873
▁five	-9.14879
ಿದ್ದೇನೆ	-9.14946
▁U	-9.15026
ವಿಲ್ಲ	-9.15034
▁ವಿಧಾನ	-9.15088
▁went	-9.15095
ತಿ	-9.15228
▁ಜಿಲ್ಲಾ	-9.15651
▁possible	-9.15681
▁ಕೋರ್ಟ್	-9.1569
▁Maharashtra	-9.15697
▁H	-9.15825
▁ಅರ್ಥ	-9.15886
▁Bank	-9.1616
▁ಹಾಕಿ	-9.1616
▁Im	-9.16247
ಂದು	-9.16418
▁list	-9.1645
▁security	-9.16478
P	-9.16506
▁along	-9.16634
▁ವಿಶ್ವ	-9.16734
▁report	-9.16866
▁seats	-9.17005
▁ನೀಡಿದ	-9.17158
K	-9.1719
▁ತಕ್ಷಣ	-9.17292
▁released	-9.17361
▁parents	-9.17381
▁ಆಡಳಿತ	-9.1742
z	-9.17437
▁ನೀಡಿದರು	-9.17444
ul	-9.17449
▁ಬಹು	-9.17593
▁ಸಭೆಯಲ್ಲಿ	-9.17597
ತು	-9.17624
▁ಜೀವ	-9.17718
▁ಮಹಾ	-9.17756
ಧ	-9.17763
▁local	-9.17967
▁Read	-9.18062
▁ಅವು	-9.18079
▁however	-9.18145
▁ಎಂಜಿನ್	-9.18165
▁comes	-9.18187
▁persons	-9.18234
▁added	-9.18334
▁post	-9.18426
G	-9.18464
▁ಮಾತು	-9.18624
ಕ್ಕ	-9.18726
▁person	-9.18736
▁road	-9.18803
▁include	-9.18816
▁ದೆಹಲಿ	-9.18865
▁Two	-9.18937
▁dead	-9.18942
▁ಸಾವು	-9.19009
▁ಎಂದ	-9.1903
▁ಪರ	-9.19149
▁ಮೆ	-9.19504
▁together	-9.1977
▁officials	-9.19807
▁With	-9.19814
▁CM	-9.19843
▁now	-9.19851
ನಿ	-9.19979
▁final	-9.20258
▁ವಿಚಾರ	-9.20315
▁ಅಧ್ಯಯನ	-9.20481
based	-9.2049
upreme	-9.20598
▁ಎರಡನೇ	-9.20614
▁sent	-9.20617
▁ಮೂವರ	-9.20628
age	-9.20647
el	-9.20662
▁ಆದ	-9.20739
▁ಚೆನ್ನಾಗಿ	-9.20825
ಕರ	-9.20881
▁answer	-9.21078
▁Raj	-9.2114
g	-9.21263
ನೂ	-9.2134
ುತ್ತಾ	-9.2141
▁always	-9.21458
▁don	-9.21549
▁Our	-9.2157
ಿಯ	-9.2207
▁ನಿರ್ದೇಶಕ	-9.22179
▁girl	-9.22206
▁spirit	-9.2231
▁Hindi	-9.22314
▁ಆದಾಗ್ಯೂ	-9.22329
▁More	-9.22335
▁ಮಾಡಲಾಗಿದೆ	-9.22336
▁ಅಂದರೆ	-9.2234
▁ನೀಡುವ	-9.22343
8	-9.22739
▁ಮುಂಬೈ	-9.22819
▁ಪ್ರಧಾನಮಂತ್ರಿ	-9.2289
us	-9.22986
▁ಜಾರಿ	-9.23141
▁politics	-9.23175
▁ವೈದ್ಯಕೀಯ	-9.23175
▁Everyone	-9.23248
▁ಮಾಡ	-9.23316
?"	-9.23519
ಯಾದ	-9.2352
▁ಸಾರ್ವಜನಿಕ	-9.23578
▁show	-9.23641
▁top	-9.2369
▁ರಾಜ	-9.2374
ನಾನು	-9.23828
▁account	-9.23956
▁daughter	-9.23987
6	-9.24
▁ದೇಶದಲ್ಲಿ	-9.24004
▁something	-9.24046
▁District	-9.24061
▁ನೀಡಿದೆ	-9.24269
▁ತೆರಿಗೆ	-9.24334
▁ಪಂದ್ಯ	-9.24364
▁ಕಷ್ಟ	-9.24495
▁area	-9.24544
▁total	-9.24598
▁ಹೇಳ	-9.24631
▁ಸಂಚಾರ	-9.24716
▁ಮೂಲ	-9.24791
▁ಚರ್ಚೆ	-9.24802
▁Test	-9.24847
▁ಚುನಾವಣಾ	-9.24965
▁ಕೂಡಲೇ	-9.24975
▁ವ್ಯವಸ್ಥೆ	-9.25044
▁ಕುರಿತ	-9.25063
▁ಒಂದೇ	-9.25084
▁ಫಲಿತಾಂಶ	-9.25125
▁ರೀತಿಯಲ್ಲಿ	-9.2538
▁ಕಿ	-9.25491
▁ವರ್ಷ	-9.257
▁ಪ್ರದೇಶ	-9.2571
▁Kapoor	-9.25807
▁treatment	-9.2581
▁process	-9.25847
▁ಶರ್ಮಾ	-9.25847
▁Both	-9.25863
▁ಚುನಾವಣೆಯಲ್ಲಿ	-9.25972
▁Sri	-9.25996
▁ನಿ	-9.26089
▁ಸಮಯದಲ್ಲಿ	-9.26165
▁ಜನರಿಗೆ	-9.26196
▁states	-9.2621
▁ಈಗ	-9.26249
▁ಮೇ	-9.26304
▁ತಾಯಿ	-9.26318
▁visit	-9.26332
▁22	-9.26488
▁J	-9.26511
▁ಸಿಬ್ಬಂದಿ	-9.26697
▁wrong	-9.26715
▁child	-9.26715
▁ಬೈಬಲ್	-9.26732
▁Where	-9.26749
▁ಅಗತ್ಯವಿದೆ	-9.26765
▁ಪಟ್ಟಿ	-9.26916
ವನ್ನೂ	-9.26972
ಇ	-9.27063
▁ಸ್ಥಳೀಯ	-9.27173
▁28	-9.27259
▁Gujarat	-9.27418
▁ಅದರಲ್ಲಿ	-9.27497
▁ಟ್ವೀಟ್	-9.27611
▁ಫೋನ್	-9.27709
3	-9.27765
▁ವಿಡಿಯೋ	-9.27804
▁ಪ್ರಮಾಣ	-9.2806
▁ಕೂಡಾ	-9.28126
▁result	-9.28191
▁ಸಭೆ	-9.28363
▁large	-9.28456
▁official	-9.2848
▁Yadav	-9.2851
▁find	-9.28526
▁Amit	-9.28541
▁ಬಂದಿದೆ	-9.28652
▁ಕುಟುಂಬ	-9.28693
▁workers	-9.28749
▁big	-9.28751
ಎಸ್	-9.2877
▁questions	-9.28962
▁ಕಾರ್ಯದರ್ಶಿ	-9.29004
▁ವಿದ್ಯಾರ್ಥಿಗಳ	-9.2914
▁ಭಾರ	-9.29157
▁ಟೆಸ್ಟ್	-9.29309
▁music	-9.29355
▁hard	-9.29368
▁read	-9.29384
▁job	-9.29387
▁Central	-9.29427
ful	-9.29458
▁really	-9.29498
▁ಇಷ್ಟ	-9.29543
▁ನಡೆದಿದೆ	-9.29586
uch	-9.29876
ಿಸುವ	-9.29922
ಿಗಾಗಿ	-9.30003
▁Your	-9.3002
▁ವಿದ್ಯಾರ್ಥಿಗಳು	-9.30062
▁easy	-9.30353
▁lost	-9.30353
,000	-9.30369
▁ಇರಲಿಲ್ಲ	-9.30393
it	-9.3055
▁ಎಲ್	-9.30995
▁b	-9.31006
▁ಮಾಡುತ್ತದೆ	-9.31059
▁ಶಕ್ತಿ	-9.31139
▁continue	-9.31156
ಿಸಲು	-9.31279
▁ಹೊಂದಿರುವ	-9.31283
▁happy	-9.31287
▁ಉಪಸ್ಥಿತರಿದ್ದರು	-9.31287
▁blood	-9.31288
▁ಜೆ	-9.31337
ಿದ್ದಾನೆ	-9.31542
▁ವ್ಯಕ್ತಿ	-9.31626
▁ಜ	-9.31659
▁ಪ	-9.31843
▁ಬೇಡ	-9.3186
▁de	-9.31916
ra	-9.31974
to	-9.3213
▁programme	-9.3222
▁major	-9.3222
▁Israel	-9.32226
▁ಎಚ್	-9.32238
▁ಧರ್ಮ	-9.32241
▁Australia	-9.32248
▁ಕಪೂರ್	-9.32249
▁currently	-9.32274
▁details	-9.32409
▁ಪ್ರ	-9.32552
ma	-9.32629
▁Re	-9.32631
ther	-9.32698
ವಾಗ	-9.32809
E	-9.32873
▁saying	-9.32945
▁ಕರ್ತನ	-9.33022
ಚ್	-9.33076
▁High	-9.3314
▁announced	-9.33207
▁South	-9.33259
▁ಪಡೆದ	-9.33265
ಿಸಿ	-9.33333
ro	-9.33477
▁ವರ್ಷದ	-9.33577
▁ತಪ್ಪು	-9.33653
▁e	-9.33774
▁ಲ	-9.3393
▁ಸಮಿತಿ	-9.33971
▁full	-9.34069
▁ಅಮಿತ್	-9.34145
▁ವೆಚ್ಚ	-9.34145
▁better	-9.34168
▁ಹೌದು	-9.34276
ya	-9.34375
▁9	-9.34441
ry	-9.34571
▁book	-9.34963
▁ಎಲ್ಲಿ	-9.34979
▁ಕಥೆ	-9.35068
▁everything	-9.35116
▁ಬಂಧನ	-9.35123
▁hold	-9.3517
▁ಅತ್ಯುತ್ತಮ	-9.35245
▁ನ್ಯಾಯಾಲಯ	-9.35382
▁ವಿಮಾನ	-9.35425
▁ಅವನಿಗೆ	-9.35562
▁ಯಾವುದು	-9.35618
▁bring	-9.35777
▁ಬಸ್	-9.35892
T	-9.35894
▁ಅಧಿಕ	-9.36091
▁told	-9.36103
▁ನೀಡಲಾಗಿದೆ	-9.36124
▁service	-9.36159
▁control	-9.36327
ಕಾ	-9.36339
▁award	-9.36355
▁ವ್ಯಕ್ತಪಡಿಸ	-9.36506
F	-9.36508
▁ಮನೆಯಲ್ಲಿ	-9.36833
ಲಾಗುತ್ತದೆ	-9.36852
▁ಇಲ್ಲಿದೆ	-9.36872
▁Se	-9.36925
▁ಕೇಳ	-9.36943
▁live	-9.36986
▁six	-9.37048
▁since	-9.37069
▁fear	-9.37086
▁gone	-9.37105
▁ಸಿಎಂ	-9.37106
▁ಸಾಧನೆ	-9.37148
▁ಬಿಜೆಪಿಯ	-9.37155
▁ಆರೋಪಿ	-9.37187
▁ಸಂತೋಷ	-9.37241
▁field	-9.3728
▁ಅಂತರ	-9.37311
▁happen	-9.37336
▁today	-9.37516
▁ವಿವರ	-9.37762
▁ಶ	-9.37807
came	-9.37833
▁ನಿಜ	-9.37908
ಷ	-9.37911
▁young	-9.38085
▁history	-9.38086
▁ನೀರ	-9.38174
▁ನಾಲ್ಕು	-9.38178
▁ಇದ್ದ	-9.38331
▁needed	-9.38348
▁W	-9.38381
▁Theres	-9.38405
▁ರೋಗ	-9.38461
na	-9.38491
▁ವಿಷಯದಲ್ಲಿ	-9.38514
▁ಸಲಹೆ	-9.38916
▁connection	-9.39106
▁ನೀರಿನ	-9.39128
▁ಇನ್ನೊಂದು	-9.39164
▁taking	-9.3918
▁month	-9.3919
ಂಡ	-9.39218
▁following	-9.39325
್ಯ	-9.39351
▁ನೋಡ	-9.39473
▁education	-9.39514
ಬಾರದು	-9.39648
▁ಒಂದ	-9.39736
▁runs	-9.39746
▁ಸೇರಿಸಿ	-9.39866
sh	-9.40007
▁price	-9.40034
▁national	-9.40078
▁cause	-9.40086
▁Kerala	-9.40117
▁ರಾಜೀನಾಮೆ	-9.40117
▁countries	-9.40117
▁West	-9.40125
▁mind	-9.40146
▁ಖಾತೆ	-9.40156
▁ಮೇಲಿನ	-9.40203
▁China	-9.4024
▁ದೂರ	-9.40398
▁ಹೊರ	-9.40411
▁Add	-9.40428
▁Form	-9.40445
▁ಒ	-9.40573
ವರಿಗೆ	-9.40647
ಗಳೂ	-9.40828
ಲಾಗುವುದು	-9.40956
▁Christians	-9.40976
▁candidates	-9.40984
▁third	-9.41148
▁Paul	-9.41151
▁oil	-9.41156
▁received	-9.41221
▁gave	-9.41231
▁making	-9.41233
▁pay	-9.41268
4	-9.41415
We	-9.41425
▁ಒಳ್ಳೆಯ	-9.41512
▁Are	-9.41548
▁event	-9.41798
v	-9.41808
ಲೂ	-9.41851
▁Day	-9.41939
▁experience	-9.42084
▁Lord	-9.42189
▁common	-9.4219
▁series	-9.42191
▁ಯಾದವ್	-9.42203
▁ರಕ್ಷಣಾ	-9.42281
▁ಬರುವ	-9.42354
▁ಜಿಲ್ಲೆಯ	-9.42416
▁let	-9.4243
ಗಿ	-9.42461
▁p	-9.42618
▁ಇವರು	-9.43008
w	-9.43025
▁ಜನ	-9.43101
ರೋ	-9.43109
▁ಬಣ್ಣ	-9.4318
▁ಕೃಷಿ	-9.43192
▁ವೈಯಕ್ತಿಕ	-9.43242
▁ಮಾತುಕತೆ	-9.43242
▁himself	-9.43244
▁huge	-9.43247
▁ಮಾಡಬಹುದು	-9.43288
▁course	-9.4331
▁CBI	-9.4332
▁word	-9.43357
▁ಮಾಡುವುದು	-9.43393
▁match	-9.43412
▁ನೀಡಲು	-9.43435
▁500	-9.43437
▁O	-9.43442
▁ಹೋರಾಟ	-9.43556
▁ಕೊಡ	-9.43655
▁engine	-9.43962
▁think	-9.43989
▁ಸ್ವ	-9.44045
▁ಪ್ರತಿಕ್ರಿಯೆ	-9.44197
▁lives	-9.44262
ುತ್ತಿರುವ	-9.44288
▁near	-9.44304
▁2019	-9.44308
▁alleged	-9.44326
▁ಜಯ	-9.44327
▁ಆದ್ರೆ	-9.44344
▁bus	-9.4444
ರಾದ	-9.44477
▁statement	-9.44482
▁captain	-9.44557
ಸು	-9.44643
▁ತೆಗೆದುಕೊಳ್ಳ	-9.44662
▁ಮತ	-9.4468
▁ದಿ	-9.44904
ಫ್	-9.4507
▁ಅಂತಹ	-9.45169
▁32	-9.45175
▁ಯಾವುದ	-9.45299
ಬೇಡಿ	-9.45311
▁ಉದ್ಯೋಗ	-9.45353
▁Of	-9.45395
▁Party	-9.45395
▁ನಡೆಯುತ್ತಿದೆ	-9.45399
▁anyone	-9.45431
▁films	-9.45509
▁director	-9.45576
id	-9.45628
▁ಪ್ರೀತಿ	-9.45663
▁features	-9.45787
▁ಇಡ	-9.45847
ತಾ	-9.45858
▁issues	-9.45953
▁unto	-9.46098
▁understand	-9.46147
▁ಕ್ಷೇತ್ರ	-9.46208
▁ಸ್ಥಿತಿ	-9.46293
▁ಇಂಥ	-9.46326
▁company	-9.46468
▁Jammu	-9.46468
▁admitted	-9.46468
▁Also	-9.46469
▁everyone	-9.46474
▁nation	-9.46475
up	-9.46483
▁Act	-9.46497
▁ಮಹಿಳಾ	-9.46503
▁ಹೋಗಿ	-9.46581
▁ಕರೆ	-9.46627
▁ಪತ್ರ	-9.46656
▁ಆತನು	-9.46664
▁ಬದಲಾವಣೆ	-9.46854
ಯೋ	-9.46984
▁ಕಂಡ	-9.47017
▁ಮಾನವ	-9.47041
▁play	-9.47115
▁ಎಫ್	-9.47171
▁ಪೂರ್ವ	-9.47184
▁ಇದೊಂದ	-9.47328
old	-9.4746
li	-9.47534
▁ಖಾಸಗಿ	-9.47567
▁ಕಾಮಗಾರಿ	-9.47567
▁ಸಿಬಿಐ	-9.47568
▁ಪೆಟ್ರೋಲ್	-9.47602
▁free	-9.47613
▁ಹಾಗೆಯೇ	-9.47673
▁believe	-9.47675
▁truth	-9.47682
▁demanded	-9.47729
▁reached	-9.47733
▁side	-9.47755
ದಿ	-9.47848
▁ಅನುಭವ	-9.47865
▁king	-9.47869
ty	-9.47985
▁care	-9.48012
ಸಾ	-9.48053
ೊಳಗೆ	-9.48184
▁ಕೊಟ್ಟ	-9.48283
▁ಪ್ರವೇಶ	-9.48594
▁future	-9.48678
▁Director	-9.48678
▁till	-9.48681
▁senior	-9.48685
▁Station	-9.48687
▁David	-9.48718
▁ಸಾಧ್ಯ	-9.48727
▁disease	-9.48831
▁ಪ್ರಕ್ರಿಯೆ	-9.48845
est	-9.48923
▁likely	-9.4907
man	-9.49077
▁ಸಾಮಾನ್ಯವಾಗಿ	-9.49092
▁ತಿಂಗಳ	-9.49136
ದೊಂದಿಗೆ	-9.49194
▁ನೀಡ	-9.49244
▁ತೀರ್ಮಾನ	-9.49271
▁protest	-9.49344
▁ಏರ್	-9.49583
▁talk	-9.49654
▁ಬೆಂಕಿ	-9.4968
GB	-9.49687
▁words	-9.49711
▁ಆದಾಯ	-9.49723
▁might	-9.49725
▁ಸಲ್ಲಿಸ	-9.49748
▁ಮತ್ತೊಂದು	-9.49805
▁single	-9.49809
▁provide	-9.49827
▁filed	-9.49837
▁ವಿದ್ಯುತ್	-9.49841
ಶ್	-9.49869
▁ಗೃಹ	-9.4988
▁simple	-9.49932
▁market	-9.49965
W	-9.49969
▁candidate	-9.4998
ha	-9.50035
▁toward	-9.5018
ಕರ್	-9.50276
▁ಪಡೆಯ	-9.50704
▁ಅಂಶ	-9.50794
▁ಜಮ್ಮು	-9.50938
▁ಭರವಸೆ	-9.50947
▁main	-9.50948
▁ಇನ್ನಷ್ಟು	-9.50993
▁old	-9.51019
▁ಹಿಂದಿ	-9.51031
▁60	-9.5111
▁Christian	-9.51121
▁human	-9.51161
▁ಇತ್ತು	-9.51164
▁though	-9.51382
ಕೋ	-9.51459
▁ಬಲ	-9.51472
▁ಹೆಸರ	-9.51492
ಷ್ಟು	-9.51566
ರನ್ನು	-9.51597
▁Z	-9.51771
▁ಸರಣಿ	-9.51873
▁faith	-9.5189
▁ಚ	-9.51909
▁31	-9.51939
▁ಆತ್ಮಹತ್ಯೆ	-9.52092
▁ಪ್ರತಿಯೊಂದ	-9.52098
▁ಆಗಿತ್ತು	-9.52209
▁doesnt	-9.52224
▁hav	-9.52249
▁ವಿರೋಧ	-9.52314
▁ಉಳಿದ	-9.5237
ಂಥ	-9.52376
▁view	-9.52377
▁IPL	-9.52394
▁friends	-9.52438
▁ಹಾಕ	-9.52518
▁ಆತ	-9.52864
▁ಮಹಿಳೆಯರ	-9.53072
▁ಹಂತ	-9.53137
▁HD	-9.53208
▁responsibility	-9.5325
▁ಹಣಕಾಸು	-9.5325
▁informed	-9.53251
▁ಟೀಂ	-9.53272
▁ಗುಜರಾತ್	-9.53273
▁ಗೊತ್ತಿಲ್ಲ	-9.53292
▁ಸಂಬಂಧಿಸಿದಂತೆ	-9.53298
▁ಮಧ್ಯೆ	-9.53372
▁ಭಾಗ	-9.53372
▁ಕೆಲವರು	-9.53419
less	-9.53454
▁MLA	-9.53467
▁phone	-9.5349
▁ಸಹಕಾರ	-9.53776
ಕಿ	-9.53952
▁!	-9.54107
▁respect	-9.54134
▁ಉದ್ದೇಶ	-9.54162
▁accident	-9.54193
▁ರೂಪಾಯಿ	-9.54206
▁ಡ	-9.54246
▁ಅವಳ	-9.543
%	-9.54312
▁ಶಾಸಕ	-9.5433
▁difficult	-9.54335
▁earth	-9.54344
ಡು	-9.54381
▁ಹೈಕೋರ್ಟ್	-9.54426
▁behind	-9.54427
▁Telugu	-9.54435
▁ಲಾಭ	-9.54439
▁ಹಿನ್ನೆಲೆಯಲ್ಲಿ	-9.54454
▁Christ	-9.54458
▁ವಶಕ್ಕೆ	-9.54461
▁ಐದು	-9.54466
▁ಕಾರ್ಡ್	-9.54512
▁expected	-9.54527
ll	-9.54533
▁ಗೆಲುವು	-9.54562
▁ತಲೆ	-9.54565
ಗಳನ್ನೂ	-9.54577
▁ಸಮಾಜ	-9.54599
▁ಆಸ್ಟ್ರೇಲಿಯಾ	-9.546
▁village	-9.54645
▁project	-9.54664
ಿಸಿದ	-9.54715
▁ಭಾರತಕ್ಕೆ	-9.54744
▁ಒಪ್ಪ	-9.54772
▁ಮಕ್ಕಳಿಗೆ	-9.54854
▁means	-9.55043
▁Dur	-9.55048
▁ಹಿಂದಿನ	-9.55179
▁tell	-9.55285
ುತ್ತಿದ್ದ	-9.55291
et	-9.55457
▁peace	-9.55606
▁success	-9.55606
▁married	-9.55617
▁ಘೋಷಣೆ	-9.55618
▁often	-9.5562
▁ಯಾವಾಗಲೂ	-9.55626
▁According	-9.5564
▁United	-9.5564
▁Pra	-9.55664
▁ನಡೆಸಿದ್ದಾರೆ	-9.55671
▁ಸಂಸ್ಥೆ	-9.55696
▁ಬಂದಿಲ್ಲ	-9.55731
▁office	-9.55864
▁JD	-9.55926
▁300	-9.55959
pur	-9.56002
▁2:	-9.56034
▁ಆರೋಪಿಗಳ	-9.56157
is	-9.5623
▁ಫೋಟೋ	-9.56393
ಾಯಿತು	-9.56398
▁ಯುದ್ಧ	-9.56454
▁ಮಾರಾಟ	-9.56636
▁real	-9.56669
▁ಕುಟುಂಬದ	-9.56679
▁MP	-9.56702
▁prices	-9.56735
▁services	-9.56783
hi	-9.56788
▁ಮಗ	-9.56821
▁Kumaraswamy	-9.56822
▁brought	-9.56822
▁ಮೂರನೇ	-9.56825
▁cant	-9.56827
▁ಪಶ್ಚಿಮ	-9.5686
▁front	-9.56892
▁ಮದುವೆ	-9.56923
ish	-9.56931
▁ಅಧಿಕಾರಿಗಳ	-9.57063
▁ಎಂದೂ	-9.57073
▁game	-9.57086
▁ಉಪ	-9.57177
▁ಆಕೆ	-9.57289
N	-9.57335
▁fight	-9.57513
▁ನಾಯಕರು	-9.57568
▁ಮುಖ್ಯಸ್ಥ	-9.57617
▁ಕುಮಾರಸ್ವಾಮಿ	-9.57621
▁ತಪ್ಪ	-9.57783
▁ನ್ಯಾಯ	-9.5784
▁ದೇವಾಲಯ	-9.57908
▁ಉ	-9.58032
▁couple	-9.58041
▁ನಿಟ್ಟಿನಲ್ಲಿ	-9.58045
ಭ	-9.58141
▁ಪಾಕ್	-9.58171
▁ಹೃದಯ	-9.58185
▁attended	-9.58187
▁rain	-9.58226
▁ಶಾಂತಿ	-9.58244
▁husband	-9.58341
▁ಹೇಳಿದೆ	-9.58396
▁open	-9.58404
iv	-9.5842
▁reasons	-9.5844
▁My	-9.5845
▁Vijay	-9.58457
▁ಒತ್ತಡ	-9.58458
▁Yes	-9.58488
ant	-9.58714
▁26	-9.5885
▁ದಾಖಲೆ	-9.58855
▁ಮಾತ	-9.58864
▁Bengal	-9.59116
▁ಜತೆ	-9.59181
▁ಪ್ರಕರಣಗಳು	-9.59227
▁close	-9.59266
▁actress	-9.59276
▁personal	-9.59294
ch	-9.59303
‍ನಲ್ಲಿ	-9.59304
▁%	-9.59319
ಾಗಿತ್ತು	-9.59355
▁ಎಲ್ಲವೂ	-9.59465
▁ಆರಂಭ	-9.59637
▁ಅವಳು	-9.59854
▁hit	-9.59894
ುತ್ತಿಲ್ಲ	-9.59924
ಆ	-9.59947
im	-9.60075
▁enjoy	-9.60255
mi	-9.60314
▁ಕಾ	-9.60324
▁ಎನ್ನುವ	-9.60339
▁ಪ್ರದರ್ಶನ	-9.60394
▁serious	-9.6044
▁ಕೆಳಗಿನ	-9.60466
▁co	-9.60498
▁ಅಂತಿಮ	-9.60501
▁ಶಾಲೆ	-9.6052
▁ಕೋವಿಡ್	-9.60526
▁English	-9.60526
▁medical	-9.60526
▁ನೂತನ	-9.60526
▁Bangalore	-9.6055
▁ಕೊಲೆ	-9.60554
▁written	-9.60566
▁ready	-9.60629
▁point	-9.60632
▁ಬಂದು	-9.60662
ಎನ್	-9.60711
▁ಭಾರಿ	-9.60726
▁ಇಂದು	-9.60765
▁ಆತಂಕ	-9.60812
▁ಹಬ್ಬ	-9.60849
▁ಪ್ರಯೋಜನ	-9.61069
ಿಂದಲೂ	-9.61164
▁ಸಾಧ್ಯತೆ	-9.61176
▁ಅಧಿಕಾರಿ	-9.61249
▁ಮಾರ್ಗ	-9.61434
▁address	-9.61519
▁ರೈತರು	-9.61683
▁ಬೈಕ್	-9.61703
▁little	-9.61792
▁marriage	-9.61792
▁Kingdom	-9.61793
▁pressure	-9.61793
▁ಶೆಟ್ಟಿ	-9.61817
▁add	-9.61818
▁ಇರುತ್ತದೆ	-9.61837
▁ಮನೆಯ	-9.61853
▁ಲೋಕಸಭಾ	-9.61962
▁increase	-9.62029
▁night	-9.62075
deep	-9.62091
▁condition	-9.62107
rushed	-9.62169
▁ನವದೆಹಲಿ	-9.622
▁cost	-9.62216
▁ಪೂರ್ಣ	-9.6227
ನೋ	-9.62309
▁ನಡೆಸಿದ	-9.6231
ೈ	-9.6238
▁)	-9.62404
▁ಸದಸ್ಯರು	-9.62407
▁Uttar	-9.62454
▁ಯು	-9.62494
0	-9.62563
▁ಬೇಕು	-9.62661
ದಲ್ಲಿರುವ	-9.62662
▁interest	-9.62781
▁ಗಂಭೀರ	-9.62905
▁ಸಂದೇಶ	-9.62939
▁ಸಿದ್ದರಾಮಯ್ಯ	-9.63074
▁suicide	-9.63075
▁ಕಟ್ಟಡ	-9.63089
▁recently	-9.63118
▁ಕಾರ್ಯಾಚರಣೆ	-9.6313
▁ಪ್ರಸ್ತುತ	-9.63141
▁ರಾತ್ರಿ	-9.63196
▁ಪ್ರಕರಣದ	-9.63249
▁produce	-9.6327
▁launched	-9.63326
ce	-9.63326
ತನ	-9.63353
▁date	-9.63385
▁played	-9.63386
ಿಗ	-9.63445
▁23	-9.63457
▁ಅಷ್ಟೇ	-9.63564
▁De	-9.63711
ಎಂ	-9.63747
ach	-9.63857
H	-9.63959
▁Her	-9.64344
▁society	-9.64372
▁Centre	-9.64372
▁international	-9.64372
▁ರೋಹಿತ್	-9.64372
▁viral	-9.64373
▁General	-9.64373
▁Health	-9.64373
▁ಭದ್ರತಾ	-9.64374
▁Rohit	-9.64374
▁isnt	-9.64377
▁enter	-9.64379
U	-9.64411
▁ಮೈತ್ರಿ	-9.64414
▁ತಮಿಳು	-9.64446
▁ಅಲ್ಲದೇ	-9.64459
▁States	-9.64467
▁seek	-9.64498
▁ವಿಕೆಟ್	-9.64507
▁ರಾಷ್ಟ್ರ	-9.6455
ೆಲ್ಲಾ	-9.64596
▁healthy	-9.64598
▁ಯುವ	-9.646
▁ಪ್ರದೇಶದ	-9.64626
ೆವು	-9.64634
▁ಎಕ್ಸ್	-9.64674
▁relationship	-9.64693
▁language	-9.64727
ಮಾಡ	-9.64857
▁ತಾನ	-9.64878
▁ತರಬೇತಿ	-9.64992
▁ಮುಖ	-9.64994
▁ಅಪಘಾತ	-9.64995
▁level	-9.65009
ik	-9.65016
▁contest	-9.65091
ಂಗ	-9.65114
L	-9.65209
▁ಸುಲಭ	-9.65255
▁ವಿದ್ಯಾರ್ಥಿ	-9.65298
▁ರೈಲು	-9.65307
iya	-9.65369
ದಲ್ಲೇ	-9.65506
▁ಗಂಭೀರವಾಗಿ	-9.65515
▁spiritual	-9.65594
▁entire	-9.65598
▁business	-9.65681
▁period	-9.65688
▁wrote	-9.65688
▁ಕಠಿಣ	-9.65688
▁stand	-9.65726
▁ಚೀನಾ	-9.65732
▁Yahweh	-9.65764
▁ಏರಿಕೆ	-9.6577
▁ಪ್ರಭಾವ	-9.65796
▁ಹಾಗು	-9.65805
coming	-9.65849
▁provided	-9.65912
▁ತೆಗೆದುಕೊಂಡ	-9.65923
rs	-9.65933
▁ನಂಬಿಕೆ	-9.66037
▁doctor	-9.66057
▁kind	-9.66063
▁areas	-9.66088
▁head	-9.66097
▁ಕಾಣ	-9.66115
▁ರಕ್ಷಣೆ	-9.66141
▁ಹತ್ಯೆ	-9.6621
▁ಮೌಲ್ಯ	-9.66221
ಈ	-9.66324
body	-9.6639
▁ವೈ	-9.66407
▁ತೊಂದರೆ	-9.66419
▁ಹಿಂದೂ	-9.66439
▁ನಾನ	-9.66484
wa	-9.66541
▁stop	-9.66572
▁clear	-9.66651
▁study	-9.667
▁ಕೇಳಿ	-9.66705
▁ಅಭಿಪ್ರಾಯ	-9.66797
▁ವಿಶ್ವಾಸ	-9.66847
▁ಬಾ	-9.66901
▁ಅಭ್ಯರ್ಥಿ	-9.66936
▁ಪ್ರಥಮ	-9.66945
▁turn	-9.6699
ಕ್ಕಿಂತ	-9.66997
▁gold	-9.67013
▁ವೈರಲ್	-9.67022
▁Assembly	-9.67022
▁ಇದೀಗ	-9.67023
▁coming	-9.67039
ವಾಯಿತು	-9.67149
▁upon	-9.6719
x	-9.67281
▁ಭಯ	-9.6741
ೇನು	-9.6742
▁ಪುಸ್ತಕ	-9.67452
kar	-9.67546
ಾರು	-9.67583
▁ಹೆಚ್ಚ	-9.6766
▁ಬಾರಿಗೆ	-9.67677
▁ones	-9.67679
ad	-9.67737
▁ನಗರದ	-9.67764
▁ಕರ್ತನು	-9.6778
▁35	-9.67843
▁vehicles	-9.6786
▁ಸರಳ	-9.67867
▁ಕ್ಯಾಮೆರಾ	-9.67992
▁Ali	-9.68052
▁meet	-9.68103
▁ಮಹಿಳೆ	-9.6813
▁ರಾ	-9.68172
▁ತರ	-9.68343
▁England	-9.68373
▁Shetty	-9.68373
▁lodged	-9.6838
▁activities	-9.68386
▁ನಡುವಿನ	-9.68398
▁ಪದವಿ	-9.68429
▁Women	-9.68433
▁ವ್ಯಕ್ತಿಯ	-9.68488
▁ಐಪಿಎಲ್	-9.6849
ವೋ	-9.68534
ರಾಗಿ	-9.68599
▁named	-9.68673
ಮೊಬೈಲ್	-9.68734
▁Air	-9.68813
ಐ	-9.68978
▁ಸದಸ್ಯರ	-9.69029
ಲಾಗುತ್ತಿದೆ	-9.69066
ರೇ	-9.6907
▁light	-9.69098
▁ಕ್ಷೇತ್ರದಲ್ಲಿ	-9.69126
▁ತಿಳಿದು	-9.69199
ವೆಂದು	-9.69258
▁tax	-9.69335
▁war	-9.69423
▁ವಾರ	-9.69467
▁past	-9.69649
▁Education	-9.69743
▁Ministry	-9.69743
▁Bharat	-9.69744
▁Siddaramaiah	-9.69753
▁1,	-9.6976
▁parties	-9.69774
▁Cup	-9.69798
▁COVID	-9.69804
▁ಸೌಲಭ್ಯ	-9.69837
om	-9.69967
▁ಪಂದ್ಯದಲ್ಲಿ	-9.69995
▁allow	-9.70043
▁polls	-9.70072
ಚ್ಚ	-9.7011
▁brother	-9.70172
▁group	-9.70189
▁ಸಾಮರ್ಥ್ಯ	-9.70231
▁ಕ್ರೈಸ್ತ	-9.70333
▁ಮಾಡಿಲ್ಲ	-9.70336
▁ಬಿಟ್ಟು	-9.70341
▁ಕೊನೆಯ	-9.70363
▁ಮುನ್ನ	-9.70424
▁ನೀತಿ	-9.70452
▁Al	-9.70539
▁speak	-9.70566
▁ಮಾ	-9.70671
ೆಯ	-9.70765
▁ರಾಮ	-9.7082
▁ತಂತ್ರಜ್ಞಾನ	-9.70859
▁ನಾ	-9.70947
ದಲ್ಲೂ	-9.7098
▁Punjab	-9.71096
▁John	-9.71128
▁Hospital	-9.71132
▁began	-9.71132
▁ಬಹುತೇಕ	-9.71132
▁privat	-9.71133
▁Reddy	-9.71133
▁ಇತ್ತೀಚೆಗೆ	-9.71134
▁central	-9.71135
▁assembly	-9.7114
▁offer	-9.71146
▁popular	-9.71149
▁ಸುಪ್ರೀಂ	-9.71159
se	-9.71185
de	-9.71277
▁Even	-9.7133
▁ಜತೆಗೆ	-9.71401
ಬೇಕಿದೆ	-9.71484
ಾಗಿರುವ	-9.71531
▁ಆಕೆಯ	-9.71564
▁ರಚನೆ	-9.71597
ne	-9.71644
▁ಗುರಿ	-9.71786
ಆರ್	-9.71803
ಂಗ್	-9.71804
▁ದಿನಗಳಲ್ಲಿ	-9.71875
ಯೆ	-9.71929
▁ಒಪ್ಪಂದ	-9.71942
▁ಕಟ್ಟ	-9.72085
▁brothers	-9.72101
▁function	-9.72274
▁MLAs	-9.72278
▁ಸ್ಪರ್ಧೆ	-9.72409
ate	-9.72425
▁loss	-9.725
▁ಇರ	-9.72503
▁LORD	-9.7254
▁Development	-9.72541
▁ಎನ್ನಲಾಗಿದೆ	-9.72549
▁Hyderabad	-9.7255
▁Hence	-9.72567
▁participated	-9.72586
▁results	-9.72609
ಡೀ	-9.7262
▁ಸರಿ	-9.72648
▁feel	-9.72671
ಟ್ಟ	-9.72716
▁bank	-9.72738
▁worked	-9.7275
▁move	-9.72862
▁cut	-9.72942
ಲ್ಪಟ್ಟ	-9.72949
▁ಗಳಲ್ಲಿ	-9.72971
▁driver	-9.72979
▁week	-9.73032
ಿಸಿದರು	-9.73049
ರಂದು	-9.73237
▁fact	-9.73274
ನಿಂದ	-9.73339
ಷ್ಟೇ	-9.73543
te	-9.73562
▁eat	-9.73634
▁ಪತ್ತೆ	-9.73686
▁ಕೊ	-9.73736
▁works	-9.73767
▁act	-9.73818
▁skin	-9.7396
▁Rajasthan	-9.73969
▁personnel	-9.73969
▁Nadu	-9.73971
▁diesel	-9.73972
▁Witnesses	-9.73973
▁necessary	-9.73974
▁ಇರಬೇಕು	-9.74035
▁ಶಾಲಾ	-9.74044
▁ತೆಲುಗು	-9.74049
▁ಡೀಸೆಲ್	-9.74051
▁poor	-9.74056
ನ್ನೇ	-9.74124
▁ಇದಕ್ಕಾಗಿ	-9.74172
▁ಸ್ಟಾರ್	-9.74172
▁ಎನ್ನುವುದು	-9.74247
ಿರುವುದು	-9.74345
▁May	-9.7442
▁congregation	-9.74439
▁benefit	-9.7445
▁amount	-9.74469
▁80	-9.74688
ಗಳಿಗಾಗಿ	-9.74917
▁rate	-9.7506
▁ಫ	-9.75136
▁murder	-9.75174
▁ಕಾರ್ಯಕ್ರಮದ	-9.7521
▁c	-9.75233
ts	-9.754
▁ಅಪಾರ	-9.75409
▁Gowda	-9.75418
▁saw	-9.75418
▁ಅಂತಾರಾಷ್ಟ್ರೀಯ	-9.7542
▁ಸರಿಯಾದ	-9.75437
▁giving	-9.75465
▁Farmers	-9.75469
▁stay	-9.75483
▁ನಿರೀಕ್ಷೆ	-9.75495
▁ಸಿದ್ಧ	-9.75508
▁decided	-9.75514
▁increased	-9.75548
▁ಅದಕ್ಕಾಗಿ	-9.7559
▁test	-9.75708
▁ಯ	-9.75858
▁ಮಾರುಕಟ್ಟೆಯಲ್ಲಿ	-9.75948
▁Hindu	-9.75982
ವಾಗಿದ್ದು	-9.76077
ಾರೆ	-9.76086
▁ಸೇರಿ	-9.76127
▁learn	-9.76172
▁non	-9.76216
▁places	-9.76223
▁seat	-9.76236
▁ನಡೆಸಿ	-9.76283
▁ನನಗ	-9.7632
▁ಬಿದ್ದ	-9.7651
▁age	-9.76568
▁ಬೇಡಿಕೆ	-9.76676
▁ವಿವಾದ	-9.76866
▁Special	-9.76889
▁general	-9.76889
▁ಏಕೆಂದರೆ	-9.76896
▁ಸಿಗ	-9.77016
▁rise	-9.77038
▁gives	-9.77337
▁ಸಂ	-9.7735
▁ಮು	-9.7736
▁By	-9.77362
▁ಚಿಕ್ಕ	-9.77373
▁ರು	-9.77394
▁challenge	-9.77414
▁ಹೆಚ್ಚಾಗಿ	-9.77423
ನ್ಸ್	-9.77444
▁camera	-9.775
▁building	-9.77701
▁1:	-9.77718
ru	-9.77734
▁ಕಾಶ್ಮೀರ	-9.77833
▁within	-9.77836
▁parts	-9.7803
▁ಚಿತ್ರಕ್ಕೆ	-9.78081
9	-9.78145
▁run	-9.78214
▁ವರೆಗೆ	-9.7826
▁met	-9.78266
▁ಜ್ಞಾನ	-9.783
ನ್ನಾಗಿ	-9.78374
ial	-9.78379
▁opportunity	-9.78381
▁data	-9.78381
▁enough	-9.78381
▁authorities	-9.78382
▁ಇತಿಹಾಸ	-9.78407
ವ್	-9.78459
▁ಇದ್ದಾರೆ	-9.78461
ಯ್ಯ	-9.78472
▁ಲೈನ್	-9.78584
▁bad	-9.7874
at	-9.78796
▁value	-9.78812
▁ಸಾ	-9.7892
ಂಬ	-9.79016
▁ways	-9.79033
ಸೆ	-9.79337
▁ಸದಸ್ಯ	-9.79351
▁Ma	-9.79411
▁ಕಂಡು	-9.79496
ಫ	-9.79607
▁ರಿಂದ	-9.79666
▁4:	-9.79723
▁ವಿನ್ಯಾಸ	-9.7976
▁follow	-9.79861
▁ಸರಿಯಾಗಿ	-9.79869
ಎಫ್	-9.79875
▁ಪರಿಶೀಲನೆ	-9.79932
▁thy	-9.79936
ನನ್ನ	-9.80064
▁ಉದಾಹರಣೆಗೆ	-9.80076
▁Can	-9.80095
▁ಬಳಕೆ	-9.80207
▁ದೇವ	-9.80278
▁ಬರೆದ	-9.80292
▁eyes	-9.80434
▁ಪುಟ	-9.80438
▁ಯಾವಾಗ	-9.80445
▁pre	-9.8046
▁vehicle	-9.80476
▁ಅಂಥ	-9.8048
▁million	-9.80481
▁ಕು	-9.80562
▁rest	-9.80603
▁officers	-9.80622
▁ಮಧ್ಯ	-9.80631
▁steps	-9.80748
▁ಸಂಸ್ಥೆಯ	-9.80775
un	-9.80801
▁hope	-9.80864
▁ದಿನಗಳ	-9.80871
▁ನಷ್ಟ	-9.80886
▁150	-9.80941
▁ಆರು	-9.81057
ರಾಗಿದ್ದಾರೆ	-9.81058
ಗಳಾದ	-9.81073
▁teams	-9.8109
▁ಸಂಬಂಧಿಸಿದ	-9.81268
▁ದಂಡ	-9.81284
▁ಪ್ರಚಾರ	-9.81327
▁strong	-9.81338
▁ದಾಖಲಿಸಿಕೊಂಡ	-9.81358
▁Bihar	-9.81406
▁29	-9.81412
▁Army	-9.81435
▁clean	-9.81435
▁response	-9.81435
▁traffic	-9.81435
▁ಚಮಚ	-9.81435
▁ಪಂಜಾಬ್	-9.81435
▁ಬಿಎಸ್	-9.81475
▁ಇಂಗ್ಲೆಂಡ್	-9.81484
▁Medic	-9.81489
▁ಸೂಚನೆ	-9.81545
▁Every	-9.81603
▁roads	-9.81667
▁followed	-9.81705
▁ಖ	-9.81804
ಯರ್	-9.81883
as	-9.81982
▁religion	-9.82013
veral	-9.82015
▁purpose	-9.82051
▁ಶುಭ	-9.82167
ಿದನು	-9.82172
▁ಕಾರ್ಯನಿರ್ವಹಿಸ	-9.82182
▁nor	-9.82237
▁ಅದ್ಭುತ	-9.82302
▁ಪುತ್ರ	-9.82337
ter	-9.8234
ಕಾರ	-9.82776
har	-9.82821
▁ಪರಸ್ಪರ	-9.82849
ೋಣ	-9.82887
▁ಸ್ಮಾರ್ಟ್	-9.82997
▁thou	-9.82997
▁seven	-9.82998
▁ಸೂಪರ್	-9.83008
▁growth	-9.83012
▁ನಡೆಸುತ್ತಿದ್ದಾರೆ	-9.83016
ಂದ	-9.8306
▁happens	-9.83259
▁issued	-9.83304
▁return	-9.83327
di	-9.83387
ುತ್ತ	-9.8346
ಡೆ	-9.83465
▁release	-9.83489
▁Have	-9.83543
ಾರ	-9.83563
▁ರಾಜ್	-9.83714
ಮಿ	-9.83985
ಕ್ಷ	-9.83989
▁ಹೆಚ್ಚಳ	-9.84028
ಾಗುತ್ತದೆ	-9.84093
ance	-9.84097
▁ಅಧಿಕೃತ	-9.84137
▁ಅಂದ	-9.84148
▁Shiv	-9.84167
ಷ್	-9.84281
▁27	-9.84287
▁ಇದ	-9.84297
▁ವಿಶ್ವದ	-9.84397
ಯೊಂದಿಗೆ	-9.84416
ೊಬ್ಬ	-9.84452
▁Go	-9.84458
▁receive	-9.84471
▁physical	-9.84496
ಾದ್ಯಂತ	-9.84559
▁First	-9.84584
▁deliver	-9.84584
▁ನಿರ್ಣಯ	-9.84585
▁ಫೈನಲ್	-9.84585
▁ಬಜೆಟ್	-9.84586
▁remember	-9.84587
▁Department	-9.84596
ವನ	-9.8461
▁holy	-9.84618
▁ಇರುವುದಿಲ್ಲ	-9.84618
▁salt	-9.84628
▁late	-9.84635
▁Yet	-9.84673
▁less	-9.84679
ಹಿ	-9.84714
▁ನೀಡಿದ್ದರು	-9.84721
▁ಕಾರ್	-9.84766
▁paid	-9.84798
▁ಸಭೆಯ	-9.84813
▁changed	-9.8482
ಎಲ್	-9.84867
ist	-9.84919
▁ಕ್ರಿಸ್ತನ	-9.85079
▁ಅಮೆರಿಕ	-9.85141
ಂಟ್	-9.85216
ಕೊಂಡ	-9.85219
▁ಸೇರ	-9.85316
▁ex	-9.85363
ವನು	-9.85383
▁ಮಾತನಾಡಿದ	-9.85713
ಗೊಳಿಸ	-9.85763
▁ಬಳಸಿ	-9.85765
ವರ್	-9.85904
ಿಕೆ	-9.85926
J	-9.8596
▁ಮಾದರಿಯ	-9.85963
▁plan	-9.85988
ೀಕರಣ	-9.86022
▁ಫಲ	-9.8604
ೆಲ್ಲ	-9.8608
▁positive	-9.86106
▁Over	-9.86179
▁earlier	-9.86197
▁families	-9.86197
▁ಧೋನಿ	-9.86197
▁ಸಲ್ಮಾನ್	-9.86197
▁University	-9.86198
▁worry	-9.86199
▁Later	-9.86203
▁petrol	-9.8625
▁ಮಾಡುತ್ತಿದ್ದಾರೆ	-9.86255
▁ಉನ್ನತ	-9.86271
ಾತ್ಮಕ	-9.86275
▁raised	-9.86284
▁shared	-9.8629
▁key	-9.86335
▁ಮಾಡಿದ್ದರು	-9.86389
▁either	-9.86394
rom	-9.86448
▁didn	-9.86466
ಬೇಕಾಗಿದೆ	-9.86493
ವನ್ನ	-9.86517
▁changes	-9.86574
▁ಆಟ	-9.86671
ರೀ	-9.86682
▁ವೈದ್ಯರು	-9.86741
▁probe	-9.86765
▁committee	-9.8684
ent	-9.86938
▁ತಿಳಿದ	-9.87004
▁ever	-9.87067
ಬೇಕಾಗುತ್ತದೆ	-9.87128
▁ಠಾಣೆ	-9.87137
▁ಜೋ	-9.87234
▁ರೂಪ	-9.87304
▁ಗೆದ್ದ	-9.87327
▁ಜೀವನದ	-9.87358
▁ಅವಧಿ	-9.87417
▁ಪರಿಸರ	-9.87518
ling	-9.87633
▁ಹೊಂದ	-9.87772
▁ಹಾಡ	-9.87788
▁ನಿರ್ದೇಶನ	-9.87817
▁research	-9.87818
▁International	-9.87837
▁Twitter	-9.87837
▁living	-9.87837
▁above	-9.87837
▁ಟ್ರಂಪ್	-9.87837
▁hair	-9.8785
▁ನಡೆಯಲಿದೆ	-9.87893
▁century	-9.8791
▁Actor	-9.87921
▁ನಿನಗೆ	-9.87959
▁ಇಂಡಿಯನ್	-9.87971
▁g	-9.8798
▁ಇದರಿಂದಾಗಿ	-9.88032
▁trying	-9.88149
▁ವಿಜಯ್	-9.88166
▁fans	-9.88196
▁ಸೆ	-9.88414
▁School	-9.88511
▁Other	-9.88548
ನಾಗಿ	-9.88553
▁ನಿರ್ಧರಿಸ	-9.88567
ವಾಗುತ್ತದೆ	-9.88686
ಬಾ	-9.88724
▁progress	-9.89152
▁ಸಂಗತಿ	-9.89159
▁try	-9.89209
▁ಪ್ರಯಾಣ	-9.89229
▁ಮಹತ್ವ	-9.89372
▁ಮಗನ	-9.89399
▁according	-9.89464
▁ಮಾರ್	-9.89467
▁spread	-9.89503
▁ವಿಶ್ವಕಪ್	-9.89503
▁ಸಾಂಸ್ಕೃತಿಕ	-9.89503
▁ವಿಧಾನಸಭೆ	-9.89505
▁ground	-9.89506
▁ಎಂದರೇನು	-9.89511
▁Constitution	-9.89515
▁beautiful	-9.89515
▁Secretary	-9.89517
▁ಹೆಚ್ಚುವರಿ	-9.89519
▁ನಡೆಯಿತು	-9.89529
▁Trump	-9.89536
▁ಹಾಗಾದರೆ	-9.89545
▁ಒಳಗೊಂಡಿದೆ	-9.89551
▁risk	-9.89557
▁ಮರ	-9.89714
ುತ್ತೀರಿ	-9.89719
▁Only	-9.89752
▁hands	-9.89756
▁caused	-9.89765
▁ಬದುಕ	-9.89775
▁ಗೋ	-9.89797
▁ಅಗತ್ಯವಿಲ್ಲ	-9.89825
▁ಅದ	-9.89829
▁ಮಂತ್ರಿ	-9.89851
▁ಟೀ	-9.90032
▁Rao	-9.90066
▁ಕೋ	-9.90081
▁ಅಲಿ	-9.9009
▁''	-9.90102
▁ಮಹಾರಾಷ್ಟ್ರ	-9.90114
▁ಮಟ್ಟ	-9.90117
▁ಜಾ	-9.90132
‍ನ	-9.90185
▁position	-9.90197
ck	-9.90202
ವಾಗಿರುವ	-9.90308
▁ಶಾಸಕರ	-9.9031
▁stated	-9.90416
▁ಕೇರಳ	-9.90429
▁ಕಾಣಿಸಿಕೊಂಡ	-9.90568
ವರನ್ನು	-9.90615
▁using	-9.90695
▁ರಷ್ಟು	-9.90751
▁serve	-9.90845
▁consider	-9.90895
ನೆಯ	-9.90953
▁ಅನುಮತಿ	-9.91013
▁ಸುಳ್ಳು	-9.9102
▁ಸಾಧನ	-9.91091
▁ಮಾತನಾಡ	-9.91186
▁ನಿರ್ದಿಷ್ಟ	-9.91198
▁ಎಣ್ಣೆ	-9.91198
▁Salman	-9.91201
▁alone	-9.91201
▁ಪೈಕಿ	-9.91202
▁ಮಿಶ್ರಣ	-9.91202
▁Tata	-9.91205
▁Team	-9.9121
▁ಪ್ರತಿದಿನ	-9.9121
▁ಸಾಹಿತ್ಯ	-9.91232
▁ಖಂಡಿತ	-9.91234
▁low	-9.91239
▁ಗಾಯಗೊಂಡಿದ್ದಾರೆ	-9.91254
▁involved	-9.91294
▁Water	-9.91297
▁ಸ್ಪಷ್ಟ	-9.91302
▁ಹೆಣ್ಣು	-9.91339
▁ಪಕ್ಷಗಳ	-9.91373
▁heard	-9.91397
▁ಅಡಿಯಲ್ಲಿ	-9.91409
▁250	-9.91419
▁anti	-9.91419
▁whole	-9.91423
▁ರೆಡ್ಡಿ	-9.9147
▁rule	-9.91477
▁offered	-9.91531
▁ಅಧ್ಯಕ್ಷತೆ	-9.91614
▁ಪ್ರತಿಯೊಬ್ಬರ	-9.91779
▁step	-9.91802
▁ನಿಯಂತ್ರಣ	-9.91862
ಣ್ಣ	-9.91902
▁ನಂಬ	-9.91921
▁message	-9.91947
ಿದ್ದಾಳೆ	-9.91951
▁efforts	-9.9197
ುತ್ತಿವೆ	-9.92109
▁Goa	-9.92127
▁launch	-9.9213
▁ಭ	-9.92246
▁ಓ	-9.9233
▁ಆತ್ಮ	-9.92494
▁ಆನ್	-9.92568
▁2018	-9.92603
▁ಹೇಳಿ	-9.92671
▁Commission	-9.9271
ially	-9.92759
▁months	-9.92822
ಬಹುದಾಗಿದೆ	-9.92908
▁travel	-9.92917
▁birth	-9.92918
▁else	-9.92922
▁ಲೈಂಗಿಕ	-9.92922
▁ಟಾಟಾ	-9.92923
▁injuries	-9.92923
▁cities	-9.92926
ine	-9.92939
▁identified	-9.92939
▁ದಾಖಲಿಸಲಾಗಿದೆ	-9.9294
▁ಇದಲ್ಲದೆ	-9.92964
ಖ್	-9.92976
▁ರಾಷ್ಟ್ರಪತಿ	-9.92981
▁ನಿಜವಾದ	-9.92995
▁ಡೌನ್	-9.93
▁ವಿಜ್ಞಾನ	-9.93003
▁failed	-9.93009
▁ಎಂದರೆ	-9.93016
▁ತಿಳಿಸಿದೆ	-9.93042
ಮನ್	-9.93064
ಕು	-9.93135
▁Commissioner	-9.93136
espec	-9.93172
▁ಪಾಕಿಸ್ತಾನದ	-9.93175
▁70	-9.93429
▁ನೋವು	-9.93431
▁visited	-9.93442
▁ವೈದ್ಯರ	-9.93465
▁schools	-9.93475
▁ಅಪಾಯ	-9.93498
▁ವಾದ	-9.93522
▁ಭಾಷೆ	-9.93535
ಗಾರ	-9.93664
▁effect	-9.93697
▁ಮಹಿಳೆಯರು	-9.9378
ಪುರ	-9.9386
O	-9.93934
▁ಖುಷಿ	-9.94029
ತೆಯ	-9.94106
▁ಮುಖಂಡ	-9.94112
▁ವಿಭಾಗ	-9.94315
▁ಹಕ್ಕು	-9.9433
▁reach	-9.94486
▁ನಡೆಯ	-9.94574
▁similar	-9.94586
▁Dhoni	-9.94677
▁Suzuki	-9.94677
▁Three	-9.94677
▁campaign	-9.94677
▁Justice	-9.94677
▁trust	-9.94677
▁ಲೋಕಸಭೆ	-9.94677
▁Maruti	-9.94678
▁ಲಾ	-9.94678
▁prime	-9.94679
▁quality	-9.94679
▁Will	-9.94687
▁Most	-9.94693
▁ಬಹಳಷ್ಟು	-9.94707
▁ಯಡಿಯೂರಪ್ಪ	-9.94709
▁ಶುಲ್ಕ	-9.94711
▁break	-9.94734
▁Therefore	-9.94744
▁contain	-9.94771
ಕೊ	-9.94775
ak	-9.94859
▁ಎಚ್ಚರಿಕೆ	-9.94902
▁call	-9.9498
▁ಹೊರಗೆ	-9.95096
▁ಘಟನೆಯ	-9.95133
▁related	-9.95141
year	-9.95206
ni	-9.95254
▁ಸಂಘ	-9.95282
▁ಮಾಡಿರುವ	-9.95409
▁ಜಲ	-9.95442
▁Election	-9.95455
ti	-9.95478
▁ತಲುಪ	-9.95486
▁air	-9.95493
▁ಮಕ್ಕಳನ್ನು	-9.95543
▁ಬಿಡ	-9.95664
▁thought	-9.95681
▁ಮರು	-9.95773
▁Un	-9.95795
▁ಸಚಿವರು	-9.95831
▁ನಾಯಕರ	-9.95844
▁takes	-9.95888
▁projects	-9.96114
▁ಬಹುಮಾನ	-9.96297
▁agree	-9.96333
▁ಸ್ವಾತಂತ್ರ್ಯ	-9.96336
▁ನಿಯಮ	-9.96371
▁ನೇತೃತ್ವದ	-9.96376
▁ವರ್ಷಗಳ	-9.96443
▁moment	-9.96459
▁ಗುಂಡಿ	-9.96461
▁ಅರಣ್ಯ	-9.96462
▁cultural	-9.96463
▁doubt	-9.96463
▁ಕ್ಯಾನ್ಸರ್	-9.96463
▁sugar	-9.96463
▁seized	-9.96463
▁ಸುಪ್ರೀಂಕೋರ್ಟ್	-9.96471
▁ವಿಧಾನಸಭಾ	-9.96475
▁investigating	-9.96477
▁ಮಾಡಲಾಗುತ್ತದೆ	-9.9648
▁built	-9.96497
▁ರಾಜಸ್ಥಾನ	-9.96516
▁ಧಾರ್ಮಿಕ	-9.96521
▁sons	-9.9655
▁direction	-9.96564
▁required	-9.96576
▁Best	-9.96576
▁tweeted	-9.96582
▁ಪಟ್ಟಿಯಲ್ಲಿ	-9.96587
▁ಟ	-9.96595
▁moved	-9.96607
▁ರಕ್ತ	-9.9661
▁ಹೋಗ	-9.96625
▁ಲಾಕ್	-9.96649
▁demand	-9.96709
▁passed	-9.96711
▁ಇದ್ದರು	-9.9674
▁ಮಾದರಿ	-9.96779
▁ಪತಿ	-9.9695
▁ಅಷ್ಟು	-9.97031
▁ಉಗ್ರರ	-9.97037
▁Na	-9.97164
▁stars	-9.97205
▁vs	-9.97256
▁ಕಾಯ್ದೆ	-9.97262
▁ಸಂಘಟನೆ	-9.97387
▁ಕೊರತೆ	-9.97388
▁ask	-9.97415
▁ತಂದೆಯ	-9.97462
▁ಪೆ	-9.97468
▁ಪ್ರೀತಿಯ	-9.97515
ಿಗಿಂತ	-9.97586
▁ಮಿ	-9.97598
▁tri	-9.97764
▁ಭದ್ರತೆ	-9.97784
▁ಸಂದರ್ಭ	-9.98105
▁ಸಿಕ್ಕ	-9.98138
ುತ್ತಿದ್ದರು	-9.98172
▁ಹೈ	-9.98174
▁Africa	-9.98196
▁protect	-9.98263
▁ಅಮೆರಿಕದ	-9.98265
▁economy	-9.98281
▁milk	-9.98281
▁opposition	-9.98281
▁themselves	-9.98281
▁ವಾತಾವರಣ	-9.98281
▁ತೂಕ	-9.98281
▁ಮಾರುತಿ	-9.98281
▁basis	-9.98282
▁season	-9.98283
▁yourself	-9.98285
▁Father	-9.9829
▁Son	-9.9829
▁percent	-9.98291
ಿರಬೇಕು	-9.98292
ternal	-9.98293
▁underway	-9.98296
▁Take	-9.98338
▁below	-9.98342
▁heavy	-9.98368
▁legal	-9.98488
ಯಾಗ	-9.98526
ಲ್ಲಾ	-9.98538
▁forward	-9.98581
▁passengers	-9.98592
lo	-9.98598
▁Har	-9.98621
▁once	-9.98651
be	-9.98717
line	-9.98725
quite	-9.98726
ೀಸ್	-9.98755
▁ರೈ	-9.98763
▁playing	-9.98809
▁ಮನೆಗೆ	-9.98853
▁Or	-9.98856
litre	-9.98856
▁ಏಳು	-9.98869
▁record	-9.98885
▁formed	-9.98916
▁ಪ್ರತ್ಯೇಕ	-9.98972
▁vote	-9.99012
▁ನಿಷೇಧ	-9.99021
▁region	-9.99055
▁leave	-9.99171
▁ಪ್ರದೇಶದಲ್ಲಿ	-9.99305
▁King	-9.99348
ಗಳೊಂದಿಗೆ	-9.99354
▁BS	-9.99395
▁member	-9.99444
▁ತನಿಖೆಗೆ	-9.99477
▁languages	-9.99628
▁ವ್ಯಾಪಾರ	-9.99648
▁ಅವರೇ	-9.99664
▁makes	-9.99762
▁bigge	-9.99899
ಿರ	-9.99915
▁Arjun	-9.9996
▁ಮಗು	-10
▁short	-10.0003
▁current	-10.0008
▁ಪ್ರೊ	-10.0009
▁ಸುಜುಕಿ	-10.0013
▁income	-10.0013
▁ಮತದಾನ	-10.0013
▁FIR	-10.0014
▁secretary	-10.0014
▁Children	-10.0015
▁ಸ್ವಂತ	-10.0016
▁fine	-10.0016
▁ರಲ್ಲಿ	-10.0017
▁presided	-10.0017
▁Temple	-10.0017
▁located	-10.0017
▁ನೀಡುತ್ತದೆ	-10.0018
▁damaged	-10.002
▁declared	-10.002
▁completely	-10.0021
▁ಯೇಸುವಿನ	-10.0022
▁ಕನಸು	-10.0022
▁largest	-10.0024
▁kids	-10.0025
ದಕ್ಕೆ	-10.0027
▁400	-10.0031
▁ಪಡೆಯಲು	-10.0032
▁battle	-10.0034
▁Students	-10.0034
▁125	-10.0038
ೂರು	-10.0041
▁train	-10.0046
▁ತಲಾ	-10.0048
▁remain	-10.0049
▁allowed	-10.0049
▁ಮೊತ್ತ	-10.0051
▁ಲೀಟರ್	-10.0069
▁gain	-10.0074
▁ಬೆಳವಣಿಗೆ	-10.0075
This	-10.0077
▁mean	-10.0081
▁forces	-10.0087
▁ಹೆ	-10.009
▁stage	-10.0091
ತಾವು	-10.0093
▁ರಾಮ್	-10.0095
▁ಇತರೆ	-10.0096
ೌ	-10.0105
▁ಭೂಮಿಯ	-10.0117
▁ದಾಖಲಿಸ	-10.0118
’’	-10.012
▁ಸೂಚಿಸ	-10.0121
▁ಚಾಲನೆ	-10.0123
▁ಎಲ್ಲರಿಗ	-10.0124
▁ಸಹೋದರ	-10.0127
▁banks	-10.014
▁search	-10.0141
hose	-10.0145
▁ಇತರರ	-10.0146
ೆಕ್ಷನ್	-10.0155
▁ಪ್ರವಾಸ	-10.0155
▁ನಂ	-10.0158
ದರ	-10.0161
30	-10.0163
▁Ka	-10.0164
ಕಾರಿ	-10.0175
ia	-10.0176
▁ಸರಕಾರದ	-10.0178
It	-10.0178
▁ದಿನಾಂಕ	-10.0187
▁ಸಂಗ್ರಹ	-10.0189
▁Life	-10.0192
▁youth	-10.0195
▁College	-10.0202
▁daily	-10.0202
▁violence	-10.0202
▁Prasad	-10.0202
▁ಜಂಟಿ	-10.0202
▁ಸಂಗಡ	-10.0202
▁km	-10.0203
▁ಹಳೆಯ	-10.0205
▁ಕೊಡುಗೆ	-10.0206
▁ಉಪ್ಪು	-10.0208
▁ಹೈದರಾಬಾದ್	-10.0212
ಷನ್	-10.0218
▁ಪಡೆದಿದ್ದಾರೆ	-10.022
▁ಕ್ಷಣ	-10.0226
▁ಅವಧಿಯಲ್ಲಿ	-10.0227
▁ನಿರ್ವಹಣೆ	-10.0228
ಂತೂ	-10.0228
ಾಂತರ	-10.0231
▁Mr	-10.0232
▁ಅಪರಾಧ	-10.0235
▁reports	-10.0236
ಹಾ	-10.0238
▁ಇದನ್ನ	-10.0244
▁ಅನ್ವಯ	-10.0244
▁ಘಟನೆಯಲ್ಲಿ	-10.0246
ನಾವು	-10.025
ally	-10.025
▁ಅಷ್ಟ	-10.0252
▁ಕೆಟ್ಟ	-10.0258
ಲ್ಲಿರುವ	-10.026
▁happening	-10.0262
ತೆಯನ್ನು	-10.0264
▁ಸದ್ಯಕ್ಕೆ	-10.0265
▁red	-10.0272
▁ಆಪ್	-10.0275
▁colour	-10.0284
ಷ್ಟ	-10.0287
▁ensure	-10.0291
ಗೊಂಡ	-10.0297
▁ಶಿಕ್ಷೆ	-10.0298
▁ಕಚೇರಿ	-10.0305
ಾಗಲಿ	-10.031
▁ವಿಶೇಷವಾಗಿ	-10.0311
▁ಇಲ್ಲಿನ	-10.0312
ors	-10.0318
್ಯಾ	-10.0321
▁ಕೊಡುವ	-10.0323
ag	-10.0354
ಪ್ರ	-10.0358
▁75	-10.0359
▁ನಿಲ್ದಾಣ	-10.0361
▁drink	-10.0362
me	-10.0372
▁ಬಯಸ	-10.0376
▁global	-10.0385
▁financial	-10.0385
▁ಕುಡಿಯುವ	-10.0388
▁fast	-10.0388
▁require	-10.0389
▁ಅವುಗಳಲ್ಲಿ	-10.039
▁Parliament	-10.0394
▁deceased	-10.0394
▁festival	-10.0394
▁powder	-10.0394
▁technology	-10.0394
▁ತಿದ್ದುಪಡಿ	-10.0394
▁ಪ್ರಾಥಮಿಕ	-10.0394
▁Facebook	-10.0394
▁ministry	-10.0394
▁ಓರ್ವ	-10.0394
▁2016	-10.0395
▁ಖ್ಯಾತ	-10.0399
▁ನೀಡಬೇಕು	-10.04
▁Another	-10.04
▁culture	-10.04
▁half	-10.04
▁completed	-10.0407
▁join	-10.0409
▁ಅವಶ್ಯಕತೆ	-10.0409
▁San	-10.0413
▁claimed	-10.0413
▁ನೀಡಿಲ್ಲ	-10.0414
▁ನಡೆಸಿದರು	-10.0417
▁discussed	-10.0417
ಯಲ್ಲ	-10.0419
▁ಭಾಷೆಯ	-10.0433
▁ಸೋತ	-10.0435
▁ಸಾವಿನ	-10.0436
▁ಏ	-10.0438
▁ಎದುರಿಸ	-10.0443
▁90	-10.0449
▁ಅಪ್	-10.045
▁ಆಟಗಾರ	-10.0451
▁players	-10.0453
▁ಗ್ರಾಹಕರ	-10.0458
▁ended	-10.0461
▁sp	-10.0462
▁concern	-10.0466
▁options	-10.0473
▁ತೀರ	-10.0474
▁pro	-10.0476
▁ಶಾಸಕರು	-10.0479
▁ಅವರಲ್ಲಿ	-10.0482
▁ಪಡೆದು	-10.0484
▁accept	-10.0492
▁picture	-10.0494
▁ಪರಿ	-10.0499
▁ತೋರಿಸ	-10.0513
tra	-10.0514
▁ಮಾಡಿದ್ದ	-10.053
ಿದ್ದವು	-10.0532
ುದು	-10.0533
▁crores	-10.0533
▁ತೀರ್ಪು	-10.0534
ಗೋ	-10.0535
▁ನಮ್ಮಲ್ಲಿ	-10.0536
ುವಾಗ	-10.0538
▁48	-10.0539
ted	-10.054
ನಾದ	-10.0541
▁ಅನುಭವಿಸ	-10.0549
▁ಜಾತಿ	-10.0549
▁houses	-10.0558
▁prevent	-10.056
▁ರಾಜ್ಯಗಳ	-10.0568
▁36	-10.0574
▁Indians	-10.0576
▁ಶ್ರೇಷ್ಠ	-10.0583
enior	-10.059
▁North	-10.059
▁worship	-10.059
▁Committee	-10.059
▁baby	-10.059
▁focus	-10.059
▁ರೈಲ್ವೆ	-10.059
▁ವ್ಯಾಯಾಮ	-10.059
▁nature	-10.059
▁ಮಂಗಳೂರು	-10.059
▁Lanka	-10.059
▁ಏಕದಿನ	-10.0591
▁ಪೋಸ್ಟ್	-10.0591
▁Thus	-10.0591
▁impact	-10.0591
▁ಚಿತ್ರೀಕರಣ	-10.0591
▁‘‘	-10.0592
▁mobile	-10.0592
▁bodies	-10.0593
▁ಆರಂಭಿಕ	-10.0594
▁fell	-10.0594
▁rich	-10.0596
▁ಅಭ್ಯರ್ಥಿಗಳ	-10.0596
▁economic	-10.0596
ara	-10.0598
▁ಎಂದಿಗೂ	-10.0598
▁ಪ್ರವಾಹ	-10.0599
▁ಪದಕ	-10.0603
▁ಪುಡಿ	-10.0603
▁ಮಹತ್ವದ	-10.0604
▁ಉದಾಹರಣೆ	-10.0624
▁whom	-10.0629
▁ಕಾರ	-10.0635
ಣಿ	-10.0658
▁Sena	-10.0663
kash	-10.0664
▁Does	-10.0665
▁ಪದ	-10.0667
▁share	-10.0681
▁ಹೊತ್ತ	-10.0681
va	-10.0682
▁pain	-10.0685
▁ವ್ಯವಸ್ಥೆಯ	-10.069
▁environment	-10.0692
▁application	-10.0692
▁department	-10.0693
▁ಜೀವನದಲ್ಲಿ	-10.0711
▁ಕಳುಹಿಸ	-10.0712
and	-10.0717
ಕಾಲ	-10.072
▁class	-10.0723
▁watch	-10.073
▁ಪ್ರಗತಿ	-10.073
▁ಸಮುದ್ರ	-10.0732
▁card	-10.0747
▁ಉತ್ಪಾದನೆ	-10.0747
ಬೆ	-10.0753
j	-10.0764
▁ಸಾರ	-10.0767
▁decide	-10.0782
▁successful	-10.0783
ಾಗಿದ್ದು	-10.0789
▁Council	-10.079
▁storage	-10.079
▁victory	-10.079
▁morning	-10.079
▁neither	-10.079
▁petition	-10.079
▁space	-10.079
▁alliance	-10.079
▁least	-10.0791
▁energy	-10.0791
▁carry	-10.0793
▁ಎಲ್ಲವನ್ನೂ	-10.0798
▁Chennai	-10.0799
▁ಧ್ವನಿ	-10.0799
▁City	-10.0802
ನಿಗೆ	-10.0802
▁ನಡೆಸಲು	-10.0807
▁ಬರುತ್ತದೆ	-10.0809
▁ಕಾರಿನ	-10.081
▁St	-10.0811
▁conducted	-10.0816
expressed	-10.0829
ಕೊಳ್ಳ	-10.083
▁sports	-10.0834
▁ಕಂಪನಿಯು	-10.0835
▁ಸೀ	-10.0855
▁cancer	-10.0858
ವಾಗಿಲ್ಲ	-10.0862
ವಾಗಿವೆ	-10.0867
▁ಸಮಯದ	-10.0869
▁ಆಸಕ್ತಿ	-10.0887
ಬೇಡ	-10.0889
ok	-10.0889
▁ಸಂಪುಟ	-10.0896
ಗಿನ	-10.0896
▁Sa	-10.0897
ನನ್ನು	-10.0898
▁33	-10.0898
▁ಸಿನಿಮಾದಲ್ಲಿ	-10.0899
ಿಸಿದೆ	-10.09
▁officer	-10.0903
▁m	-10.0905
▁ಅತ್ಯಾಚಾರ	-10.0912
▁app	-10.0917
ಶಾ	-10.0925
▁points	-10.0945
▁ಭಾಷಣ	-10.0948
▁districts	-10.0949
▁ದಾಖಲಿಸಿ	-10.0952
ಿದ್ದೀರಿ	-10.0956
▁ಹೇಳುವ	-10.0956
▁ಬೇಕಾದ	-10.0958
10	-10.0962
▁build	-10.0963
ನೆಂದು	-10.0963
▁f	-10.0965
ud	-10.0965
▁sleep	-10.0971
▁ಪ್ರಮಾಣದಲ್ಲಿ	-10.0972
ತ್ವ	-10.0983
▁ಹೇಳಿದ	-10.0992
▁worth	-10.0994
Because	-10.0994
▁coronavirus	-10.0994
▁custody	-10.0994
▁ಜಾಮೀನು	-10.0994
▁supply	-10.0994
▁Which	-10.0994
▁ವೇತನ	-10.0994
▁ಬೃಹತ್	-10.0995
▁ಸೋನಿಯಾ	-10.0995
▁population	-10.0995
▁ಕನಿಷ್ಠ	-10.0995
▁ಮತ್ತಷ್ಟು	-10.0995
▁Sonia	-10.0995
▁ಯಾವುವು	-10.0995
▁ಗಳಿಗೆ	-10.0996
▁370	-10.0997
▁ನಿಜವಾಗಿಯೂ	-10.0997
▁ವಸ್ತುಗಳ	-10.0998
▁north	-10.0998
ವಿನ	-10.0998
▁While	-10.0999
▁shot	-10.0999
▁ಕೆಂಪು	-10.0999
▁ಮಾಡುತ್ತಾರೆ	-10.1
▁ತೈಲ	-10.1001
▁Work	-10.1005
▁ದಾಖಲಾಗ	-10.1005
▁ಹು	-10.1007
▁seriously	-10.1008
▁ಓದ	-10.1009
▁aware	-10.1012
▁carri	-10.1015
▁ಮುಂದುವರಿಸ	-10.1015
ಂತೆಯೇ	-10.1021
▁joined	-10.1023
▁hearing	-10.1025
day	-10.1039
ism	-10.104
▁ತಿಳಿಸ	-10.1043
▁measures	-10.1043
▁ಶಿವ	-10.1047
▁teachers	-10.1055
▁ಮಂಡಳಿ	-10.1063
▁ಬಿಸಿ	-10.1065
▁ಗ್ರಾಮ	-10.1073
ಕ್ಸ್	-10.1085
the	-10.1089
eth	-10.1099
▁loan	-10.1106
▁prayer	-10.1109
▁ಮಾಡಿಕೊಳ್ಳ	-10.1119
ರಿಷ್ಠ	-10.1124
ji	-10.1126
▁title	-10.1126
▁mark	-10.1128
▁ಆಡ	-10.1128
▁pass	-10.1129
▁ಮಾರುಕಟ್ಟೆ	-10.1131
▁deal	-10.1135
▁Du	-10.1143
▁ವಸ್ತು	-10.1143
▁ಪ್ರಾಣ	-10.1146
ಸ್ಟ್	-10.1149
▁ಹಾ	-10.1154
ವೆಂದರೆ	-10.116
▁ತಡೆ	-10.1162
ುವುದನ್ನು	-10.1169
ದ್ದೇ	-10.117
▁45	-10.117
▁ಸಾಧಿಸ	-10.1173
▁ಆಫ್ರಿಕಾ	-10.1174
▁Cricket	-10.1175
▁conduct	-10.1181
ಚಿ	-10.1181
▁ಸರ್ವ	-10.1192
▁safe	-10.1194
▁ಜಾಗತಿಕ	-10.1195
▁ಹೂಡಿಕೆ	-10.1196
▁complete	-10.1197
▁spoke	-10.1198
ಸನ್	-10.1198
▁ಸಮುದಾಯ	-10.1201
▁Ravi	-10.1201
▁session	-10.1203
▁ಆಧ್ಯಾತ್ಮಿಕ	-10.1203
▁constituency	-10.1203
▁fellow	-10.1203
ುತ್ತಿತ್ತು	-10.1203
▁construction	-10.1203
til	-10.1204
▁Andhra	-10.1204
▁attention	-10.1204
▁ತನಕ	-10.1206
▁ವಹಿಸಿದ್ದರು	-10.1207
▁ವ್ಯಕ್ತಪಡಿಸಿದರು	-10.1208
▁ನಿಜಕ್ಕೂ	-10.1209
▁organised	-10.121
▁ಮೈಸೂರು	-10.1211
▁Bangladesh	-10.1212
ವಂತ	-10.1212
▁agreed	-10.1216
ical	-10.1217
▁ಪ್ರಸಾದ್	-10.122
▁ಹೇಳಿದ್ದರು	-10.1221
▁ICC	-10.1223
▁daughters	-10.1223
▁ವಿಚಾರದಲ್ಲಿ	-10.1234
▁ಆಗಿಲ್ಲ	-10.1236
▁weight	-10.124
▁ಗೊತ್ತು	-10.1242
▁r	-10.1244
▁ye	-10.1248
▁dis	-10.1258
▁ಸ್ಥಳದಲ್ಲಿ	-10.1263
▁ಯೋಗ	-10.1264
▁ಸುಲಭವಾಗಿ	-10.1283
▁ಮೇಲ	-10.1284
▁ರಿ	-10.1288
most	-10.1292
▁Road	-10.1295
▁ಮೊ	-10.1298
▁ಗಡಿ	-10.1299
bout	-10.1303
▁5:	-10.1303
▁host	-10.131
▁effort	-10.1319
▁ಉಚಿತ	-10.1335
ಳ್ಳ	-10.1339
▁d	-10.1347
▁ಎಚ್ಚರ	-10.1348
▁ಸಚಿವಾಲಯ	-10.1348
▁ಪಾಪ	-10.1349
ಲಿದ್ದಾರೆ	-10.135
▁ಪ್ರತಿಯೊಬ್ಬ	-10.135
▁self	-10.1352
▁ಅಡಿ	-10.1354
▁walk	-10.1355
▁ದೇಶಗಳ	-10.1357
ಬಹುದಾದ	-10.1358
esh	-10.1359
▁ಉದ್ದ	-10.136
ರುತ್ತದೆ	-10.136
mo	-10.1361
▁rains	-10.1369
▁ನಮಗ	-10.1383
▁ಪ್ರತಿಕ್ರಿಯಿಸ	-10.1384
▁affect	-10.1385
▁ಹೊ	-10.1385
ಕೊಂಡು	-10.1386
▁ಅದರಿಂದ	-10.1387
▁ಕ್ಷೇತ್ರದ	-10.1387
▁ಎಷ್ಟ	-10.1393
▁improve	-10.1402
▁whe	-10.1403
▁ಅಂದನ	-10.1404
▁l	-10.1406
pe	-10.1406
▁books	-10.1412
▁ರದ್ದು	-10.1413
▁ಭರ್ಜರಿ	-10.1414
▁Finance	-10.1416
▁community	-10.1416
▁knowledge	-10.1416
▁ಕುಸಿತ	-10.1416
▁ಗೊಂದಲ	-10.1416
▁Everything	-10.1416
▁particular	-10.1416
▁justice	-10.1416
▁elected	-10.1416
▁sexual	-10.1416
▁Priyanka	-10.1416
▁Rajnath	-10.1416
▁safety	-10.1416
▁ನೋಡೋಣ	-10.1417
▁2015	-10.1417
▁reality	-10.1417
▁electric	-10.1419
▁ಸ್ವತಃ	-10.142
▁ಅರ್ಜುನ್	-10.142
▁continues	-10.142
▁Force	-10.1421
▁ಸಹಾಯಕ	-10.1421
▁ಹೇಳುತ್ತಾರೆ	-10.1421
▁ಆಟೋ	-10.1425
▁bail	-10.1426
▁ಮೊಹಮ್ಮದ್	-10.1428
ಣೆ	-10.1428
▁ಆಗುವುದಿಲ್ಲ	-10.143
ವನ್ನೇ	-10.1434
▁ಹೋಗುವ	-10.1435
▁GST	-10.1439
▁goes	-10.1439
▁Shiva	-10.1454
▁ಪಾತ್ರದಲ್ಲಿ	-10.1456
▁appear	-10.1459
▁meetings	-10.1472
▁ಮೃತರ	-10.1483
▁Love	-10.1491
▁Muslims	-10.1492
▁ಸ್ಥಾನಕ್ಕೆ	-10.1493
nd	-10.1509
ಬೇಕೆಂದ	-10.1509
ಗಾ	-10.1511
ಇದು	-10.1514
▁ಇಟ್ಟ	-10.1517
▁ಕೊರೋನಾ	-10.1525
▁ಪ್ರಮಾಣದ	-10.1526
▁page	-10.1536
▁model	-10.1537
▁student	-10.1537
ಮ್ಮ	-10.1538
▁discussion	-10.1538
▁sin	-10.1549
▁ಜನಪ್ರಿಯ	-10.1557
▁benefits	-10.1559
ever	-10.156
ah	-10.1561
▁ಮಟ್ಟದ	-10.1576
ರೊ	-10.1585
▁charge	-10.1587
ಮಾನ	-10.1593
▁ಆಯೋಗ	-10.1594
▁65	-10.1597
▁talks	-10.16
▁ಇಲ್ಲವೆ	-10.1602
ಘ	-10.1603
▁ಶೀಘ್ರ	-10.1604
▁ದೇಹ	-10.1605
▁Am	-10.1607
▁ಕಾಡ	-10.1614
▁ಜವಾಬ್ದಾರಿ	-10.1616
▁ಸಂಖ್ಯೆಯಲ್ಲಿ	-10.162
▁knows	-10.1623
per	-10.1629
▁strength	-10.1629
▁ಭೂಮಿ	-10.163
▁Meanwhile	-10.1633
▁ಬಚ್ಚನ್	-10.1633
▁debate	-10.1633
▁ಇಳಿಕೆ	-10.1633
▁cooperation	-10.1633
▁ದೀಪಿಕಾ	-10.1633
▁review	-10.1633
▁ಅನುಮಾನ	-10.1633
▁ಟಿಕೆಟ್	-10.1633
▁Price	-10.1633
▁ಅಕ್ರಮ	-10.1635
▁Word	-10.1635
▁ಶಿವಕುಮಾರ್	-10.1635
ನೊ	-10.1636
▁committed	-10.1636
ತ್ಯ	-10.1636
go	-10.1637
▁ಚಾಂಪಿಯನ್	-10.1637
▁green	-10.1637
▁ಬಂತು	-10.1639
▁ಮಾಡುವುದಿಲ್ಲ	-10.1641
▁throughout	-10.1641
▁ಬಂದ್	-10.1652
▁Th	-10.1654
▁online	-10.1664
▁continued	-10.1666
▁board	-10.1668
ಿರುತ್ತದೆ	-10.1672
▁ಮಾಡುತ್ತಿದ್ದ	-10.1675
▁ಲಿ	-10.1676
▁includes	-10.168
▁ಸಂಸದ	-10.1686
▁examples	-10.1691
▁ಆಗಿ	-10.1702
▁ಪ್ರಶ್ನೆಗೆ	-10.1703
ble	-10.1715
▁ministers	-10.1718
▁ನೇರ	-10.172
▁Sh	-10.1734
▁ಕಾರಣಗಳು	-10.1745
▁ಇಲಾಖೆಯ	-10.1746
▁v	-10.1756
▁competition	-10.1757
▁room	-10.1757
▁ಬುಕ್	-10.1763
▁plans	-10.1763
V	-10.1764
▁ಮಾಡಿಕೊಂಡ	-10.1767
▁song	-10.1768
▁ಪ್ರಾರ್ಥನೆ	-10.1775
Nm	-10.1777
್ರೆ	-10.1789
▁ಕಪ್	-10.1791
▁rights	-10.18
▁Rai	-10.1802
▁town	-10.1807
▁ಚೆನ್ನೈ	-10.1809
▁certain	-10.181
▁protests	-10.1822
▁ಬಳಸ	-10.1824
▁discuss	-10.1826
ಾಗುವ	-10.1827
▁attend	-10.1827
▁causes	-10.1842
▁save	-10.1844
raj	-10.1845
▁natural	-10.1846
▁proper	-10.1846
▁ಸೇನಾ	-10.1848
▁ದೋಷ	-10.1851
▁2017	-10.1855
▁Food	-10.1855
▁Instagram	-10.1855
▁Open	-10.1855
▁Security	-10.1855
▁examination	-10.1855
▁industry	-10.1855
▁ದಂಪತಿ	-10.1855
▁ಮಸೂದೆ	-10.1855
▁ಈರುಳ್ಳಿ	-10.1855
▁Section	-10.1855
▁Film	-10.1855
▁Shivakumar	-10.1855
▁Law	-10.1855
▁ಸಂಜೆ	-10.1856
ex	-10.1856
▁ಬಂಧಿಸಿದ್ದಾರೆ	-10.1856
▁Four	-10.1856
▁active	-10.1857
bhp	-10.1857
ದ್ದರು	-10.1858
▁Anand	-10.186
▁ಲಕ್ಷಣಗಳು	-10.1862
▁ಕಪ್ಪು	-10.1864
ಗಳಾಗಿವೆ	-10.1865
ang	-10.1865
▁confidence	-10.1865
▁facing	-10.1865
▁rear	-10.1867
▁treated	-10.1869
▁suffered	-10.187
▁create	-10.1872
▁soldiers	-10.1874
▁served	-10.1884
▁ಸಹಿತ	-10.1884
▁concerned	-10.1886
ory	-10.1887
▁ವೈರಸ್	-10.1888
▁ತಿಂಗಳು	-10.1896
ಜೆ	-10.1898
▁ಹಾನಿ	-10.1903
▁ನಿರಂತರ	-10.1906
▁ಒದಗಿಸ	-10.1908
▁ಸಮಾರಂಭ	-10.1912
▁ban	-10.1913
turned	-10.192
▁express	-10.1928
▁Ha	-10.1933
▁ಗಾಯ	-10.1946
▁ಪೋ	-10.1947
ರಾಷ್ಟ್ರೀಯ	-10.1957
ian	-10.1959
▁ಆಸೆ	-10.196
▁ಕ್ಷೇತ್ರಗಳಲ್ಲಿ	-10.1966
▁ಪ್ರಯಾಣಿಕರ	-10.1966
lick	-10.1969
▁votes	-10.1972
▁ಸಂಭ್ರಮ	-10.1981
▁ಶೋ	-10.1981
▁sector	-10.1985
▁difference	-10.1986
ಯಾಗಿರುವ	-10.1991
▁ಚಲನಚಿತ್ರ	-10.1995
ಲ್ಲಿಯೂ	-10.1997
ೇನೂ	-10.2
ika	-10.2002
ram	-10.2008
▁ಎಂಬುದರ	-10.2014
▁ಬಿಟ್ಟ	-10.2016
▁ಪಾವತಿ	-10.2017
ಿಯಾ	-10.2017
ಗಳೇ	-10.2029
▁wants	-10.2036
▁ಸಚಿವೆ	-10.2042
▁Te	-10.2046
ೆಂದರೆ	-10.2048
ಾಗಿದ್ದಾರೆ	-10.2051
▁plays	-10.2053
▁display	-10.2054
▁ವಿಭಿನ್ನ	-10.2057
▁apply	-10.2059
ೇಂದ್ರ	-10.2071
▁See	-10.2077
▁wish	-10.2079
ಶಾಂತ್	-10.2082
▁ಕ್ಲಿಕ್	-10.2082
▁Bachchan	-10.2082
▁Deputy	-10.2082
▁Public	-10.2082
▁Telangana	-10.2082
▁black	-10.2082
▁easily	-10.2082
▁policy	-10.2082
▁ಭ್ರಷ್ಟಾಚಾರ	-10.2082
▁ಆಕ್ರೋಶ	-10.2082
▁torque	-10.2082
▁democracy	-10.2082
▁religious	-10.2082
▁ಕೆಲವೊಮ್ಮೆ	-10.2083
▁unique	-10.2083
▁ರಾಜನಾಥ್	-10.2083
▁Good	-10.2083
▁rally	-10.2083
▁devotees	-10.2084
▁ಡಾಲರ್	-10.2084
vi	-10.2085
▁ಹುದ್ದೆ	-10.2085
▁urged	-10.2086
ಟ್ಟು	-10.2088
▁subject	-10.2092
▁ಹೊತ್ತು	-10.2093
▁ಪಾಠ	-10.2099
▁ಪ್ರಕಾಶ್	-10.2101
▁ಇಂಗ್ಲಿಷ್	-10.2101
▁TV	-10.2104
▁ಚರ್ಮ	-10.2105
ುತ್ತಲೇ	-10.2105
▁American	-10.2105
ಟ್ಟಿ	-10.2111
ೆನು	-10.2126
▁ಸಿದ್ಧತೆ	-10.2127
ja	-10.2128
▁servants	-10.213
ba	-10.2145
▁ಇದೆಲ್ಲ	-10.2148
▁ಖರೀದಿ	-10.215
ವೇನು	-10.2155
▁ಬೆ	-10.2157
▁ತೆಲಂಗಾಣ	-10.2163
▁Ra	-10.2169
▁ನೇ	-10.2175
ಯಂತೆ	-10.2177
ton	-10.2188
▁ಮಗುವ	-10.2191
ಮು	-10.2193
▁ಚಾಲಕ	-10.2195
ನಮ್ಮ	-10.2198
ಿಸಿದ್ದಾರೆ	-10.2202
▁ಪುರುಷರ	-10.221
▁ಸ್	-10.2212
ga	-10.2216
ಂಜ	-10.2216
▁border	-10.2217
▁river	-10.2217
▁tree	-10.2218
▁ನಿರ್ವಹಿಸ	-10.2219
les	-10.2221
▁ಭವಿಷ್ಯ	-10.2223
▁ನೀಡಿರುವ	-10.2227
▁ಭಾಗವಹಿಸಿದ್ದರ	-10.2228
▁ಪಡೆ	-10.2228
▁ನಡೆಸ	-10.2234
▁ನಡೆಸುವ	-10.2237
▁evening	-10.225
▁ನೇಮಕ	-10.2253
▁star	-10.2255
▁ಅಂತ್ಯ	-10.2263
▁link	-10.2266
▁ಮೂಡಿಸ	-10.2272
ಕ್ಕಿ	-10.2273
ಷಧ	-10.2279
▁movies	-10.228
▁ಮೈ	-10.228
▁ವಿಜಯ	-10.2281
▁defeat	-10.2288
ಯಾಗಿತ್ತು	-10.2292
ಿನಲ್ಲಿ	-10.2308
ಂಟು	-10.2309
▁ವಾಹನಗಳ	-10.2311
▁appointed	-10.2315
▁ceremony	-10.2315
▁facilities	-10.2315
▁increasing	-10.2315
▁staff	-10.2315
▁voice	-10.2315
▁ಅಸಮಾಧಾನ	-10.2315
▁ಶುದ್ಧ	-10.2315
▁ಸಂಜಯ	-10.2315
▁ಮುಂಚೆ	-10.2315
▁2021	-10.2316
▁ನಿತ್ಯ	-10.2316
▁Krishna	-10.2316
▁therefore	-10.2316
▁kept	-10.232
ship	-10.232
▁Car	-10.232
▁ನ್ಯಾಯಾಂಗ	-10.232
▁ಆಯುಕ್ತ	-10.2321
▁shift	-10.2323
▁ಟಿವಿ	-10.2323
▁ಈಗಲೂ	-10.2323
▁foreign	-10.233
ಬೇಕಾದ	-10.2334
▁production	-10.2336
▁ಜನರಲ್	-10.2336
▁ಪೌಲನು	-10.2336
▁Va	-10.2337
▁ಭೂ	-10.234
▁ಅರಸನ	-10.2341
▁ಮನುಷ್ಯನ	-10.2344
▁ಶವ	-10.2347
▁ಕಾರಣವಾಗಿದೆ	-10.235
MP	-10.2351
▁ನೆರವು	-10.2351
▁training	-10.2355
▁ಮೂಲಗಳು	-10.2363
▁speaking	-10.2369
▁art	-10.237
▁ಜೋಡಿ	-10.237
▁ಗುಣ	-10.2385
ಟರ್	-10.2397
▁ಕಾಲೇಜು	-10.2398
▁answered	-10.24
▁ಆಗಿರುವ	-10.2402
▁ಸಮಸ್ಯೆಗಳು	-10.2403
▁ಅವರೊಂದಿಗೆ	-10.2406
ವಾಗಲಿದೆ	-10.2424
▁Su	-10.2427
▁Ba	-10.244
ol	-10.2442
▁ನಾನೇ	-10.2444
▁ಬಲಿ	-10.2445
▁ಸಾರ್ವಜನಿಕರ	-10.2446
▁exercise	-10.2452
▁solution	-10.2453
▁ಸಂವಿಧಾನ	-10.2455
▁ದೊರೆಯ	-10.2456
▁letter	-10.2456
▁option	-10.2457
ಿಕೊಂಡು	-10.246
▁ವಿದೇಶಾಂ	-10.2463
▁bear	-10.247
ಾಟ	-10.2473
▁ಮಂಡಳಿಯ	-10.2474
▁ಗೋವಾ	-10.2479
ಾರ್	-10.2482
▁ಭಾರತವು	-10.2482
▁ಸುತ್ತ	-10.2485
▁ಪಾ	-10.2485
▁Me	-10.2485
▁ಮೂಲದ	-10.2488
▁ಅಲ್ಲಿಂದ	-10.2501
▁ತಾ	-10.2511
▁ಸಂಶೋಧನೆ	-10.2514
▁touch	-10.2521
▁nations	-10.2524
▁mix	-10.2525
▁arrest	-10.2527
ಮೋ	-10.2529
▁ಕಂಪನಿ	-10.253
ka	-10.2531
▁box	-10.2535
▁ಶಕ್ತಿಯ	-10.2539
▁ತಾಣ	-10.254
▁Y	-10.2541
▁notice	-10.2542
▁ದೃಶ್ಯ	-10.2546
▁Follow	-10.2553
▁Google	-10.2553
▁ಕಲ್ಯಾಣ	-10.2553
▁ನೃತ್ಯ	-10.2553
▁ಬಂಡವಾಳ	-10.2553
▁ಮುಸ್ಲಿಂ	-10.2553
▁opportunities	-10.2553
▁ಪುನಃ	-10.2553
▁ಮತ್ತೊಮ್ಮೆ	-10.2553
▁Board	-10.2553
▁freedom	-10.2553
▁ವಚನ	-10.2554
▁birthday	-10.2554
▁Shankar	-10.2554
▁ಸಿನಿಮಾದ	-10.2554
▁highest	-10.2556
▁someone	-10.2556
▁Additional	-10.2558
▁refused	-10.2559
▁ಶ್ರೀಲಂಕಾ	-10.2559
▁ವಿಧ	-10.256
▁survived	-10.2561
▁ಜಿಲ್ಲೆ	-10.2561
▁recovered	-10.2562
▁Peter	-10.2563
▁ಎದುರು	-10.2564
▁winning	-10.2565
▁sure	-10.2565
▁ನದಿ	-10.2566
▁ಹೂ	-10.2567
▁ರಚಿಸ	-10.257
▁10,000	-10.2575
▁shooting	-10.258
▁ಆರೋಗ್ಯದ	-10.2587
▁ಸೋಲು	-10.2591
▁ಮುಖಂಡರು	-10.2596
▁ಮುಕ್ತ	-10.2599
▁ಸೊ	-10.2601
ಿಂದಲೇ	-10.2602
▁patients	-10.2603
▁ಸಮ	-10.2604
▁ಕ್ರಿಯೆ	-10.2614
▁ತಿನ್ನ	-10.2619
▁ಜನತೆ	-10.2623
da	-10.2626
▁sources	-10.2634
▁ದಾಖಲಿಸಿಕೊಂಡು	-10.2637
mer	-10.2638
▁ಸಮಸ್ಯೆಗಳನ್ನು	-10.264
▁ಮಟ್ಟದಲ್ಲಿ	-10.264
▁ಸಲ	-10.2642
▁ಹತ್ತಿರ	-10.2657
▁speed	-10.2666
ಒ	-10.2669
▁ಶೋಧ	-10.2669
▁ವಿಷಯಗಳನ್ನು	-10.267
ದೊಡ್ಡ	-10.2672
▁ಜಾಗ	-10.2673
▁unit	-10.2676
ip	-10.2678
▁ಭಾವ	-10.2687
ದಿಂದಾಗಿ	-10.2691
▁roles	-10.2692
▁performance	-10.2696
▁governments	-10.2698
▁victim	-10.2699
▁begin	-10.2699
▁college	-10.27
▁boy	-10.2704
▁ನೀಡಿದ್ದ	-10.2711
▁ಹೀಗ	-10.2711
▁ಪ್ರಿಯ	-10.2716
▁Mo	-10.2724
ಯಿಂದಾಗಿ	-10.2731
ab	-10.2731
▁levels	-10.2731
▁ಹೋದ	-10.2736
▁ರಸ	-10.2746
▁goal	-10.2754
▁ಬದಲಾಗಿ	-10.2755
▁ಆದ್ಯತೆ	-10.2757
▁force	-10.2762
▁wait	-10.2765
▁ಗು	-10.2767
▁request	-10.277
▁ಮಾತನಾಡಿ	-10.2779
▁6:	-10.2781
od	-10.2784
▁equal	-10.2786
▁ನ್ಯಾಯಮೂರ್ತಿ	-10.2787
ಿನ್	-10.2787
▁recent	-10.2789
▁ಸೋ	-10.279
▁ಪಾರ್ಟಿ	-10.2792
▁ಹೊಣೆ	-10.2794
ushka	-10.2795
▁ಕ್ರೀಡಾ	-10.2796
▁ಪ್ರೇಮ	-10.2796
▁ಡಿಗ್ರಿ	-10.2797
▁Haryana	-10.2797
▁London	-10.2797
▁expand	-10.2797
▁false	-10.2797
▁phase	-10.2797
▁squad	-10.2797
▁ಅಭ್ಯಾಸ	-10.2797
▁ಕೊರೊನಾ	-10.2797
▁ಜಪಾನ್	-10.2797
▁ಟ್ವಿಟರ್	-10.2797
▁ಪದ್ಧತಿ	-10.2797
▁ವಾಣಿಜ್ಯ	-10.2797
▁ಹೆಜ್ಜೆ	-10.2797
▁importance	-10.2797
▁Sanjay	-10.2797
▁cash	-10.2797
▁ಕೀರ್ತನೆ	-10.2797
▁ಅಪಾಯಕಾರಿ	-10.2798
▁ಆಗ್ರಹಿಸಿದರು	-10.2798
▁Malayalam	-10.2799
ದರು	-10.2799
▁ಸದಾ	-10.2799
ಶನ್	-10.28
▁terror	-10.2801
▁ಚಿನ್ನದ	-10.2801
▁ಆಧುನಿಕ	-10.2802
▁outside	-10.2802
▁attempt	-10.2803
▁ಹೇಳುತ್ತದೆ	-10.2805
▁Arun	-10.2806
▁rejected	-10.2808
▁ಕೆಳಗೆ	-10.2808
▁ಉಪಾಧ್ಯಕ್ಷ	-10.2808
▁House	-10.2811
▁celebrated	-10.2811
▁vegetables	-10.2815
▁suffering	-10.2816
▁higher	-10.2819
▁compos	-10.282
▁ಮಗುವಿನ	-10.282
▁ಫೇಸ್	-10.2821
▁ಪರವಾಗಿ	-10.2822
▁Hy	-10.2822
▁ಸ್ವೀಕರಿಸ	-10.2824
ವಾದಿ	-10.2831
▁recorded	-10.2833
▁citizens	-10.2834
▁considered	-10.2836
00	-10.2838
▁send	-10.2842
▁ಆನಂದ	-10.2843
▁ನಾಶ	-10.2847
▁Red	-10.2848
ಿದ್ದೆ	-10.2856
ೊಂದಿಗ	-10.286
▁ಆಧಾರದ	-10.2873
▁ಆತನಿಗೆ	-10.2875
▁ಗ್ರಾಂ	-10.2876
▁ಈತನ	-10.2883
ಗಿಂತ	-10.2891
▁ವಹಿಸ	-10.2899
▁ದೇವರಿಗೆ	-10.2901
▁ಆಸ್ಪತ್ರೆಯ	-10.2903
▁ಹಿ	-10.2905
▁cast	-10.2906
▁ಮನಸ್ಸು	-10.2914
like	-10.2922
though	-10.2922
▁remains	-10.2924
▁ಆರಂಭಿಸ	-10.2925
ಶಿ	-10.2932
▁rules	-10.2936
ಿದ್ದರೆ	-10.2938
ದವರು	-10.2946
q	-10.2948
▁dream	-10.2949
▁comment	-10.295
▁ವ್ಯವಹಾರ	-10.2968
▁350	-10.2968
ದೋ	-10.297
ill	-10.2971
▁ಪರಿಗಣಿಸ	-10.2979
ಟಾ	-10.2998
ೃ	-10.3002
▁decisions	-10.3017
ward	-10.3017
▁ಸಮಾನ	-10.302
▁fee	-10.3021
ಮೆ	-10.3022
▁hear	-10.3032
▁ಪಡ	-10.3033
▁ರವಿ	-10.3035
▁Jana	-10.3035
▁addition	-10.3039
▁ದೈಹಿಕ	-10.3039
▁ಚಿನ್ನ	-10.3044
▁ತಕ್ಕ	-10.3047
▁Cabinet	-10.3047
▁League	-10.3047
▁target	-10.3047
▁ಅನುಷ್ಕಾ	-10.3047
▁ವಿನಿಮಯ	-10.3047
▁Chopra	-10.3047
▁companies	-10.3047
▁extreme	-10.3047
▁lockdown	-10.3047
▁sacrifice	-10.3047
▁ಗೂಗಲ್	-10.3047
▁Governor	-10.3048
▁Ramesh	-10.3049
▁army	-10.3049
▁ಪ್ರಿಯಾಂಕಾ	-10.305
▁early	-10.3051
▁Deepika	-10.3052
▁ಮಾಡಬಾರದು	-10.3052
▁ಹೇಳಿದನು	-10.3055
▁ಹಾಲು	-10.3055
▁vice	-10.306
▁prepared	-10.3061
▁ಖರ್ಚು	-10.3063
▁wise	-10.3064
▁actually	-10.3066
ಪಾ	-10.3067
▁BCCI	-10.3068
▁created	-10.3068
▁Tax	-10.3073
▁ಯಶಸ್ಸು	-10.3074
▁lived	-10.3076
ಲೋ	-10.3077
▁ಒಪ್ಪಿಗೆ	-10.3078
▁ಬೆಳ್ಳಿ	-10.3082
▁ಇರಲಿ	-10.3085
cc	-10.3087
▁sense	-10.3094
▁ಪ್ರಸಿದ್ಧ	-10.3096
▁ಕಾರ್ಯಕರ್ತರು	-10.3099
▁offering	-10.3105
ನಾಯಕ	-10.3105
▁ನಾಗರಿಕ	-10.3107
ಗೇ	-10.3108
▁ಅಂಶಗಳು	-10.3113
▁wont	-10.3114
▁wickets	-10.3117
▁Like	-10.312
▁ಅಭಿಮಾನಿಗಳ	-10.312
▁ಮುಗಿದ	-10.3122
▁line	-10.3132
▁ಅಭ್ಯರ್ಥಿಗಳು	-10.3143
ಸ್ತ	-10.3149
▁Po	-10.3152
▁feature	-10.316
▁ಮುಟ್ಟ	-10.3162
▁ಬೆಳೆ	-10.3163
du	-10.317
▁wanted	-10.3175
▁ಹಿಂಸಾಚಾರ	-10.3182
po	-10.3185
▁ದೆಹಲಿಯಲ್ಲಿ	-10.3186
▁War	-10.3187
▁ಇವುಗಳ	-10.3192
ng	-10.3192
▁fall	-10.3202
▁temperature	-10.3204
▁Time	-10.3214
ಿಸಲಾಗಿದೆ	-10.322
▁ಪ್ಲೇ	-10.3222
▁ಮರಳಿ	-10.3224
ver	-10.3229
ಿಸುವುದು	-10.3229
▁centre	-10.3234
no	-10.3241
▁ಆಲ್	-10.3244
▁ಬೀರ	-10.3246
▁ಒಟ್ಟಿ	-10.3247
ರ್ಸ್	-10.3249
ie	-10.325
▁800	-10.3263
▁ಬಂಗಾಳ	-10.327
▁ಏನನ್ನು	-10.3272
ದ್ದರಿಂದ	-10.3275
▁door	-10.3276
▁honour	-10.3276
▁ಕಂಪನಿಯ	-10.3285
▁ಶುರು	-10.3289
▁ಕೋಪ	-10.3292
▁separate	-10.3294
▁ಹಿನ್ನೆಲೆ	-10.3297
▁ಶಾಶ್ವತ	-10.3299
▁Protest	-10.3302
▁ಅತೀ	-10.3302
▁ಆದುದರಿಂದ	-10.3302
▁ವಾರ್ಷಿಕ	-10.3303
▁British	-10.3303
▁Thousand	-10.3303
▁essential	-10.3303
▁famous	-10.3303
▁speech	-10.3303
▁wedding	-10.3303
▁ಸಚಿನ್	-10.3303
▁modern	-10.3303
▁ಹವಾಮಾನ	-10.3303
▁ಅರುಣ	-10.3305
▁ಕೋಚ್	-10.3305
▁ಪವರ್	-10.3305
▁ನೀಡಲಾಗುತ್ತಿದೆ	-10.3306
▁ಸವಾಲು	-10.3306
▁budget	-10.3307
▁ಉಗ್ರ	-10.3308
▁ಅನುದಾನ	-10.3309
▁ಮೃತಪಟ್ಟಿದ್ದಾರೆ	-10.331
▁ಜಿಲ್ಲಾಧಿಕಾರಿ	-10.3311
▁conference	-10.3312
He	-10.3312
▁ಬಿಗ್	-10.3312
▁ಓವರ್	-10.3312
▁ಅರಿವ	-10.3319
▁disciples	-10.332
ಮರ್	-10.3321
▁Make	-10.3322
▁reduce	-10.3322
▁ಇರುವುದು	-10.3326
▁ಕ್ಷೇತ್ರದಿಂದ	-10.3332
▁lower	-10.3336
▁ಪೋಷಕರು	-10.3344
ಪಡ	-10.3345
▁ಭಾವನೆ	-10.3351
▁ಸಂಖ್ಯೆಯ	-10.3354
▁ಹೇಳಿದ್ದು	-10.3367
▁interesting	-10.3368
▁ಬೇಗ	-10.3378
▁ತಯಾರಿ	-10.3382
▁ಮರಣ	-10.3385
ಿರಬಹುದು	-10.3385
▁ನಿಮಗ	-10.3408
ಜು	-10.3409
▁trees	-10.3411
▁t	-10.3421
▁0	-10.3422
▁ತಂಡಗಳು	-10.3422
▁ಕರ	-10.3423
▁ಬಿಡಿ	-10.343
ಲ್ಲದೆ	-10.3431
▁looked	-10.3439
BJP	-10.3441
▁included	-10.3448
▁ಸುಂದರ	-10.3458
▁exist	-10.3458
ುವಿಕೆ	-10.3465
▁idea	-10.3466
▁degree	-10.3469
▁ಆ್ಯ	-10.3471
▁operation	-10.3473
ಮೆಂಟ್	-10.3474
ಸ್ಟರ್	-10.3475
▁ಮಾನಸಿಕ	-10.3475
▁ಸಾಧ್ಯವಾಗ	-10.3477
han	-10.3481
▁Ga	-10.3482
▁ಸಕ್ಕರೆ	-10.3484
▁doctors	-10.3493
ಿನಿಂದ	-10.3494
ಥ	-10.3507
▁ಕಾರಣಕ್ಕೆ	-10.3509
ಂಕ	-10.3517
ಜಾ	-10.353
▁al	-10.3531
▁buy	-10.3532
▁ತೆರೆ	-10.3533
▁coach	-10.3535
▁ಕಾಲದಲ್ಲಿ	-10.3544
▁ಏಕ	-10.3545
▁34	-10.3551
ದರೆ	-10.3552
▁incidents	-10.3553
▁ಕಾಳಜಿ	-10.3555
▁ವ್ಯತ್ಯಾಸ	-10.3556
▁Ashok	-10.3558
▁mental	-10.3558
▁1.5	-10.3559
▁helped	-10.3562
▁Android	-10.3567
▁CCTV	-10.3567
▁ancient	-10.3567
▁responsible	-10.3567
▁ಎಲೆಕ್ಟ್ರಿಕ	-10.3567
▁ನೂರಾರು	-10.3567
▁Besides	-10.3567
▁Defence	-10.3567
▁ವೆಸ್ಟ್	-10.3567
▁Rukh	-10.3567
▁ಟಾರ್ಕ್	-10.3567
▁Patel	-10.3567
▁choose	-10.3568
▁write	-10.3568
▁ವಿಶ್ರಾಂತಿ	-10.3568
▁primary	-10.3569
men	-10.3571
▁ಲಂಡನ್	-10.3571
▁Earlier	-10.3572
skipper	-10.3573
▁forget	-10.3576
▁ಚಿತ್ತ	-10.3576
▁symptoms	-10.3576
▁ಜಾಲತಾಣದಲ್ಲಿ	-10.3576
▁Nagar	-10.3577
▁ಸೇರಿವೆ	-10.3577
▁ಕ್ಯಾಮರಾ	-10.3577
▁ಜನ್ಮ	-10.3578
▁ಕಾಯಿಲೆ	-10.3581
▁avoid	-10.3581
▁career	-10.3581
ಿಸಿದನು	-10.3582
▁ನಾಲ್ವರು	-10.3586
time	-10.3598
▁ಹೆಚ್	-10.3601
▁none	-10.3603
▁ಜಿಲ್ಲೆಯಲ್ಲಿ	-10.3604
▁GB	-10.3604
ಿಸುತ್ತದೆ	-10.3619
60	-10.362
▁ನಿಂತ	-10.3622
ಯೊ	-10.3625
he	-10.363
▁ನೀಡಿದ್ದು	-10.364
▁trade	-10.3642
▁ಕಲೆ	-10.3647
▁ಇಲ್ಲಿವೆ	-10.3654
▁ಸ್ವಾಮಿ	-10.3654
▁ಪಟ್ಟ	-10.3659
▁sisters	-10.3659
▁operations	-10.3664
▁ಉಂಟಾಗ	-10.3672
▁ಕಲ	-10.3672
▁ಹಾಜರಿದ್ದ	-10.3673
ಬಿಟ್ಟ	-10.3677
▁ಮಗಳು	-10.3692
os	-10.3694
▁ಸಮಿತಿಯ	-10.3694
ುತ್ತಿರಲಿಲ್ಲ	-10.3701
):	-10.3702
ರಾಗ	-10.3704
▁die	-10.3706
▁ಭಾಗದಲ್ಲಿ	-10.3706
ದೀಪ್	-10.3707
▁ರಾಷ್ಟ್ರಗಳ	-10.371
speed	-10.3711
tu	-10.3719
▁ಇದಕ್ಕ	-10.3719
▁ದೆಹಲಿಯ	-10.372
ದಾ	-10.3732
▁ಕತ್ತರಿಸಿ	-10.3735
▁ಅಧ್ಯಕ್ಷೆ	-10.3736
▁gift	-10.3738
▁payment	-10.3739
▁photo	-10.3739
▁thousand	-10.374
▁ಇವು	-10.374
▁ಮನ	-10.3741
rticle	-10.3749
▁ಸುರಕ್ಷತೆ	-10.375
▁eye	-10.375
▁37	-10.3754
▁ಸಂಸ್ಕೃತಿ	-10.3755
▁Muslim	-10.3756
▁cricketer	-10.3758
ದನ್ನು	-10.3765
▁ಹೇಳಿದ್ದ	-10.3768
ದಾರ	-10.3769
▁ಸೇರಿದ	-10.3773
▁Con	-10.3774
▁games	-10.3779
▁ra	-10.378
ದಿದ್ದರೆ	-10.3787
▁8.	-10.3789
▁ten	-10.3792
ಳೆ	-10.3804
▁ದಾರಿ	-10.3805
▁ಮಾಧ್ಯಮ	-10.3806
▁ಪಟ್ಟಣ	-10.3812
▁sea	-10.3818
▁ಮುಂದ	-10.3818
▁ಗ್ರಾಮೀಣ	-10.3826
▁ಹಲ್ಲೆ	-10.3826
▁ಮಂದಿರ	-10.3827
ಸ್ಥ	-10.3828
▁Deve	-10.3833
▁ಇತ್ತೀಚಿ	-10.3837
▁Affairs	-10.3837
▁Banerjee	-10.3837
▁Yeddyurappa	-10.3837
▁evidence	-10.3837
▁journey	-10.3837
▁previous	-10.3837
▁ತಾಪಮಾನ	-10.3837
▁ಪೈಪೋಟಿ	-10.3837
▁ಮಾಂಸ	-10.3837
▁ಧೈರ್ಯ	-10.3837
▁juice	-10.3837
▁ಇನ್ನಿತರ	-10.3837
▁ಇಂಧನ	-10.3837
▁Mahindra	-10.3837
▁Japan	-10.3837
▁thus	-10.3837
▁running	-10.3837
▁contact	-10.3838
▁jail	-10.3839
▁ಮಾತ್ರವಲ್ಲ	-10.384
▁ಆಯಿತು	-10.384
▁ಬದಲಿಗೆ	-10.3841
▁ದ್ವೇಷ	-10.3842
▁management	-10.3843
▁powerful	-10.3843
ಿಗಳ	-10.3848
▁ಹಸಿರು	-10.3848
Nothing	-10.3849
▁ಆಧಾರ್	-10.3851
▁performed	-10.3855
▁employees	-10.3857
ುತ್ತಿದ್ದೇವೆ	-10.3858
▁ನೋಡಲು	-10.3859
▁ತಾಂತ್ರಿಕ	-10.3863
▁born	-10.3866
▁ನೋಂದಣಿ	-10.3868
▁ಒಳ್ಳೆಯದು	-10.3868
▁ಇಂಟರ್	-10.387
▁ಕ್ರಮವಾಗಿ	-10.3871
▁DK	-10.3871
▁Kul	-10.3872
ಬಲ್ಲ	-10.3872
▁Pakistani	-10.3874
▁ವರ	-10.3874
▁ರಾವ್	-10.3875
ರಾಜ	-10.3875
▁ಶ್ರಮ	-10.3875
ರ್ಟ್	-10.388
▁remaining	-10.3883
▁ಕಾರ್ಯಕರ್ತರ	-10.3889
ana	-10.3895
▁affected	-10.3897
▁ಕೃಷ್ಣ	-10.3901
▁ಒಳ	-10.3903
▁ಕುರಿತಾಗಿ	-10.3904
▁ಪ್ರಶ್ನೆಗಳು	-10.3904
▁ಆಗಿದ್ದು	-10.3908
▁ಮನಸ್ಸ	-10.3909
▁ಆಗಿದ್ದಾರೆ	-10.3912
▁talking	-10.3914
▁products	-10.3916
▁thinking	-10.3919
▁ಫಿ	-10.3919
▁posted	-10.3926
via	-10.3935
▁ರೆ	-10.3938
ಯಲ್ಲಿರುವ	-10.394
▁ನ್ಯೂ	-10.3941
▁ಬೇ	-10.3942
ಮೇಲೆ	-10.3945
land	-10.3946
▁Mar	-10.3951
▁Now	-10.3955
▁ಪಂದ್ಯಗಳ	-10.3973
▁ಗಳಿಸಿ	-10.3975
▁ಹೇ	-10.3978
▁ಪ್ರಕಟಿಸ	-10.3979
▁ನಿಗದಿ	-10.3982
▁ಆಗುವ	-10.3985
▁ನಿರ್ಮಿಸ	-10.3987
▁ತನ	-10.3987
▁ಕಲಿಸ	-10.399
co	-10.401
▁ಹಾಡು	-10.401
▁capital	-10.4016
▁type	-10.4018
▁sister	-10.4018
▁site	-10.4024
ದಿನ	-10.4025
▁thank	-10.4033
▁ದು	-10.4034
▁offers	-10.4037
▁ಘಟಕ	-10.404
▁ಕುತೂಹಲ	-10.4044
▁toll	-10.4047
▁ವಿದೇಶ	-10.4048
▁deaths	-10.4049
ಯಾಯಿತು	-10.4056
್ತಾ	-10.4058
▁ಒತ್ತಾಯಿಸಿದ	-10.4059
▁villages	-10.4061
▁wash	-10.4064
▁ಉದ್ಯಮ	-10.407
ani	-10.4074
▁correct	-10.4076
▁witness	-10.4077
▁Mu	-10.4077
▁plea	-10.4082
▁ಅನ್ನ	-10.4084
▁ಶಾಂತ	-10.4086
▁ಅಂತಾ	-10.409
▁ಬೇಸರ	-10.4092
▁ಕರ್ನಾಟಕದಲ್ಲಿ	-10.4096
ಸರ್	-10.4099
▁deep	-10.4101
▁ಮಾರ	-10.4102
▁ತನಿಖಾ	-10.4104
▁ಹಿಡಿದು	-10.4108
▁perfect	-10.4113
▁Aadhaar	-10.4115
▁Association	-10.4115
▁Chairman	-10.4115
▁Kejriwal	-10.4115
▁associate	-10.4115
▁crime	-10.4115
▁ವಿಟಮಿನ್	-10.4115
▁Sports	-10.4115
▁Ltd	-10.4115
▁Moses	-10.4115
▁Sachin	-10.4115
▁potential	-10.4115
▁ಜ್ಞಾನೋಕ್ತಿ	-10.4115
▁ಪೌರತ್ವ	-10.4115
▁ಸತತ	-10.4115
▁hurt	-10.4115
▁ಬ್ಯಾಟಿಂಗ್	-10.4115
▁ಮಿಲಿಯನ್	-10.4115
undai	-10.4115
▁civil	-10.4115
▁sound	-10.4115
▁ಬಹುಶಃ	-10.4115
▁spent	-10.4115
▁RBI	-10.4115
▁ನಡೆಯಲ	-10.4115
▁ರಮೇಶ್	-10.4116
▁movement	-10.4118
▁Keep	-10.4118
▁majority	-10.4118
▁ಅಶೋಕ್	-10.4118
▁ಪಾಲ್ಗೊಂಡಿದ್ದರು	-10.4119
▁ಚಿಂತನೆ	-10.412
▁arrived	-10.4121
▁ಮೀನು	-10.4121
▁clash	-10.4121
▁east	-10.4122
ek	-10.4123
▁ಒಳಗೊಂಡ	-10.4124
▁ಮಾಡುತ್ತಿದೆ	-10.4125
▁fourth	-10.4128
▁ಸೋಂಕು	-10.4131
▁reduced	-10.4132
▁felt	-10.4134
▁ಮಾಡಲಿಲ್ಲ	-10.4136
▁limited	-10.4137
▁ಉಪಯೋಗಿಸ	-10.4139
▁ಮನ್	-10.4141
▁Mohammed	-10.4142
▁ಬಾಕ್ಸ್	-10.4143
▁allegations	-10.4146
▁ಮುಂಬ	-10.4147
▁believed	-10.4147
▁ವಾಯು	-10.4149
ಗಳಾಗಿ	-10.4157
ಾನೆ	-10.416
ೇಶ್ವರ	-10.416
ಟೊ	-10.4162
▁ಬಾಲಕಿ	-10.4167
ner	-10.4167
▁ಪ್ರಕಟ	-10.4167
▁Ta	-10.4168
▁animals	-10.4168
ಮಾನ್	-10.4169
▁ಇವರಿಗೆ	-10.4176
▁ಬೆಟ್ಟ	-10.4177
▁ಸಂಭವಿಸ	-10.4177
▁ದಿನದ	-10.4177
▁ಗಿ	-10.4186
▁Gold	-10.4186
▁ವಲಯ	-10.4189
▁ಸಕ್ರಿಯ	-10.4194
▁ಆರೋಗ್ಯಕರ	-10.4197
▁ಕರ್ನಾಟಕದ	-10.4209
▁ago	-10.421
▁ಮೊದಲೇ	-10.421
endra	-10.4212
ke	-10.4216
▁ಪಾಲ	-10.4218
▁ಭಟ್	-10.4226
▁units	-10.4226
iah	-10.4231
▁charges	-10.424
▁ಯೋಚಿಸ	-10.4241
▁ಮೋದಿಯವರ	-10.4245
▁praise	-10.4246
▁ಕ್ರೀಡೆ	-10.4248
▁ಟೂರ್ನಿಯ	-10.4249
▁ಅನೇಕರು	-10.4249
ari	-10.4252
▁listen	-10.4259
▁ಕತೆ	-10.4261
▁ಮ್ಯಾ	-10.4262
▁ಯಶಸ್ವಿ	-10.4262
▁ಡೇ	-10.4265
▁ಸ್ಥಿರ	-10.4268
▁practice	-10.4287
▁ಮೃತ	-10.4288
ಕೊಟ್ಟ	-10.4289
/2	-10.4291
avy	-10.4292
▁smartphone	-10.4299
nu	-10.4303
▁scheme	-10.4303
▁source	-10.4304
▁ಯಶಸ್ವಿಯಾಗ	-10.4312
್ರಾ	-10.4313
ದ್ದೇವೆ	-10.4318
▁ಕರೆಯ	-10.432
▁ಬಡ	-10.432
▁MS	-10.4329
ಂಚಿನ	-10.4332
▁ಸ್ಟ	-10.4333
▁joy	-10.4334
▁ಖಚಿತ	-10.4334
if	-10.4335
▁ಗೊತ್ತಾ	-10.4339
ge	-10.4342
▁check	-10.4347
ಲಿಕ್ಕಾಗಿ	-10.4348
▁ದೇವೇಗೌಡ	-10.4354
▁ನಿಧಿ	-10.4359
▁con	-10.4361
!"	-10.4362
▁ನಾವ	-10.4365
▁ಹೇರ	-10.4365
▁Le	-10.4368
▁1000	-10.4368
▁ತಂದ	-10.4372
▁Pr	-10.4373
ರುವುದು	-10.4373
▁ಅನುಕೂಲ	-10.4375
ca	-10.4377
▁forest	-10.4382
ಠ	-10.4386
hu	-10.4388
▁normal	-10.4391
▁ಕರ್ತವ್ಯ	-10.4396
▁ಸಮರ್ಥ	-10.4399
▁access	-10.4399
▁secret	-10.4399
▁ಪವಿತ್ರ	-10.44
▁Should	-10.44
▁Zealand	-10.44
▁afraid	-10.44
▁happiness	-10.44
▁taught	-10.44
▁tournament	-10.44
▁worried	-10.44
▁ಉಭಯ	-10.44
▁ಬಾಂಬ್	-10.44
▁ಸಂತಾಪ	-10.44
▁ಕ್ಷಮೆ	-10.44
▁Dinesh	-10.44
▁dispute	-10.44
▁maximum	-10.44
▁Mahesh	-10.44
▁ನಿಧನ	-10.44
mohan	-10.4401
▁Institute	-10.4401
▁w	-10.4402
▁Just	-10.4402
▁ಎನ್ನುತ್ತಾರೆ	-10.4402
▁invited	-10.4402
▁ದೇಶಾದ್ಯಂತ	-10.4403
▁ಡಿಕ್ಕಿ	-10.4403
▁ಲಭ್ಯವಿದೆ	-10.4404
▁ಅಂಗಡಿ	-10.4404
▁ನೀಡಲಾಯಿತು	-10.4404
ran	-10.4404
▁Rajya	-10.4404
▁Mohan	-10.4404
▁stopped	-10.4404
▁corruption	-10.4407
▁ನಿರ್ದೇಶನದ	-10.4407
ಾಗಿದ್ದ	-10.4408
▁ಸಂವಾದ	-10.4409
▁Speak	-10.441
▁Still	-10.441
▁ಪಾಸ್	-10.441
▁feet	-10.4414
▁ವಿಷಯಗಳ	-10.4416
▁ಸಂಭವಿಸಿದೆ	-10.4416
▁ಹೊಂದಿದ್ದಾರೆ	-10.4416
▁ನಂತರದ	-10.4416
▁scored	-10.4419
▁ಭಕ್ತರು	-10.442
▁ತಿಳಿಯ	-10.4421
▁ಹಲವರು	-10.443
▁longer	-10.443
▁ಸಾವ	-10.4433
▁ಗಾಯಗೊಂಡ	-10.4433
▁Cha	-10.4433
▁residents	-10.4436
ಗು	-10.4437
▁diet	-10.4437
▁tourists	-10.4438
▁ಇಗೋ	-10.444
▁Super	-10.445
▁design	-10.4451
▁returned	-10.4451
▁credit	-10.4452
▁terrorists	-10.4453
▁ಸಹಜವಾಗಿ	-10.4465
ಂಡ್	-10.4469
▁ಅವ	-10.4472
▁ಸುರಕ್ಷಿತ	-10.4477
▁ರಾಜಕಾರಣ	-10.4479
▁Ab	-10.448
▁ಸಮಸ್ಯೆಯನ್ನು	-10.4482
▁ಬಹಿರಂಗ	-10.4482
▁ತು	-10.4486
▁terms	-10.4487
▁aid	-10.4487
50	-10.449
ಮಾಡಿ	-10.4491
▁600	-10.4495
▁ನಿರ್ದೇಶಿಸ	-10.4499
▁ಹರಡ	-10.4505
▁ಆರಂಭದಲ್ಲಿ	-10.4507
▁ಅಪ	-10.4518
▁ಅಲ್	-10.4549
▁ಆರ	-10.4565
ಜನ	-10.457
ಹ್	-10.4571
remier	-10.4581
ಬು	-10.4583
▁ದೇಹದ	-10.4588
▁ತೋರ	-10.4593
▁trial	-10.4609
▁ಎನ್ನುವುದ	-10.4609
▁ಅವರಿಂದ	-10.4614
ಕೊಳ್ಳಲು	-10.4617
ai	-10.4619
▁ವರ್ಗ	-10.4622
▁ಯೋಜನೆಯ	-10.4622
▁press	-10.4623
ಬೇ	-10.4631
Y	-10.4631
▁hasnt	-10.4637
ದಲ್ಲ	-10.4644
ುವದಿಲ್ಲ	-10.4645
▁names	-10.4649
▁Bo	-10.4652
▁ನ್ಯಾಯಾಲಯದ	-10.4656
ho	-10.4657
▁pan	-10.4662
▁ಆಸ್ತಿ	-10.4665
▁appeal	-10.4667
ಚರ	-10.4674
▁fun	-10.4674
son	-10.4679
▁ಅನು	-10.4683
▁trouble	-10.4684
▁ಶತಕ	-10.4685
▁critical	-10.4687
▁ಸಂಸ್ಥೆಗಳ	-10.4688
▁ಅಗ್ನಿಶಾಮಕ	-10.4694
▁Technology	-10.4694
▁silver	-10.4694
▁studies	-10.4694
▁ಐತಿಹಾಸಿಕ	-10.4694
▁ಬೆದರಿಕೆ	-10.4694
▁ಮಮತಾ	-10.4694
▁govt	-10.4694
▁ಲಸಿಕೆ	-10.4694
▁permanent	-10.4694
▁ಅಡುಗೆ	-10.4694
▁ವಿಶಿಷ್ಟ	-10.4695
▁ಅನುಮೋದನೆ	-10.4695
▁evil	-10.4695
▁influence	-10.4695
▁ಇಳಿದ	-10.4695
▁ದ್ವಿ	-10.4695
ೊಮ್ಮೆ	-10.4695
▁proud	-10.4695
▁ವಶಪಡಿಸಿಕೊಂಡ	-10.4696
▁manner	-10.4697
▁ನಟಿಸಿದ್ದಾರೆ	-10.4697
▁ಸಂಕಷ್ಟ	-10.4698
▁Post	-10.4698
▁ಜಾಗೃತಿ	-10.47
▁ನೈಸರ್ಗಿಕ	-10.47
▁Auto	-10.47
▁ಸೈನಿಕರ	-10.4701
▁ಸಿಪಿ	-10.4702
▁Satan	-10.4703
▁Picture	-10.4704
▁ನೇರವಾಗಿ	-10.4704
▁usually	-10.4704
▁ತುರ್ತು	-10.4705
▁ಬಿಳಿ	-10.4706
▁ಹರ್ಷ	-10.4711
▁ಸ್ವರೂಪ	-10.4712
▁ಕ್ಯಾ	-10.4712
▁ಬರೆದಿದ್ದಾರೆ	-10.4713
▁ಕೂದಲು	-10.4713
ುತ್ತಿದ್ದೇನೆ	-10.4715
▁Bi	-10.4715
▁roll	-10.4716
▁ಮುಂತಾದ	-10.4717
▁ಆಗುತ್ತದೆ	-10.472
▁ಕ್ರೈಸ್ತರ	-10.472
▁customers	-10.4722
▁Happy	-10.4723
▁Mohammad	-10.4723
▁ನಿಲ್ಲ	-10.4726
▁closed	-10.4727
▁ahead	-10.4727
▁answers	-10.4734
▁ಸೇನೆ	-10.4736
▁hours	-10.4739
▁ಮೀಟರ್	-10.474
ized	-10.4742
▁ಬಂದಾಗ	-10.4742
▁drinking	-10.4744
ಗೊಳಿಸುವ	-10.4747
▁ವಿಭಾಗದಲ್ಲಿ	-10.4749
▁ಅಭಿನಯಿಸ	-10.4751
▁ತಮಗೆ	-10.4753
▁ಕೆರೆ	-10.4754
▁interested	-10.4757
▁Motors	-10.476
▁ha	-10.477
ರ್ಡ್	-10.4771
▁feelings	-10.4777
ಟಿಂಗ್	-10.478
▁Ro	-10.478
▁ಹೆಸರಿನಲ್ಲಿ	-10.4783
▁ವ್ಯವಹಾರಗಳ	-10.4788
ring	-10.4791
▁ಆಪ್ತ	-10.4792
▁ಯೋಧರ	-10.4793
▁ಬಿಸಿಸಿಐ	-10.4796
ೇಟ್	-10.48
▁ಸ್ನೇಹಿತರ	-10.4804
▁ನೀವೇ	-10.4806
ತ್ರ	-10.4807
▁ಮಾಡಿದ್ದು	-10.4816
▁ಅಧಿವೇಶನ	-10.4825
▁ಪಡೆಯುವ	-10.4826
ಲೊ	-10.484
▁pictures	-10.4842
▁colours	-10.4845
▁ರೈತ	-10.4848
▁ಕೆಲಸದ	-10.4852
▁ಕೃತ್ಯ	-10.4862
▁Che	-10.4866
ುವುದೇ	-10.4871
▁ದಿನಕ್ಕೆ	-10.4873
▁ಚಿತ್ರಗಳು	-10.4873
▁ಮಾತಾಡ	-10.4876
▁Co	-10.4876
▁ನಗರದಲ್ಲಿ	-10.4877
ೋದು	-10.4883
▁ಬಂಧಿಸಿ	-10.4887
ತ್ತಿ	-10.489
ೊಬ್ಬರ	-10.4893
▁ವಾಕ್ಯ	-10.4894
pa	-10.4895
▁ಒಪ್ಪಿಕೊಂಡ	-10.4897
▁ODI	-10.4898
ged	-10.4899
▁individual	-10.49
ಗೊಂಡಿದೆ	-10.4904
▁seem	-10.4915
▁ಏಳ	-10.4915
nagar	-10.4919
ಾಯಿ	-10.4919
ರೊಂದಿಗೆ	-10.493
▁ರಾಜ್ಯಗಳಲ್ಲಿ	-10.4934
▁ಒಕ್ಕೂಟ	-10.4939
▁ಸಮಾಧಾನ	-10.494
▁ಪ್ರವಾಸಿಗರ	-10.4943
▁Par	-10.4947
▁ಹುಡುಕ	-10.4948
▁ಓಡ	-10.495
▁ಹಂತದ	-10.4952
▁grow	-10.4958
▁ಬಾಯಿ	-10.496
ವಾದದ್ದು	-10.4963
▁park	-10.4966
▁ದೇವಸ್ಥಾನ	-10.4968
▁alert	-10.4969
ವಿತ್ತು	-10.497
▁approach	-10.497
▁article	-10.4972
▁ಚರ್ಚಿಸ	-10.4983
▁ಜಗತ್ತಿನ	-10.4985
▁rape	-10.4987
▁ಆಗಿದ್ದ	-10.4987
▁immediate	-10.4989
▁ಲೆಕ್ಕ	-10.499
pal	-10.4995
▁Asia	-10.4996
▁eight	-10.4996
▁represent	-10.4996
▁ಬ್ರ	-10.4996
▁chair	-10.4997
▁ಲಿಮಿಟೆಡ್	-10.4997
▁Group	-10.4997
▁Mamata	-10.4997
▁Opposition	-10.4997
▁Solomon	-10.4997
▁York	-10.4997
▁capacity	-10.4997
▁science	-10.4997
▁ಅಮೂಲ್ಯ	-10.4997
▁ಕೆಪಿಸಿಸಿ	-10.4997
▁ಕೇಜ್ರಿವಾಲ್	-10.4997
▁ಮಲಯಾಳಂ	-10.4997
▁ಹ್ಯುಂಡೈ	-10.4997
▁ರುಪಾಯಿ	-10.4997
▁Second	-10.4997
▁ಪರಿಶುದ್ಧ	-10.4997
▁WhatsApp	-10.4998
▁ಪಟೇಲ್	-10.4998
▁ಮನೋಭಾವ	-10.4998
▁ಸಲುವಾಗಿ	-10.4998
▁Parents	-10.4998
▁ದುರಂತ	-10.4998
▁ಟಾಪ್	-10.4998
▁ರಾಜೀವ್	-10.4998
▁Drink	-10.4998
▁ಇಮ್ರಾ	-10.4998
▁ರುಚಿ	-10.4998
▁Check	-10.4998
ities	-10.4998
▁sought	-10.4998
▁administration	-10.4998
▁announcement	-10.4998
▁March	-10.4998
▁sustain	-10.4999
▁path	-10.4999
▁guilty	-10.4999
▁ವಾಸ	-10.4999
▁god	-10.5
▁undergo	-10.5002
▁programmes	-10.5002
▁ಅದೊಂದು	-10.5003
▁deployed	-10.5003
▁warm	-10.5003
▁Social	-10.5003
▁specific	-10.5003
▁ಹಂಚಿಕೊಂಡಿದ್ದಾರೆ	-10.5004
▁batsman	-10.5007
▁matches	-10.5009
▁confirmed	-10.501
▁ಪಂದ್ಯದ	-10.5013
▁ಸಿಕ್ಕಿದೆ	-10.5013
▁spoken	-10.5014
ut	-10.5017
ise	-10.5021
▁ಹಿಟ್	-10.5021
▁ಏನೋ	-10.5021
ರಾಗಿದ್ದರು	-10.5022
▁ಹಕ್ಕುಗಳ	-10.5031
▁ಪರಿಶೀಲಿಸ	-10.504
▁Did	-10.5041
▁ಮಹೇಶ್	-10.5045
▁ಏರ	-10.5048
▁ಚುನಾವಣೆಯ	-10.5054
‍ಗೆ	-10.5062
▁actors	-10.5065
▁ಕಾಣಿಸ	-10.5068
▁ಮಹಾರಾಷ್ಟ್ರದಲ್ಲಿ	-10.507
▁sign	-10.507
▁users	-10.5074
▁ಅಂದು	-10.508
▁ಬಂದರು	-10.5086
▁ಮಾತುಗಳು	-10.509
▁ತಾನೇ	-10.5092
▁loved	-10.5096
ುವುದರಿಂದ	-10.5102
▁ಸಮೀಕ್ಷೆ	-10.5104
▁types	-10.5104
▁reading	-10.5104
ರಿಯಾ	-10.5108
▁ವಿವಾಹ	-10.511
ತೀರಾ	-10.5111
▁ದೇಶವನ್ನು	-10.5132
▁wins	-10.5136
▁leading	-10.5139
▁ಕಳೆದುಕೊಂಡ	-10.5139
▁ಯಶಸ್ವಿಯಾಗಿ	-10.5142
▁ಪರಿಗಣಿಸಿ	-10.5146
▁ಕಾರ್ಮಿಕರ	-10.515
▁ಸ್ಥಳೀಯರ	-10.5157
▁ಸಾಕ್ಷಿ	-10.5158
▁ಕುಲ	-10.5164
ಿದ್ದನು	-10.5166
ವಾಗಿರುತ್ತದೆ	-10.5166
▁ಲೋಕದ	-10.5169
ೇಶ್	-10.5179
▁ವಿಸ್ತರಿಸ	-10.518
▁--	-10.518
▁ಗುರುತಿಸ	-10.5181
nath	-10.5184
KL	-10.5191
ite	-10.5194
ಎನ್ಎಂ	-10.5198
▁challenges	-10.5198
್ತಿ	-10.5198
▁Has	-10.5199
▁ಇಷ್ಟು	-10.5201
▁ಬಗೆಯ	-10.5203
ಯವರು	-10.5205
▁ಕ್ಲ	-10.5206
ಟೆ	-10.5208
▁ma	-10.521
▁ಹೇಗ	-10.522
▁friend	-10.5223
▁ಸೂಕ್ಷ್ಮ	-10.5225
▁ಬೈ	-10.5232
▁fruit	-10.5234
▁lakhs	-10.5246
one	-10.5249
▁maintain	-10.525
▁ತಿರುಗ	-10.5254
ದಾಗ	-10.5258
ay	-10.5259
ily	-10.5262
▁ಧ	-10.5263
▁ರನ್ನು	-10.5268
▁ಬಣ್ಣದ	-10.5274
▁ಕಾಲೇಜಿನ	-10.5276
war	-10.5281
ವಿರುವ	-10.5282
ure	-10.5284
ating	-10.5293
▁ಸನ್ನಿವೇಶ	-10.5297
▁ಕೆಲವೊಂದ	-10.5299
▁ಚಟುವಟಿಕೆ	-10.5303
▁ಸಚಿವರ	-10.5304
▁ಬೀಜ	-10.5306
ಯನ	-10.5308
▁Jerusalem	-10.531
▁advice	-10.531
▁female	-10.531
▁platform	-10.531
▁ಆಂತರಿಕ	-10.531
▁ಕಿರುಕುಳ	-10.531
▁ಮೂಲಭೂತ	-10.531
▁Covid	-10.531
▁knew	-10.531
▁tough	-10.531
▁ಬ್ಯಾನರ್ಜಿ	-10.531
▁beginning	-10.531
▁ಪ್ರಯೋಗ	-10.531
▁ಲೀಗ್	-10.531
▁kingdom	-10.531
▁innings	-10.5311
ನ್ಯಾಷನಲ್	-10.5311
▁ಏನಿದು	-10.5311
▁dry	-10.5312
▁cold	-10.5312
▁ಹೊಂದಿರುತ್ತದೆ	-10.5312
▁Principal	-10.5312
▁ಕೈಗೊಳ್ಳಲಾಗಿದೆ	-10.5312
▁ಸಾಧ್ಯತೆಯಿದೆ	-10.5312
▁ನೀ	-10.5313
▁ದಿನೇಶ್	-10.5313
▁Russia	-10.5313
▁opposed	-10.5313
▁anointed	-10.5313
▁ರಜೆ	-10.5313
▁ಹಿಡಿದ	-10.5313
▁ಮಾಡಲಾಯಿತು	-10.5314
▁ದಾಖಲು	-10.5315
▁wonderful	-10.5316
▁white	-10.5316
▁distributed	-10.5316
▁ವಿರೋಧಿ	-10.5319
▁Ministers	-10.532
▁moral	-10.5321
▁ಬರಲಿದೆ	-10.5324
lu	-10.5325
▁implemented	-10.5325
▁mentioned	-10.533
▁Ki	-10.5332
▁ಹೇಳಲು	-10.5334
▁please	-10.5334
▁ಆನಂದ್	-10.5334
▁relations	-10.5339
▁ಮಾಡಿತ್ತು	-10.534
▁shows	-10.5343
▁h	-10.5344
▁ತರಗತಿ	-10.535
▁Nath	-10.5351
▁waiting	-10.5351
▁accepted	-10.5354
▁ವ್ಯಾಪ್ತಿಯಲ್ಲಿ	-10.5357
▁ಪ್ರಜಾಪ್ರಭುತ್ವ	-10.536
▁ಕಲಿತ	-10.5363
▁ಕೈಗೊಂಡ	-10.5364
▁ನಿಲ್ಲಿಸ	-10.5364
▁ಸಾಮರ್ಥ್ಯವನ್ನು	-10.5365
▁ನಿರಾಕರಿಸ	-10.5369
▁funds	-10.5376
▁opened	-10.5379
▁ಶಾರು	-10.538
▁ಆಟಗಾರರು	-10.5382
▁inside	-10.5383
▁ಕುಟುಂಬಕ್ಕೆ	-10.5384
▁ಹಾಕಿದ	-10.5385
▁Services	-10.5389
▁ಐಸಿಸಿ	-10.539
ning	-10.5392
ಚರ್	-10.5392
▁fruits	-10.5408
ee	-10.5409
ಸುವ	-10.5409
▁seems	-10.5411
▁ಗುರು	-10.5413
▁ತಂಡದಲ್ಲಿ	-10.5417
ವರೆ	-10.5418
ster	-10.5421
▁ಒತ್ತಾಯ	-10.5424
▁commit	-10.5431
ick	-10.5438
▁songs	-10.5448
▁ಸೈತಾನನ	-10.5451
▁numbers	-10.5453
▁ಮುನ್ನಡೆ	-10.5456
ize	-10.546
▁ಗುಣಮಟ್ಟ	-10.5462
▁ಇವೆಲ್ಲ	-10.5467
▁appropriate	-10.5467
▁ಯಾ	-10.5467
bi	-10.5468
▁ಉಂಟು	-10.5474
▁ಇಂದಿನ	-10.5482
▁calls	-10.5484
▁effects	-10.5486
▁ನಿರಂತರವಾಗಿ	-10.5489
ದ್ದಾಗ	-10.5491
▁ಕಾರಣದಿಂದ	-10.5492
bo	-10.5497
▁ಅಪ್ಪ	-10.55
ಿರುವುದರಿಂದ	-10.5502
▁flood	-10.5506
ಎಂದು	-10.5518
▁rates	-10.5523
▁ಮಾಡಲಿ	-10.5525
▁ವಿಶ್ವವಿದ್ಯಾಲಯ	-10.5525
▁heaven	-10.5526
ಭಾರತ	-10.5528
▁ಸ್ಫೋಟ	-10.5529
▁investment	-10.5532
▁choice	-10.5532
▁Pa	-10.5535
▁ತೀರ್ಪ	-10.5546
tion	-10.5549
▁Sinc	-10.5559
▁ಯಾರಿಗ	-10.5562
▁pray	-10.5564
▁ಸಮಾಜದ	-10.5568
▁ಕ್ರಿಕೆಟಿಗ	-10.5569
▁material	-10.557
ಕೊಳ್ಳುವ	-10.5572
▁ನಿವಾಸ	-10.5573
▁ಪ್ರಾಮುಖ್ಯ	-10.5573
▁ರಾಜ್ಯಗಳು	-10.5574
▁ಹೊಡೆದ	-10.5576
▁ನೋಟ	-10.5577
▁humans	-10.558
▁ತೆರೆದ	-10.5582
ಗೊ	-10.5582
ೊಳಗ	-10.559
▁ಗೆದ್ದು	-10.5594
▁term	-10.5596
▁matters	-10.5598
▁ಬರಲ	-10.56
▁ವ್ಯಕ್ತಿಗಳ	-10.5606
ಬ್ಬ	-10.5608
▁severe	-10.5609
ನೀ	-10.561
dha	-10.5611
▁dance	-10.5612
▁ಶಿಕ್ಷಕರ	-10.5618
▁ಆವೃತ್ತಿ	-10.5618
▁ಧನ್ಯವಾದ	-10.5619
▁ನೆಲ	-10.562
kumar	-10.562
ಕ್ಕಿಂತಲೂ	-10.5621
▁damage	-10.5622
ens	-10.5624
▁ವಾಸ್ತವ	-10.5625
▁careful	-10.5626
▁ಆಧರಿಸಿ	-10.5627
▁ಉತ್ಪಾದಿಸ	-10.5628
▁righteous	-10.5631
▁Swami	-10.5632
▁south	-10.5632
▁Ahmed	-10.5632
▁Chinese	-10.5633
▁Ranveer	-10.5633
▁basic	-10.5633
▁rural	-10.5633
▁ಪಡುಕೋಣೆ	-10.5633
▁Panchayat	-10.5633
▁website	-10.5633
▁ruling	-10.5633
▁ಅನಾರೋಗ್ಯ	-10.5633
▁ವಿರುದ್ದ	-10.5633
▁interview	-10.5633
▁stood	-10.5633
▁ಕರಾವಳಿ	-10.5633
▁task	-10.5633
▁ಮರಣೋತ್ತರ	-10.5633
▁chance	-10.5633
▁Vice	-10.5633
▁Watch	-10.5633
▁chairman	-10.5633
▁rank	-10.5633
▁sort	-10.5633
▁ಆಂಡ್ರಾಯ್ಡ್	-10.5633
▁bench	-10.5634
▁ಕರೆಯಲಾಗುತ್ತದೆ	-10.5634
▁simply	-10.5634
▁ಸಮಸ್ತ	-10.5634
▁dedicated	-10.5634
▁sad	-10.5634
▁ಸಂಕೇತ	-10.5635
▁Kolkata	-10.5635
▁Traffic	-10.5635
▁ಸಾಂಪ್ರದಾಯಿಕ	-10.5635
▁France	-10.5635
▁itself	-10.5635
▁rare	-10.5635
▁ಎಂಟು	-10.5638
▁ಬಿಐ	-10.5639
▁ಹಣ್ಣು	-10.5639
▁ಬಿಗಿ	-10.5639
▁ಕ್ರಿಸ್	-10.5639
▁exchange	-10.5639
▁homes	-10.5639
▁suit	-10.564
▁ನೀಡಲಿದೆ	-10.5641
▁ಇಸ್ರಾಯೇಲಿನ	-10.5641
▁ಕಂಪ್ಯೂಟರ್	-10.5643
▁April	-10.5643
▁ಮೀಡಿಯಾ	-10.5643
▁approved	-10.5643
▁ತಮಿಳುನಾಡಿನ	-10.5644
▁ಎದುರಿಸಲು	-10.5644
▁Today	-10.5646
▁ಹೆಚ್ಚಾಗಿದೆ	-10.5647
▁ಕೈಗೊಳ್ಳಬೇಕು	-10.5649
▁ನನ್ನಿಂದ	-10.565
▁Action	-10.5651
▁SUV	-10.5651
▁ಗೆಲುವಿನ	-10.5652
▁revealed	-10.5652
ುವುದರ	-10.5653
▁ನಗದು	-10.5653
▁Bill	-10.5654
ಪಾಲ	-10.5656
▁ಪ್ರಶ್ನೆಗಳಿಗೆ	-10.5658
▁June	-10.566
▁original	-10.5662
▁ಅಕ್ಷಯ	-10.5665
▁ಸಿಲುಕ	-10.5666
ac	-10.5666
▁ಸುಧಾರಣೆ	-10.5667
▁ಅದೂ	-10.5667
▁ಜಾಲತಾಣ	-10.5671
▁ಒಬ್ಬರ	-10.5672
▁ಸಾರಿಗೆ	-10.5679
▁ಗಂಡು	-10.568
▁faithful	-10.5689
▁ತಪ್ಪಿತಸ್ಥರ	-10.5689
ಯಿ	-10.5693
▁ನಾವೆಲ್ಲರ	-10.5696
ಿಗಳು	-10.57
▁ಪಡೆದುಕೊಂಡ	-10.5705
▁ಅಭಿಮಾನಿಗಳು	-10.5712
ವೊ	-10.5722
▁ಚಂದ್ರ	-10.5723
▁ಸಂಸ್ಥೆಗಳು	-10.573
ide	-10.5732
▁ಹಚ್ಚ	-10.5748
▁Mala	-10.5749
▁ಪ್ರದೇಶಗಳಲ್ಲಿ	-10.5753
▁Ver	-10.5757
▁ಕೇಳಿದ	-10.5757
▁ಪೂ	-10.5758
▁Tri	-10.5759
▁author	-10.5762
ಕನ	-10.5764
▁ಆಚರಿಸ	-10.5764
ಟನ್	-10.5764
▁ಗೊತ್ತಾಗ	-10.5768
▁ನೋಡುವ	-10.5769
▁Ja	-10.5771
▁ಅನುಸರಿಸ	-10.5772
▁ನಾವೇ	-10.5773
▁ಬೀಸ	-10.5782
▁ಪ್ರದರ್ಶಿಸ	-10.5782
▁Maha	-10.5785
▁ಬಿದ್ದು	-10.579
▁ಹಸಿ	-10.5792
▁ಕಣ್ಣು	-10.58
▁ಪಾವತಿಸ	-10.5803
▁firm	-10.5803
▁ಮಹ	-10.5814
vendra	-10.5818
▁Ho	-10.5825
ath	-10.5836
▁limit	-10.584
▁follows	-10.5842
ಲ್ಲಿನ	-10.5844
▁ಇದ್ದು	-10.5844
▁ಅದಕ್ಕ	-10.5848
40	-10.5848
ನೀವು	-10.5853
There	-10.5858
▁railway	-10.5865
▁product	-10.5866
▁cup	-10.5866
▁resignation	-10.5866
▁apostle	-10.5868
▁Officer	-10.5869
▁ರೀ	-10.587
▁10:	-10.5871
▁teacher	-10.5875
ಭಾವ	-10.5876
▁ಮನುಷ್ಯರ	-10.5876
ಿಕಾ	-10.5876
▁9.	-10.5883
▁Award	-10.5884
▁quit	-10.5886
▁player	-10.5887
▁ಚಿ	-10.5888
ದಿರುವ	-10.5891
tha	-10.5898
long	-10.5903
▁85	-10.591
▁ಸೇವಕರ	-10.5913
▁ಯೆಹೋವ	-10.5914
▁ಆಕ್ಷೇಪ	-10.5915
▁ಉತ್ಪನ್ನ	-10.5915
ಬರ	-10.5922
▁Hond	-10.5923
▁ಎತ್ತ	-10.5927
ದ್ಯ	-10.5928
▁ಲೇಖನ	-10.5933
▁ಸಹಜ	-10.594
▁ಸಾಯ	-10.5944
▁events	-10.5945
▁wide	-10.5947
▁ಮಾಡುತ್ತಿರುವ	-10.5958
▁etc	-10.5959
▁ಬಿಹಾರ	-10.596
ಫಿ	-10.5962
▁confident	-10.5965
▁minor	-10.5966
▁Mysuru	-10.5966
▁constituencies	-10.5966
▁defence	-10.5966
▁domestic	-10.5966
▁negative	-10.5966
▁proposal	-10.5966
▁wisdom	-10.5966
▁ಮೂಲಸೌಕರ್ಯ	-10.5966
▁ವಾಗ್ದಾಳಿ	-10.5966
▁ಸೌಂದರ್ಯ	-10.5966
▁ಚಲಾಯಿಸ	-10.5966
▁ಜೇಟ್ಲಿ	-10.5966
▁ಸಮಾವೇಶ	-10.5966
▁Akshay	-10.5966
▁ಸಮೂಹ	-10.5966
▁ಅಗ್ನಿ	-10.5966
▁beyond	-10.5966
▁ಸಂಯೋಜನೆ	-10.5966
▁ಪರಿಷತ್	-10.5966
▁blast	-10.5966
▁ಪ್ರತೀ	-10.5966
▁minimum	-10.5966
▁pepper	-10.5966
▁ಮೈದಾನ	-10.5966
▁screen	-10.5966
▁ಮೆಣಸು	-10.5966
▁rainfall	-10.5966
▁ಅಹ್ಮದ್	-10.5966
▁Judah	-10.5966
▁partnership	-10.5966
▁Judge	-10.5966
▁ಆಕರ್ಷಕ	-10.5966
▁everywhere	-10.5966
▁CEO	-10.5967
▁Sunil	-10.5967
▁inquiry	-10.5967
▁2014	-10.5967
▁dangerous	-10.5967
▁ಲೋಡ್	-10.5968
▁version	-10.5968
▁electricity	-10.5968
▁ಮೋಸ	-10.5968
▁ಕಲ್ಲು	-10.5969
▁engaged	-10.5969
▁ಮಾಡಲಾಗುವುದು	-10.5969
ೆಂಬ	-10.5969
▁suspended	-10.5969
▁ಖಾಲಿ	-10.5971
▁captur	-10.5972
▁ಕಾರಣವಾಗುತ್ತದೆ	-10.5972
▁Otherwise	-10.5973
▁ಪಡೆದುಕೊಂಡಿದೆ	-10.5974
▁Imran	-10.5974
ಲಾಗಿದ್ದು	-10.5975
▁ಕೇಸ್	-10.5976
ಂಡಿ	-10.5976
▁ವಿಭಾಗದ	-10.5977
▁ಮಗಳ	-10.5977
▁ಹೋಗಲು	-10.5978
▁jobs	-10.5981
▁selected	-10.5982
▁soul	-10.5986
▁ಬೆಂಗಳೂರಿನಲ್ಲಿ	-10.5986
▁ಲೋಕ	-10.5993
ಖ	-10.5993
way	-10.5994
▁ತರಲು	-10.5994
▁ವಯಸ್ಸಿನ	-10.5996
mesh	-10.6004
▁lose	-10.6007
▁ಕಾನೂನಿನ	-10.6007
▁ಗಾಗಿ	-10.6014
ಿರುತ್ತಾರೆ	-10.6015
ುವಂತಿಲ್ಲ	-10.6022
▁ನವ	-10.6024
▁ಸೋಂಕಿನ	-10.6026
▁learned	-10.6028
ಲಿವೆ	-10.6028
▁seeds	-10.603
▁Pro	-10.6032
▁ಆಕೆಗೆ	-10.6033
▁ಅಸಾಧ್ಯ	-10.6035
▁5-	-10.6038
ಪರ	-10.604
▁testing	-10.604
▁onion	-10.6049
▁ನಡೆಯುವ	-10.6052
ೀರ್	-10.6057
▁heat	-10.6059
▁128	-10.6063
▁ಆಕೆಯನ್ನು	-10.6066
ಲರ್	-10.6072
▁ಆಲ	-10.6076
ಿದ್ದರೂ	-10.608
av	-10.6082
▁2000	-10.6083
▁ಪಾಲ್ಗೊಂಡ	-10.6087
▁comfort	-10.6088
wal	-10.6089
▁ಅನಂತ	-10.609
▁ಘಟನೆಗಳು	-10.609
ಮನ	-10.609
▁ಇಲ್ಲವೇ	-10.6093
▁ಅಂಗ	-10.6094
adhya	-10.6095
▁ಸಂಬಂಧಿಸಿ	-10.6098
wi	-10.6099
▁ಸ್ಥಾನವನ್ನು	-10.6103
▁ಅನ	-10.6104
▁ಪುತ್ರಿ	-10.6104
▁ವಿದೇಶಿ	-10.6106
side	-10.6109
▁ಹಾಗೇ	-10.611
75	-10.6113
▁ಒಬ್ಬರು	-10.6123
▁bat	-10.6123
▁ವಾಹನಗಳು	-10.6125
▁44	-10.6131
▁ಹತ್ತು	-10.6133
▁ಆರೋಪಿಯ	-10.6133
ಯನ್	-10.6133
▁ದೇಶಗಳಲ್ಲಿ	-10.6135
▁cars	-10.6138
▁aim	-10.6142
sha	-10.6145
ಗಳಿಲ್ಲ	-10.616
▁teach	-10.6175
▁caste	-10.6176
India	-10.618
▁ಯತ್ನ	-10.6181
▁46	-10.6185
▁claim	-10.6186
ನನಗೆ	-10.6187
ಾನ್	-10.6195
▁ಟ್ರ	-10.6197
▁ಎಂಥ	-10.6198
ಪತಿ	-10.6199
▁instance	-10.6209
▁ticket	-10.6211
▁flight	-10.6213
▁ಅಪೊಸ್ತಲ	-10.6214
▁ವಾಪಸ್	-10.6217
tic	-10.6217
▁occur	-10.6221
▁wicket	-10.6238
In	-10.624
▁ವಿಧಿ	-10.624
dar	-10.6247
▁ಬಾಲ	-10.6249
▁teaching	-10.6251
ಾಗಲೇ	-10.6252
▁range	-10.6257
ಕಲ್	-10.6258
▁ಘಟಕದ	-10.6259
▁provides	-10.6263
15	-10.6271
ರಲ್ಲಿರುವ	-10.6276
-3	-10.6276
ಿಸಲಾಯಿತು	-10.6279
▁succeed	-10.6283
▁grant	-10.6285
▁Dal	-10.6286
▁ಬೆಂಗಳೂರಿನ	-10.6287
▁ದುಬಾರಿ	-10.6287
ಿಸಿಕೊಳ್ಳ	-10.6289
▁feeling	-10.6293
▁ದಿವಸ	-10.6293
▁ಶಿಫಾರಸು	-10.6295
▁earn	-10.6296
▁ತರಕಾರಿ	-10.6298
▁ದಿನಾಚರಣೆ	-10.6298
▁ಮುಚ್ಚ	-10.6298
ರಿಯ	-10.6299
▁participate	-10.6299
▁ಮೋಟಾರ್	-10.6303
ative	-10.6304
▁significant	-10.6304
ೋನ್	-10.6309
▁avail	-10.6309
▁ತರುವ	-10.6309
▁wicked	-10.6309
▁ಆಘಾತ	-10.631
inancial	-10.631
▁Assam	-10.631
▁micro	-10.6311
ನ್ಯೂಜಿಲೆಂಡ್	-10.6311
▁Dhawan	-10.6311
▁Information	-10.6311
▁Padukone	-10.6311
▁Research	-10.6311
▁Tendulkar	-10.6311
▁facility	-10.6311
▁holiday	-10.6311
▁instead	-10.6311
▁moving	-10.6311
▁numer	-10.6311
▁ಭೂಕಂಪ	-10.6311
▁reply	-10.6311
▁ಸಿಸಿಟಿವಿ	-10.6311
▁begun	-10.6311
▁counsel	-10.6311
▁ಅನ್ಯಾಯ	-10.6311
▁Adityanath	-10.6311
▁network	-10.6311
▁garlic	-10.6311
▁crisis	-10.6311
▁ವೆಬ್	-10.6311
▁ದೂರವಾಣಿ	-10.6311
▁nearby	-10.6311
▁ಇಂಡೀಸ್	-10.6311
▁ಕೈಗೊಳ್ಳಲಾಗುವುದು	-10.6311
▁ರಾಜ್ಯಾಧ್ಯಕ್ಷ	-10.6311
▁Chandra	-10.6312
▁Out	-10.6312
▁ಫ್ರಾನ್ಸ್	-10.6312
▁Mother	-10.6312
▁Patil	-10.6312
▁taste	-10.6313
▁ದೌರ್ಜನ್ಯ	-10.6313
▁leadership	-10.6314
▁Yoga	-10.6314
▁ಬಂಧಿಸಲಾಗಿದೆ	-10.6314
ala	-10.6314
▁ಹೊಂದಿವೆ	-10.6316
▁ತಿಳಿಸಿವೆ	-10.6317
PCC	-10.6317
▁ಮಾಲಿನ್ಯ	-10.6317
▁criminal	-10.6318
-20	-10.6318
▁ಐಟಿ	-10.6319
▁ಯೋಹಾನ	-10.6319
▁setting	-10.6319
▁ಇಲ್ಲದಿದ್ದರೆ	-10.632
▁ವರದಿಯಾಗಿದೆ	-10.6321
ಿಸ್	-10.6322
▁ವಿತರಿಸ	-10.6325
▁militants	-10.6326
▁ಶಬ್ದ	-10.6326
▁Power	-10.6326
▁55	-10.6327
▁ಸ್ವರಾಜ್	-10.6327
ಹಿಕ	-10.6329
▁ಬಾಸ್	-10.6332
▁ಹೇಳುವುದು	-10.6332
▁ಹೊರತು	-10.6333
▁ಮಿತಿ	-10.6333
▁ಐವರು	-10.6336
ians	-10.6337
▁ಪಡೆದಿದೆ	-10.6339
▁ಪ್ರಶ್ನಿಸಿ	-10.6345
▁NCP	-10.6345
▁finally	-10.6347
▁ಶಿಷ್ಯರ	-10.6349
▁ಉತ್ತಮವಾಗಿ	-10.6353
ಿದ್ದಳು	-10.6354
▁finance	-10.6355
▁doesn	-10.6355
ಯಾಗಿದ್ದು	-10.6356
▁ಜಾಲ	-10.6357
▁ಏನಿದೆ	-10.6361
fi	-10.6363
▁II	-10.6365
▁ಗೂ	-10.6367
▁meaning	-10.6369
▁locals	-10.6371
▁120	-10.6373
ರಾದರು	-10.6373
▁unti	-10.6373
▁ದಾವೀದನ	-10.6374
▁ರಸ್ತೆಯಲ್ಲಿ	-10.6374
▁ಸೇವೆಯನ್ನು	-10.6381
▁contribute	-10.6391
▁72	-10.6392
▁ಬೆಳೆಸ	-10.6396
all	-10.64
▁ಮಾಡಿಕೊಂಡು	-10.6402
ಲೀ	-10.6402
▁ಡೆ	-10.6413
▁ಕುಟುಂಬದವರ	-10.6414
▁ನೆನಪ	-10.6418
▁showed	-10.642
▁ಸುಷ್ಮ	-10.6425
▁ಮೃತಪಟ್ಟ	-10.6426
ುವುದಕ್ಕೆ	-10.6434
▁ಗುಂಪು	-10.6435
▁thousands	-10.6436
nam	-10.6439
▁ಸಿಟಿ	-10.6443
ದ್ದೇನೆ	-10.6443
▁sc	-10.6443
ard	-10.6444
▁ಸಂಸ್ಥೆಯು	-10.6445
▁ಹುಟ್ಟಿದ	-10.6447
▁ಹಾಜರಾಗ	-10.6449
▁ದಿನದಲ್ಲಿ	-10.6449
▁Eat	-10.6449
▁ವ್ಯಾಪಕ	-10.6451
▁53	-10.6452
▁ಆಟಗಾರರ	-10.6455
▁Park	-10.646
▁ನಾನಾ	-10.6464
▁models	-10.6467
▁discussions	-10.6468
▁supported	-10.6477
ಮಾಡುವ	-10.6481
▁ಮುಂಬೈನಲ್ಲಿ	-10.6482
▁ಸೃಷ್ಟಿಸ	-10.6485
▁ಅಂಕಗಳ	-10.6487
▁ಶ್ರೀಮಂತ	-10.6493
▁11.	-10.6496
ಭ್	-10.6507
▁ಎಂದೆ	-10.6511
▁ತೆಗೆದು	-10.6512
▁Others	-10.6516
▁ಆಧಾರ	-10.6518
inder	-10.6518
ಜರ್	-10.6522
▁ಮೀರಿ	-10.6525
▁Ni	-10.6526
▁ವೃತ್ತಿ	-10.6527
▁ಚಾಲಕನ	-10.6533
▁ದಾಳಿಯ	-10.6536
ಫಾ	-10.6537
ಸಂ	-10.6541
▁ಸಾಕ್ಷಿಗಳ	-10.6541
▁ತಾಯಿಯ	-10.6541
ಬಿಜೆಪಿ	-10.6542
▁ಒಳ್ಳೇ	-10.6543
▁Hindus	-10.6544
ivate	-10.6544
▁ಗಾತ್ರ	-10.6547
▁ರೋ	-10.655
▁Ranb	-10.6551
gu	-10.6553
ುತ್ತೆ	-10.6556
▁ಹಣದ	-10.6562
ev	-10.6563
▁camp	-10.6566
▁Science	-10.6567
▁ಶಿವಸೇನೆ	-10.6567
▁size	-10.6568
ns	-10.6569
▁device	-10.6569
▁character	-10.657
▁medal	-10.6571
▁ಬ್ರಿಟಿಷ	-10.6573
▁stone	-10.6574
▁promote	-10.6575
ery	-10.6603
▁ಸೃಷ್ಟಿ	-10.6622
az	-10.6623
▁draw	-10.6629
▁ಚೀನಾದ	-10.663
▁ಫೋರ್	-10.6632
▁ಜನಾಂಗ	-10.6638
▁ಕೀ	-10.6642
್ರ	-10.6644
▁ಆಗಮಿಸಿದ	-10.6646
▁Look	-10.6647
▁tea	-10.6647
▁Si	-10.6651
▁ವಕ್ತಾರ	-10.6653
▁prove	-10.6656
▁ಕಾರುಗಳ	-10.6657
▁ನೋಡಿದ	-10.6658
▁ಮಲ	-10.6659
▁awards	-10.666
▁consult	-10.6661
▁ಶರ್ಮ	-10.6661
▁Ch	-10.6663
▁ಅಭಿವೃದ್ಧಿಯ	-10.6663
▁broke	-10.6663
▁drive	-10.6665
▁ದುಃಖ	-10.6667
▁ಒದಗಿಸುವ	-10.6667
▁Agriculture	-10.6668
▁Chidambaram	-10.6668
▁Mahatma	-10.6668
▁Swaraj	-10.6668
▁attitude	-10.6668
▁coalition	-10.6668
▁crowd	-10.6668
▁pandemic	-10.6668
▁truly	-10.6668
▁welfare	-10.6668
▁ಅರವಿಂದ	-10.6668
▁ಎಸೆತ	-10.6668
▁ಚೋಪ್ರಾ	-10.6668
▁ಸ್ಕೂಟರ್	-10.6668
▁track	-10.6668
megapixel	-10.6668
▁ನೆನಸ	-10.6668
▁Donald	-10.6668
▁rice	-10.6668
▁ಮೆಚ್ಚುಗೆ	-10.6668
▁contract	-10.6668
▁ಅಮಿತಾ	-10.6668
▁duty	-10.6668
▁deput	-10.6668
ದಾಯಕ	-10.6668
▁Music	-10.6668
▁employment	-10.6668
▁ಕಡತ	-10.6669
▁righteousness	-10.6669
▁RAM	-10.6669
▁denied	-10.6669
▁sheep	-10.667
▁ಗೌರಿ	-10.667
▁ಸೇವಾ	-10.667
▁assured	-10.667
▁ಉಸ್ತುವಾರಿ	-10.667
▁ಖಂಡಿತವಾಗಿಯೂ	-10.667
▁ಡಿಜಿಟಲ	-10.6671
▁ಸಿಗಲಿದೆ	-10.6671
▁ಟೀಕೆ	-10.6671
▁dual	-10.6672
▁La	-10.6672
▁ವೇಗವಾಗಿ	-10.6674
▁ಮಿಶ್ರಾ	-10.6675
▁published	-10.6675
▁ವಾಸ್ತವವಾಗಿ	-10.6676
▁ಅಗಲಿದ್ದಾರೆ	-10.6676
▁status	-10.6676
▁ಇಸ್ರಾಯೇಲ್ಯರ	-10.6677
▁ಸಿಗುತ್ತದೆ	-10.6677
▁ಬಳಸಲು	-10.6678
▁approval	-10.6678
▁ಉಂಟಾಗಿದೆ	-10.6678
▁ಕೈಗೊಂಡಿದ್ದಾರೆ	-10.6679
▁additional	-10.6679
▁Investigation	-10.668
▁Step	-10.668
▁ಸಾಧ್ಯವೇ	-10.6683
▁ಅನಿಲ್	-10.6683
▁missing	-10.6684
▁ನಿಲುವ	-10.6685
▁ನೀಡಿತ್ತು	-10.6685
ಡಾ	-10.6687
ಂಪ	-10.6691
▁ವಿರೋಧವಾಗಿ	-10.6692
▁ಕಂಡಿದೆ	-10.6693
efore	-10.6693
▁edition	-10.6694
▁ಸೀಮಿತ	-10.6695
▁joint	-10.6697
▁ಮೋಹನ್	-10.6699
▁ಇಂಡಿಯಾದ	-10.6704
ೋರ್	-10.6704
▁principles	-10.6705
▁ಸಲ್ಲಿಸಿದ	-10.6707
▁celebrate	-10.671
ುತ್ತಿದ್ದು	-10.6714
▁ಇತಿಹಾಸದಲ್ಲಿ	-10.6718
ಕೊಡ	-10.6718
▁remained	-10.672
▁ಆಯೋಜಿಸ	-10.672
▁ಪಡೆದರು	-10.6722
ib	-10.6725
ore	-10.6725
▁ಕ್ಷೇತ್ರಗಳ	-10.6725
cu	-10.6734
▁ನೀರಿನಿಂದ	-10.6736
ಹೋದ	-10.6736
ದ್ರು	-10.6736
▁ಯೋಧರು	-10.6736
▁7.	-10.6736
▁ಸಾಕ	-10.674
▁144	-10.674
▁ಸಲ್ಲಿಸಿದ್ದ	-10.6744
ುವಲ್ಲಿ	-10.6747
▁ಚಾ	-10.6749
▁Om	-10.6759
▁ಬಾರಿಯ	-10.6763
ans	-10.677
ಬೇಕಾದರೆ	-10.6771
▁ಗುರಿಯ	-10.6775
ುತ್ತಾಳೆ	-10.6782
▁ಗಂಡ	-10.6783
ಿರುವುದಾಗಿ	-10.6799
ಾಡಿ	-10.6809
ಗೊಳಿಸಲು	-10.6811
▁colleges	-10.6812
▁ಯಾರಿಗೆ	-10.6815
▁ಮಹಾರಾಷ್ಟ್ರದ	-10.6815
▁Ar	-10.6817
▁ಮಾಡಬೇಡಿ	-10.6817
▁ಮಾಹಿತಿಯ	-10.6818
▁ಇತ್ತ	-10.6818
▁Vi	-10.6825
▁hospitals	-10.6828
ಯಾನ್	-10.6832
▁ತೊಡಗ	-10.6832
ಯವರ	-10.6834
▁loans	-10.6838
▁IT	-10.6839
ಯುಕ್ತ	-10.684
▁ill	-10.6847
▁trains	-10.6857
▁ಭಾಷೆಯಲ್ಲಿ	-10.6859
▁leaves	-10.6859
ಬಲ್ಲದು	-10.6869
our	-10.6871
ions	-10.6872
ual	-10.6876
▁ದಿನಗಳಿಂದ	-10.6878
▁ದಳ	-10.6885
▁News	-10.6885
▁ಮೌಲ್ಯದ	-10.6888
ini	-10.6892
▁ಒಪ್ಪಿಕೊಳ್ಳ	-10.6894
▁ಬರೆಯ	-10.6896
ಿಸುತ್ತಾರೆ	-10.6897
ವಾಗಿದ್ದ	-10.6898
▁Islam	-10.6903
back	-10.6909
▁ಅರ	-10.6917
▁9,	-10.692
▁laws	-10.692
▁groups	-10.6924
ೀಫ್	-10.6929
ಬಲ್	-10.693
▁ಕಾಡು	-10.6933
▁exam	-10.6939
▁hundred	-10.6941
▁ಎಂದೇ	-10.6942
▁49	-10.6955
''	-10.6957
▁Play	-10.696
▁ಎತ್ತಿ	-10.6968
▁Thank	-10.6972
▁views	-10.6975
▁Fire	-10.6977
▁ಯುವತಿ	-10.6979
▁ಹೆದರ	-10.6981
▁ಜಾಲತಾಣಗಳ	-10.6981
rat	-10.6983
▁ಕೈಗಾರಿಕ	-10.6983
▁ಮುಖ್ಯವಾಗಿ	-10.6992
ಚ್ಛ	-10.6996
▁ಸಾಲದ	-10.6997
unt	-10.6997
▁ಸತ್ತ	-10.6999
▁ಸಂಭವಿಸಿದ	-10.7003
ated	-10.7014
▁ಮತದಾರರ	-10.7016
▁auto	-10.7016
▁Under	-10.7028
▁loving	-10.7029
▁ನೆಲೆ	-10.7029
▁ಹೆದ್ದಾರಿ	-10.7032
nic	-10.7032
▁ದೃಷ್ಟಿಕೋನ	-10.7032
▁shal	-10.7032
▁ಪ್ರಾ	-10.7033
▁ಪ್ರಶ್ನಿಸ	-10.7034
▁welcome	-10.7034
▁ಸಹೋದರರ	-10.7037
▁anger	-10.7037
▁text	-10.7038
▁ಶೂಟ	-10.7038
▁ಅದೃಷ್ಟ	-10.7038
mortem	-10.7038
▁Amitabh	-10.7038
▁Arvind	-10.7038
▁Chhattisgarh	-10.7038
▁Kovind	-10.7038
▁Manohar	-10.7038
▁changing	-10.7038
▁receiving	-10.7038
▁ಅಪ್ಲಿಕೇಶನ್	-10.7038
▁ಸಂಪನ್ಮೂಲ	-10.7038
▁ಸಾಂಕ್ರಾಮಿಕ	-10.7038
▁conflict	-10.7038
▁ನಾಟಕ	-10.7038
▁ರಹಸ್ಯ	-10.7038
▁ವಿಳಂಬ	-10.7038
▁ಶೌಚಾಲಯ	-10.7038
▁Actress	-10.7038
▁Control	-10.7038
▁operate	-10.7038
▁spokesperson	-10.7038
▁ನಾಮಪತ್ರ	-10.7038
▁Republic	-10.7038
▁concept	-10.7038
▁military	-10.7038
▁Indira	-10.7038
▁serving	-10.7038
▁ಸಿದ್ಧಾಂತ	-10.7038
▁Greek	-10.7038
▁priority	-10.7038
▁ಧವನ್	-10.7038
▁ರಿಲೀಸ್	-10.7038
▁route	-10.7039
minent	-10.7039
▁argument	-10.7039
▁stress	-10.7039
▁injury	-10.7039
▁warning	-10.7039
▁ಬಹುಮತ	-10.7039
▁ಸಹೋದರಿಯರ	-10.7039
tri	-10.7039
▁property	-10.7039
▁reward	-10.704
▁alive	-10.7041
▁ಟಾಸ್	-10.7041
▁Last	-10.7042
ರಲು	-10.7042
▁ಒಮ್ಮೆ	-10.7042
▁sold	-10.7042
▁harm	-10.7043
▁ಶೇಕಡಾ	-10.7043
▁greatest	-10.7044
ಭರಿತ	-10.7045
▁code	-10.7045
▁Human	-10.7046
▁ಆಫರ್	-10.7046
▁ಒಟ್ಟಾರೆ	-10.7046
▁ಅವರಿಬ್ಬರ	-10.7047
▁ನಡೆಯುತ್ತದೆ	-10.7047
▁activity	-10.7047
ತರ	-10.7047
▁slogans	-10.7048
▁ಸಂದರ್ಭಗಳಲ್ಲಿ	-10.7049
▁ಪೂರೈಸ	-10.705
▁ಐಶ್ವರ್ಯ	-10.705
▁ಹುಡುಗಿ	-10.7051
▁fresh	-10.7051
▁Speaker	-10.7054
▁ಸಂಬಂಧಿತ	-10.7055
▁sharing	-10.7055
▁ತಿಳಿದಿದೆ	-10.7056
▁ಐಆರ್	-10.7057
ಸಿಂಗ್	-10.7057
ಾಧಿಕಾರಿ	-10.7057
▁tender	-10.7058
▁whose	-10.7059
▁ಗುರುತು	-10.706
▁fled	-10.706
▁ರಷ್ಯಾ	-10.706
ita	-10.7061
▁items	-10.7062
▁ಲವ್	-10.7062
▁Bhu	-10.7066
▁ನಡೆಸಬೇಕು	-10.7067
▁Nav	-10.7067
▁Well	-10.7069
▁Sar	-10.7075
▁accounts	-10.7077
▁Lal	-10.7082
▁ಹೊಂದಿದ್ದು	-10.7086
▁ಅವಳಿಗೆ	-10.7086
▁42	-10.7088
▁prizes	-10.7088
▁ಪಾಲಿಕೆ	-10.7089
▁ಹಂತದಲ್ಲಿ	-10.709
ನಿಯ	-10.7091
▁ಮೀ	-10.7092
▁ಅರ್ಹತೆ	-10.7094
▁involve	-10.7096
▁4.	-10.7098
▁ಆಳ	-10.7099
ಯ್	-10.7102
▁ಜೂ	-10.7103
▁...	-10.7111
▁ಭಾಷೆಗಳಲ್ಲಿ	-10.7111
▁ಹಾರ	-10.7112
▁ಶಿಕ್ಷಕರು	-10.7112
▁hot	-10.7113
▁ನೆಟ್	-10.7113
▁ಒತ್ತಾಯಿಸ	-10.7114
▁ಯೋಗಿ	-10.7114
▁ಗಾ	-10.7116
▁ಚೆಕ್	-10.7121
ದಲ್ಲಿದ್ದ	-10.7122
▁ಸೈನ್ಯ	-10.7123
ಲಿಂಗ್	-10.7131
▁base	-10.7134
▁hundreds	-10.7136
▁opening	-10.7136
▁ಹೆಮ್ಮೆ	-10.7138
▁fully	-10.714
▁ವ್ಯವಸ್ಥೆಯನ್ನು	-10.7142
ದಷ್ಟು	-10.7142
▁ಸ್ಥಗಿತಗೊಳಿಸ	-10.7143
▁ಪುಟ್ಟ	-10.7144
ಸಲು	-10.7149
ast	-10.7152
ರಲಿಲ್ಲ	-10.7154
▁individuals	-10.7159
▁ಸೇವನೆ	-10.7159
▁Pat	-10.7163
▁ವಿಚಾರಣೆಗೆ	-10.7163
▁ಹರ್	-10.7167
▁fighting	-10.7169
ಿಸಬೇಕು	-10.7173
▁ಪೋಷಕರ	-10.7173
▁ordered	-10.7173
▁onions	-10.7174
ೇಜ್	-10.7177
▁dies	-10.7179
▁ಪೈ	-10.7182
ವಾದರೂ	-10.7187
▁ಸಾಗ	-10.719
▁ಸಮಸ್ಯೆಯ	-10.7192
▁ಸಾರಿ	-10.7202
▁ಘೋಷಿಸ	-10.7203
ರಾಜ್	-10.7207
▁super	-10.7211
▁ಪರೀಕ್ಷಾ	-10.7212
ನರ್	-10.7214
ಲಿನ	-10.7218
▁ಜಾನ್	-10.7219
ಸಿಸ್	-10.7222
▁ಮಣಿ	-10.7226
ವಾಗಿಯೂ	-10.7235
▁becomes	-10.7237
ಷಾ	-10.724
ಢ	-10.7242
▁ನೀತಿಯ	-10.7244
ಮೇ	-10.7251
ಸಲ	-10.7252
▁ನಿರ್ಬಂಧ	-10.7254
ೂರ್	-10.7255
▁ನೆರವ	-10.7256
ದರಿಂದ	-10.7256
▁ಇತರರು	-10.7258
▁ಸಂತಸ	-10.7263
salm	-10.7272
▁ಮತ್ತಿತರ	-10.7274
▁ತಯಾರಿಸ	-10.7274
ನಾಗಿದ್ದ	-10.7283
▁ವಿಧಿಸ	-10.7285
▁ರೂಪಿಸ	-10.729
ಗಳಲ್ಲಿಯೂ	-10.7295
ಸ್ವಾಮಿ	-10.7296
▁ಕರೆದ	-10.7296
ಲಕ್ಷ	-10.7303
▁ಬಹಿರಂಗಪಡಿಸ	-10.7308
▁ಸ್ಕ	-10.731
▁Sam	-10.7312
ef	-10.7313
▁file	-10.7314
▁ಹೆಸರನ್ನ	-10.7315
▁tradition	-10.7315
▁opinion	-10.7321
▁conversation	-10.7322
▁ಹಬ್ಬದ	-10.7325
▁priest	-10.7325
▁medicine	-10.7329
▁43	-10.7332
▁Service	-10.7334
ದ್ದಾನೆ	-10.7338
▁ಸರಕು	-10.7341
▁MPs	-10.7346
of	-10.735
▁ಕಣ್ಣ	-10.7351
▁ಜೈ	-10.7353
▁ಸಂದರ್ಶನ	-10.7357
▁Kar	-10.736
▁ಸುಖ	-10.7365
▁ಕೈಯಲ್ಲಿ	-10.7367
▁strengthen	-10.7368
▁ಯೋಚನೆ	-10.7371
You	-10.7372
▁presented	-10.7374
ern	-10.7375
▁ಅಚ್ಚರಿ	-10.7377
round	-10.7386
▁ರಂದು	-10.739
mar	-10.739
▁j	-10.7392
▁connect	-10.7393
▁destroy	-10.7396
▁delay	-10.7396
▁provid	-10.7402
▁ಪ್ರಸ್ತಾಪ	-10.7402
ರಾಯ	-10.7402
▁ತಿರಸ್ಕರಿಸ	-10.7404
▁ball	-10.7405
▁ಕೊಠಡಿ	-10.7407
▁ಸಸ್ಯ	-10.7408
▁encourage	-10.741
▁score	-10.741
▁Ne	-10.741
▁struggle	-10.741
▁collapse	-10.7411
▁schedule	-10.7412
▁fair	-10.7414
ಯಂ	-10.7415
▁ಬೀಳ	-10.7416
▁ಚಟುವಟಿಕೆಗಳ	-10.7416
▁ನಿದ್ರೆ	-10.7421
▁ಬಡ್ಡಿ	-10.7422
▁Jadhav	-10.7423
▁agriculture	-10.7423
▁brief	-10.7423
▁grief	-10.7423
▁mankind	-10.7423
▁verdict	-10.7423
▁ಕರೆದುಕೊಂಡು	-10.7423
▁ಪವಾರ್	-10.7423
▁ಪಾಯಿಂಟ್	-10.7423
▁ಪ್ರವಾಸೋದ್ಯಮ	-10.7423
▁ಶೀರ್ಷಿಕೆ	-10.7423
▁ಸಂವಹನ	-10.7423
▁ಜಾಸ್ತಿ	-10.7423
▁ಮೆಮೊರಿ	-10.7423
▁ಸಂಪ್ರದಾಯ	-10.7423
▁ಪ್ರಭು	-10.7423
▁organization	-10.7423
▁Budget	-10.7423
▁impossible	-10.7423
▁ಮೇರೆಗೆ	-10.7423
▁ಎಕರೆ	-10.7423
▁Apart	-10.7423
▁ಹಣಕಾಸಿ	-10.7423
▁ಹೋಂಡಾ	-10.7423
▁Suresh	-10.7423
▁failure	-10.7423
▁Money	-10.7423
▁Among	-10.7423
▁Pawar	-10.7423
▁ಸುಮ್ಮನೆ	-10.7423
▁ಪರಿಪೂರ್ಣ	-10.7423
▁ಬಟ್ಟೆ	-10.7423
▁ಪ್ರತಿಫಲ	-10.7423
▁ತೊಳೆಯಿರಿ	-10.7423
▁myself	-10.7423
▁pieces	-10.7423
▁cancelled	-10.7423
▁massive	-10.7423
▁ಬಾಬು	-10.7424
▁Moreover	-10.7424
▁ಶೀಘ್ರದಲ್ಲೇ	-10.7424
▁2013	-10.7424
▁Currently	-10.7424
▁Job	-10.7424
▁ಮತ್ತೊಬ್ಬ	-10.7424
▁nine	-10.7425
▁Fund	-10.7425
▁awareness	-10.7425
▁James	-10.7425
▁Mix	-10.7425
▁RSS	-10.7425
▁ಚಿದಂಬರಂ	-10.7426
▁UN	-10.7426
▁audience	-10.7426
▁ಬ್ಯಾಟ್ಸ್	-10.7427
▁broken	-10.7428
▁ತಮಿಳುನಾಡು	-10.7428
▁ಮಾಡು	-10.7429
▁inaugurated	-10.743
▁ಸ್ಪೀಕರ್	-10.743
▁Bhatt	-10.7432
ಾನು	-10.7433
▁ತಂದಿದೆ	-10.7433
▁constructed	-10.7434
▁ಕಳೆಯ	-10.7435
▁Mangaluru	-10.7436
▁bit	-10.7436
▁ಪ್ಲಸ್	-10.7442
▁mine	-10.7442
▁developed	-10.7444
rm	-10.7447
▁developing	-10.7447
▁ಪಾಟೀಲ್	-10.7448
ಸಾಧ್ಯವಿದೆ	-10.7448
▁spiritually	-10.7448
▁ನೀಡುವುದು	-10.7449
▁ಪೂಜೆ	-10.7451
▁nobody	-10.7453
▁granted	-10.7453
▁ಶಾಲೆಯಲ್ಲಿ	-10.7454
▁ಮ್ಯಾನ್	-10.7455
▁ಕಿವಿ	-10.7457
▁voters	-10.7457
▁ತಡೆಯ	-10.7458
▁ಸಂವಿಧಾನದ	-10.7459
▁ನೇತೃತ್ವದಲ್ಲಿ	-10.746
▁ಮಾಡಿದರೆ	-10.746
▁mere	-10.7461
▁ತನ್ನದೇ	-10.7464
▁ಒಳಗೆ	-10.7465
ಎಚ್	-10.7468
▁JDS	-10.7471
▁united	-10.7471
▁girls	-10.7472
▁ತೆಗೆದುಹಾಕ	-10.7472
▁smoke	-10.7472
▁ಕೋಟೆ	-10.7474
▁ಪ್ರಾರಂಭ	-10.7474
▁growing	-10.7477
▁ಜಿಲ್ಲೆಗಳಲ್ಲಿ	-10.7481
▁ಸೇವೆಗಳ	-10.7484
▁ಪ್ರಾಧಿಕಾರ	-10.7487
▁Was	-10.749
▁ಮಾಡಿವೆ	-10.7492
▁documents	-10.7494
▁sales	-10.7495
▁ಪಂ	-10.7501
▁ಅಜಯ	-10.7503
▁ಮನಸ್ಸಿನಲ್ಲಿ	-10.7504
ಿಸುವುದಿಲ್ಲ	-10.7505
▁ವೇಗ	-10.7509
den	-10.7509
res	-10.7512
▁ಅಮ	-10.7517
▁ಪೋರ್ಟ್	-10.7518
▁ವರುಷ	-10.7521
ವೊಂದ	-10.7523
▁ಶಿವನ	-10.7526
▁ಸೇರಿಸ	-10.7527
▁ಥ	-10.7529
ತಿಯ	-10.7533
ಜೀವ	-10.754
▁ಸ್ಥಾನದಲ್ಲಿ	-10.7541
▁ನಲ್ಲಿರುವ	-10.7541
▁Up	-10.7547
▁Jain	-10.7561
▁ತಡೆಯಲ	-10.7561
▁ಪ್ರೋತ್ಸಾಹ	-10.7565
▁ಪಂದ್ಯಗಳಲ್ಲಿ	-10.7566
FA	-10.7566
▁ಮತ್ತಿತರರ	-10.7574
▁ಹೆಂಡತಿ	-10.7574
eer	-10.7577
ವಾಗುತ್ತಿದೆ	-10.7579
▁ಮಿಸ್	-10.7579
▁ಮುಚ್ಚಿ	-10.7585
▁ರೇ	-10.7593
ೇಶನ್	-10.7594
tar	-10.7597
▁ಇಲ್ಲದೆ	-10.7601
▁i	-10.7602
ುವುದರಲ್ಲಿ	-10.7606
▁ಸೆರೆ	-10.7608
ಂುು	-10.7618
▁ನೆಲೆಸ	-10.7621
▁ಜಿಬಿ	-10.7622
▁54	-10.7628
▁ಯಾಕಂದ	-10.7629
▁ಟೂರ್ನಿ	-10.7631
▁Kings	-10.7634
▁ಗಾಯಗೊಂಡಿದ್ದ	-10.7642
▁SC	-10.7643
▁ಚಿಂತೆ	-10.7644
▁note	-10.7646
▁ಪು	-10.7648
▁ಗೆಲ್ಲ	-10.7648
▁Give	-10.7649
▁ವಿಷ	-10.765
▁ಕಡ್ಡಾಯ	-10.7651
▁ದಳದ	-10.7657
▁kill	-10.7658
▁ತ್ರಿ	-10.7659
ಾಗಿದ್ದರು	-10.7662
▁ಅಮ್ಮ	-10.7665
▁ಮೋ	-10.7669
▁ಕೈಗೊಳ್ಳಲ	-10.7669
ವೊಂದರಲ್ಲಿ	-10.7671
ಭಾಗ	-10.7671
ಲಾಗಿಲ್ಲ	-10.7681
▁leg	-10.7682
ಾಯ್	-10.7685
▁ಸಾಮ	-10.7685
ಿಕ್	-10.7686
mm	-10.7688
▁51	-10.769
▁structure	-10.7692
▁ಸಮೀಪದ	-10.7695
▁litre	-10.7696
▁tweet	-10.7696
▁ಮನಮೋಹನ	-10.7696
▁havent	-10.7697
▁ಸಿಸಿ	-10.7699
ಧಾ	-10.77
over	-10.77
▁ದೊರಕ	-10.7705
ುವುದಾಗಿ	-10.7705
▁Hi	-10.7709
oc	-10.7709
▁ನಡೆಯುತ್ತಿರುವ	-10.7711
▁desire	-10.7711
▁stands	-10.7712
▁ಚಿತ್ರರಂಗ	-10.7712
ap	-10.7717
ec	-10.7717
▁73	-10.7718
run	-10.7719
▁ಸಮಾರಂಭದ	-10.772
▁tablespoon	-10.7721
▁airport	-10.7723
▁window	-10.7723
▁conditions	-10.7724
▁ಇದಾದ	-10.7724
▁costs	-10.7724
▁Railway	-10.7725
ೆಡ್	-10.7726
▁measure	-10.7727
ರದ	-10.7727
▁plant	-10.7728
▁ನಿಯಮಗಳ	-10.7731
▁ಬದುಕಿನ	-10.7732
ಿದವು	-10.7736
▁ಹೊಲ	-10.7737
▁en	-10.7737
▁ಬಾಕಿ	-10.7738
▁ಪಡಿಸ	-10.7739
▁ಕೆಲಸದಲ್ಲಿ	-10.7744
▁count	-10.7755
▁expect	-10.7762
▁perform	-10.7764
▁suffer	-10.7764
void	-10.7765
▁diseases	-10.7767
ಮಿತ	-10.7768
FC	-10.7773
ಂತ್ರ	-10.7776
do	-10.7783
▁scene	-10.7788
▁shoot	-10.7791
▁ಪರಿಚಯ	-10.7792
▁ವಲಯದ	-10.7793
▁Star	-10.7794
▁ನದಿಯ	-10.7795
▁ಅಂಶಗಳ	-10.7797
▁poll	-10.78
▁ಪ್ರಾಣಿ	-10.7805
▁ಕಟ್ಟಿ	-10.7807
▁ಪೀಠ	-10.781
▁ಶಾಲೆಯ	-10.781
▁ಮುಂದುವರೆಯ	-10.7814
ೊಡನೆ	-10.7814
▁ಬೊ	-10.7814
▁effective	-10.7817
▁ನಿರ್ಮಲಾ	-10.7818
▁motor	-10.782
▁prepare	-10.7821
▁transport	-10.7822
▁Gupta	-10.7823
▁Joseph	-10.7823
▁category	-10.7823
▁floor	-10.7823
▁length	-10.7823
▁tbsp	-10.7823
▁teaspoon	-10.7823
▁ಅಕ್ಟೋಬರ್	-10.7823
▁ಓಪನ್	-10.7823
▁ಕೊಂಚ	-10.7823
▁ಡೇವಿಡ್	-10.7823
▁ಬೆಳಿಗ್ಗೆ	-10.7823
▁ವೈಜ್ಞಾನಿಕ	-10.7823
▁Ashwin	-10.7823
▁Rural	-10.7823
▁beauty	-10.7823
▁presence	-10.7823
▁ಧೂಮಪಾನ	-10.7823
▁discipline	-10.7823
▁ತರುವಾಯ	-10.7823
▁guard	-10.7823
▁detained	-10.7823
▁ವರ್ಗಾವಣೆ	-10.7823
▁laid	-10.7823
▁ಇಂದಿರಾ	-10.7823
▁ongoing	-10.7823
▁debut	-10.7823
▁Gauri	-10.7823
▁relief	-10.7823
▁ಆಶೀರ್ವಾದ	-10.7823
ಪಕ್ಷೀಯ	-10.7823
▁German	-10.7823
▁ಆಫೀಸ	-10.7823
▁flesh	-10.7823
▁Rajput	-10.7823
▁ಮಹೇಂದ್ರ	-10.7823
▁proof	-10.7823
▁Indies	-10.7824
▁ಸಂಬಂಧಪಟ್ಟ	-10.7824
▁panel	-10.7824
▁creation	-10.7824
▁Free	-10.7825
▁Rajesh	-10.7825
▁ಸುರೇಶ್	-10.7825
▁ಉಮೇಶ್	-10.7827
ov	-10.7828
▁imposed	-10.7828
▁Mayor	-10.7828
▁weather	-10.7828
▁introduced	-10.7829
▁2008	-10.7829
▁pick	-10.7829
▁ಸಿಹಿ	-10.7829
▁ತೋರಿಸುತ್ತದೆ	-10.7829
▁ಅಂಡ್	-10.783
▁ಸಂಘರ್ಷ	-10.7831
▁ಅಗಲ	-10.7831
▁ಹುಡುಕಾಟ	-10.7831
▁ನೀಡಲಿದ್ದಾರೆ	-10.7832
▁Scriptures	-10.7833
her	-10.7833
▁promised	-10.7833
▁ಮಾಡಿದ್ದೇವೆ	-10.7834
▁ನಿದ್ದೆ	-10.7834
▁Show	-10.7834
▁ತಿಳಿದಿಲ್ಲ	-10.7834
▁ಸಾಧಿಸಲು	-10.7835
▁ಹೀಗಿದೆ	-10.7835
▁proved	-10.7836
▁ಆತ್ಮಿಕ	-10.7836
▁Pleas	-10.7836
ನ್ನೆಲ್ಲ	-10.7838
ash	-10.7838
ಗೊಳ್ಳ	-10.7838
▁properly	-10.7839
▁ಇದ್ದರೆ	-10.7839
▁ಬರಲಿಲ್ಲ	-10.7841
▁criticis	-10.7842
▁38	-10.7842
▁managed	-10.7842
▁shown	-10.7845
▁Class	-10.7846
SD	-10.7847
▁105	-10.7848
▁ಸಿಕ್ಕಿಲ್ಲ	-10.785
▁ಕೊನೆಗೆ	-10.7851
▁ಉಡುಪಿ	-10.7851
▁preaching	-10.7852
▁Kha	-10.7855
▁ಅಡ್ಡ	-10.7857
▁Child	-10.7858
▁ಮತ್ತಾ	-10.7858
ಿದ್ದರಿಂದ	-10.7861
ಷಿ	-10.7861
▁ಭವಿಷ್ಯದ	-10.7863
▁honoured	-10.7865
▁greater	-10.7867
▁Wi	-10.7873
▁ಅವಧಿಯ	-10.7874
▁ವರ್ಷಗಳಲ್ಲಿ	-10.7875
▁ಜಿಯೋ	-10.788
▁ಜನರಲ್ಲಿ	-10.788
ki	-10.7882
▁ಇಸ್ರಾಯೇಲ್	-10.7891
▁ಇನ್ನೇನ	-10.7906
▁headed	-10.7906
▁ಮಿಂಚ	-10.7909
▁ಮೋಶೆಯ	-10.7912
▁ಸಕಾರಾತ್ಮಕ	-10.7913
▁round	-10.7917
▁ಈಗಿನ	-10.7918
▁ಪ್ರಯತ್ನಿಸಿ	-10.7918
ಂದರೆ	-10.7923
een	-10.7924
▁ಇಲ್ಲದ	-10.7924
▁ಶತಮಾನದ	-10.7924
NG	-10.7925
▁ho	-10.7927
▁ಬಗೆ	-10.7929
▁Yogi	-10.7936
▁ಬದ್ಧ	-10.794
▁ಗೊತ್ತ	-10.7941
▁ಸಮಗ್ರ	-10.7947
ುವದು	-10.7955
▁ಸೋಲ	-10.7958
▁ಆಗ್ರಹಿಸ	-10.7958
▁ಕೋರ	-10.7958
ಟು	-10.796
▁attacks	-10.7963
▁ಸ್ಪರ್ಧೆಯಲ್ಲಿ	-10.7966
ಾಗಿಯೇ	-10.7972
▁ಎಂಬುದಾಗಿ	-10.7973
▁ಹುದ್ದೆಗಳ	-10.7973
▁ಓಡಿ	-10.7976
▁notes	-10.7977
ಿಸಿಕೊಂಡ	-10.7982
▁ಸಿದ್ದ	-10.7986
▁ಸ್ಥಳಗಳಲ್ಲಿ	-10.7994
▁ಪೂರೈಕೆ	-10.7995
▁ಅಲ	-10.7995
ಿಸಿದ್ದರು	-10.8003
▁ಸೂ	-10.8004
▁ಮಗನಾ	-10.8006
▁ಪ್ರಕರಣಗಳ	-10.8014
ಪೆ	-10.8016
ರಿನ	-10.8017
▁ಪ್ರಸಾರ	-10.8026
▁ಬಡವರ	-10.803
▁n	-10.8033
▁ಮಾತುಗಳ	-10.8034
ಯಾಗುತ್ತಿದೆ	-10.8035
▁ಆವೃತ್ತಿಯ	-10.8035
▁ವಿಷಯಗಳು	-10.8035
▁ಮತ್ತ	-10.8037
ber	-10.8037
▁ನೀನ	-10.8041
▁ಫೆ	-10.8047
▁ಮುಸ್ಲಿಮರ	-10.8048
▁ಸಹಿ	-10.8049
ಮುಖ	-10.805
▁ಗಮನಿಸ	-10.8059
▁ಆಡಿ	-10.8059
oy	-10.8062
▁investigations	-10.8063
▁ಒತ್ತಿ	-10.8082
ಹೆ	-10.8082
▁method	-10.8083
▁ಎದುರಾಗ	-10.8083
ಡಿಯ	-10.8083
▁handle	-10.8087
▁ಈತ	-10.8089
▁ಅನಂತರ	-10.809
▁cameras	-10.8091
▁ಅಂಕ	-10.8096
ರಹಿತ	-10.8096
▁ಮಾಡಿರುವುದ	-10.8098
ಪ್ರತಿ	-10.81
ಿಸುತ್ತೇವೆ	-10.8101
▁ನಾಲ್ಕನ	-10.8103
▁lay	-10.8103
ಗಳೆಂದರೆ	-10.8108
▁mode	-10.811
com	-10.8112
ಲ್ಪಡ	-10.8113
ಲೀಟರ್	-10.8114
ಕಾಂಗ್ರೆಸ್	-10.8114
▁cap	-10.8121
▁ದೂರಿನ	-10.8124
▁190	-10.8124
que	-10.8125
▁ಜನಸಂಖ್ಯೆ	-10.8126
hath	-10.8129
▁ನ್ಯಾಯಾಲಯದಲ್ಲಿ	-10.8133
▁ವಿವರಿಸ	-10.8134
▁ಕೊಂದ	-10.8134
▁bill	-10.8136
▁advantage	-10.814
▁UP	-10.8152
▁double	-10.8154
್ತಿದೆ	-10.8164
▁ji	-10.8167
ಕೊಂಡಿದ್ದಾರೆ	-10.8176
▁Though	-10.8181
▁ಪರೀಕ್ಷೆಯ	-10.8182
▁ಭಾಗವಹಿಸ	-10.8184
▁ಭಾಗಗಳ	-10.8196
▁ಸಲ್ಲಿಕೆ	-10.8196
ES	-10.8198
▁Use	-10.8199
ಲಿಯ	-10.82
▁ವಹಿಸಿ	-10.8201
▁ಬೆಳೆಯ	-10.8205
▁ಬೆಳೆದ	-10.8206
▁gather	-10.8207
▁ಯೋಚಿಸಿ	-10.8208
▁sub	-10.8211
▁crash	-10.8212
▁ಸಹಾಯಮಾಡ	-10.8214
▁mention	-10.8215
▁ಮೃದು	-10.8221
▁ಭಯೋತ್ಪಾದನೆ	-10.8221
▁ಏನೇನ	-10.8223
▁Change	-10.8223
ug	-10.8225
ಾಂಶ	-10.8228
▁sit	-10.823
ುವರು	-10.8231
ಲೇಬೇಕು	-10.8233
▁treat	-10.8233
ಕ್ಕೇ	-10.8234
▁judici	-10.8238
▁billion	-10.8239
ೊನಾಲ್ಡ	-10.8239
▁ನಕಲಿ	-10.8239
▁Authority	-10.8239
▁Consider	-10.8239
▁Fadnavis	-10.8239
▁Jaitley	-10.8239
▁Pandey	-10.8239
▁Pulwama	-10.8239
▁Rajinikanth	-10.8239
▁Woman	-10.8239
▁accompani	-10.8239
▁condemn	-10.8239
▁panchayat	-10.8239
▁ತಿರುಗೇಟು	-10.8239
▁ಮೆರವಣಿಗೆ	-10.8239
▁Mysore	-10.8239
▁ಎಣಿಕೆ	-10.8239
▁ತಾಳ್ಮೆ	-10.8239
▁ಬಾಹ್ಯಾಕಾಶ	-10.8239
▁Sometimes	-10.8239
▁ಪರಿಣಮಿಸ	-10.824
▁ದೀಪಾವಳಿ	-10.824
▁Sushant	-10.824
▁fuel	-10.824
▁ಜಾರ್ಜ್	-10.824
▁infrastructure	-10.824
▁Steve	-10.824
▁ಬೆರೆಸಿ	-10.824
▁ಮುಖರ್ಜಿ	-10.824
▁ಬೆನ್ನಲ್ಲೇ	-10.824
▁ಹೊರಬಂದ	-10.824
ೋತ್ತರ	-10.824
▁SMS	-10.824
▁ಸ್ಕ್ರೀನ್	-10.8241
▁ಆಧಾರಿತ	-10.8241
▁CPI	-10.8241
▁Everybody	-10.8241
▁ಹೋಟೆಲ್	-10.8242
▁ಆರೋಪಿಸಿದ್ದಾರೆ	-10.8242
▁Aishwarya	-10.8243
▁ಹೆಚ್ಚಿಸುತ್ತದೆ	-10.8243
ಡಿಕಲ್	-10.8243
▁personality	-10.8243
▁quickly	-10.8244
▁ನಡೆಸುತ್ತಿದೆ	-10.8245
▁followers	-10.8245
▁ಮನೋಹರ್	-10.8245
▁ಮಾಡಲಾಗಿತ್ತು	-10.8245
▁ಮಾಡುತ್ತೇವೆ	-10.8246
▁experts	-10.8246
▁protesters	-10.8246
▁ಮಹಿಳೆಯ	-10.8247
▁Germany	-10.8247
▁Govt	-10.8248
ೆಲ್	-10.825
▁Asian	-10.825
▁legislators	-10.825
94	-10.8251
▁Yu	-10.8252
ಾಗಬೇಕು	-10.8253
▁ನೇಪಾಳ	-10.8253
▁ಗ್ರಾಮಸ್ಥರು	-10.8255
▁raped	-10.8256
▁ಸಾಗರ	-10.8258
▁feed	-10.8259
▁Manish	-10.826
▁ಆಗಲಿದೆ	-10.8261
▁resigned	-10.8262
▁ದಾಖಲಿಸಿದ್ದಾರೆ	-10.8262
▁2,000	-10.8263
▁ಹೋದರು	-10.8265
▁ಆಗಲಿಲ್ಲ	-10.8266
▁ಖರೀದಿಸ	-10.8266
▁ಕೃತಿ	-10.8268
▁ಏಷ್ಯಾ	-10.8268
▁AAP	-10.827
▁vision	-10.8273
▁ವಲಯದಲ್ಲಿ	-10.8273
▁ಬದಲಾಯಿಸ	-10.8273
ಾಧಿ	-10.8273
ಗೊಂಡು	-10.8274
▁ಮುಂದುವರೆಸ	-10.8274
poll	-10.8275
port	-10.8278
▁3,	-10.8278
ified	-10.8278
▁forth	-10.8279
ಂಟಿ	-10.8281
▁beat	-10.8285
▁ಜಗಳ	-10.8286
▁ತಡ	-10.829
▁ಪೊ	-10.8291
▁ನಿರ್ಮಾಪಕ	-10.8295
ಕ್ಕು	-10.83
▁bo	-10.83
▁ಹರಿ	-10.8301
▁forever	-10.8302
▁ಪ್ರೆಸ್	-10.8303
▁crops	-10.8304
▁producer	-10.8306
▁ಪ್ರವಾಸಿ	-10.8307
▁ಸೀಟು	-10.8308
▁blessings	-10.8313
▁ಇವುಗಳನ್ನು	-10.8313
▁ಹಾಲಿ	-10.8313
▁ಲಾಲ್	-10.8316
▁ಹೇಳಿಕೆಯನ್ನು	-10.8317
▁ತಿರುಗಿ	-10.8317
▁ಕೇರಳದ	-10.8319
▁ನಿರೀಕ್ಷಿಸ	-10.8321
▁lies	-10.8323
▁ಮೋದಿಯವರು	-10.8329
▁ತೃಪ್ತಿ	-10.8329
▁Bha	-10.833
ನಲ್ಲ	-10.8332
ight	-10.8332
▁ಪುರಾತ	-10.8336
▁ಫಾ	-10.8336
ಿಂತಲೂ	-10.8338
▁ಅವಳನ್ನು	-10.8341
▁forms	-10.8346
▁ability	-10.8348
ಮಿನ	-10.8348
▁ಪ್ರಯಾಣಿಕರು	-10.8349
▁ಕಾರ್ಯಕ್ರಮಗಳು	-10.8353
ಿರುತ್ತವೆ	-10.8354
▁ಬೈಬಲಿನ	-10.8354
▁stones	-10.8355
▁hate	-10.8355
▁multipl	-10.8364
▁bar	-10.837
▁ಪಾತ್ರವನ್ನು	-10.8379
▁ಟ್ರಕ್	-10.8379
ence	-10.8384
▁ಸುವಾರ್ತೆ	-10.8386
▁Di	-10.8387
▁ಯೋಜನೆಗಳು	-10.839
▁photos	-10.8392
▁degrees	-10.8397
ಧಿ	-10.8398
▁attacked	-10.84
▁centres	-10.8402
▁leads	-10.8404
▁ಸ್ಪಷ್ಟವಾಗಿ	-10.8407
ಗೌಡ	-10.8409
▁ಶರ	-10.8419
bb	-10.8424
uk	-10.8427
ಡರ್	-10.8428
▁ಹೊರಡ	-10.8435
ುತ್ತೀರಾ	-10.8436
▁prayers	-10.8441
▁pen	-10.8447
▁ಪ್ರಣ	-10.8449
▁ಲೇ	-10.8449
▁ಸಮಸ್ಯೆಗಳ	-10.8455
▁ಅರ್ಜಿಯ	-10.8458
▁ಮದುವೆಯ	-10.8464
▁ಡಿಸ್	-10.8469
ೆಂಬರ್	-10.8471
par	-10.8473
▁ರಣ	-10.8474
ಿಕೆಯ	-10.8474
▁ಗ್ರಾಮದಲ್ಲಿ	-10.8481
ರಿಗೂ	-10.8491
ley	-10.8494
ೀಗ	-10.8494
▁ಸಂಘಟನೆಯ	-10.8494
▁Raja	-10.8502
ists	-10.8509
▁ಕಣ	-10.8511
▁ದಾ	-10.8511
▁starr	-10.8513
▁ರೋಗದ	-10.8517
▁extra	-10.852
▁Li	-10.8521
ಿದ್ದಂತೆ	-10.8521
ins	-10.8529
EC	-10.853
▁ವಿಶ್ವಸಂಸ್ಥೆಯ	-10.8538
▁ಬಿಡುಗಡೆಯಾಗ	-10.8541
ವಣ	-10.8547
off	-10.8549
ಪತ್ರ	-10.855
ಲ್ಲವೇ	-10.8553
ದ್ದಾಗಿದೆ	-10.8553
ಯನ್ನ	-10.8556
▁Get	-10.8559
▁ಒಳಗಾಗ	-10.856
charge	-10.8563
▁produces	-10.8563
ಿಸಿದ್ದ	-10.8564
11	-10.8565
▁ಹಾದಿ	-10.8568
ಕೋಟಿ	-10.8572
▁image	-10.8576
▁section	-10.8576
▁standard	-10.8577
▁Motor	-10.8577
▁belong	-10.8579
▁sport	-10.858
ಚಾರ	-10.8582
▁ಚಿಕಿತ್ಸೆಯ	-10.8583
ರಾಮ	-10.859
▁comprise	-10.8593
ಿದು	-10.8594
ಾನ	-10.8594
ತೀ	-10.8596
▁infection	-10.8599
act	-10.8601
▁promise	-10.8602
▁ಶಾಸ್ತ್ರ	-10.8603
70	-10.8603
▁ಬೇಕ	-10.8605
▁ಕೊಲ್ಲ	-10.8606
▁ಆರ್ಥಿಕತೆ	-10.8609
▁ಹಿತ	-10.8617
lic	-10.8622
▁ಸುಳ್ಳ	-10.8624
▁mo	-10.8629
▁slow	-10.8629
▁ತ್ವರಿತ	-10.8632
▁64	-10.8634
▁ರೋಗಿಗಳ	-10.8635
▁ಬದುಕು	-10.8636
ಯಾಗಿದ್ದರು	-10.8637
▁command	-10.8639
▁ಬು	-10.8641
▁preach	-10.8644
▁ಮಧ್ಯಪ್ರದೇಶ	-10.8645
eign	-10.8645
▁reveal	-10.8647
▁ಹೃದಯದ	-10.8648
▁ವಿಳಾಸ	-10.865
▁ಹೆತ್ತವರ	-10.865
▁ಕಾರಿನಲ್ಲಿ	-10.8651
90	-10.8654
▁ಹಂಚಿಕೊಂಡ	-10.8656
mp	-10.8657
▁Sha	-10.8658
▁ತ್ಯಾಗ	-10.8659
▁ಭಿನ್ನ	-10.8659
▁solve	-10.8662
▁ಉತ್ಪನ್ನಗಳ	-10.8666
▁translat	-10.8666
▁SP	-10.8669
▁ಸಂಕೀರ್ಣ	-10.867
▁favour	-10.867
▁Petrol	-10.8671
▁ಬನ್ನಿ	-10.8672
▁ಅಂದಾಜು	-10.8673
▁di	-10.8673
▁ಸಾಲಿನ	-10.8673
ಾವಧಿ	-10.8674
▁submit	-10.8674
▁Sushm	-10.8674
▁Diwali	-10.8674
▁Egypt	-10.8674
▁Hebrew	-10.8674
▁Lakshmi	-10.8674
▁Matthew	-10.8674
▁Mishra	-10.8674
▁Odisha	-10.8674
▁Officials	-10.8674
▁Pandya	-10.8674
▁Proverbs	-10.8674
▁Shikhar	-10.8674
▁challenging	-10.8674
▁cinema	-10.8674
▁equipment	-10.8674
▁judgment	-10.8674
▁stories	-10.8674
▁ಜಾಧವ್	-10.8674
▁ತದನಂತರ	-10.8674
▁ಪಂಚಾಯಿತಿ	-10.8674
▁ಬೆಳ್ಳುಳ್ಳಿ	-10.8674
▁ಮಂಡ್ಯ	-10.8674
▁ವೇಳಾಪಟ್ಟಿ	-10.8674
▁Smith	-10.8674
▁amazing	-10.8674
▁losing	-10.8674
▁species	-10.8674
▁ಪರ್ಯಾಯ	-10.8674
▁ಪೈಲಟ್	-10.8674
▁ಸ್ಮಿತ್	-10.8674
▁Vitamin	-10.8674
▁constant	-10.8674
▁Family	-10.8674
▁iPhone	-10.8674
▁illegal	-10.8674
▁ಪ್ರೀಮಿಯ	-10.8674
▁commercial	-10.8674
▁ಬದಲು	-10.8674
▁legend	-10.8674
▁grew	-10.8675
▁pending	-10.8675
▁ನೋಟಿಸ್	-10.8675
▁ಐಫೋನ್	-10.8675
▁ಕಾಣಿಸಿಕೊಳ್ಳುತ್ತ	-10.8675
▁submitted	-10.8675
▁LED	-10.8675
▁flag	-10.8675
dev	-10.8676
▁authority	-10.8676
▁sitting	-10.8676
▁highway	-10.8676
▁ಸುಂಕ	-10.8676
▁batting	-10.8676
▁ನಿಗಾ	-10.8676
red	-10.8677
ನಾಥ	-10.8677
▁crucial	-10.8677
▁ಮಾಡಲಾಗುತ್ತಿದೆ	-10.8677
▁ಗುರುತಿಸಲಾಗಿದೆ	-10.8677
▁Never	-10.8677
▁scientific	-10.8677
▁Ambedkar	-10.8677
▁ಸ್ಪಷ್ಟನೆ	-10.8678
▁winter	-10.8678
▁ವಿವರಿಸಿದರು	-10.8679
▁ಆಕಾಶ	-10.8679
▁assistance	-10.8679
▁European	-10.868
▁ಸ್ಟೋರಿ	-10.868
▁ನೀಡಲಾಗುತ್ತದೆ	-10.868
▁ಹಂಚಿಕೆ	-10.8681
▁ತಪಾಸಣೆ	-10.8681
▁ಪ್ಯಾನ್	-10.8681
▁male	-10.8681
▁ಪ್ರಶ್ನಿಸಿದರು	-10.8681
▁ಇರಬಹುದು	-10.8681
▁wishes	-10.8682
▁collection	-10.8682
▁ವ್ಯಕ್ತಿತ್ವ	-10.8683
▁November	-10.8683
▁ourselves	-10.8683
▁ಪರಂಪರೆ	-10.8683
▁Civil	-10.8683
▁ಹೋಗುತ್ತದೆ	-10.8684
▁annual	-10.8684
▁ಬಾಗಿಲು	-10.8685
▁ಮನೋ	-10.8687
▁balance	-10.8687
▁ಬಾಂಗ್ಲಾದೇಶ	-10.8688
▁Photo	-10.8689
ಟೋ	-10.8689
▁ಪಾಂಡೆ	-10.869
▁56	-10.869
▁ಇನ್ನೊಬ್ಬ	-10.869
▁finished	-10.8691
▁ಲೇಖನದಲ್ಲಿ	-10.8691
▁ಬದಲಿಸ	-10.8693
▁explained	-10.8693
▁None	-10.8693
▁ಬಾಲಕ	-10.8694
▁ಬರೀ	-10.8694
▁ಗಣ್ಯರು	-10.8694
▁UK	-10.8695
ಂಧ	-10.8696
▁ಹರಿದು	-10.8698
▁ಹೊಸದಾಗಿ	-10.8698
▁ಬಿಹಾರದ	-10.8699
▁ಜೂನ್	-10.8702
▁ಬದಲಾಗ	-10.8706
▁ಸೆಪ್ಟ	-10.8706
ron	-10.8706
▁Doctors	-10.8707
dom	-10.871
▁ಸೇವಿಸಿ	-10.8711
▁sell	-10.8712
▁ಮಟ್ಟಿಗೆ	-10.8713
▁factors	-10.8713
▁ವಾರದ	-10.8713
ವ್ಯ	-10.8714
▁filled	-10.8719
▁ಆಗಾಗ	-10.8722
▁ಶಂಕರ್	-10.8722
▁ಸುತ್ತಲ	-10.8722
ಾರಾ	-10.8724
▁affairs	-10.8724
▁ಅದನ್ನೇ	-10.8727
ೂರ	-10.8729
▁ದಾಳಿಯಲ್ಲಿ	-10.873
▁highly	-10.8735
▁bowl	-10.8737
▁ಅನ್	-10.8738
▁ತಕ್ಕಂತೆ	-10.874
ered	-10.874
▁ನರ	-10.8743
▁ರವರೆಗೆ	-10.8744
▁ಲಭಿಸ	-10.8745
▁52	-10.8747
▁ಸ್ಪಷ್ಟಪಡಿಸ	-10.8748
▁react	-10.8749
▁ಪ್ರವಾಸಿಗರು	-10.8753
▁ಪರೀಕ್ಷಿಸ	-10.8754
▁ಕಿಂಗ್ಸ್	-10.8756
▁ಕಲ್ಪಿಸ	-10.8757
▁Name	-10.8758
▁ಪಟ್ಟು	-10.8758
▁ಪುನರ್	-10.8762
▁ಜು	-10.8763
▁ಹತ್ತ	-10.8765
uddin	-10.8767
▁ನಿಯಮಗಳು	-10.877
con	-10.8772
▁fan	-10.8773
▁ಸ್ಪೀಡ್	-10.8775
▁ದೀಪ	-10.8776
12	-10.8776
▁ಶಿ	-10.8783
▁Dis	-10.8784
ಿಟ್ಟ	-10.8788
signed	-10.8788
▁ಪ್ರಶ್ನೆಗಳನ್ನು	-10.8788
ಯಿಲ್ಲ	-10.8794
ಾಲ	-10.8796
▁ಕೂಟ	-10.8796
▁ಆಯ್ಕೆಯನ್ನು	-10.8797
▁orders	-10.8798
▁ಅಪರೂಪದ	-10.8798
▁ಲಿಂಗ	-10.8801
▁ಕ್ರೈಸ್ತರು	-10.8801
ದ್ರ	-10.8802
ೀನ್	-10.8807
▁ಯೋಜನೆಯನ್ನು	-10.8808
▁floods	-10.8808
▁ಪೇ	-10.8808
ಯಾಗಿದ್ದಾರೆ	-10.8808
▁standing	-10.8808
ದಿಂದಲೇ	-10.881
▁47	-10.8813
ೇಗೌಡ	-10.8814
▁ವ್ಯಕ್ತಿಗಳು	-10.8816
▁ಪ್ರೀತಿಸ	-10.8817
▁ಬಳಕೆದಾರರ	-10.8822
ham	-10.8824
gar	-10.8824
▁ಸೇವೆಗಳು	-10.8827
▁Say	-10.8828
ವಾಗುವ	-10.8833
▁DC	-10.8836
▁ಕಡಿತ	-10.8841
ಲಿಂಗ	-10.8843
▁temples	-10.8844
▁ಧನ	-10.8846
▁ಸ್ಪ	-10.8846
▁ಶರೀರ	-10.8848
25	-10.8853
▁ಪ್ರಾರ್ಥಿಸ	-10.8858
▁secure	-10.8864
▁ಕಾಮ	-10.8868
ool	-10.8873
▁ಪರ್	-10.8877
ದ್ದನ್ನು	-10.8878
▁ಹೇಳಿಕೊಂಡ	-10.8879
form	-10.888
rang	-10.8881
ದಲ್ಲಿದೆ	-10.8881
▁Jan	-10.8882
▁marks	-10.8883
▁ಆಹ್ವಾನ	-10.8887
jay	-10.8889
ಾಳ	-10.8892
▁ನಾಗ	-10.8893
aj	-10.8895
▁ಭೀಕರ	-10.8916
tan	-10.8917
▁ಉಪಯೋಗ	-10.8917
adi	-10.8918
▁thoughts	-10.8921
▁ಸ್ಥಿತಿಯಲ್ಲಿ	-10.8925
▁trip	-10.8932
▁ವ್ಯಾ	-10.8932
ph	-10.8934
▁Ti	-10.8936
▁ಪರಿಶೀಲಿಸಿ	-10.894
▁Da	-10.8943
ಟಲ್	-10.8948
▁compare	-10.8948
▁ಹೆಂಡತಿಯ	-10.8952
▁ಸುರಕ್ಷಿತವಾಗಿ	-10.8953
▁ವರ್ತಿಸ	-10.8954
▁thee	-10.8957
್‍	-10.8974
‍‍	-10.8976
▁ವಾ	-10.8977
▁facts	-10.898
ಮಯ	-10.8986
▁ದ್ವೀಪ	-10.899
▁sex	-10.8991
▁ರಸ್ತೆಯ	-10.8992
▁ಅಭಿಯಾನ	-10.8994
ಪೂರ್ಣ	-10.8995
▁ಗುಪ್ತ	-10.8995
thi	-10.8996
garh	-10.8998
▁ಅಭಿಮಾನಿ	-10.9003
ದೇವರ	-10.9003
ಜೆಡಿಎಸ್	-10.9003
ig	-10.9004
But	-10.9005
ಪುಟ್ಟ	-10.9005
▁ಆಚರಣೆ	-10.9006
end	-10.9007
▁worlds	-10.9014
▁ಮನುಷ್ಯ	-10.9015
▁ಸಾಲು	-10.902
▁ಗೌಡ	-10.9029
▁mountain	-10.903
▁patient	-10.9032
▁servant	-10.9032
▁Royal	-10.9035
▁ದೇವರನ್ನು	-10.9039
▁ಸೇತುವೆ	-10.9042
▁ಆರೋಪದ	-10.9043
ಆಗಸ್ಟ್	-10.9044
▁ವಕೀಲ	-10.9054
They	-10.9056
▁ಪ್ರವಾದಿ	-10.9058
▁achieve	-10.9059
ನ್ನಿ	-10.9059
▁ವೇದಿಕೆ	-10.9063
▁ಕಾಶ್ಮೀರದ	-10.9064
▁18.	-10.9072
▁Acts	-10.9074
▁ಶಿಕ್ಷಕ	-10.9075
ಕರು	-10.9087
ಯುತ	-10.9088
▁lack	-10.9095
▁ಸ್ಪರ್ಧಿಸ	-10.9095
▁ಸೇನೆಯ	-10.9095
▁imp	-10.9097
▁ನೋ	-10.9097
▁ಪಡೆದುಕೊಳ್ಳ	-10.9098
▁2.0	-10.91
ವೊಂದು	-10.91
ತೆಗೆ	-10.9101
▁ದರ್ಶನ	-10.9104
▁17.	-10.9108
▁ಆಗಮಿಸಿ	-10.911
▁ಕಂಬ	-10.9111
▁ಗೆಲುವ	-10.9111
▁ಶುಭಾಶಯ	-10.9115
▁ಅಭಿನಂದನೆ	-10.9118
▁ದ್ವಿತೀಯ	-10.912
▁strict	-10.912
▁America	-10.9121
▁peaceful	-10.9123
▁ಅಂದಿನ	-10.9124
ಿಕೊಳ್ಳುವ	-10.9126
▁ಹೋ	-10.9127
▁ಸ್ಥಾಪನೆ	-10.9128
▁Express	-10.9128
▁Further	-10.9129
▁Afghanistan	-10.9129
▁Ayodhya	-10.9129
▁anniversary	-10.9129
▁bread	-10.9129
▁cautious	-10.9129
▁compensation	-10.9129
▁computer	-10.9129
▁disrupted	-10.9129
▁glory	-10.9129
▁literature	-10.9129
▁middle	-10.9129
▁university	-10.9129
▁writing	-10.9129
▁ಅಂಬೇಡ್ಕರ್	-10.9129
▁ಅವಘಡ	-10.9129
▁ಏಕೈಕ	-10.9129
▁ಡಿಸೆಂಬರ್	-10.9129
▁ತೆಂಡೂಲ್ಕರ್	-10.9129
▁ನಿರ್ವಹಣಾ	-10.9129
▁ಯುನೈಟೆಡ್	-10.9129
▁ಸ್ವಾಮೀಜಿ	-10.9129
▁ಹರ್ಯಾಣ	-10.9129
▁guide	-10.9129
▁ಬಾಂಧವ್ಯ	-10.9129
▁ಸಂಶಯ	-10.9129
▁Business	-10.9129
▁ಸಕಲ	-10.9129
▁residence	-10.9129
▁ಏಪ್ರಿಲ್	-10.9129
▁ಕ್ಯಾಪ್ಟನ್	-10.9129
▁Dubai	-10.9129
▁vital	-10.9129
▁driving	-10.9129
▁headquarters	-10.9129
▁aircraft	-10.9129
▁Executive	-10.9129
▁pull	-10.9129
▁ಚರ್ಚೆಯ	-10.9129
▁bond	-10.9129
▁French	-10.9129
▁Corporation	-10.9129
▁indeed	-10.9129
▁bright	-10.913
▁objective	-10.913
▁Similarly	-10.913
▁ಗ್ರಾಮಾಂತರ	-10.913
▁sentence	-10.913
▁permission	-10.913
▁ಹಿತಾಸಕ್ತಿ	-10.913
▁scam	-10.913
▁race	-10.913
▁Joshi	-10.9131
▁anywhere	-10.9131
▁scared	-10.9131
ಾರಿ	-10.9132
▁ಅಜಿತ್	-10.9132
▁ರಾಯ್	-10.9133
▁protection	-10.9133
▁Want	-10.9133
▁ಒದಗಿಸುತ್ತದೆ	-10.9135
▁Once	-10.9135
▁ಹೇಳುತ್ತಾನೆ	-10.9135
▁ಕಾಣಬಹುದು	-10.9135
▁everybody	-10.9135
ank	-10.9135
▁Shahid	-10.9135
▁Apply	-10.9135
▁exactly	-10.9135
▁ದಾಖಲಾಗಿದ್ದು	-10.9136
▁circumstances	-10.9136
▁culprits	-10.9136
▁ಸಿಕ್ಕಿತು	-10.9137
▁Devi	-10.9137
▁ಆಗುತ್ತಿಲ್ಲ	-10.9138
▁Abraham	-10.9138
▁ಸಿಲಿಂಡರ್	-10.9138
▁angry	-10.9138
▁traditional	-10.9139
▁described	-10.9139
▁reporters	-10.9139
▁ತಿಳಿಯಲು	-10.9139
▁motorcycle	-10.9139
▁grand	-10.914
▁ನೀಡುವುದಿಲ್ಲ	-10.914
▁ಮಾಡಿದ್ದೇನೆ	-10.914
▁ಬೇಗನೆ	-10.914
ೀಕೃತ	-10.9141
▁ಮರದ	-10.9141
▁Forest	-10.9141
▁ಪ್ರಶ್ನಿಸಿದ್ದಾರೆ	-10.9142
ಪಟ್ಟಿ	-10.9143
▁rival	-10.9144
▁Black	-10.9144
▁September	-10.9144
▁content	-10.9144
ಕಿಂಗ್	-10.9145
▁ಮೃತದೇಹವನ್ನು	-10.9146
▁ಸಲಹೆಗಾರ	-10.9146
▁ಅಂದ್ರೆ	-10.9146
▁ಸಾಧ್ಯವಾಗಿಲ್ಲ	-10.9147
▁ಕೋರಿ	-10.9148
▁ಜಗತ್ತಿನಲ್ಲಿ	-10.9148
▁Babu	-10.9149
▁Nepal	-10.915
▁ಮನಸ್ಸಿನ	-10.9152
stern	-10.9153
▁ಕಚೇರಿಯಲ್ಲಿ	-10.9153
JD	-10.9154
▁ಡೇಟಾ	-10.9154
▁Behold	-10.9156
▁July	-10.9156
▁ಅಷ್ಟೆ	-10.9158
▁Australian	-10.9158
ುತ್ತಿರುವುದು	-10.9159
▁ಗಾಯಾಳುಗಳನ್ನು	-10.916
▁cover	-10.9162
▁paste	-10.9162
▁style	-10.9162
▁Mary	-10.9162
▁flowers	-10.9164
inch	-10.9164
▁SBI	-10.9165
▁rising	-10.9166
▁ಬರುವುದಿಲ್ಲ	-10.9167
▁ಸಲ್ಲಿಸಿದ್ದಾರೆ	-10.9167
▁raise	-10.9168
▁ಮಧ್ಯದಲ್ಲಿ	-10.9168
ವಿರುತ್ತದೆ	-10.9168
▁Ask	-10.9169
▁ಜೈಲು	-10.917
atic	-10.9172
▁fund	-10.9173
ಕೊಳ್ಳಿ	-10.9175
▁pm	-10.9175
▁winners	-10.9177
ರುವುದನ್ನು	-10.9178
▁ಸೋಲಿನ	-10.9182
dy	-10.9188
▁ಕೂ	-10.9188
▁ಎತ್ತರ	-10.9189
▁Hard	-10.919
▁ವಿವಿ	-10.9191
ಯಾಗುವ	-10.9192
18	-10.9193
ow	-10.9194
mit	-10.9198
▁ಮುಂದುವರಿಯ	-10.9198
▁ತೆರೆಯ	-10.9199
▁ಭಾರತ್	-10.92
▁Set	-10.9204
▁ಮನೆಯಿಂದ	-10.9205
ೇಕೆ	-10.9206
▁ತೆಗೆಯ	-10.9208
▁ತೋರಿಸುವ	-10.921
▁asking	-10.9212
▁ನೆರವಾಗ	-10.9215
▁ಬಂದಿದ್ದಾರೆ	-10.9218
▁ಡ್ರಾ	-10.9221
▁ಬಳಸುವ	-10.9222
▁ಮಾಡಿದನು	-10.9223
▁ಪ್ರಕೃತಿ	-10.9226
▁learning	-10.9231
▁ಕೈಗೊಳ್ಳ	-10.9233
▁acting	-10.9233
ಕಾಂಡ	-10.9239
▁ಸೆಲ್	-10.9239
▁ದೃಷ್ಟಿ	-10.9239
▁kills	-10.9242
▁medicines	-10.9247
▁ಸಚಿವಾಲಯದ	-10.9249
▁Per	-10.9251
▁ಫ್ಲ	-10.9256
ents	-10.9264
▁39	-10.9265
▁understanding	-10.9267
▁ಎನ್ನ	-10.9268
▁ಸಿಬಿ	-10.9269
▁ಒನ್	-10.9274
▁ಕಳೆದುಕೊಳ್ಳ	-10.9275
ಸೋ	-10.9278
▁ಅಲ್ಲೇ	-10.9279
▁Pre	-10.9281
▁ವಿಶ್ವವಿದ್ಯಾಲಯದ	-10.9283
▁Ben	-10.9284
-2	-10.9284
ಯುವ	-10.9285
▁ಕಾರ್ಮಿಕ	-10.9286
▁ಹತ್ತಿ	-10.9286
▁ಬಂಧಿತ	-10.9286
▁schemes	-10.9287
-6	-10.9287
▁ಜೀ	-10.9288
▁fish	-10.9289
▁ಸವಾರ	-10.9289
45	-10.9292
ಿರೋ	-10.9293
▁ಗಾಳಿ	-10.9296
row	-10.9301
▁ರಕ್ತದ	-10.9303
▁com	-10.9308
No	-10.9312
▁invest	-10.9314
▁begins	-10.9315
▁ನಿರ್	-10.9319
▁ಷ	-10.932
▁ಸೋಂಕಿತರ	-10.9322
▁ಮಹಾನಗರ	-10.9323
▁ಮಾಡಬೇಕೆಂದ	-10.9325
ಗಳೇನು	-10.9327
▁ಹೋಗಿದ್ದ	-10.9328
▁ರವಾನಿಸ	-10.933
▁Amar	-10.9331
ali	-10.9331
ಷ್ಟೆ	-10.9331
▁Jo	-10.9331
▁ನೀಡುವುದಾಗಿ	-10.9333
▁ಹ್ಯಾ	-10.9335
▁ಧರ್ಮದ	-10.9336
bar	-10.9344
▁ಮೌನ	-10.9347
▁ಹೊರಹಾಕ	-10.9358
▁ಮಾತನಾಡುವ	-10.9358
▁ಕಾರ್ಯವನ್ನು	-10.9359
▁fl	-10.9362
▁concerns	-10.9362
▁ಟೈ	-10.9364
▁ಸ್ವರ್ಗ	-10.9368
so	-10.9369
▁Kan	-10.937
▁ದೇಶಗಳು	-10.937
▁ಶೈಲಿ	-10.9378
▁Jai	-10.9379
▁demands	-10.9382
▁ಗಳಿಂದ	-10.9382
▁ಎಸ್ಯುವಿ	-10.9383
ಾಗಲಿಲ್ಲ	-10.9383
ವಿರಲಿಲ್ಲ	-10.9387
ಹಳ್ಳಿ	-10.939
ಿರಾ	-10.9404
97	-10.9405
ied	-10.9407
▁ಸಹಕಾರಿ	-10.9408
ೊಳ	-10.9409
▁ಇಳಿಸ	-10.941
▁ಮೆಚ್ಚ	-10.9412
ಬೇಕೆಂಬ	-10.9417
▁Ex	-10.9423
▁sl	-10.9425
▁ಮದುವೆಯಾಗ	-10.9425
▁millions	-10.9427
ಗೊಳಿಸಿದ	-10.9433
▁ಅರ್ಪಿಸ	-10.9434
cha	-10.9434
▁ಅಮೆರಿಕಾ	-10.9443
tro	-10.9445
ಗಡ	-10.9446
ವುಳ್ಳ	-10.9448
isation	-10.9455
▁ದೇವಾಲಯದ	-10.9458
ಚಿತ್ರ	-10.9458
ನಾಗಿರುವ	-10.9464
▁multi	-10.9464
ಲೈ	-10.9467
ಪೋ	-10.9469
▁ಮೂಡ	-10.9471
▁ಆದರ	-10.9472
▁ಗಡಿಯಲ್ಲಿ	-10.9474
ರಿತ	-10.9476
Congress	-10.948
▁ಲೋ	-10.948
ನಿಮ್ಮ	-10.9482
ಿಸುತ್ತ	-10.9486
▁ಬ್ಯಾ	-10.9487
▁isn	-10.9488
ned	-10.949
▁ಏನೆಲ್ಲ	-10.9495
ಕೇಂದ್ರ	-10.9496
▁pioneer	-10.9503
▁bike	-10.9504
▁ವರ್	-10.9506
ಕ್ರಮ	-10.9508
▁Oh	-10.9511
▁lesson	-10.9512
appa	-10.9513
▁ತತ್ವ	-10.9513
ಪದ	-10.9522
▁ಭಾಗವಾಗಿ	-10.9523
▁ನಿರೀಕ್ಷೆಯ	-10.9525
ೊಂದ	-10.9526
▁Mi	-10.953
▁ಯಾಕ	-10.9534
▁k	-10.9535
▁respond	-10.9545
▁ನೌಕರರ	-10.9549
▁ಕಿವಿಗೊಡ	-10.955
oo	-10.9552
ಯುಳ್ಳ	-10.9553
▁ಸಾರುವ	-10.9559
▁Sara	-10.9561
▁Kal	-10.9566
▁ಮುಖ್ಯಮಂತ್ರಿಯಾಗಿ	-10.9566
ಿಸಬಹುದು	-10.9568
▁brand	-10.957
▁laugh	-10.9571
▁fill	-10.9579
pri	-10.958
▁ಅರ್ಧ	-10.958
ಗಿದೆ	-10.958
ರೈ	-10.9583
▁8,	-10.9585
ization	-10.9586
ರಂಗ	-10.9586
▁ನಿಜವಾಗಿ	-10.9587
▁ಮದ್ಯ	-10.9589
ಡೋ	-10.959
▁ನೆರೆ	-10.9591
▁ಯಂತ್ರ	-10.9591
▁ಶಿಬಿರ	-10.9591
ನಾಗಿದ್ದನು	-10.9593
▁investigate	-10.9595
▁resolve	-10.9596
▁initial	-10.9596
ವೈ	-10.9599
▁ಬೀದಿ	-10.9601
▁Srinivas	-10.9603
▁flour	-10.9604
ಶಃ	-10.9604
▁ಕೊನೆ	-10.9605
▁ನಂಬಿಗಸ್ತ	-10.9605
▁ವಸತಿ	-10.9605
▁Abdullah	-10.9605
▁Hegde	-10.9605
▁Management	-10.9605
▁Mangalore	-10.9605
▁Politics	-10.9605
▁Scheme	-10.9605
▁Washington	-10.9605
▁association	-10.9605
▁fifth	-10.9605
▁guidelines	-10.9605
▁perhaps	-10.9605
▁plenty	-10.9605
▁survey	-10.9605
▁twice	-10.9605
▁ಅಧ್ಯಾಯ	-10.9605
▁ಇಂಗ್ಲೀಷ್	-10.9605
▁ಇತ್ಯಾದಿ	-10.9605
▁ಉಡುಗೊರೆ	-10.9605
▁ಎದುರಾಳಿ	-10.9605
▁ತಿಳಿದುಬಂದಿದೆ	-10.9605
▁ತಿಳಿದುಬಂದಿಲ್ಲ	-10.9605
▁ದೀಕ್ಷಾಸ್ನಾನ	-10.9605
▁ನಿತಿನ್	-10.9605
▁ಪಂಚಾಯತ್	-10.9605
▁ಮೇಲ್ಮನವಿ	-10.9605
▁ವಿನಾಯಿತಿ	-10.9605
▁ವೋಲ್ಟೇಜ್	-10.9605
▁ಸಂಭಾಷಣೆ	-10.9605
▁ಸಿಸ್ಟಮ್	-10.9605
mAh	-10.9605
▁Income	-10.9605
▁Yediyurappa	-10.9605
▁background	-10.9605
▁honor	-10.9605
▁medium	-10.9605
▁push	-10.9605
▁ಘರ್ಷಣೆ	-10.9605
▁Method	-10.9605
▁voting	-10.9605
▁wives	-10.9605
▁yellow	-10.9605
▁tongue	-10.9605
▁ತಿರಿಗಿ	-10.9605
▁ಪ್ರಸಂಗ	-10.9605
▁Internet	-10.9605
▁olive	-10.9605
▁ಹೊರಬಿದ್ದ	-10.9605
▁remove	-10.9605
▁Learn	-10.9605
▁ಕಾಣಿಸಿಕೊಳ್ಳಲ	-10.9605
▁pollution	-10.9605
▁transferred	-10.9605
▁oath	-10.9605
▁ಬಲಿಷ್ಠ	-10.9605
▁ಸೊಲೊಮೋನನ	-10.9605
▁fake	-10.9605
▁ಹೊರತುಪಡಿಸಿ	-10.9605
▁dwell	-10.9605
▁occurred	-10.9605
▁divine	-10.9605
▁lemon	-10.9605
▁External	-10.9605
▁tsp	-10.9606
SI	-10.9606
▁Nitish	-10.9606
▁Book	-10.9606
▁felicitated	-10.9606
▁emergency	-10.9606
▁ವಶಪಡಿಸಿಕೊಳ್ಳ	-10.9606
▁Verma	-10.9606
▁ದೊರೆಯಲಿದೆ	-10.9607
▁ಎರಡನೆಯ	-10.9607
▁visitors	-10.9608
▁manual	-10.9608
ajor	-10.9608
▁ಮಾಡುತ್ತಿದ್ದೇವೆ	-10.9608
▁possession	-10.9608
▁ಛತ್ತೀಸ್	-10.9608
▁ಕೌಶಲ್ಯ	-10.9608
▁ಸಾಧ್ಯವಾಗಲಿಲ್ಲ	-10.9608
▁ಸುಳಿವು	-10.9609
▁ರಥ	-10.9609
▁Wash	-10.9609
▁sight	-10.9609
▁ಉತ್ಪಾದಿಸುತ್ತದೆ	-10.9609
▁ideal	-10.961
▁gas	-10.961
▁ನೀಡಲಾಗುವುದು	-10.961
▁ಪ್ರಕಟನೆ	-10.961
▁700	-10.9611
▁ಮಹೀಂದ್ರಾ	-10.9611
▁respectively	-10.9611
▁ಇರುತ್ತವೆ	-10.9612
▁ಏರಿಕೆಯಾಗಿದೆ	-10.9613
▁Great	-10.9615
▁ನ್ಯೂಯಾರ್ಕ್	-10.9615
▁ಒಂದಾಗಿದೆ	-10.9615
▁shocked	-10.9616
▁Russian	-10.9616
▁ಸ್ಪಂದಿಸ	-10.9617
▁boil	-10.9617
▁whatever	-10.9618
▁heavenly	-10.9618
▁Five	-10.962
▁ಪಾರ್ಕ್	-10.962
▁forgotten	-10.962
▁ನಿತೀಶ್	-10.9621
▁Brazil	-10.9621
▁ಹೇಳಲಾಗಿದೆ	-10.9621
▁recommended	-10.9622
▁tips	-10.9622
▁ಕೇಸು	-10.9622
▁surely	-10.9623
▁fulfilled	-10.9623
▁ವಾಸ್ತವದಲ್ಲಿ	-10.9624
▁intention	-10.9625
▁acres	-10.9627
▁January	-10.9627
▁ಇದನ್ನೇ	-10.9627
▁ಫುಲ್	-10.9628
▁ಆಗುತ್ತಿದೆ	-10.9628
▁singer	-10.9628
ಟೆಲ್	-10.963
▁ಬಂದಿವೆ	-10.963
▁elements	-10.9631
ದೊಂದು	-10.9632
▁ವರ್ಷಗಳಿಂದ	-10.9633
▁ಪ್ರತಿಭಟನಾಕಾರರು	-10.9636
▁ನಿಖರ	-10.9636
▁ವಿವರಣೆ	-10.9638
▁ಉದಾಹರಣೆಗಳು	-10.9639
ವೀರ್	-10.964
▁ಸ್ವಭಾವ	-10.9641
ಬಾದ್	-10.9642
▁ಸದ್ದು	-10.9646
▁ಲಕ್ಷಣ	-10.9646
ವರೇ	-10.9647
▁ಹೋಗಿದೆ	-10.9649
ಪೊ	-10.9649
▁ಆಗಬೇಕು	-10.965
▁institutions	-10.9651
▁ಸಮರ	-10.9651
ಾಡ	-10.9653
▁sometimes	-10.9655
▁Ko	-10.9656
▁Rama	-10.9657
▁Meh	-10.966
▁ನಮೂದಿಸಿ	-10.9663
ಲಿನ್	-10.9665
▁kg	-10.9666
▁ಶೀಘ್ರದಲ್ಲಿ	-10.9668
▁ಪಡೆಗಳು	-10.9668
▁Mark	-10.9668
▁shops	-10.967
▁ಸ್ವಚ್ಛ	-10.9673
▁cool	-10.9673
▁elders	-10.968
ದ್ರೆ	-10.968
▁ದಾವೀದನು	-10.968
▁faced	-10.968
▁ಅಲ್ಲವೇ	-10.9684
▁organisations	-10.9684
▁depends	-10.9684
▁ಕೊನೆಗ	-10.9685
▁ನಿಯಮಗಳನ್ನು	-10.9685
cent	-10.9685
▁ಕಾಂ	-10.9689
ites	-10.9691
▁ವೈದ್ಯ	-10.9693
ಹಾಕಿ	-10.9693
ರಣ	-10.9695
▁ಹೊಂದಿದ್ದ	-10.9696
▁ತಂತ್ರಜ್ಞಾನದ	-10.9701
ಹೊ	-10.9701
aman	-10.9703
▁ಯುವಕರ	-10.9704
▁ಮೂರ್ತಿ	-10.971
ರನ್	-10.971
▁ಇಷ್ಟಪಡ	-10.9712
▁ಯುವತಿಯ	-10.9712
▁ಸಹೋದರರು	-10.9713
▁methods	-10.9719
ಿಬ್ಬರ	-10.9719
▁ವಿಜೇತ	-10.972
▁ಮನುಷ್ಯನು	-10.9723
▁ಸರ್ಕಾರದಿಂದ	-10.9724
ಮೂ	-10.9724
▁contesting	-10.9724
▁ಮಾಡುತ್ತ	-10.9728
▁priests	-10.9728
▁ಪರಿಸ್ಥಿತಿಯ	-10.9728
▁ಕಚ್ಚಾ	-10.9728
▁ಸ್ಥಾನಗಳ	-10.9729
▁ಎಲ್ಲಿಂದ	-10.9732
we	-10.9735
▁ಹಿನ್ನಲೆಯ	-10.9738
▁ಜನಸಂಖ್ಯೆಯ	-10.974
▁ತೊಂದರೆಯಾಗ	-10.974
▁ಕಾಯ	-10.974
▁ಕಾರ್ಯಗಳು	-10.9745
ಲಿರುವ	-10.9748
▁4,	-10.9749
▁ಕೂಗ	-10.9751
▁ಮಕ್ಕಳೂ	-10.9754
▁ಕೀರ್ತ	-10.9756
▁Nirma	-10.9759
▁gods	-10.9762
ಳೆಯ	-10.9781
ಕುಮಾರ್	-10.9782
▁ಕೆಲವ	-10.9793
▁ರಾಜಧಾನಿ	-10.9795
▁dreams	-10.9796
hil	-10.9796
▁ನಾಯಕಿಯಾಗಿ	-10.9799
▁Dev	-10.9799
▁ಆಶ್ಚರ್ಯ	-10.98
▁ಸಂಶೋಧನ	-10.9803
▁ap	-10.9805
ಬಹುದ	-10.9805
▁ಸಮಸ್ಯೆಗೆ	-10.9816
ರಾಗಿರುವ	-10.9819
▁ಮುಂದುವರಿದ	-10.982
ೀರಿ	-10.9822
ಾನಾ	-10.9824
ರ್ಥ	-10.9826
ಲ್ಸ್	-10.9827
▁ಬೆಳೆಯುತ್ತ	-10.9829
absolutely	-10.9832
ability	-10.9836
▁ದುಷ್ಟ	-10.9837
ju	-10.9838
▁Plan	-10.9842
▁ಪ್ರಾರಂಭಿಸ	-10.9843
▁ತೀವ್ರವಾಗಿ	-10.9848
ಕೀ	-10.985
▁ಪಾಲಿಸ	-10.9853
▁ಪಟ್ಟಣದ	-10.9854
▁ಉತ್ತರಿಸ	-10.9859
▁ನಿರಾಕರಿಸಿದ	-10.986
gi	-10.986
▁ಹೊಂದುವ	-10.9865
▁ಗುಣಮಟ್ಟದ	-10.9865
uck	-10.9867
▁ಅಭ್ಯರ್ಥಿಯಾಗಿ	-10.9867
ಶಾಸ್ತ್ರ	-10.987
▁ಸೇರ್ಪಡೆ	-10.9874
▁67	-10.9876
ೇಬಲ್	-10.9878
PS	-10.988
pl	-10.9887
▁stake	-10.9895
19	-10.9896
▁ಪ್ರಕ್ರಿಯೆಯ	-10.9896
gal	-10.9912
▁ಪ್ರದೇಶಗಳ	-10.9913
▁108	-10.9915
▁ಉದ್ದೇಶಿಸಿ	-10.9918
ung	-10.992
▁Pi	-10.9932
ಯಾಗಿದ್ದ	-10.9936
್ರು	-10.9937
▁ಸುಧಾರಿಸ	-10.9937
▁ನಿರ್ವಹಿಸುತ್ತ	-10.9938
▁ಕಾಲದ	-10.9938
▁ಬಿಜೆಪಿಯವರ	-10.9942
▁weeks	-10.9943
▁-19	-10.9944
▁ಯಶಸ್ಸ	-10.9944
▁ಮುಕ್ತಾಯ	-10.9959
ನೆಸ್	-10.996
▁ಹಳ	-10.996
▁ಪರ್ವತ	-10.9962
ವರೂ	-10.9962
▁stations	-10.9964
ಾಗಿರಲಿಲ್ಲ	-10.9972
ಧರ್ಮ	-10.9972
▁ಪ್ಲ	-10.9973
ಗಳಿಗಿಂತ	-10.9974
hri	-10.9977
▁ಬಂಗಾಳದ	-10.9978
ಮೀ	-10.998
ಐಸಿಸಿ	-10.9982
▁ಗಳಿಸಿದ	-10.9984
▁ಕಾಶ್ಮೀರದಲ್ಲಿ	-10.9992
▁threat	-10.9994
light	-10.9994
oth	-10.9997
IPL	-10.9998
lock	-10.9999
▁prophet	-11.0001
▁noted	-11.0003
▁segment	-11.0003
▁strike	-11.0005
use	-11.0005
▁reaction	-11.0006
▁program	-11.0006
▁tribute	-11.0006
▁offices	-11.0007
▁celebration	-11.0008
▁animal	-11.0008
▁detail	-11.0009
▁ಕಂಪೆನಿಯ	-11.001
▁phones	-11.0017
▁ಭಾವನೆಗಳ	-11.0031
▁ಬೋ	-11.0033
ಮನೆ	-11.0038
▁looks	-11.004
▁ಅರ್ಥಮಾಡಿಕೊಳ್ಳ	-11.004
▁ಬಿಲ್	-11.0043
▁ಹಂಚಿಕೊಳ್ಳ	-11.0044
▁develop	-11.0044
ೋತ್ಸವ	-11.0051
ಗೊಳ್ಳುವ	-11.0051
ಪಲ್	-11.0055
DA	-11.0056
▁statements	-11.0057
min	-11.0063
▁ವಿಷಯದ	-11.0064
▁ಚರ್ಮದ	-11.0066
ಳಿಯ	-11.0077
▁6-	-11.0081
ಫರ್	-11.0083
▁ಕೆಟ್ಟದ್ದ	-11.0083
▁ಮುಂಬೈನ	-11.0085
▁ಅನಿಲ	-11.0087
ವಾಗಬಹುದು	-11.0088
▁ತಜ್ಞರ	-11.0088
▁ಸಭಾ	-11.0089
▁ಸರ್ಕಾರಗಳು	-11.009
▁rescue	-11.0093
▁ವಿಶಾಲ	-11.0101
▁mid	-11.0102
▁ಟೆಲಿ	-11.0102
▁ಗುಂಪಿನ	-11.0102
▁symbol	-11.0103
▁reflect	-11.0103
ಲವೆಡೆ	-11.0103
▁urban	-11.0105
▁precaution	-11.0105
▁George	-11.0105
▁Kharge	-11.0105
▁Personal	-11.0105
▁Sitharaman	-11.0105
▁Spirit	-11.0105
▁Timothy	-11.0105
▁Udupi	-11.0105
▁Would	-11.0105
▁abroad	-11.0105
▁applicable	-11.0105
▁atmosphere	-11.0105
▁bilateral	-11.0105
▁caught	-11.0105
▁covenant	-11.0105
▁excellent	-11.0105
▁expensive	-11.0105
▁insurance	-11.0105
▁ಅನಾಹುತ	-11.0105
▁ಇನ್ನಿಂಗ್ಸ್	-11.0105
▁ಉರಿಯೂತ	-11.0105
▁ಗಾಯಗಳ	-11.0105
▁ಗುಂಡು	-11.0105
▁ಟ್ರೋಫಿ	-11.0105
▁ನೇಮಕಾತಿ	-11.0105
▁ಪ್ರಸಕ್ತ	-11.0105
▁ಬ್ರೇಕ್	-11.0105
▁ರವೀಂದ್ರ	-11.0105
▁ವಾಜಪೇಯಿ	-11.0105
▁ವಿಸ್ತರಣೆ	-11.0105
▁ಸೆಂಟ್ರಲ್	-11.0105
▁ಹುಟ್ಟುಹಬ್ಬ	-11.0105
▁ಹೆಗ್ಗಳಿಕೆ	-11.0105
ಗವರ್ನರ್	-11.0105
▁Old	-11.0105
▁blue	-11.0105
▁calm	-11.0105
▁ಬ್ಲಾಕ್	-11.0105
▁producing	-11.0105
▁honey	-11.0105
▁ಹರಿಯಾಣ	-11.0105
▁registration	-11.0105
▁ಪುರಾಣ	-11.0105
▁summer	-11.0105
▁stock	-11.0105
▁Sunday	-11.0105
▁ನವೆಂಬರ್	-11.0105
▁Prize	-11.0105
▁ಅದೃಷ್ಟವಶಾತ್	-11.0105
▁ಸೀತಾರಾಮನ್	-11.0106
▁ಸೌದಿ	-11.0106
▁ಹಳದಿ	-11.0106
▁ಸುದ್ದಿಗಾರರ	-11.0106
▁Death	-11.0106
▁ಸ್ವಯಂ	-11.0106
▁ವಾರ್ತೆ	-11.0106
▁Code	-11.0106
▁ಹಿಟ್ಟು	-11.0106
▁Adam	-11.0106
▁Isaiah	-11.0106
▁ಸರ್ಜಾ	-11.0106
▁regular	-11.0106
▁ಆದದರಿಂದ	-11.0106
▁hotel	-11.0106
▁Boss	-11.0107
▁ಇಂ	-11.0107
▁ಎಲ್ಲೆಡೆ	-11.0107
▁communication	-11.0107
▁governor	-11.0108
▁ಇರಾನ್	-11.0108
▁ವಿಚಿತ್ರ	-11.0108
▁ಸೈಟ್	-11.0108
▁ದೀಪಕ್	-11.0108
▁ಸ್ಥಾನಮಾನ	-11.0108
▁ಆದಿತ್ಯನಾಥ್	-11.0109
ರಾಜ್ಯ	-11.0109
▁ಹಾರಾಟ	-11.0109
▁Pune	-11.011
▁ಗೇರ್	-11.011
▁ಸರಿಯಲ್ಲ	-11.011
▁ಆನಂತರ	-11.011
▁ಜೋರಾಗಿ	-11.0111
▁golden	-11.0111
▁%1	-11.0111
▁violation	-11.0111
▁Office	-11.0111
▁ಮಾಡುತ್ತೇನೆ	-11.0112
▁ಮಧ್ಯಮ	-11.0112
▁ಮುಂದುವರಿದಿದೆ	-11.0113
▁ಪಡೆಯುತ್ತಿದ್ದಾರೆ	-11.0113
▁92	-11.0114
್ರಾಫಿಕ್	-11.0114
▁ಮಾತ್ರವಲ್ಲದೆ	-11.0115
▁ಜೈವಿಕ	-11.0115
▁ಸಂಭವನೀಯ	-11.0115
▁Vari	-11.0116
▁Cut	-11.0116
ಾಂಗ	-11.0117
▁ಯಾವತ್ತೂ	-11.0117
▁Whos	-11.0117
▁ದೀರ್ಘಕಾಲ	-11.0118
▁ಚರ್ಚ್	-11.0119
▁ಪೀ	-11.012
▁anybody	-11.0121
▁mouth	-11.0122
▁ಇಸ್ರೋ	-11.0122
▁ಪ್ರೇಕ್ಷಕರ	-11.0122
▁removed	-11.0122
▁ದೇಶಿಯ	-11.0122
▁plus	-11.0123
▁ಕೃತಜ್ಞತೆ	-11.0123
▁ಅನುಕೂಲಕರ	-11.0123
▁independent	-11.0124
▁ಬಲವಾದ	-11.0124
▁buses	-11.0124
▁principal	-11.0125
▁ವಾಕ್ಯವು	-11.0125
▁ಹೊಂದಲು	-11.0126
ಗಲ್	-11.0126
ಬರ್	-11.0127
▁ಭಾಗಿಯಾಗ	-11.0127
▁glad	-11.0128
▁established	-11.0128
▁Ajit	-11.0128
▁Jas	-11.0129
amir	-11.0129
▁ಸಿಂಧು	-11.0129
▁volt	-11.0129
▁weak	-11.013
▁ಪಡೆದಿರುವ	-11.013
▁saved	-11.0132
▁unity	-11.0134
▁ಹೊಟ್ಟೆ	-11.0134
▁ಕೇಳಿದರು	-11.0136
▁Card	-11.0137
▁worker	-11.0138
▁ರಾಣಿ	-11.0138
▁ಕುಟುಂಬಗಳ	-11.0139
▁Iran	-11.0139
▁seed	-11.014
▁ಇವುಗಳಲ್ಲಿ	-11.0141
▁ಮಾಡಿಕೊಳ್ಳಿ	-11.0143
▁expectations	-11.0143
▁ಆಯ್ಕೆಯಾಗ	-11.0144
▁repair	-11.0144
▁ಬ್ಯಾಕ್	-11.0145
▁Need	-11.0147
ೇಶ	-11.0147
▁ತಿ	-11.0148
▁resources	-11.0148
▁ಕೊಟ್ಟಿದ್ದಾರೆ	-11.0148
▁dear	-11.0148
▁ಜಿಎಸ್	-11.0149
▁ಆಗಿವೆ	-11.0151
▁ಕೊಂಡು	-11.0152
▁ಚಂದ	-11.0152
▁birds	-11.0153
▁ಗಿಡ	-11.0153
▁Nations	-11.0154
▁Saif	-11.0155
▁ಇದರೊಂದಿಗೆ	-11.0157
▁arms	-11.0157
▁ಸಾಕು	-11.0158
▁counter	-11.016
▁Nik	-11.0164
▁lie	-11.0164
▁defeated	-11.0164
▁ಸ್ಟೀವ	-11.0166
▁ನೀಲಿ	-11.0169
▁ಸಂರಕ್ಷಣೆ	-11.017
▁ಕಡೆಗಳಲ್ಲಿ	-11.0171
▁ಮತದಾರರು	-11.018
▁ಬರುತ್ತ	-11.0182
▁ಸಿಬ್ಬಂದಿಗಳು	-11.0186
▁watching	-11.0187
▁ಅಳವಡಿಸ	-11.0188
▁Head	-11.0188
▁ಮಕ್ಕಳಿದ್ದಾರೆ	-11.0189
26	-11.0189
▁ವ್ಯವಸ್ಥೆಯಲ್ಲಿ	-11.0205
▁ಮಳೆಯಾಗ	-11.0207
ಮೊ	-11.0207
ಗಳಷ್ಟು	-11.0207
▁ಫೀಲ್ಡ	-11.021
▁ಖಂಡಿಸಿ	-11.021
▁ಸ್ನೇಹಿತರು	-11.021
▁ವಿಮೆ	-11.0215
▁enjoyed	-11.0216
▁ಹೇಳು	-11.0218
▁promises	-11.0219
▁ಸರಣಿಯ	-11.0219
▁Bhat	-11.0219
▁ಮತಗಳ	-11.0222
ರೆನ್ಸ್	-11.0224
▁studying	-11.0229
▁plane	-11.0232
▁ಅತಿಯಾದ	-11.0232
▁ಅಧ್ಯಕ್ಷರಾಗಿ	-11.0234
ಾಮ್	-11.0241
▁starts	-11.0243
▁row	-11.0247
▁flights	-11.025
CA	-11.025
▁ಶಸ್ತ್ರಚಿಕಿತ್ಸೆ	-11.025
ಯಲ್	-11.0252
ಕ್ರ	-11.0253
▁ಪ್ಯಾ	-11.0254
▁ಧ್ಯಾನ	-11.0255
▁inspir	-11.0255
▁ಗ್ರಾಹಕರು	-11.026
ಏನ	-11.026
▁ಎನಿಸ	-11.0264
▁ದಾಖಲೆಯ	-11.0266
▁ಕಾರ್ಯಕ್ರಮಗಳನ್ನು	-11.0268
▁placed	-11.0269
▁ಇಡಿ	-11.0269
▁ಕೂಲಿ	-11.027
▁ಸಂಸದರ	-11.0273
▁Ya	-11.0275
▁ಒಂದಷ್ಟ	-11.0278
ವ್ಯಾ	-11.0282
▁ಗೊ	-11.0284
ler	-11.0285
▁ಪಾದ	-11.0286
ಬಲ	-11.0286
▁ಬ್ಯಾಡ	-11.0287
▁ಉಗ್ರರು	-11.0288
▁ನಿವೃತ್ತಿ	-11.0291
▁ಒಂದರ	-11.0291
▁ಅಭಿನಯ	-11.0295
▁ಹೊಂದಿದ	-11.0303
ಲಿಕ್	-11.0305
300	-11.0306
▁comments	-11.0306
▁inter	-11.0306
▁ತಾವ	-11.0307
ised	-11.0311
▁goals	-11.0311
ಿಷ್ಟ	-11.0313
▁ಸ್ಥಾಪಿಸ	-11.0314
▁compar	-11.0314
▁ಯೇಸುವ	-11.0315
bir	-11.0315
▁ವಿರುದ್ಧವಾಗಿ	-11.0316
ಯನ್ನೇ	-11.0318
ಂಗಾ	-11.0325
oj	-11.0326
▁differences	-11.0326
ping	-11.0335
▁ಸಾಯುವ	-11.0347
▁ಅದನ್ನ	-11.0354
▁ಸಿಕ್ಕಿ	-11.0354
▁ನೀಡಲ	-11.0357
▁departments	-11.0357
▁ವಿವೇಕ	-11.0362
ಿಲ್ಲದೆ	-11.0363
▁ನೀಡುವಂತೆ	-11.0368
▁ಸಹೋದರಿ	-11.0371
ಲಿದ್ದು	-11.0372
ena	-11.0374
mon	-11.0376
ಪಿಎಫ್	-11.0376
ಿಸುತ್ತಿದ್ದಾರೆ	-11.0378
▁ಮಳೆಯಿಂದ	-11.0381
▁ಗ್ರಾಮದ	-11.0384
▁Bar	-11.0398
▁ಒಂದೊಂದ	-11.0399
she	-11.0408
ಶೀಲ	-11.041
ನಗರ	-11.041
set	-11.0412
▁ವೇಳೆಗೆ	-11.0415
▁Rani	-11.0416
▁ಕಂ	-11.0425
▁ನಂಬಿಕೆಯ	-11.0426
ಂದರ್	-11.0428
▁ಚಿತ್ರಗಳನ್ನು	-11.0431
▁ಬಂದೆ	-11.0436
ನಾಥ್	-11.0445
▁ರಚಿಸಿ	-11.0445
▁ಯೋಜನೆಗಳ	-11.0458
▁ಬೇರೆಯವರ	-11.0462
ದ್ದರೆ	-11.0468
▁Dar	-11.0475
▁cross	-11.0478
▁ಮರಳ	-11.0478
ವೆಂದ	-11.048
ೆನ್	-11.0482
▁ಬಾಳ	-11.0483
▁kinds	-11.0487
▁ಕೇ	-11.0492
ತ್ತೆ	-11.0499
▁ನೆರವಿನ	-11.0501
▁ಉಲ್ಲಂಘನೆ	-11.0502
ಕೃಷ್ಣ	-11.0503
ರುತ್ತವೆ	-11.0504
captain	-11.0505
What	-11.0506
▁resign	-11.0511
ನೀನು	-11.0514
▁ಮುಗಿಸ	-11.0519
ಮತ	-11.0519
ದ್ದಲ್ಲ	-11.0523
▁Je	-11.0525
▁ಮೊತ್ತದ	-11.0528
▁ಹೊರಟ	-11.053
▁ಬೆಂ	-11.0532
▁location	-11.0532
▁ದಾಖಲೆಗಳ	-11.0535
▁terrorist	-11.0536
had	-11.0539
▁sale	-11.0539
▁variant	-11.054
▁ಅಗ	-11.0541
yan	-11.0543
ple	-11.0544
ೇನೋ	-11.0546
▁bridge	-11.0549
▁ಭಾಗದ	-11.055
sp	-11.0552
▁ತೆಗೆದುಕೊಳ್ಳಿ	-11.0554
▁ಅನುಸರಿಸಿ	-11.0558
▁ಹುಟ್ಟ	-11.056
ಕಾರಣ	-11.0563
ಅವರು	-11.0566
▁sides	-11.0567
▁ಕವಿ	-11.057
▁document	-11.0572
▁ಹರ	-11.0573
ಗೊಳ್ಳುತ್ತದೆ	-11.0575
▁ಸಂಘಟನೆಗಳ	-11.0577
▁59	-11.0581
▁ಮುಂತಾದವರ	-11.0581
ಎಕ್ಸ್	-11.0583
ಯೊಂದ	-11.0584
▁ತೆಗೆದುಕೊಳ್ಳುವ	-11.0585
ವಳ	-11.0587
char	-11.0587
▁ರೆಡ್	-11.0591
▁wonder	-11.0594
▁ಮಾಡುವುದ	-11.0595
100	-11.0596
▁dress	-11.0598
▁breath	-11.0598
▁ಫಾರ್	-11.0599
▁Dan	-11.0601
▁ಅಬ್ಬರ	-11.0603
▁block	-11.0604
▁extend	-11.0604
▁fail	-11.0604
▁Mon	-11.0608
ರೀನಾ	-11.0609
ಹಾರ್	-11.0609
▁toss	-11.0611
▁Chris	-11.0614
▁ಹಾಕುವ	-11.0622
▁emotional	-11.0623
▁Ganesh	-11.0623
▁ಮುಂದುವರೆದ	-11.0623
▁ರಾಯಲ್	-11.0624
▁rose	-11.0625
▁ಪ್ರಯತ್ನಿಸುತ್ತ	-11.0625
▁ಉದ್ದೇಶದಿಂದ	-11.0627
▁ವೃದ್ಧಿ	-11.0627
verlasting	-11.0629
▁ಆ್ಯಪ	-11.063
▁ಪಡುವ	-11.063
▁ಅದೆಲ್ಲ	-11.063
▁Assistant	-11.0631
▁Celsius	-11.0631
▁Corinth	-11.0631
▁Coronavirus	-11.0631
▁Global	-11.0631
▁Limited	-11.0631
▁Rafa	-11.0631
▁Sridevi	-11.0631
▁Toyota	-11.0631
▁Vajpayee	-11.0631
▁baptized	-11.0631
▁cabinet	-11.0631
▁controversy	-11.0631
▁enemies	-11.0631
▁privilege	-11.0631
▁salvation	-11.0631
▁scooter	-11.0631
▁smooth	-11.0631
▁yield	-11.0631
▁ಇಸ್ಲಾಂ	-11.0631
▁ಉಪಮುಖ್ಯಮಂತ್ರಿ	-11.0631
▁ಉಳಿತಾಯ	-11.0631
▁ಉಸಿರಾಟ	-11.0631
▁ಒಡಿಶಾ	-11.0631
▁ಕೋವಿಂದ್	-11.0631
▁ಕ್ಯಾರೆಟ್	-11.0631
▁ದಯವಿಟ್ಟು	-11.0631
▁ನಿರ್ಲಕ್ಷ್ಯ	-11.0631
▁ಮ್ಯಾನುವಲ್	-11.0631
▁ಲಿಖಿತ	-11.0631
▁ಲೆಕ್ಕಾಚಾರ	-11.0631
▁ಸಮ್ಮಿಶ್ರ	-11.0631
▁ಸುನಿಲ್	-11.0631
▁ಸ್ಮಾರಕ	-11.0631
▁boost	-11.0631
▁slain	-11.0631
▁ಐಪಿಸಿ	-11.0631
▁ಗಡ್ಕರಿ	-11.0631
▁ಪರಿವರ್ತಿಸ	-11.0631
▁ಸಂಕ್ಷಿಪ್ತ	-11.0631
▁Abdul	-11.0631
▁ಜನವರಿ	-11.0631
▁ಡ್ಯುಯ	-11.0631
▁ಸಮಾಲೋಚನೆ	-11.0631
▁Know	-11.0631
▁ಟ್ವಿಟ್ಟರ್	-11.0631
▁wealth	-11.0631
▁ಜ್ವರ	-11.0631
▁ಸಮನ್ವಯ	-11.0631
▁recognise	-11.0631
▁ಆದಿಕಾಂಡ	-11.0631
▁ರಣಬೀರ್	-11.0631
▁Saudi	-11.0631
▁nice	-11.0632
▁chapter	-11.0632
▁ಅಶ್ವಿನ್	-11.0632
▁ಕ್ರೆಡಿಟ್	-11.0632
▁surgery	-11.0632
▁ಎಂಜಿನಿಯರಿಂಗ್	-11.0632
▁ನಿಮಿತ್ತ	-11.0632
▁ನೀರಾವರಿ	-11.0632
▁ನಾವಿಬ್ಬರ	-11.0632
▁Monday	-11.0632
▁banned	-11.0632
▁Sarja	-11.0632
▁export	-11.0632
▁harassment	-11.0632
▁ಹಾಳಾಗ	-11.0632
▁ವಿಮಾನಯಾನ	-11.0632
▁blame	-11.0632
▁Stay	-11.0632
▁ಅವಮಾನ	-11.0632
▁ಕಾರ್ತಿಕ್	-11.0632
▁download	-11.0632
▁Peel	-11.0632
▁ಇವರಿಬ್ಬರ	-11.0633
▁Payment	-11.0633
▁ಅಬ್ದುಲ್ಲಾ	-11.0633
▁ಅಬ್ದುಲ್	-11.0633
▁NDA	-11.0633
▁tribe	-11.0633
▁ಅಂಚೆ	-11.0633
▁ಹೇಳಿದ್ದೇನು	-11.0633
▁Dutt	-11.0633
▁ಪೋಲಿಸ್	-11.0633
▁ಅಳವಡಿಸಲಾಗಿದೆ	-11.0633
▁commitment	-11.0634
▁ದತ್ತಾಂಶ	-11.0634
▁Jio	-11.0634
▁ರೋಡ್	-11.0635
▁ವರ್ಮಾ	-11.0635
▁ಜನತಾ	-11.0635
▁Abhishek	-11.0635
▁October	-11.0635
▁ಕಾರ್ಯನಿರ್ವಾಹಕ	-11.0635
▁ಅಭಿಷೇಕ	-11.0635
▁ಸೇರಿಸಲಾಗಿದೆ	-11.0635
▁ರಚಿಸಲಾಗಿದೆ	-11.0635
▁ಯುಎಸ್	-11.0636
▁proposed	-11.0636
▁soft	-11.0636
▁ಸುಲಭವಲ್ಲ	-11.0636
▁favourite	-11.0636
▁Hall	-11.0637
▁alcohol	-11.0637
▁spotted	-11.0637
▁historical	-11.0638
▁ನಿವೃತ್ತ	-11.0638
▁ಕುಡಿಯಲು	-11.0638
▁ಕೋರ್ಸ್	-11.0638
▁ಫೈ	-11.0639
▁Ph	-11.0639
▁announce	-11.0639
▁ಇರುತ್ತಾರೆ	-11.0639
▁ಸೂಚಿಸುತ್ತದೆ	-11.064
▁ಪಡೆಯಬಹುದು	-11.064
▁grown	-11.064
▁button	-11.064
▁ಕೈಗೊಂಡಿಲ್ಲ	-11.064
▁ಪಾಂಡ್ಯ	-11.064
▁ಮೊರೆ	-11.064
▁regularly	-11.064
▁Apple	-11.0641
▁30,000	-11.0641
▁ಅನಗತ್ಯ	-11.0642
▁ಬಳ್ಳಾರಿ	-11.0642
▁ವಿಂಡೋ	-11.0642
▁nomination	-11.0642
▁ಆಗಲೇ	-11.0642
▁ಮೋಟಾರ್ಸ್	-11.0644
▁troops	-11.0645
▁meat	-11.0646
▁ಪುಲ್ವಾಮಾ	-11.0646
▁ಶಿಖರ್	-11.0646
▁Sindhu	-11.0646
▁ಯೆಶಾಯ	-11.0646
▁ತರುತ್ತದೆ	-11.0646
▁practical	-11.0647
▁ಕಂಡುಬಂದ	-11.0647
▁ಸಮುದಾಯದ	-11.0647
▁ಶುಭಾಶಯಗಳು	-11.0648
▁investigated	-11.0648
▁ಕುಮಾರ	-11.0648
▁deeply	-11.0648
▁scheduled	-11.065
▁ಬಜಾ	-11.065
▁ಮಾಡುತ್ತಿಲ್ಲ	-11.0651
▁ಡೆಲ್ಲಿ	-11.0651
▁ಹೋಗಬೇಕು	-11.0651
▁ನಡೆಸಿದ್ದರು	-11.0652
▁ಪ್ರಸ್ತಾಪಿಸ	-11.0652
▁ಆಸನ	-11.0652
▁certainly	-11.0652
▁ಮಾರ್ಗದರ್ಶನ	-11.0653
▁ಅರಸನಾದ	-11.0654
▁ಧನ್ಯವಾದಗಳು	-11.0655
▁ಕೆಜಿ	-11.0655
▁Israelites	-11.0656
▁ಮಾಡಿಕೊಂಡಿದ್ದಾರೆ	-11.0659
▁extended	-11.0659
▁older	-11.0659
asa	-11.066
ಉ	-11.0661
▁covered	-11.0663
▁ISRO	-11.0663
Hz	-11.0664
.50	-11.0668
▁77	-11.0669
▁destroyed	-11.0669
▁ಪೀಡಿತ	-11.067
▁foundation	-11.0671
▁Das	-11.0671
▁visible	-11.0671
▁remarks	-11.0671
ಥಿ	-11.0672
▁Alia	-11.0673
▁ರೂಪದಲ್ಲಿ	-11.0674
▁Tim	-11.0675
▁table	-11.0676
▁adults	-11.0677
▁Soon	-11.068
ುದಾಗಿ	-11.0681
▁Come	-11.0681
▁port	-11.0682
▁eggs	-11.0682
▁activists	-11.0682
ker	-11.0682
▁Arabia	-11.0683
▁ಸಮ್ಮ	-11.0684
ೆಯಲ್ಲಿ	-11.0688
▁ಲಕ್ಷಕ್ಕೂ	-11.0688
ಾಗಲೀ	-11.0689
ಟಿಯ	-11.0694
▁ತಂತ್ರ	-11.0695
▁foot	-11.0697
▁ಉದ್ಘಾಟನೆ	-11.0697
▁ಸಲ್ಲಿಸುವ	-11.0697
▁instructions	-11.0698
▁ಇದ್ದವು	-11.0698
▁Pe	-11.0699
▁ರಾಷ್ಟ್ರದ	-11.0699
▁walked	-11.07
▁5,	-11.07
▁ಹಲವರ	-11.0702
▁ನಡೆದಿದ್ದು	-11.0702
▁ಜರುಗಿಸ	-11.0704
▁ಮುಖಂಡರ	-11.0705
▁judges	-11.0709
ahendra	-11.0709
▁ವೇಗದ	-11.0711
ಲ್ಪಡುವ	-11.0711
▁ಐದನ	-11.0712
rate	-11.0713
▁ಪುರ	-11.0713
▁ನೀವ	-11.0716
ರಾಮ್	-11.0718
mal	-11.0719
ಿಗೋಸ್ಕರ	-11.0719
▁Chand	-11.0728
▁helping	-11.0729
▁variants	-11.073
ender	-11.0733
▁ಆಯ	-11.0734
▁ಮನುಷ್ಯರು	-11.0735
▁ಆಯೋಗದ	-11.0736
definitely	-11.0739
▁ಸಾಕ್ಷಿಗಳು	-11.0739
▁Gu	-11.0741
▁ವ್ಯರ್ಥ	-11.0742
▁ಭಾವಿಸ	-11.0743
liance	-11.0743
▁ಕುಡಿಯ	-11.0745
ದ್ಧ	-11.0752
▁belongs	-11.0752
▁ಹಕ್ಕ	-11.0754
▁eating	-11.0755
ೇತರ	-11.0757
ium	-11.0758
▁ರಸ್ತೆಗಳು	-11.0759
ೆಂಬುದು	-11.076
▁ಶೆ	-11.0763
ನಿಕ್	-11.0766
ಳಿಗೆ	-11.0767
ಖಾ	-11.0771
▁ಹೇಳಿಕೆಯಲ್ಲಿ	-11.0771
▁ಸಭೆಗೆ	-11.0774
ುವೆನು	-11.0775
▁Pan	-11.0785
▁ಅಧಿಕೃತವಾಗಿ	-11.0786
▁protesting	-11.0787
-1	-11.0792
▁ಸನ್ನಿ	-11.0795
kh	-11.0796
▁ಅರಸ	-11.0797
▁ಬ್ರಿ	-11.0797
itizenship	-11.0798
ೇಷನ್	-11.0804
▁ನಿವಾಸಿ	-11.0806
▁ವಾಲ್	-11.0806
▁bringing	-11.081
ಳನ್ನು	-11.0811
▁East	-11.0813
bal	-11.0813
▁ವರ್ಗದ	-11.0814
▁ವಿರೋಧಿಸಿ	-11.0818
▁ತುಂಬಿ	-11.0821
▁ಭಾ	-11.0823
▁ಸನ್	-11.0825
▁ರೈಲುಗಳ	-11.0832
▁ಕಾರುಗಳು	-11.0834
▁skill	-11.0837
▁ನ್ಯಾ	-11.0838
▁ಸಿದ್ಧಪಡಿಸ	-11.0839
▁ಬಂದಿರುವ	-11.084
▁14.	-11.0842
▁Com	-11.0842
▁lines	-11.0843
hra	-11.0845
▁ಜೋಡಿಸ	-11.0851
some	-11.0855
ೆಂಟ್	-11.0859
ಷಧಿಗಳ	-11.0859
▁ಸಿಗುವ	-11.086
▁8-	-11.0863
▁ಅರ್ಹ	-11.0863
ಿಸಲ್ಪಟ್ಟ	-11.0863
ajaj	-11.087
▁ಒಪ್ಪಂದದ	-11.0876
dal	-11.088
▁ಏನಾದರ	-11.0887
ಾಜ್	-11.0888
▁ಬೆಳಕಿನ	-11.0888
ವಲ್ಲದ	-11.089
▁ನಾಡ	-11.0897
▁ಸರಕಾರಕ್ಕೆ	-11.0897
▁ನೇಮಿಸ	-11.0899
▁ಮೆಂಟ್	-11.0899
▁ಹೆಸರಿನ	-11.0904
let	-11.0908
▁ಕಾನ್	-11.0911
ವಿಲ್ಲದೆ	-11.0911
▁ಕೊಚ್ಚಿ	-11.0911
▁ಸೇರಿದ್ದ	-11.0912
▁cor	-11.0913
▁ಒತ್ತು	-11.0914
58	-11.0916
▁records	-11.092
▁ಮರಗಳು	-11.0923
vo	-11.0934
ಚಾ	-11.0946
▁ಬಳಲುತ್ತಿದ್ದ	-11.0948
▁ಗಾಯಾಳುಗಳ	-11.0951
▁ವರ್ಣ	-11.0952
▁ಬಳಸಿಕೊಳ್ಳ	-11.0957
▁premi	-11.0963
▁ಸಹೋದರನ	-11.0966
▁ಭಾಷೆಗಳ	-11.0967
▁ರಂಗ	-11.0967
▁71	-11.097
ಮಂ	-11.097
ಬಹುದೆಂದು	-11.0972
ಸಾನ್	-11.0975
ವಳು	-11.0977
▁ಕಂಡುಕೊಂಡ	-11.098
▁ಲಭ್ಯ	-11.0984
▁ದೃಢ	-11.0986
ope	-11.0987
ುವನು	-11.0989
▁buildings	-11.0991
▁ಸೆಳೆದ	-11.0992
▁Pant	-11.0994
ವರ್ಡ್	-11.1002
▁acts	-11.1003
▁ಪ್ರಕಟಣೆ	-11.1007
ವುದು	-11.1008
▁ಅಡ	-11.1014
▁ಹೆಚ್ಚಿಸ	-11.1016
▁ಸ್ಥಳಾಂತರಿಸ	-11.1016
ಬಂದ	-11.1016
▁ಮಾತಿನ	-11.1023
▁ಉಳಿಯ	-11.1027
▁Top	-11.1028
33	-11.1029
▁ವ್ಯ	-11.1031
▁ಅಹಿತಕರ	-11.1036
▁ಆಲೋಚನೆ	-11.1044
▁emerg	-11.1055
lin	-11.1059
ಚಂದ್ರ	-11.1059
ಕ್ಷೇತ್ರ	-11.106
related	-11.1061
ವಾದುದು	-11.1061
▁hits	-11.1061
ಆದರೆ	-11.1063
▁ನಿವಾಸಿಗಳ	-11.1064
▁24,	-11.1064
ಶ್ರೀ	-11.1065
▁ನಿಯಂತ್ರಿಸ	-11.1065
▁ಆಗ್ರಹಿಸಿ	-11.1067
night	-11.1068
▁Any	-11.1069
▁ಪ್ರಬಲ	-11.1069
▁ಬಳಕೆಯ	-11.1069
appeared	-11.1069
▁ಬೈಬಲಿನಲ್ಲಿ	-11.107
gam	-11.1076
ಪರ್	-11.1077
jit	-11.1078
▁cur	-11.1079
▁ರಕ್ಷಿಸ	-11.1084
▁vaccine	-11.1084
▁ಸಂತ	-11.1084
▁ಪ್ರಕಾಶ	-11.1084
▁ಹಳ್ಳ	-11.1084
▁ಚೆ	-11.1084
▁truck	-11.1085
▁contribution	-11.1087
▁relative	-11.109
▁passenger	-11.1091
ಾದಲ್ಲಿ	-11.1091
▁sweet	-11.1095
▁ಸ್ನೇಹ	-11.1103
ಯಾಗಲಿದೆ	-11.1104
▁blessing	-11.1111
ಲೋಕ	-11.1112
▁ಗೆಲ್ಲುವ	-11.1116
▁farmer	-11.1116
▁statue	-11.1118
▁cow	-11.1119
ather	-11.1123
▁generation	-11.1126
▁commission	-11.1128
▁ಪುಸ್ತಕದ	-11.1128
▁ನಡೆಸುತ್ತಿದ್ದ	-11.1128
▁ಕಲಾವಿದರ	-11.1132
▁ಇದ್ದೇ	-11.1135
▁ಇದಕ್ಕಿಂತ	-11.1135
ft	-11.1138
selling	-11.1139
▁owner	-11.1142
▁select	-11.1144
▁dog	-11.1144
ಾಂಡ್	-11.1147
▁ನಾಯಕತ್ವ	-11.1148
▁arent	-11.1152
▁liter	-11.1153
▁install	-11.1154
▁spend	-11.1155
ಜೀ	-11.1155
▁implement	-11.1158
ಕಾರ್ಯ	-11.1159
▁ಅಕ್ಕ	-11.1165
▁ಬೌಲ	-11.1165
UV	-11.1166
featured	-11.1166
▁ಚಂದ್ರಶೇಖರ	-11.1167
▁ಸರಣಿಯಲ್ಲಿ	-11.1167
▁fields	-11.1173
▁ಪ್ರಾಯ	-11.1174
▁ಠಾಣಾ	-11.1175
▁ಅಥವ	-11.1176
cing	-11.1177
▁ಮನೆಗಳ	-11.1177
▁ಆಸ್ಟ್ರೇಲಿಯ	-11.1177
ಸ್ಥಾನ	-11.1178
ೆಲ್ಲರ	-11.1178
ಬಂಧ	-11.1179
▁virus	-11.1183
▁ವರ್ಕ್	-11.1183
ದ್ದೂ	-11.1183
▁except	-11.1184
AI	-11.1184
▁log	-11.1185
▁ಪ್ರಸ್ತಾವ	-11.1185
ಂದಿಗೂ	-11.1186
▁ಆಟಗಾರ್ತಿ	-11.1186
▁attract	-11.1186
▁Kamal	-11.1186
▁ಪಠ್ಯ	-11.1187
▁ಅಂಗೀಕಾರ	-11.1187
▁ಪ್ರಾಣಾಪಾಯ	-11.1187
▁Brother	-11.1187
▁Company	-11.1187
▁Fortunately	-11.1187
▁Katrina	-11.1187
▁Lankesh	-11.1187
▁Madras	-11.1187
▁Municipal	-11.1187
▁Results	-11.1187
▁Revelation	-11.1187
▁Support	-11.1187
▁Symptoms	-11.1187
▁Thakur	-11.1187
▁Through	-11.1187
▁Video	-11.1187
▁easier	-11.1187
▁fundamental	-11.1187
▁guidance	-11.1187
▁mishap	-11.1187
▁opposite	-11.1187
▁poverty	-11.1187
▁protein	-11.1187
▁rejoice	-11.1187
▁straight	-11.1187
▁thereafter	-11.1187
▁ಅಕಾಡೆಮಿ	-11.1187
▁ಅಮೆಜಾನ	-11.1187
▁ಕಂಟ್ರೋಲ್	-11.1187
▁ಕಾದಂಬರಿ	-11.1187
▁ಜಾರ್ಖಂಡ್	-11.1187
▁ಟೊಯೊಟಾ	-11.1187
▁ತಾಲ್ಲೂಕು	-11.1187
▁ರಕ್ತದೊತ್ತಡ	-11.1187
▁ರಜಪೂತ	-11.1187
▁ರಫ್ತು	-11.1187
▁ವಲಸೆ	-11.1187
▁ವೀಡಿಯೊ	-11.1187
▁ಶೈಕ್ಷಣಿಕ	-11.1187
▁ಸರಾಸರಿ	-11.1187
▁ಸುದೀರ್ಘ	-11.1187
▁ಸ್ಫೂರ್ತಿ	-11.1187
▁Church	-11.1187
▁Girl	-11.1187
▁History	-11.1187
▁Mandya	-11.1187
▁THE	-11.1187
▁church	-11.1187
▁dialogue	-11.1187
▁television	-11.1187
▁ಹೊರಹೊಮ್ಮ	-11.1187
▁peak	-11.1187
▁pleasure	-11.1187
▁ಪ್ರಾಚೀನ	-11.1187
▁ಬಯಕೆ	-11.1187
▁ಸಿಪ್ಪೆ	-11.1187
▁gearbox	-11.1187
▁ಆಮದು	-11.1187
▁ಟಿಎಂಸಿ	-11.1187
quipped	-11.1187
ಮ್ಯಾಟಿಕ್	-11.1187
▁1-0	-11.1187
▁Gundu	-11.1187
▁complex	-11.1187
▁stretch	-11.1187
▁surrounding	-11.1187
▁internet	-11.1187
▁qualities	-11.1187
▁ಪಾರ್ಕಿಂಗ್	-11.1187
▁ಖರ್ಗೆ	-11.1187
▁ದ್ವಿಚಕ್ರ	-11.1187
▁Ravindra	-11.1187
▁mixture	-11.1187
▁ಕೀಪರ್	-11.1187
▁ರಣವೀರ್	-11.1187
▁Grand	-11.1187
▁Turn	-11.1187
▁Amazon	-11.1187
▁Media	-11.1187
▁Help	-11.1187
▁satisfied	-11.1187
▁ಹಗರಣ	-11.1187
▁native	-11.1187
▁automatic	-11.1187
spec	-11.1187
▁ಆಲಿವ್	-11.1187
▁ಟೇಬಲ್	-11.1187
▁Remember	-11.1187
▁Scriptural	-11.1187
▁warned	-11.1188
▁lake	-11.1188
▁childhood	-11.1188
▁ಶ್ರೀದೇವಿ	-11.1188
▁ಡ್ಯೂ	-11.1188
▁ಗಾಯಗಳಾಗಿವೆ	-11.1188
▁worldwide	-11.1188
▁terrorism	-11.1188
▁ಉಪಯುಕ್ತ	-11.1188
▁appearance	-11.1188
▁ಬ್ಯಾಂಕಿಂಗ್	-11.1188
▁2022	-11.1189
▁travelling	-11.1189
▁ಯಾಕೆಂದರೆ	-11.1189
▁Rajendra	-11.1189
▁subsequently	-11.1189
▁ಹೀನಾಯ	-11.1189
▁ಶಾರ್ಟ್	-11.119
▁copy	-11.119
▁ಹಾಕಿಕೊಂಡ	-11.119
▁Manipur	-11.119
▁shortage	-11.119
▁2012	-11.119
▁2011	-11.119
▁ಬಳಸಲಾಗುತ್ತದೆ	-11.1191
▁Jharkhand	-11.1191
▁memory	-11.1191
▁estimated	-11.1191
▁ಇಂಟರ್ನೆಟ್	-11.1191
▁ಇದಾಗಿದೆ	-11.1192
▁ಮನ್ನಾ	-11.1192
▁ಬೌಲರ್	-11.1192
▁ಪಾರಾಗಿದ್ದಾರೆ	-11.1193
▁ಒಳಗ	-11.1193
▁continuing	-11.1193
▁Oil	-11.1193
▁ಬೀರುತ್ತದೆ	-11.1194
▁ಹೆಚ್ಚಾಗುತ್ತದೆ	-11.1194
pp	-11.1194
▁dismissed	-11.1194
▁ಒಣ	-11.1194
▁ಆಗಿರುತ್ತದೆ	-11.1194
▁ಮುನ್ನೆಚ್ಚರಿಕೆ	-11.1195
▁Anti	-11.1195
▁ಕೋಡ್	-11.1195
▁ತುಂಡುಗಳ	-11.1195
▁disappointed	-11.1195
▁useful	-11.1196
▁ಸಂಭವಿಸಿಲ್ಲ	-11.1196
▁ನಿಲ್ಲಿಸಿ	-11.1196
▁ಹೆಡ್	-11.1197
▁Live	-11.1197
▁ಹೆಚ್ಚಿಸಲು	-11.1197
▁absconding	-11.1198
▁Amendment	-11.1198
▁ಪ್ರಾದೇಶಿಕ	-11.1198
▁advance	-11.1198
▁ಗೊತ್ತಿದೆ	-11.1198
▁ಸ್ವತಂತ್ರ	-11.1199
▁ಮಾಡುತ್ತವೆ	-11.1199
▁ಸೆಟ್	-11.1199
▁ಮಾನವನ	-11.1199
▁ಮಾಡಲಿದ್ದಾರೆ	-11.12
▁rescued	-11.12
▁ಗಾಯಗೊಂಡವರ	-11.12
▁suspected	-11.12
▁Candidates	-11.1201
▁ಹೇಗಿದೆ	-11.1201
▁ಬರುತ್ತವೆ	-11.1202
▁ರಚಿಸಲು	-11.1203
▁emphasize	-11.1203
ೆನಿಸ್	-11.1204
▁ನಡೆಸಿದ್ದ	-11.1204
▁ಮುಗಿದಿದೆ	-11.1204
▁ವಂಚನೆ	-11.1205
▁Try	-11.1205
▁ಕೊಡುತ್ತದೆ	-11.1205
▁ನೈಜ	-11.1205
▁ಡಿಎ	-11.1206
▁script	-11.1206
▁Year	-11.1207
▁ಹಾರ್ದಿಕ್	-11.1207
▁ಸರಳವಾಗಿದೆ	-11.1207
▁ಆರಂಭವಾಗಿದೆ	-11.1208
▁notification	-11.1208
▁fit	-11.1208
▁Leader	-11.1208
▁ಪುಣೆ	-11.1209
ೀತ	-11.1212
▁ರಜನಿಕಾಂತ	-11.1212
▁fixed	-11.1213
▁ವಾಷಿಂಗ್ಟನ್	-11.1213
▁installed	-11.1214
▁ಸೂಚಿಸಿದ್ದಾರೆ	-11.1215
▁ಎಂದಿದ್ದರು	-11.1215
▁PAN	-11.1216
ಯಲ್ಲೇ	-11.1216
▁ದೃಷ್ಟಿಯಿಂದ	-11.1219
▁ಘಟನಾ	-11.1219
▁Market	-11.122
▁ಅಭಿಪ್ರಾಯಪಟ್ಟ	-11.122
▁ಸೈಕಲ್	-11.122
ಟೆಕ್	-11.1221
for	-11.1223
▁restrictions	-11.1224
▁ತಲುಪಿದೆ	-11.1227
▁ಸಂಪರ್ಕಿಸಿ	-11.123
ರಿಯರ್	-11.1231
▁ನಡೆದಿತ್ತು	-11.1232
▁ಕಾಲೇಜಿನಲ್ಲಿ	-11.1234
▁ಕಮಲ್	-11.1235
▁ಶಿಪ್	-11.1235
▁ಮಾಹಿತಿಗಾಗಿ	-11.1235
▁ಭವಿಷ್ಯದಲ್ಲಿ	-11.1236
ND	-11.1238
▁ಆಳ್ವಿಕೆ	-11.1243
▁ಮಾತನಾಡಿದರು	-11.1243
▁ಯುಗ	-11.1245
▁ನಾರಾಯಣ	-11.1245
ಹೋ	-11.1247
▁ನಡೆದಿಲ್ಲ	-11.1248
▁ಸೇವೆಯಲ್ಲಿ	-11.1252
ix	-11.1254
ound	-11.1255
▁fo	-11.126
▁ನನ್ನು	-11.1264
▁ಬಾಲ್	-11.1265
ನೆಟ್	-11.1265
▁ಎದ್ದು	-11.1266
▁trained	-11.127
▁Youth	-11.1271
▁ಮಳೆಯ	-11.1272
▁ಕರ್ತನಿಗೆ	-11.1274
▁ನೆನಪು	-11.1275
▁Shami	-11.1277
▁po	-11.1281
▁ಆಹ್ವಾನಿಸ	-11.1282
▁wind	-11.1283
▁ನಂಬಿ	-11.1284
▁ಸಂಸದರು	-11.1285
▁ಒಟ್ಟಾಗಿ	-11.1286
▁relatives	-11.1286
ಸುತ್ತದೆ	-11.1287
▁ದಿನದಿಂದ	-11.1288
▁ಪಂಚ	-11.129
▁ಕಲ್ಪನೆ	-11.1291
▁ನೈ	-11.1293
▁68	-11.1295
▁waste	-11.1295
▁ಅರೆ	-11.1299
▁ಬರೆದು	-11.13
▁ಗಟ್ಟಿ	-11.1303
▁ನಮ್ಮದು	-11.1304
ಿಸಿತ್ತು	-11.1308
▁sections	-11.1314
AR	-11.1315
▁ಅರ್ಥವೇನ	-11.1315
▁ends	-11.1322
▁ಮತಗಳು	-11.1324
▁ಅಂಗೀಕರಿಸ	-11.1324
▁ಪರಿಸ್ಥಿತಿಯನ್ನು	-11.1326
▁plants	-11.1328
▁ಬುದ್ಧಿ	-11.1329
▁Ji	-11.1333
▁ವೇಗಿ	-11.1339
▁ಪಕ್ಷಿಗಳ	-11.1342
▁van	-11.1343
▁ನೀಲ	-11.1346
▁ಅನಿಸಿಕೆ	-11.1347
by	-11.1347
▁booked	-11.1347
▁ಸಂಚಾರಿ	-11.1347
▁58	-11.1348
▁claims	-11.1349
▁ಮನೆಗಳು	-11.1351
▁ಕೊರಿಯಾ	-11.1354
▁ದತ್	-11.1355
▁ಆಯ್ಕೆಗಳು	-11.1356
▁ಶೂ	-11.1357
ons	-11.1359
pping	-11.1359
▁ರಹಿತ	-11.1363
ava	-11.1366
▁ಫೋ	-11.1366
▁ಶ್ರಮಿಸ	-11.1367
▁ಬಲೆ	-11.1369
▁fr	-11.1369
▁tour	-11.137
▁ಸರಿಪಡಿಸ	-11.1373
▁ಕಾಲುಗಳ	-11.1377
▁ಅಕ್ಷರ	-11.1379
▁ಆಹಾರದ	-11.1382
ey	-11.1382
▁ಭಾಗಗಳಲ್ಲಿ	-11.1385
▁ಆರಂಭದ	-11.1388
▁par	-11.1389
ಟಕ್ಕೆ	-11.139
▁ಷಾ	-11.139
rd	-11.1396
▁ಎಲ್ಲಿದೆ	-11.14
▁ತಯಾರಾಗ	-11.1402
ಾರ್ಥ	-11.1403
▁ಜಗ	-11.1408
ಷಧಿ	-11.1408
ong	-11.141
▁ಪ್ರಶ್ನೆಯ	-11.141
▁ಕೇಂದ್ರದಲ್ಲಿ	-11.1411
▁ಸ್ತ್ರೀ	-11.1415
▁boys	-11.1417
right	-11.1418
▁ರಾಜ್ಯಪಾಲರ	-11.1419
▁ಯತ್ನಿಸ	-11.1419
▁Note	-11.1424
▁questioned	-11.1433
ೀನಿ	-11.1434
▁Bas	-11.1437
▁reject	-11.144
▁ಗಳಿಸ	-11.1443
▁ಬಿಡುಗಡೆಗೊಳಿಸ	-11.1445
▁ವಾಗ್ದಾನ	-11.1451
ose	-11.1454
▁ಉತ್ಸಾಹ	-11.1454
▁yes	-11.1456
▁ಇವರಲ್ಲಿ	-11.1457
ps	-11.1458
eshwar	-11.1459
ರೂಪ	-11.146
▁ಸಂಚರಿಸ	-11.146
ably	-11.1462
ಿರಲಿ	-11.1467
ವಂತೆ	-11.1467
▁applications	-11.1469
▁cards	-11.1469
Z	-11.1472
▁ಯಾವುದೆ	-11.1473
▁ಭಾಗವಹಿಸಿದ್ದ	-11.1473
▁ಅಕ್ಕಿ	-11.1482
▁ಒಳ್ಳೆಯದ	-11.1488
ock	-11.1494
23	-11.1496
▁ಸಮಯಕ್ಕೆ	-11.1497
▁asks	-11.15
▁ಜೀವಿಸ	-11.1501
▁ನೀಡಲಾಗಿತ್ತ	-11.1502
▁ಲೋಹ	-11.1509
ಡಿಯೋ	-11.1513
▁ತಟ್ಟ	-11.1513
▁ಅಬ್	-11.1515
▁ಅಸ	-11.1515
▁ತಿಳಿಸಿ	-11.152
ಡಿಸಿ	-11.1528
pati	-11.1529
▁ಅನಿವಾರ್ಯ	-11.1531
▁ಪೂರ್ಣಗೊಳಿಸ	-11.1534
▁ಆದಿ	-11.1538
▁ಆರೋಪಿಗಳು	-11.1539
▁seeing	-11.1541
▁ಜೊತೆಯಾಗಿ	-11.1552
▁ತಪ್ಪಿಸಿಕೊಳ್ಳ	-11.1554
▁ತೆರಳಿ	-11.1557
ವರಲ್ಲಿ	-11.1557
▁ಮಠ	-11.1562
▁ವೀರ	-11.1565
▁ಗಾಳಿಯ	-11.1573
▁congregations	-11.1579
▁ಅಳ	-11.1581
head	-11.1585
AT	-11.1591
ಮುಂದೆ	-11.1605
▁arise	-11.1609
▁ಅನುಮತಿಸ	-11.1611
▁ರದ್ದುಗೊಳಿಸ	-11.1613
▁ch	-11.1616
▁ಹಾಗ	-11.1623
▁reference	-11.1624
▁ಭಯೋತ್ಪಾದಕ	-11.1624
▁ಏನೇ	-11.1625
ಿಲ್ಲದ	-11.1627
ಮೂರ್ತಿ	-11.1633
▁ಮಾಡಲ	-11.1633
▁Ad	-11.1637
16	-11.1638
▁depend	-11.1643
▁ತಗ್ಗಿಸ	-11.1644
level	-11.1649
▁ಕಾನೂನ	-11.1649
president	-11.165
That	-11.165
▁ನಾವೆಲ್ಲ	-11.1651
water	-11.1652
▁ನಿಭಾಯಿಸ	-11.1654
ince	-11.1656
held	-11.166
ವಿಲ್ಲದ	-11.1662
▁ಇದ್ರ	-11.1667
▁mistake	-11.167
▁deposit	-11.1672
▁ನಿಯಂತ್ರಿಸಲ	-11.1674
▁achievement	-11.1675
▁paper	-11.1676
▁guest	-11.1676
▁ನಿಭಾಯಿಸಲ	-11.1678
▁ಪೌಲ	-11.1678
▁agreement	-11.1679
▁partner	-11.1679
▁ಆಗ್ರಹ	-11.1681
▁ಪವಿತ್ರಾತ್ಮದ	-11.1681
▁ಇಂದ	-11.1682
▁organisation	-11.1683
▁750	-11.1683
▁writer	-11.1684
▁wall	-11.1684
▁ಹೀರೋ	-11.169
▁markets	-11.1691
▁App	-11.1692
▁ಕೊಟ್ಟು	-11.1693
ON	-11.1695
▁ಪರಿಣಾಮವಾಗಿ	-11.1698
▁ಕೃತ್ಯಗಳ	-11.1699
ಜ್ಞ	-11.17
▁ear	-11.1701
▁220	-11.1702
ust	-11.1702
▁Kam	-11.1704
▁ಹುಡುಕಿ	-11.1707
▁ಸನ್ಮಾನಿಸ	-11.1717
▁ಶತ	-11.1718
▁hill	-11.1719
▁ಸ್ಥಳದ	-11.1723
▁ಅಬ	-11.1727
hav	-11.1727
ನಂತೆ	-11.1729
▁caus	-11.1735
▁ಇವನ	-11.1736
▁collect	-11.1741
▁ಡೋ	-11.1744
▁Shi	-11.1746
▁ಗಮನಾರ್ಹವಾಗಿ	-11.1746
▁establish	-11.1746
▁assault	-11.1747
▁talent	-11.1747
▁Launch	-11.1748
▁register	-11.1749
▁fix	-11.1749
▁ಹುತಾತ್ಮ	-11.1749
ತ್ತೇ	-11.1751
▁ದೀರ್ಘ	-11.176
▁strange	-11.176
ೀಕರಿಸ	-11.1761
▁surprise	-11.1763
▁inaugurate	-11.1764
▁ಒಳಗೂಡ	-11.1767
▁exact	-11.1767
▁purchase	-11.1769
▁ಮಧುಮೇಹ	-11.177
▁branch	-11.1771
▁chose	-11.1772
▁ನೈತಿಕ	-11.1773
▁corrupt	-11.1773
▁labour	-11.1773
▁ಮಾರ್ಕ	-11.1774
▁Art	-11.1774
▁dark	-11.1774
▁greet	-11.1775
▁council	-11.1775
▁ಆಕರ್ಷಣೆ	-11.1775
▁throw	-11.1775
▁Chahal	-11.1775
▁Diesel	-11.1775
▁Gilead	-11.1775
▁Instead	-11.1775
▁Jacob	-11.1775
▁Mukherjee	-11.1775
▁Reserve	-11.1775
▁Shreya	-11.1775
▁Society	-11.1775
▁Street	-11.1775
▁Trophy	-11.1775
▁Tuesday	-11.1775
▁Uttarakhand	-11.1775
▁Welfare	-11.1775
▁assignment	-11.1775
▁bronze	-11.1775
▁casualties	-11.1775
▁destination	-11.1775
▁immense	-11.1775
▁mandatory	-11.1775
▁pretty	-11.1775
▁procedure	-11.1775
▁replied	-11.1775
▁supposed	-11.1775
▁ಈಶಾನ್ಯ	-11.1775
▁ಚೊಚ್ಚಲ	-11.1775
▁ಜಿಲ್ಲಾಡಳಿತ	-11.1775
▁ಪಿಂಚಣಿ	-11.1775
▁ಫ್ಯಾಷನ್	-11.1775
▁ಫ್ರೆಂಚ್	-11.1775
▁ಬಿಬಿಎಂಪಿ	-11.1775
▁ಭೌತಿಕ	-11.1775
▁ಮಲ್ಲಿಕಾರ್ಜುನ	-11.1775
▁ಮೇಲ್ವಿಚಾರಕ	-11.1775
▁ರಹಾನೆ	-11.1775
▁ಶಿವಾಜಿ	-11.1775
▁ಸಂಬಳ	-11.1775
▁ಸೆಂಟರ್	-11.1775
▁ಹೆಗಡೆ	-11.1775
▁Earth	-11.1775
▁LPG	-11.1775
▁Meeting	-11.1775
▁destruction	-11.1775
▁ಅಯ್ಯರ್	-11.1775
▁ಕಿಟಕಿ	-11.1775
▁ಚಿತ್ರತಂಡ	-11.1775
▁ನಿಗೂಢ	-11.1775
▁Trade	-11.1775
▁ಪಯಣ	-11.1775
▁ಯೆಹೂದ್ಯರ	-11.1775
▁behold	-11.1775
▁obey	-11.1775
▁resurrection	-11.1775
▁stolen	-11.1775
▁inconvenience	-11.1775
▁premises	-11.1775
▁ಕಾನ್ಫರೆನ್ಸ್	-11.1775
▁ಕೃಪೆ	-11.1775
▁Advani	-11.1775
▁Search	-11.1775
▁ಪಶು	-11.1775
▁ಬಂಗಾರ	-11.1775
▁ಮುಹಮ್ಮದ್	-11.1775
▁centuries	-11.1775
▁distance	-11.1775
▁ಸರೋವರ	-11.1775
▁ವೀಡಿಯೋ	-11.1775
▁transmission	-11.1775
▁ಸೆನ್ಸಾರ್	-11.1775
▁tension	-11.1775
▁convention	-11.1775
▁industrial	-11.1775
▁rock	-11.1775
▁technical	-11.1775
▁ಜುಲೈ	-11.1775
▁ಲಭ್ಯವಿರುವ	-11.1775
▁ಐಗುಪ್ತ	-11.1775
▁Conference	-11.1775
▁Satish	-11.1775
koda	-11.1775
▁Enter	-11.1776
▁tackle	-11.1776
▁ಮಹಾತ್ಮ	-11.1776
▁Short	-11.1776
▁ಗೋಪಾಲ್	-11.1776
▁theatre	-11.1776
▁ಸುವ್ಯವಸ್ಥೆ	-11.1776
▁ವರ್ಗಾಯಿಸ	-11.1776
▁ಧನಾತ್ಮಕ	-11.1776
▁salary	-11.1776
▁iron	-11.1776
▁ಒಡ್ಡ	-11.1776
▁ಸುನೀಲ	-11.1776
▁Airport	-11.1776
▁Kaif	-11.1776
▁Town	-11.1776
▁ಸಂಯುಕ್ತ	-11.1776
▁intend	-11.1776
▁ಹಾಗಂತ	-11.1776
▁Report	-11.1776
▁ದನ	-11.1777
▁wheat	-11.1777
▁ವಾರ್ಡ್	-11.1777
▁ಕಾರ್ಯರೂಪ	-11.1777
▁ಅಗತ್ಯವಿರುತ್ತದೆ	-11.1777
▁ಪ್ರಸ್ತಾವನೆ	-11.1777
▁raid	-11.1777
▁Jaish	-11.1777
▁ಜೋಶಿ	-11.1778
ೀನ	-11.1778
▁burnt	-11.1779
▁ಸಂಸದೀಯ	-11.1779
ort	-11.1779
▁Fans	-11.1779
▁ಸಹಭಾಗಿತ್ವ	-11.1779
▁earthquake	-11.1779
▁Karan	-11.178
▁ಆತ್ಮೀಯ	-11.178
▁ಚಳಿಗಾಲದಲ್ಲಿ	-11.178
▁ಕುಸಿದಿದೆ	-11.1781
▁ಕರೆಯುತ್ತಾರೆ	-11.1781
▁shut	-11.1781
▁ಹೀಗಿವೆ	-11.1781
▁ಸಿಗಲಿಲ್ಲ	-11.1782
▁abuse	-11.1782
▁divided	-11.1783
▁ನೀಡುತ್ತಿದೆ	-11.1783
▁ವರುಣ	-11.1784
▁ಆಜ್ಞೆ	-11.1784
ುವಂಥ	-11.1784
▁pose	-11.1785
▁ಶುರುವಾಗಿದೆ	-11.1785
▁ಸಾಧ್ಯವಾಗುತ್ತದೆ	-11.1785
▁ಹಾಸನ್	-11.1785
▁ಎಂದಿನಂತ	-11.1785
▁IPC	-11.1786
▁Samaj	-11.1786
▁threatened	-11.1786
▁ಇಲ್ಲಿಯವರೆಗೆ	-11.1786
▁ಹೋಲಿಕೆ	-11.1786
▁digital	-11.1787
▁Leave	-11.1787
▁ಸಂಬಂಧಿಕರ	-11.1787
▁ಹೇಳಬಹುದು	-11.1787
▁ro	-11.1788
▁ಕಾಣುತ್ತದೆ	-11.1789
▁ಮೂಡಿ	-11.1789
▁50,000	-11.1789
▁256	-11.1789
▁ಎಚ್ಚರಿಕೆಯಿಂದ	-11.179
▁ಸುರಿಯ	-11.1791
▁ಬಾಡಿಗೆ	-11.1791
▁ಸಂಹಿತೆ	-11.1792
▁losses	-11.1792
ಂಟೈನ್	-11.1792
▁taxes	-11.1793
▁ನ್ಯೂಸ್	-11.1793
▁ಮಾನ್ಯತೆ	-11.1794
▁ದೊರೆತ	-11.1794
▁Guru	-11.1794
▁Pay	-11.1794
▁ಪೂರ್ತಿ	-11.1795
▁ಬ್ರೆಜಿಲ್	-11.1795
▁ಚರಂಡಿ	-11.1795
▁Games	-11.1796
▁ವಕೀಲರ	-11.1796
▁Jews	-11.1796
dia	-11.1797
▁104	-11.1797
▁welcomed	-11.1798
▁ಬದಲಾಗಿದೆ	-11.1798
▁blessed	-11.1799
chi	-11.1801
▁Vehicles	-11.1802
▁130	-11.1803
▁forced	-11.1805
▁ಅಲ್ಪ	-11.1807
▁ಮುಗಿಯ	-11.1808
▁ಪಡೆಯಬೇಕು	-11.1808
ಲಲಿತಾ	-11.1809
▁ನಿರೋಧಕ	-11.1809
▁responded	-11.1809
▁ಭಕ್ತಿ	-11.1809
▁strongly	-11.1809
▁NW	-11.181
▁ನಿರತ	-11.1811
▁wake	-11.1811
▁ಉಂಟುಮಾಡ	-11.1811
ible	-11.1812
▁ಮಾಡಬೇಕಾದ	-11.1812
▁ಸ್ಕೂಲ್	-11.1812
▁ಸಂಸತ್ತಿನ	-11.1813
▁ಉದ್ಯಮಿ	-11.1814
▁ಆರಂಭಿಸಲು	-11.1814
▁ಅಭಿಮಾನಿಗಳಿಗೆ	-11.1816
▁soil	-11.1817
ಬೀರ್	-11.1818
್ಮಿಂಟ	-11.1821
▁gathering	-11.1821
▁ಪಕ್ಷದಲ್ಲಿ	-11.1822
▁polling	-11.1824
▁nab	-11.1824
ea	-11.1825
▁prayed	-11.1826
ವಾಣಿ	-11.1827
▁Teachers	-11.1827
▁maintained	-11.1827
▁ಫ್ರ	-11.1829
▁ಎಂಎಂ	-11.183
ಾಗುವುದು	-11.183
▁ತ್ರಿವ	-11.1836
▁ಕೇಳುವ	-11.1837
▁ಯುಪಿಎ	-11.1837
▁ಹೊರಟು	-11.1838
ಮಟ್ಟದ	-11.1838
▁streets	-11.1838
▁neighbours	-11.1838
ಸಾವನ್ನಪ್ಪಿದ್ದಾರೆ	-11.1838
▁ಬರುವುದು	-11.1838
▁ಕೊನೆಯಲ್ಲಿ	-11.1839
▁ದಾಸ್	-11.184
▁ಚಕ್ರ	-11.1841
▁ಇದೂ	-11.1841
▁ಇವನು	-11.1843
▁ಖಂಡ	-11.1843
▁west	-11.1843
▁bound	-11.1844
▁experienced	-11.1847
▁preparations	-11.185
▁ಹೆತ್ತವರು	-11.185
▁falling	-11.1852
▁ಸೋಷಿಯಲ	-11.1856
▁ವಿದ್ಯಾ	-11.1857
▁foods	-11.1858
ತಿನ	-11.1861
▁ಸ್ಥಿತಿಯನ್ನು	-11.1861
▁ತಪ್ಪಿ	-11.1862
▁Ur	-11.1864
▁ಕೇಳಿದೆ	-11.1864
▁ಸಮಾಜದಲ್ಲಿ	-11.1865
ging	-11.1871
▁ಸ್ನೇಹಿತ	-11.1871
▁ಏನನ್ನ	-11.1872
▁ಒಬ್ಬರನ್ನ	-11.1873
ೆಂದೂ	-11.1873
▁Big	-11.1873
ಹಾಕಲು	-11.1875
ಸರ	-11.1875
▁ವ್ಯಾಪ್ತಿಯ	-11.1877
NS	-11.1881
dhi	-11.1882
▁murdered	-11.1889
▁ಜೈನ	-11.1891
▁ವಿಚಾರಣೆಯ	-11.1892
▁celebrations	-11.1892
▁AB	-11.1894
▁ಮಾಧ್ಯಮಗಳಲ್ಲಿ	-11.1896
▁ಚಿತ್ರಗಳಲ್ಲಿ	-11.1898
▁ಕಾರ್ಮಿಕರು	-11.19
gra	-11.1902
▁ಜಾರಿಗೊಳಿಸ	-11.1905
▁ತಳ್ಳ	-11.1905
▁addressed	-11.1906
▁ಫಲಕ	-11.1906
▁ಮದುವೆಯಾದ	-11.1908
acted	-11.1909
▁ವಿಚಾರವಾಗಿ	-11.191
ಬೇಕಿತ್ತು	-11.1912
▁ಪಡೆದುಕೊಳ್ಳಲ	-11.1913
▁ಚು	-11.1915
IM	-11.1915
▁ಹೇಳಿದಂತೆ	-11.1916
▁ಕೋಟ	-11.1916
▁2018:	-11.1921
▁Railways	-11.1923
pet	-11.1923
▁ಅಲೆ	-11.1923
▁ದಿನೇ	-11.1924
▁files	-11.1929
ace	-11.193
▁shape	-11.193
▁ಒದಗಿಸಲ	-11.1931
ಿಕ್ಸರ್	-11.1932
ಥ್	-11.1932
ball	-11.1933
▁ಪ್ರಾಣಿಗಳ	-11.1939
▁characters	-11.1941
ವಾರ	-11.1942
ಗೊಂಡಿರುವ	-11.1945
ಯೋಗ	-11.1945
▁ನಿಧಾನವಾಗಿ	-11.1946
ಹಾಕ	-11.1947
ಪುರ್	-11.1952
ವತಿ	-11.1954
▁ಅಸ್ತಿತ್ವ	-11.1957
▁ಗೋಲು	-11.1957
ಾಗುವುದಿಲ್ಲ	-11.1958
▁heavens	-11.1959
▁ಆಂಧ್ರಪ್ರದೇಶ	-11.1962
▁ಅನುಷ್ಠಾನ	-11.1966
▁ಗಾಯಕ	-11.1969
▁ತೆರೆಯಲ	-11.1969
▁ಕೊಂಡಿ	-11.197
▁ಜನಪ್ರಿಯತೆ	-11.1975
▁ಯೋಗ್ಯ	-11.1979
US	-11.1982
▁beach	-11.1984
▁ಅಸ್ವಸ್ಥ	-11.1986
▁Ban	-11.1986
▁ಭಾಗಿಯಾಗಿದ್ದ	-11.1988
ze	-11.1992
▁ಲಭ್ಯವಾಗ	-11.1993
▁ಅಭಿನಂದಿಸ	-11.1996
▁sites	-11.1997
▁ಜೀವನಕ್ಕೆ	-11.2006
▁videos	-11.2007
UR	-11.2008
▁ಸರ್	-11.201
ಈಗ	-11.201
▁ಚಿಂತಿಸ	-11.201
ರಾಗಿದ್ದ	-11.2012
▁ಜನನ	-11.2013
▁ಮೃತದೇಹ	-11.2014
83	-11.2017
▁ನಡಿಸ	-11.2018
48	-11.2019
▁victims	-11.202
▁ವಿಶ್ವವಿದ್ಯಾನಿಲಯ	-11.2022
▁ಕೈಬಿಡ	-11.2026
▁Pal	-11.2027
ನ್ಯಾ	-11.2027
ven	-11.2028
▁rivers	-11.2032
ಕೇಶ್	-11.2034
▁sectors	-11.2038
▁ಹುಡುಗ	-11.2042
tis	-11.2042
▁Gen	-11.2045
▁tool	-11.2054
▁ನೊ	-11.2058
▁ನೋಟು	-11.2059
▁ಸಾಧ್ಯವಾದ	-11.2061
▁ರಾಜ್ಯವು	-11.2065
▁63	-11.2067
ುವುದಾದರೆ	-11.2069
▁ಹಿಂದಿರುಗಿ	-11.2075
▁shares	-11.2076
▁ಜನ್ಯ	-11.2076
van	-11.2079
core	-11.2079
ಗರ್	-11.2081
ಪು	-11.2083
▁ಸ್ಥಾನಗಳಲ್ಲಿ	-11.2083
▁ಸಾಗಿಸ	-11.2088
▁ಲೆ	-11.2089
▁youths	-11.2094
▁15,	-11.2097
ep	-11.2097
್ತಾರೆ	-11.2101
▁310	-11.2104
▁ಬೆಳಕಿ	-11.2104
▁fathers	-11.2105
▁ಸೈಫ	-11.2105
▁ಹಳಿ	-11.2109
▁cr	-11.211
nk	-11.211
▁heads	-11.2112
ಬೇಕಾಗಿಲ್ಲ	-11.2116
▁ಮುಂದೂಡ	-11.2116
▁Manag	-11.2118
ಿನಿ	-11.2119
▁ಭಾರತೀಯರು	-11.2124
▁messages	-11.2125
▁ಬೆಳವಣಿಗೆಯ	-11.2128
▁indicate	-11.2131
▁ಮಸೀದಿ	-11.2132
▁ನೋವ	-11.2132
▁ಆಗಮಿಸ	-11.2132
ಲಾಗಿ	-11.2132
OC	-11.2132
▁ಕಂಪೆನಿ	-11.2133
್ದಾರೆ	-11.2133
ನಲ್	-11.2135
▁ಆರ್ಥಿಕತೆಯ	-11.2136
▁Fa	-11.2138
▁ಚೂ	-11.2144
▁ಅಭಿನಯದ	-11.2144
▁ವ್ಯಾಪಕವಾಗಿ	-11.2147
▁ತೋರಿಸು	-11.2154
▁ಕೂಡಿ	-11.2155
▁Sea	-11.2158
ಮ್ಯ	-11.2158
ign	-11.2161
▁ಪ್ರತ್ಯೇಕವಾಗಿ	-11.2161
rid	-11.2165
▁ಬದಿ	-11.2177
31	-11.2178
ಯಷ್ಟು	-11.2178
▁ಸಾಧಿಸಿದ	-11.2181
TH	-11.2182
▁ಕಡಿಮೆಯಾಗ	-11.2185
ಸೇಲ್	-11.2193
ಓ	-11.2194
ರಸ	-11.2195
ದಂದು	-11.2196
▁ವಿವರಗಳು	-11.2202
14	-11.2202
▁ಮಧು	-11.2203
ವಾಗಿರಲಿಲ್ಲ	-11.2207
▁ಹಿಡಿಯ	-11.2207
▁ಗಮನಿಸಿ	-11.2208
▁rush	-11.2208
des	-11.2213
▁ಪತ್ನಿಯ	-11.2214
▁ಹಿಂಸೆ	-11.2217
▁Sen	-11.2219
owned	-11.2219
▁ಬರೋ	-11.222
▁ಅಮೆರಿಕನ್	-11.2228
▁ನಿಯೋಜಿಸ	-11.2234
ವಾಡಿ	-11.2235
▁Niti	-11.2237
▁ನೌ	-11.2237
▁ಕೋಟ್	-11.2239
▁fat	-11.2239
▁ವಿಷಯವಾಗಿ	-11.2241
ಟ್ಸ್	-11.2242
▁IN	-11.2242
▁cons	-11.2242
▁ಎರಡ	-11.2243
▁ವಿಜೇತರ	-11.2244
ಂಕ್	-11.2248
▁wear	-11.225
▁ಬೇಕಾಗುತ್ತದೆ	-11.2257
▁flow	-11.2257
▁wo	-11.2263
▁ರಾಜಕಾರಣಿ	-11.2266
pan	-11.2269
▁ಅಂತಿಮವಾಗಿ	-11.227
ರ್ಜಿ	-11.2271
ಸ್ಪೀಡ್	-11.2272
New	-11.2275
Why	-11.2275
▁ವಿಶ್ವನಾಥ	-11.2276
match	-11.2277
ಮೊದಲ	-11.2277
ಒಂದು	-11.2278
▁Ill	-11.2281
▁ಮಾಡದ	-11.2281
▁ಎಲ್ಲಿಗೆ	-11.2283
▁explain	-11.2283
For	-11.2288
▁elder	-11.2294
ೋಕೆ	-11.2296
▁1.3	-11.2298
▁highlight	-11.23
▁drug	-11.2302
▁uses	-11.2302
▁citizen	-11.2303
▁mis	-11.2304
▁Economic	-11.2304
▁hour	-11.2306
▁ಬಾಲಕಿಯ	-11.2306
▁store	-11.2306
▁ಕಂಡುಕೊಳ್ಳ	-11.231
▁crop	-11.2311
▁ಕೇಂದ್ರದ	-11.2312
▁ತಿರು	-11.2312
▁ಎದುರಿಸುತ್ತ	-11.2314
work	-11.2324
ಕ್ಷನ್	-11.2325
name	-11.233
▁ಪಟ	-11.2333
▁ಪ್ರಭಾ	-11.2335
▁pace	-11.2338
▁ಒಬ್ಬನ	-11.2341
▁ಎಸ್ಪಿ	-11.2344
▁ಶಹ	-11.2345
▁ನೆರವೇರಿಸ	-11.2348
▁ಬ್ರಿಟನ್	-11.2348
ಕ್ಷಣ	-11.2362
▁ರಷ್ಯಾದ	-11.2362
▁ಜರ್ಮನಿ	-11.2363
ಾಣ	-11.2364
▁ಹೆಣ್ಣ	-11.2365
▁ಸ್ಥಳದಲ್ಲ	-11.2366
▁Ge	-11.2367
▁ಬರಹ	-11.2368
▁ಭದ್ರ	-11.2368
ological	-11.2368
▁ಇರಿಸಿ	-11.2369
▁ಮೀರ	-11.237
▁confirm	-11.2372
▁Rain	-11.2372
▁delight	-11.2373
▁refer	-11.2373
▁goods	-11.2377
▁ಪೂರ್ಣಗೊಂಡ	-11.2379
▁ಅಂಕಿ	-11.2381
▁ತಯಾರಕ	-11.2385
▁ಉಲ್ಲೇಖ	-11.2386
▁ಮಿಶ್ರ	-11.2387
▁preside	-11.2387
ಾಭಿವೃದ್ಧಿ	-11.2388
▁hike	-11.2388
▁Bal	-11.2388
ಕಾಂತ್	-11.2389
▁ಕೌ	-11.2389
▁Ju	-11.239
▁ಪ್ರೀತಿಯಿಂದ	-11.239
▁ಫೀಚರ್	-11.2392
▁Whe	-11.2393
▁ಮುರಿದ	-11.2394
▁Korea	-11.2395
▁danger	-11.2398
▁ಹಿನ್ನಡೆ	-11.2398
▁semi	-11.2399
▁ಪಶ್ಚಾತ್ತಾಪ	-11.24
▁bomb	-11.24
▁usual	-11.24
▁transfer	-11.24
▁ವೈಭವ	-11.24
▁ಭರ್ತಿ	-11.24
▁ಬಾಹ್ಯ	-11.24
▁ಸ್ನಾತಕ	-11.24
▁Answer	-11.24
▁Hockey	-11.24
▁Jadeja	-11.24
▁Mallikarjun	-11.24
▁Resident	-11.24
▁Stadium	-11.24
▁Thereafter	-11.24
▁Transport	-11.24
▁behavior	-11.24
▁communities	-11.24
▁dancing	-11.24
▁evident	-11.24
▁identify	-11.24
▁manufacturing	-11.24
▁neighbor	-11.24
▁relevant	-11.24
▁significance	-11.24
▁situated	-11.24
▁violent	-11.24
▁ಅಭಿವ್ಯಕ್ತಿ	-11.24
▁ಗಲಾಟೆ	-11.24
▁ಚೈತನ್ಯ	-11.24
▁ಜಪ್ತಿ	-11.24
▁ಪರಮಾಣು	-11.24
▁ಪ್ರೇರಿತ	-11.24
▁ಮದ್ರಾಸ್	-11.24
▁ಮಾನದಂಡ	-11.24
▁ಮೊಕದ್ದಮೆ	-11.24
▁ಲಂಕೇಶ್	-11.24
▁ವಿದ್ಯಾರ್ಹತೆ	-11.24
▁ವಿಪತ್ತು	-11.24
▁ವ್ಯವಸ್ಥಾಪಕ	-11.24
▁ಸೆಮಿಫೈನಲ್	-11.24
▁ಸ್ಪಿನ್ನರ್	-11.24
▁Address	-11.24
▁MLC	-11.24
▁Taluk	-11.24
▁agency	-11.24
▁ವಿದ್ಯಾಭ್ಯಾಸ	-11.24
▁ಸಾಧಾರಣ	-11.24
▁Challenge	-11.24
▁ಪುರಾವೆ	-11.24
▁ಪ್ರತಿಶತ	-11.24
▁debt	-11.24
▁ಕ್ರಿಮಿನಲ್	-11.24
▁ಸಿನೆಮಾ	-11.24
▁lamp	-11.24
▁Jeremiah	-11.24
▁surface	-11.24
▁tomato	-11.24
▁ಇತ್ತೀಚೆಗಷ್ಟೇ	-11.24
▁ಶ್ರೇಯಾಂಕ	-11.24
▁Nirav	-11.24
▁ಉಪಚುನಾವಣೆ	-11.24
▁electronic	-11.24
▁iOS	-11.24
▁ಕೊರಿಂಥ	-11.24
▁ಉತ್ಸವ	-11.24
▁ಸಂಸ್ಕಾರ	-11.24
ought	-11.24
▁tourism	-11.2401
▁Sharad	-11.2401
▁retirement	-11.2401
▁color	-11.2401
▁ವೀಸಾ	-11.2401
▁assistant	-11.2401
▁ಸುವರ್ಣ	-11.2401
▁Foundation	-11.2401
▁flock	-11.2401
▁Saina	-11.2401
▁ದಾಖಲಿಸಲಾಗಿದ್ದು	-11.2401
▁Swamiji	-11.2401
▁ಹಾಗಿದ್ದರೂ	-11.2401
▁Things	-11.2401
▁ಸೋದರ	-11.2401
▁ಬೆಳಗ್ಗೆ	-11.2401
▁ಜ್ಞಾಪಕ	-11.2401
▁Gopal	-11.2401
▁ಚಿತ್ರಕಥೆ	-11.2401
▁ಕಾಫಿ	-11.2402
▁ಸೈನಾ	-11.2402
▁ಪ್ರದಾನ	-11.2402
▁ಬಡತನ	-11.2402
▁ಖಾತ್ರಿ	-11.2402
▁Nalin	-11.2402
▁slight	-11.2402
▁Janya	-11.2402
▁ಆರಂಭವಾಗಲಿದೆ	-11.2402
▁frequently	-11.2402
▁TMC	-11.2402
ುದ್ದೀನ್	-11.2402
▁ನಿರ್ಲಕ್ಷಿಸ	-11.2402
▁ಕೇಂದ್ರಾಡಳಿತ	-11.2402
▁ಇರಾನಿ	-11.2402
▁excited	-11.2402
▁ಇಲ್ಲಿಯವರೆಗ	-11.2403
▁ಬಳಸಿಕೊಂಡು	-11.2403
▁ಪಂತ್	-11.2403
▁ಸುದೀಪ್	-11.2403
▁ಆಂಧ್ರ	-11.2403
▁offence	-11.2403
▁Collector	-11.2403
▁Warner	-11.2403
▁ಮೆಗಾ	-11.2403
▁clothes	-11.2403
▁ನಾಡಿನ	-11.2403
▁entry	-11.2403
▁Increase	-11.2403
▁Joint	-11.2404
▁impressed	-11.2405
▁December	-11.2405
▁ವ್ಯಕ್ತವಾಗಿದೆ	-11.2405
▁sat	-11.2405
▁chosen	-11.2405
▁ಮುಗಿಸಿ	-11.2406
▁ನಡೆಸಲಾಗಿದೆ	-11.2406
▁BSP	-11.2406
otal	-11.2407
▁List	-11.2407
▁upset	-11.2407
▁ಮಾಡಬೇಕಾಗಿದೆ	-11.2408
▁Line	-11.2408
▁constituted	-11.2409
▁ಸದ್ಯದ	-11.2409
▁elderly	-11.2409
▁Rather	-11.2409
▁ಪಡೆಯಿರಿ	-11.2409
▁ಮರೆಯಬೇಡಿ	-11.2409
▁ಕೈಫ್	-11.241
▁ಮಣಿಪುರ	-11.241
▁ವಿತರಣೆ	-11.241
▁gun	-11.241
▁5000	-11.2411
▁brilliant	-11.2411
▁ನಡೆಯಬೇಕು	-11.2412
▁Roy	-11.2412
▁bid	-11.2412
▁surprised	-11.2413
▁ಮುಂದಾದ	-11.2413
▁Lucknow	-11.2413
▁fault	-11.2413
▁Next	-11.2413
▁Irani	-11.2413
▁string	-11.2414
ಹಾನ್	-11.2415
▁ಬೋಧಕ	-11.2416
▁ಮಾಡಿರಲಿಲ್ಲ	-11.2417
▁favor	-11.2418
▁ವಂಶ	-11.2418
tin	-11.2418
▁ಕೈಗೊಂಡಿದೆ	-11.2419
▁pure	-11.2419
▁encouraged	-11.2419
▁ಕೆಳಗಿನಂತೆ	-11.242
zi	-11.242
▁ವರ್ತನೆ	-11.2421
▁ಬಳಕೆದಾರರಿಗೆ	-11.2422
▁5,000	-11.2422
▁ಬಿಂದು	-11.2422
▁Engineering	-11.2422
▁Press	-11.2423
▁Tell	-11.2423
▁'%	-11.2424
▁ನಿನಗ	-11.2424
▁ನಂಬರ್	-11.2424
▁ನಮನ	-11.2425
▁ಬಯಸುತ್ತೇನೆ	-11.2425
▁resolved	-11.2425
drew	-11.2426
▁ಮಾಡಲಿದೆ	-11.2427
▁ಹೌಸ್	-11.2427
▁ತೆಗೆದುಕೊಳ್ಳಬೇಕು	-11.2428
▁ಶ್ರೇಯಸ್	-11.2428
▁successfully	-11.2429
ಾನಂದ	-11.243
▁ವಹಿವಾಟು	-11.243
wadi	-11.2432
▁engineering	-11.2432
ches	-11.2433
▁charged	-11.2435
▁machines	-11.2435
▁ಹೆಮ್ಮೆಯ	-11.2436
▁ಅಗತ್ಯವಿರುವ	-11.2436
▁crossed	-11.2436
▁ಪದೇ	-11.2437
▁ಬಳಗ	-11.244
▁ಹಲ	-11.244
▁ಹೋಗಿದ್ದಾರೆ	-11.2441
ೀತು	-11.2441
fully	-11.2442
▁clearly	-11.2442
▁ಬಗೆಗೆ	-11.2444
ವಾನ್	-11.2444
▁ruled	-11.2444
ಡ್ಜ್	-11.2445
▁ಪೌಲನ	-11.2445
▁ಗಂಭೀರವಾಗಿದೆ	-11.2446
▁ಸಾರಾ	-11.2447
ಎಐ	-11.2447
▁ಬಂದರೆ	-11.2448
▁ಜಗತ್ತು	-11.2449
graph	-11.245
▁Ye	-11.2451
▁killing	-11.2452
▁learnt	-11.2455
▁ಹೊಂದಿಲ್ಲ	-11.2456
▁ಕಣ್ಣುಗಳು	-11.2457
▁bagg	-11.2457
▁appealed	-11.2459
ನ್ನಾ	-11.2461
▁ದೇವಸ್ಥಾನದ	-11.2462
ಬ್ರಿಯ	-11.2463
▁responding	-11.2464
▁Bara	-11.2466
erial	-11.2466
▁ಧರಿಸ	-11.2468
▁requested	-11.2472
▁listening	-11.2473
▁ಬದಲಾವಣೆಯ	-11.2476
▁lea	-11.2476
▁ಅನ್ಯ	-11.248
india	-11.2481
▁ರೋಗಿಗಳು	-11.2482
ನಿಯರ್	-11.2483
▁ತಿಂಗಳಿಗೆ	-11.2484
▁ರತ್ನ	-11.2485
ಜಿತ್	-11.2487
▁ಸ್ವಾಗತ	-11.2487
▁ವಿಮೋಚನ	-11.2488
▁ಧಾವಿಸಿ	-11.2488
▁ಚಾರ್ಜ್	-11.2489
ache	-11.2489
▁politicians	-11.2493
ations	-11.2498
▁divers	-11.2503
▁ಅಂಕಿತ	-11.2507
▁writers	-11.2508
iling	-11.2509
▁union	-11.2509
▁ಹೂಡ	-11.2515
▁ID	-11.2516
▁posts	-11.2517
▁Start	-11.2522
▁ಮೇಳ	-11.2524
▁programs	-11.2525
▁ಗಮನಾರ್ಹ	-11.2527
ಮಾಡಲು	-11.2527
▁ಪುರುಷ	-11.253
ಚು	-11.2531
▁ಕನ್ನಡದ	-11.2532
▁ನಟನೆಯ	-11.2532
▁ಸರ್ಕಾರದಲ್ಲಿ	-11.2536
▁ಆಗಲಿ	-11.2546
▁ದೇವರೇ	-11.255
▁referr	-11.2551
▁41	-11.2554
▁ಪರೀಕ್ಷೆಯಲ್ಲಿ	-11.2557
▁legs	-11.2558
▁ಕಳ	-11.2558
▁ಗೌರವಿಸ	-11.2563
ೋಲ್	-11.2567
▁ತುರಿ	-11.257
▁Thanks	-11.257
▁ಪ್ರಶಸ್ತಿಗಳನ್ನು	-11.2574
ಿಟ್	-11.2576
▁couldn	-11.2578
▁ಆನಂದಿಸ	-11.2583
▁ಬಸವ	-11.2584
▁ತಿಳಿವಳಿಕೆ	-11.2587
▁Mun	-11.2589
▁ಬಂದಿದ್ದ	-11.259
▁apostles	-11.259
▁ಬಳಸಿದ	-11.2591
▁ಸ್ಥಗಿತ	-11.2593
▁ತಡೆಗಟ್ಟ	-11.2601
▁ರಾಮನಾಥ	-11.2602
▁ನಡೆದುಕೊಳ್ಳ	-11.2604
▁Ser	-11.2606
▁ತಂಡಗಳ	-11.261
Don	-11.2621
▁knowing	-11.2621
▁ಕಾರ್ಯಗಳನ್ನು	-11.2622
▁ಮಧ್ಯಾಹ್ನ	-11.2623
ಿಶ್	-11.2624
ುತ್ತಿದ್ದವು	-11.2625
▁engineer	-11.2628
▁ಸರ್ಕ	-11.2629
dhar	-11.2629
ಡಾರ್	-11.2632
ಿರುವುದಿಲ್ಲ	-11.2632
▁ಪತಿಯ	-11.2633
▁ಹೊಡೆಯ	-11.2633
ಕುಲ	-11.2634
io	-11.2635
ಮಠದ	-11.2636
ಿದ್ದೀರಾ	-11.2639
▁ವರದಿಯ	-11.264
▁ideas	-11.2642
ಯಾನ	-11.2646
್ಮಿ	-11.2649
▁falls	-11.2649
ೀರ	-11.2653
▁ಚಹಾ	-11.2657
▁ಕಾಣುವ	-11.2664
▁ಗ್ರಾಹಕ	-11.2665
▁ವಿಗ್ರಹ	-11.2671
ಾಗಿಯೂ	-11.2671
▁borders	-11.2675
▁ಆಶ್ರಯ	-11.2675
▁ಕಡ್ಡಾಯವಾಗಿ	-11.2678
ander	-11.268
ಂಬಿ	-11.2681
▁ವ್ಯಕ್ತಿಯು	-11.2684
rak	-11.2685
▁competitions	-11.2688
▁rooms	-11.2688
ುದ್ದಕ್ಕ	-11.2691
▁ಚೌಕ	-11.2696
ಥಾ	-11.2699
▁ಡೀ	-11.2702
▁pursue	-11.2704
▁ಸಹಾಯದಿಂದ	-11.2704
lan	-11.2706
ೆರಡ	-11.2711
ೇರಿ	-11.2713
▁ಹೆಚ್ಚಾಗುತ್ತ	-11.2713
ಮಾಡಿದ	-11.2715
ರನ್ನಾಗಿ	-11.2725
ಿಸಿತು	-11.2725
▁ಕೆಳ	-11.2725
▁dig	-11.2728
ular	-11.2731
ಅವರ	-11.2747
▁ನಡೆಸುತ್ತಿರುವ	-11.2747
vis	-11.2748
▁ಲೀ	-11.2751
▁ನಮ್ಮಿಂದ	-11.2751
▁ಏರ್ಪಡಿಸ	-11.2753
ಂದಿನ	-11.2753
ಪ್ಪಾ	-11.2754
▁ನನ್ನಲ್ಲಿ	-11.2755
ಂಟೆ	-11.2758
ಸಾರ	-11.2763
▁ಅಮೆರಿಕಾದ	-11.2767
▁ಶೀತ	-11.2771
ಯಲ್ಲಿದೆ	-11.2776
▁ಎತ್ತರದ	-11.2778
▁ನಾಯಕನಾಗಿ	-11.2779
▁nominat	-11.278
▁Lu	-11.2783
ಾರ್ಪಣೆ	-11.2787
▁ನಟಿಸುತ್ತ	-11.2787
▁cook	-11.2787
▁educational	-11.2787
▁ಸ್ವಾಗತಿಸಿದ	-11.2789
ುವವರು	-11.2795
▁ಆಸೆಯ	-11.2798
▁ಹೇಳಿದ್	-11.2804
ಣ್	-11.2805
anda	-11.2807
▁Young	-11.281
ುತ್ತಿರುವುದ	-11.2813
▁Sc	-11.2823
cy	-11.2825
▁ಹಿಮ	-11.2826
ಸೆಸ್	-11.2829
▁ಮಾಧ್ಯಮಗಳ	-11.2834
car	-11.2834
▁ಸವಾರರ	-11.2838
▁ಬೆಲ್	-11.284
▁ಕೈಗೊಳ್ಳುವ	-11.284
ಭಿ	-11.284
ದಾನ	-11.284
▁violat	-11.2845
rain	-11.2846
▁ಭಾರತೀಯರ	-11.2854
▁ಪ್ರತಿಭಟನೆಯಲ್ಲಿ	-11.2862
▁ಉಳಿಸ	-11.2864
ez	-11.2864
▁parliamentar	-11.287
▁lights	-11.2873
▁ಹೊಂದಿರ	-11.288
▁ಮಂಡಿಸ	-11.2881
ುವುದಕ್ಕಾಗಿ	-11.2883
▁140	-11.2888
ಿಸುತ್ತೇನೆ	-11.2891
▁Sad	-11.2891
▁ನಮ	-11.2893
ಕಾಂತ	-11.2894
66	-11.2898
TM	-11.29
▁ಆರೈಕೆ	-11.2904
▁ಪದಗಳ	-11.2904
▁ಪ್ರಯಾಣದ	-11.2907
spected	-11.291
▁ಕೆಲವರ	-11.2914
▁Back	-11.2915
▁print	-11.2916
▁ನಡುವ	-11.2916
▁ಏನ್	-11.2918
▁sh	-11.2919
▁ಟನ್	-11.2919
▁ಕೊಡಿ	-11.2922
oli	-11.293
posed	-11.293
▁ಸರ	-11.2938
ಪೋರ್ಟ್	-11.2939
ED	-11.2939
screen	-11.294
ಕೊಂಡಿದೆ	-11.294
▁Bel	-11.2946
ಇಡಿ	-11.2952
▁ಹತ್ತಿರದ	-11.2954
▁ಶಿರ	-11.2954
▁cl	-11.2958
CP	-11.2959
▁ಪ್ರತಿನಿಧಿ	-11.2962
▁ತೋರಿಸಿ	-11.2963
▁ಹೇಳಲಾಗ	-11.2963
▁rupee	-11.2965
▁storm	-11.2965
▁magazine	-11.2966
▁certificate	-11.2966
ೆಕ್ಟರ್	-11.2967
▁instrument	-11.2967
▁ಸಬ್	-11.2969
▁ಆಕರ್ಷಿಸ	-11.2969
▁wave	-11.2971
directly	-11.2972
▁ಹಾಜರ	-11.2973
▁Key	-11.2978
▁pilot	-11.298
tical	-11.2985
ಪಾಲ್	-11.2997
▁judge	-11.2999
▁professional	-11.3
▁ಎರ	-11.3003
▁ತತ್	-11.3003
▁ಶ್ರದ್ಧಾ	-11.3006
igg	-11.3007
▁politician	-11.3009
ಬೇಕಾಯಿತು	-11.301
▁ಗಳಾದ	-11.3012
▁weigh	-11.3013
▁ಖಚಿತವಾಗಿ	-11.3016
▁ತೆಗೆದ	-11.3017
▁ಅವಶ್ಯಕ	-11.3019
▁ಅವಶ್ಯ	-11.3021
▁panic	-11.3031
ತಿಕ	-11.3032
▁ನಡೆ	-11.3032
▁recover	-11.3032
▁object	-11.3033
▁ಮೋಡ	-11.3034
▁ಅವುಗಳು	-11.3035
▁ಮುರಿದು	-11.3037
▁ಒಳ್ಳೆ	-11.3042
▁ಶಕ್ತ	-11.3044
ಯಾದರೂ	-11.3044
▁ಬೇಸಿಗೆ	-11.3047
▁ಬಾಕ್ಸ	-11.3049
▁ಮರಿ	-11.305
▁ಪ್ರಾಂಶುಪಾಲ	-11.3053
▁ಅತ್ತ	-11.3053
▁appreciate	-11.3055
▁realise	-11.3056
▁ರಾಜೇಶ್	-11.3056
▁ಗರ್ಭ	-11.3058
▁ಲುಕ್	-11.3058
▁historic	-11.3059
▁ಪರಿಹರಿಸ	-11.3059
▁manage	-11.306
▁ಕಂಡುಬರುತ್ತ	-11.3062
▁ಕೌಶಲ	-11.3062
▁potato	-11.3063
▁Europe	-11.3063
▁Min	-11.3064
▁courts	-11.3064
▁courage	-11.3064
▁ಬೌದ್ಧ	-11.3065
▁forgive	-11.3066
ndustrial	-11.3066
▁Miss	-11.3067
▁ಪ್ರೌಢ	-11.3067
▁ಜ್ಯೋತಿ	-11.3067
▁ತೆಂಗಿನ	-11.3067
dragon	-11.3067
▁February	-11.3067
▁Gadkari	-11.3067
▁Haasan	-11.3067
▁Himachal	-11.3067
▁Hundred	-11.3067
▁JNU	-11.3067
▁Kateel	-11.3067
▁Pandit	-11.3067
▁Parrikar	-11.3067
▁Swamy	-11.3067
▁Village	-11.3067
▁adopt	-11.3067
▁agencies	-11.3067
▁audio	-11.3067
▁bottom	-11.3067
▁charging	-11.3067
▁cholesterol	-11.3067
▁eligible	-11.3067
▁empty	-11.3067
▁expenditure	-11.3067
▁harmony	-11.3067
▁imagine	-11.3067
▁injustice	-11.3067
▁mosque	-11.3067
▁revenue	-11.3067
▁sanctioned	-11.3067
▁strategy	-11.3067
▁tobacco	-11.3067
▁twist	-11.3067
▁ಅಜಿಂಕ್ಯ	-11.3067
▁ಕ್ವಾರ್ಟರ್	-11.3067
▁ಗಣನೀಯ	-11.3067
▁ಠೇವಣಿ	-11.3067
▁ತಾರತಮ್ಯ	-11.3067
▁ನಿರ್ಣಾಯಕ	-11.3067
▁ಪ್ಲಾಸ್ಟಿಕ್	-11.3067
▁ಮನೀಶ್	-11.3067
▁ಮಾರ್ಟಿನ್	-11.3067
▁ರಭಸ	-11.3067
▁ರಾಸಾಯನಿ	-11.3067
▁ರಿಯಾಯಿತಿ	-11.3067
▁ವಾಸ್ತುಶಿಲ್ಪ	-11.3067
▁ಶ್ರುತಿ	-11.3067
▁ಹಿಂದುಳಿದ	-11.3067
▁convert	-11.3067
▁integrity	-11.3067
▁leaving	-11.3067
▁ಅಭಿವೃದ್ದಿ	-11.3067
▁ಕೌಂಟರ್	-11.3067
▁ಜಾಗ್ರತೆ	-11.3067
▁ಶಂಕೆ	-11.3067
▁ಸಾಕ್ಷ್ಯ	-11.3067
▁ಇಸವಿ	-11.3067
▁ಕನಿಕರ	-11.3067
▁ಧರಣಿ	-11.3067
▁ಪರೋಕ್ಷ	-11.3067
▁participants	-11.3067
▁ಠಾಕೂರ್	-11.3067
citation	-11.3067
▁Christmas	-11.3067
▁resolution	-11.3067
▁novel	-11.3067
▁ಗೇರ್ಬಾಕ್ಸ್	-11.3067
▁ಒಂಬತ್ತ	-11.3067
▁ಗ್ರೀನ್	-11.3067
▁ಮಾದಕ	-11.3067
▁Sinha	-11.3067
▁ವಿದ್ಯಮಾನ	-11.3067
▁mutual	-11.3067
▁ರಾಘವೇಂದ್ರ	-11.3067
▁ginger	-11.3067
▁garden	-11.3067
▁ಪ್ರತಿಭಾವಂತ	-11.3067
▁Colour	-11.3067
▁White	-11.3067
▁Santosh	-11.3067
▁Sundar	-11.3067
▁Common	-11.3067
▁Nevertheless	-11.3067
▁visa	-11.3067
▁precious	-11.3067
▁treasure	-11.3067
▁ಎಂಟ್ರಿ	-11.3067
▁ಕರಣ್	-11.3067
▁superstar	-11.3067
▁Review	-11.3067
▁Subhash	-11.3067
▁ಕುಟುಂಬಸ್ಥರ	-11.3067
▁Vinay	-11.3067
▁ಹೆಣ್ಣುಮಕ್ಕಳ	-11.3067
▁unknown	-11.3067
▁Details	-11.3067
▁fought	-11.3067
▁compete	-11.3067
▁ಲಿಂಕ್	-11.3067
▁southern	-11.3067
▁Summit	-11.3067
▁conservation	-11.3067
▁marry	-11.3067
▁punishment	-11.3067
▁ಮಾಸಿಕ	-11.3067
▁despite	-11.3068
▁ಈಶ್ವರ	-11.3068
▁ಇನ್ನುಳಿದ	-11.3068
▁Akhil	-11.3068
▁sword	-11.3068
▁ಪರಾರಿಯಾಗಿದ್ದಾನೆ	-11.3068
▁assist	-11.3068
▁ಬಡ್ಡಿದರ	-11.3068
▁ಅಮೀರ್	-11.3068
▁Ruth	-11.3068
▁worse	-11.3068
▁ನಿಗಮ	-11.3068
▁Italy	-11.3068
▁outstanding	-11.3069
▁ಆಚರಿಸಲಾಗುತ್ತದೆ	-11.3069
▁stable	-11.3069
▁untoward	-11.3069
▁undertaken	-11.3069
▁ಯೆಹೂದದ	-11.3069
▁grave	-11.3069
▁survive	-11.3069
▁ಕಾಲಿಟ್ಟ	-11.3069
▁Recently	-11.3069
▁protestors	-11.307
▁hospitalised	-11.307
▁pour	-11.307
▁Project	-11.307
▁ಸೇಂಟ್	-11.307
▁Superintendent	-11.307
▁colleagues	-11.3071
▁ವರಿಷ್ಠ	-11.3071
▁ಕಣಿವೆ	-11.3071
▁ಅಭಿ	-11.3071
▁Could	-11.3071
▁ಹೊಂದಿರಬೇಕು	-11.3072
▁Ahmedabad	-11.3072
▁ಅನುಗುಣವಾಗಿ	-11.3072
▁ದಿಕ್ಕಿನಲ್ಲಿ	-11.3072
▁ಶಾಹಿ	-11.3072
▁kindness	-11.3073
▁ಮನರಂಜನೆ	-11.3073
▁ಕಾರ್ಯಕಾರಿ	-11.3073
▁dropped	-11.3073
▁ನೀಡುತ್ತಿದ್ದಾರೆ	-11.3074
▁ಸಿಗುತ್ತಿಲ್ಲ	-11.3074
▁ಬಂಧ	-11.3075
▁convinced	-11.3075
▁enable	-11.3075
▁wounded	-11.3075
▁portion	-11.3076
▁determined	-11.3076
▁ತೋರುತ್ತದೆ	-11.3076
▁ಹೇಳುತ್ತೇನೆ	-11.3076
▁ಕಾರಣವೇನು	-11.3076
▁boat	-11.3076
▁Six	-11.3077
▁sensor	-11.3077
▁rail	-11.3077
▁gm	-11.3078
▁ಸ್ಥಾನದಲ್ಲಿದೆ	-11.3078
ification	-11.3078
▁ಲಂಚ	-11.3078
▁respective	-11.3079
▁formation	-11.3079
▁ಕನಸಿನ	-11.308
▁ನೀಡುತ್ತಾರೆ	-11.308
▁ದೃಷ್ಟಿಯಲ್ಲಿ	-11.308
▁ಎದುರಾಗಿದೆ	-11.308
▁ಸಿಇಒ	-11.3081
▁ಹಿಂ	-11.3081
▁discovered	-11.3081
▁ನಿಶ್ಚಿತ	-11.3081
▁2002	-11.3082
▁ಕಾರಣಗಳಿಗಾಗಿ	-11.3082
▁jointly	-11.3083
▁ದುಡ್ಡು	-11.3084
▁congratulated	-11.3084
ಾಠಿ	-11.3084
▁ಹಾಗಾದ	-11.3085
▁organized	-11.3085
▁ನಷ್ಟವಾಗಿದೆ	-11.3085
▁ಹಿಂದಕ್ಕೆ	-11.3086
▁ಯಶ್	-11.3086
▁ನಿರ್ವಹಿಸಲು	-11.3087
▁ಪುತ್ರನ	-11.3087
▁collapsed	-11.3087
▁ಲಕ್ಷ್ಮೀ	-11.3089
▁Poll	-11.309
▁ಮೀನುಗಾರರ	-11.309
▁ಸಂಚು	-11.309
▁ಪ್ರಹಾರ	-11.309
▁nuts	-11.3091
▁ಅಧ್ಯಕ್ಷತೆಯಲ್ಲಿ	-11.3092
▁ಕೆಲವರಿಗೆ	-11.3093
term	-11.3093
▁ಆರಂಭಿಸಿದ್ದಾರೆ	-11.3093
▁ಭಾಗವ	-11.3093
▁cure	-11.3095
▁ನಾಯಿ	-11.3096
▁ಕಡೆಯಿಂದ	-11.3096
▁ಹಣ್ಣುಗಳು	-11.3097
▁ಅನನ್ಯ	-11.3097
▁scientists	-11.3098
▁Launched	-11.3098
▁ಬಿಕ್ಕಟ್ಟು	-11.3099
▁shortly	-11.3099
▁ಆಶಾ	-11.3099
▁MoU	-11.31
▁ಆಗಿರಲಿಲ್ಲ	-11.3101
ua	-11.3102
▁ಕಾರಣಗಳಿವೆ	-11.3102
▁ಜವಾಬ್ದಾರಿಯನ್ನು	-11.3104
▁ಆಗಬಹುದು	-11.3104
ಚನ	-11.3104
▁Jam	-11.3105
▁ಪಡೆದುಕೊಳ್ಳುವ	-11.3105
▁ನಡೆದಿವೆ	-11.3107
ಪವನ್	-11.3107
▁ಬೈಕಿನ	-11.3108
▁ಸರ್ದಾರ	-11.3109
▁ಖಾತೆಯಲ್ಲಿ	-11.3109
▁ಫಾರ್ಮ್	-11.3111
▁Governments	-11.3111
▁suggestions	-11.3111
▁ನಿಯಮಿತ	-11.3112
bad	-11.3112
▁ಭರ	-11.3113
ಗಟ್ಟಿ	-11.3113
ಾಂಗ್	-11.3113
ko	-11.3114
▁delayed	-11.3115
▁ಬಂದಿತ್ತು	-11.3117
▁ಮಾಡಿತು	-11.3118
▁Members	-11.3118
▁ಖಚಿತಪಡಿಸ	-11.3119
▁personally	-11.3119
▁counting	-11.3122
▁ಗಢ	-11.3122
▁ನಿಂತು	-11.3123
uar	-11.3123
▁ಗೀತೆ	-11.3123
ಶೇ	-11.3124
▁beside	-11.3124
▁ದಟ್ಟಣೆ	-11.3125
▁updates	-11.3126
▁actions	-11.3126
ತ್ತದೆ	-11.3128
Comment	-11.3128
ಪಿಎಸ್	-11.3129
cation	-11.3133
▁ಎಲೆ	-11.3134
hood	-11.3135
▁meant	-11.3135
▁ಗುಡ್ಡ	-11.3135
▁ವಿಷಯವಾಗಿದೆ	-11.3139
▁ಪುಸ್ತಕಗಳು	-11.314
▁ಹೇಳಿಲ್ಲ	-11.3142
aring	-11.3142
emon	-11.3143
▁ಇಷ್ಟೇ	-11.3143
▁ಅನಿಸ	-11.3144
▁arrangements	-11.3146
▁Rights	-11.3146
▁ಮೊದಲನೇ	-11.3146
▁ತಜ್ಞರು	-11.3148
ವೇರ್	-11.3149
▁ಯೋ	-11.3149
▁artists	-11.315
▁selfie	-11.315
▁ಸಂಬಂಧವಿಲ್ಲ	-11.3152
▁ಹೋಯಿತು	-11.3152
ger	-11.3153
▁ನಿವಾಸಿಗಳು	-11.3154
▁ಮಾಡಲಾ	-11.3156
gat	-11.3158
▁ಗ್ರಾ	-11.3158
▁ಮಾಧ್ಯಮಗಳು	-11.3159
▁ಪಾಲುದಾರಿಕೆ	-11.3159
▁cells	-11.3159
▁ಆಗಿದ್ದರು	-11.3161
▁ನಾನೇನ	-11.3162
▁ಸಲಹೆಗಳು	-11.3164
▁ಟ್ರೈ	-11.3166
eries	-11.3168
▁ಮಾಲ್	-11.3169
▁ನಡೆಸಿದೆ	-11.3169
▁ಮಲ್ಯ	-11.317
▁drugs	-11.3173
▁ತಪ್ಪಿಸಿ	-11.3175
hem	-11.3175
▁ಕಿಂಗ್	-11.3175
▁ವೃತ್ತಿಪರ	-11.3176
▁Mor	-11.3176
ಮಾರ್	-11.3178
▁El	-11.3179
▁greatly	-11.318
▁ಭಾಗವಹಿಸುವ	-11.3185
▁ಒಂದೂ	-11.3185
neshwar	-11.3189
▁ಎಳೆದ	-11.3189
▁ಬದಲಾವಣೆಗಳನ್ನು	-11.319
▁ಅಬ್ರಹಾಮನ	-11.3192
▁ಪಾಲ್	-11.3193
▁tent	-11.3193
▁Hari	-11.3194
serv	-11.3194
▁tested	-11.3196
▁ಆರಂಭಿಸಿದೆ	-11.3198
▁tributes	-11.3201
▁ರಣ್	-11.3203
ಗಿರಿ	-11.3204
ನೋವು	-11.321
▁ಎಳೆಯ	-11.3211
▁ಗ್ರೇ	-11.3215
ಾಯಿತ	-11.3218
▁ದೇಶವು	-11.3219
▁ಶ್ರೀರಾಮ	-11.322
▁images	-11.3222
▁standards	-11.3222
▁infections	-11.3222
ware	-11.3224
▁user	-11.3225
▁opener	-11.3229
▁Narayan	-11.323
star	-11.3232
▁Nar	-11.3233
▁ಆಟವಾಡ	-11.3236
ವಾಗಲಿ	-11.3237
80	-11.3239
ಜನ್	-11.3241
▁ಈಡೇರ	-11.3241
▁balls	-11.3243
▁Han	-11.3245
▁ಪುರುಷರು	-11.3246
▁ಪ್ರಪಂಚದ	-11.3247
▁ಹೊಂದಾಣಿಕೆ	-11.3248
ಿಸಿಕೊಳ್ಳುವ	-11.3248
▁th	-11.3248
▁ಅಪರಾಧಿಗಳ	-11.3248
▁ತೋ	-11.325
▁ಸರಿಯ	-11.3252
▁ಸ್ವೀಕರಿಸಿದ	-11.3263
ೋದಿಲ್ಲ	-11.3264
▁ಅವೆಲ್ಲ	-11.3264
▁ಕ್ರಮಗಳ	-11.3267
▁ಬೋಧನೆ	-11.3269
▁ಸ್ಟ್ರ	-11.3269
▁ಅವಕಾಶಗಳು	-11.3271
rent	-11.3272
▁ಅರ್ಥಮಾಡಿಕೊಳ್ಳಲ	-11.3274
ರಿಸಿ	-11.3276
▁ವಹಿಸುವ	-11.3278
▁ಗೋಡೆಯ	-11.3278
▁ಕಾಪಾಡಿಕೊಳ್ಳ	-11.3284
ಂಜಿ	-11.3287
▁ಪರಿಣಾಮಕಾರಿಯಾಗಿ	-11.3293
ಭಜನ	-11.3294
▁62	-11.3297
▁trials	-11.3298
▁ಬಯಸುವ	-11.3299
ವಲ್	-11.3299
▁ನಡು	-11.3299
▁ಹಾಳು	-11.33
▁ಆರೋಪಿಯನ್ನ	-11.3304
test	-11.3309
ome	-11.3312
▁gifts	-11.3319
ಗಳಿರುತ್ತವೆ	-11.332
▁ಕುಟುಂಬದಲ್ಲಿ	-11.3324
▁ಠಾಣೆಯ	-11.3325
ಂಡಾ	-11.3326
▁ಚರ್ಚ	-11.3327
▁wasn	-11.3327
▁exists	-11.3328
ಡೆಯ	-11.3328
▁ದೇಹದಲ್ಲಿ	-11.3329
▁ಅಜ	-11.3331
▁ಭೇಟಿಯಾಗಿ	-11.3333
▁ವರದಿಯಲ್ಲಿ	-11.3335
▁cricketers	-11.3335
▁powers	-11.3336
▁76	-11.3336
oid	-11.3336
▁ಮುತ್ತ	-11.3338
▁ಸ್ಪಷ್ಟಪಡಿಸಿದ	-11.3342
▁AP	-11.3343
ದ್ದೀರಿ	-11.3347
▁ದಾಟಿ	-11.3348
▁ನೆರವೇರ	-11.3351
▁Lo	-11.3352
fan	-11.3355
▁ಬಲಪಡಿಸ	-11.3357
▁ಸೇರಿಕೊಂಡ	-11.3359
72	-11.3359
▁ಸಂಸ್ಕೃತ	-11.3363
▁ಹಕ್ಕಿ	-11.3364
▁amid	-11.3366
▁9:	-11.3367
▁Men	-11.3369
▁ವಿಶೇಷತೆ	-11.337
▁ತಳಿ	-11.3373
▁systems	-11.3379
▁Shan	-11.338
ಾತನ	-11.3381
SA	-11.3386
ಸೀ	-11.3387
ನಾದರೂ	-11.339
▁ಎಸ್ಯುವಿಯ	-11.3391
▁ಸೌ	-11.3391
▁ಬದಿಯ	-11.3394
▁ವೆಲ್	-11.3396
▁speaker	-11.3397
▁ಫಾಸ್ಟ	-11.3397
▁ಶಿಶು	-11.3409
▁ಅಸ್ಸಾಂ	-11.341
▁ರಾಜ್ಯಪಾಲ	-11.3411
▁Matt	-11.3411
▁ಗಾಂಧಿಯವರ	-11.3412
▁ಭಾಗವಹಿಸಿದ	-11.3412
lok	-11.3414
▁ಮನಸ	-11.3415
▁Fort	-11.3416
▁ರೊಟ್ಟಿ	-11.3418
tam	-11.3419
▁ನೀಡಲಾಗ	-11.3423
▁ನಾಯಕಿ	-11.3424
▁sho	-11.343
▁ಯೆ	-11.3431
▁ಅಧ್ಯಕ್ಷರು	-11.3433
▁ಆಸಕ್ತಿಯ	-11.3435
▁Sto	-11.3438
▁ಧಾವಿಸಿದ	-11.3444
▁ಸಲ್ಲಿಸಿದರ	-11.3448
ದೇಶ	-11.345
▁ಕ್ಷಮಿಸ	-11.3451
▁Cant	-11.3454
▁ಸೂರ್ಯ	-11.3457
▁ಜಮಾ	-11.3459
ಬಲ್ಲೆ	-11.3465
ವೆಲ್	-11.3465
▁ಮಾಡಬೇಕ	-11.3466
▁Sai	-11.3467
alli	-11.3467
▁ಬ್ಯಾಟರಿ	-11.3472
▁ಸಲ್ಲಿಸಲ	-11.3472
ನಗರಗಳಲ್ಲಿ	-11.3472
ುಲ್	-11.3474
ೇನೆ	-11.3474
▁ವೀಕ್ಷಿಸಿ	-11.3477
ಗೊಳಿಸಿ	-11.3479
▁ಬಣ್ಣಗಳ	-11.3489
▁Hero	-11.3489
za	-11.3492
ವೆಂಬ	-11.3493
▁ತೊಡ	-11.3497
uma	-11.3499
▁ಬರ್ತ	-11.3499
▁ಗೇ	-11.35
▁ಪೂರಕ	-11.3501
▁ಹುದ್ದೆಯ	-11.3506
▁ಮೊದಲಿಗೆ	-11.3508
▁religions	-11.3509
ಾನಿ	-11.351
▁ಅದರಂತೆ	-11.3515
▁ಅಗ್ರ	-11.352
▁ಸುಗಮ	-11.352
▁ಎಂಬುದ	-11.3521
▁ಅಗತ್ಯವಾದ	-11.3521
ಾಗಬಹುದು	-11.3524
▁ಕಲಾ	-11.353
್ದು	-11.3531
▁System	-11.3532
▁ಸಲ್ಲಿಸಿ	-11.3535
ನಾಗಿದ್ದೇನೆ	-11.3536
▁Cor	-11.3538
▁ಸಮೀಪ	-11.3543
▁ಇಂದಿಗ	-11.3551
▁moves	-11.3553
▁ದೇವ್	-11.3557
▁overs	-11.3558
ವಾಗುವುದಿಲ್ಲ	-11.3559
▁ಚರ್ಚಿಸಿ	-11.3567
▁ಆರಾಧಿಸ	-11.3568
▁ಸ್ಯಾಮ್	-11.357
ನಿಯಾ	-11.3573
lash	-11.3577
▁ಸೋರಿಕೆ	-11.3582
ಬಲ್ಲೆವು	-11.3583
▁ಸೌಲಭ್ಯಗಳ	-11.3583
▁Part	-11.3587
ೋಲ	-11.3589
GP	-11.3589
▁ರಕ್ಷಣೆಯ	-11.3592
▁Mul	-11.3592
▁ವಶ	-11.3594
▁ದಿನಗಳು	-11.3596
▁ಕಸ	-11.3599
▁ಚೌ	-11.36
▁Metro	-11.3602
▁ಪ್ರೇರೇಪಿಸ	-11.3603
▁scor	-11.3604
▁ನಗು	-11.3606
▁increases	-11.361
FI	-11.3611
▁ಕೊಂಡೊಯ್ಯ	-11.3612
▁ಫಲಿತಾಂಶಗಳು	-11.3612
▁ಒಡಂಬಡಿಕೆ	-11.3613
▁ಸೇ	-11.3616
,500	-11.3625
▁ಜಾಹೀರಾತು	-11.3626
▁ಪಾಲನೆ	-11.3626
ಹೆಚ್	-11.3627
Mo	-11.363
ಸ್ಟಾ	-11.3633
▁ಪ್ರತಿಪಕ್ಷ	-11.3634
▁ಅಮೆರಿಕದಲ್ಲಿ	-11.3636
ral	-11.364
ಸಲ್	-11.3642
▁ಹೋಗಲಿ	-11.3644
more	-11.3649
▁ತನಿಖೆಯ	-11.3649
▁ತಡವಾಗಿ	-11.365
field	-11.365
▁ಒಂದೆರ	-11.365
▁ಪವಿತ್ರಾತ್ಮ	-11.3652
ಭೂಮಿ	-11.3653
“	-11.3653
▁ನಡೆದಿದ್ದ	-11.3654
▁650	-11.3654
ಕೋಶ	-11.366
ಪ್ರದೇಶ	-11.3661
▁ಇನ್ನ	-11.3662
▁ನಟನೆ	-11.3664
▁ಪ್ರಜಾಪ್ರಭುತ್ವದ	-11.3665
▁ಶಾಲೆಗಳ	-11.3666
▁exception	-11.3674
▁ಎಡ	-11.3674
ಧನ	-11.3679
▁Local	-11.3679
▁ವ್ಯಾಖ್ಯಾನ	-11.368
▁ಹಂಗ	-11.3684
▁prize	-11.3684
▁tourist	-11.3685
▁ಕೆಲಸಗಳನ್ನು	-11.3686
▁expression	-11.3687
▁ಕ್ರ	-11.3688
VI	-11.3691
▁ಅಯೋಧ್ಯೆಯ	-11.3692
ಗೈದ	-11.3696
▁ಪರಿಚಯಿಸ	-11.3697
▁ವ್ಯಕ್ತ	-11.3698
ಜ್ಞಾನ	-11.3699
▁ಮಾದರಿಗಳ	-11.3699
▁ಬದ್ಧತೆ	-11.3699
vir	-11.37
▁ಜಯಿಸ	-11.3702
▁pack	-11.3702
▁comp	-11.3707
ವಾಗಿರುತ್ತವೆ	-11.3714
▁ಸತ್ಯದ	-11.3717
▁ಮಾಡಿರಿ	-11.3718
▁ಕಾಣಿಕೆ	-11.3721
▁shop	-11.3722
▁ಮಾಡಿಕೊಳ್ಳಲ	-11.3724
▁ಬೆಂಗಳೂರ	-11.3725
▁ನಾಲ್ವರ	-11.3729
▁ಮಾರ್ಕ್	-11.3732
▁ಶೀ	-11.3734
▁ತಲೆಮರೆಸಿಕೊಂಡ	-11.374
▁ಅಲ್ಲದ	-11.374
▁ಕಳ್ಳ	-11.3741
▁ತಳ	-11.3742
▁cell	-11.3742
ವನಲ್ಲ	-11.3743
▁Ku	-11.3747
▁ಆರೋಪಿಸಿದ	-11.3748
▁ಯಾವತ್ತ	-11.3751
▁ಆಲೋಚಿಸ	-11.3752
▁ಯುವಕನ	-11.3753
▁lift	-11.3753
▁finish	-11.3754
ಪರಿ	-11.3757
ಪಥ	-11.3758
▁fulfill	-11.3759
▁ಆಫ್ರಿಕ	-11.376
▁ಬೂ	-11.376
▁ಸ್ವಾಗತಿಸ	-11.3761
▁ವಿನೋದ	-11.3761
ಸಾಧ್ಯವ	-11.3762
▁ಚಾರ್ಜ	-11.3762
▁mate	-11.3764
▁ಜಗತ್ತ	-11.3768
▁ಸಮೃದ್ಧ	-11.3769
▁ಆಟದ	-11.3769
ಂಬುದನ್ನು	-11.3771
ಪೂರ್ವಕವಾಗಿ	-11.3772
ಾತ್ಮ	-11.3772
▁180	-11.3772
▁ಕಥೆಯ	-11.3773
▁ತೋರಿಸಿದ	-11.3773
ಟಿಕ್	-11.3774
▁ಹಾಗೆಂದ	-11.3774
▁tall	-11.3774
ಡುವುದು	-11.3775
ಶಿಯ	-11.3777
ಕಾಯಿ	-11.3778
▁ಬ್ಯಾಟ್	-11.3778
▁ನಿಂಬೆ	-11.3778
ರಿಕ್	-11.3778
▁ನಿರುದ್ಯೋಗ	-11.3779
▁ಇಟಲಿಯ	-11.3779
ಗಳಂತಹ	-11.3779
▁congratulate	-11.378
▁Clean	-11.3781
▁2017-18	-11.3781
▁Front	-11.3781
▁Jyoti	-11.3781
▁ಜಡೇಜಾ	-11.3781
▁ತ್ಯಾಜ್ಯ	-11.3781
▁ಮರುಪಾವತಿ	-11.3781
▁ಸಿಸ್ಟಂ	-11.3781
▁ಸ್ವೀಕಾರ	-11.3781
ರಫೇಲ್	-11.3781
▁Academy	-11.3781
▁Agreement	-11.3781
▁Cultural	-11.3781
▁Ganguly	-11.3781
▁Jayalalithaa	-11.3781
▁Kareena	-11.3781
▁Pharaoh	-11.3781
▁Policy	-11.3781
▁Pranab	-11.3781
▁Rashtr	-11.3781
▁Shastri	-11.3781
▁Space	-11.3781
▁Tiwari	-11.3781
▁Watchtower	-11.3781
▁anxiety	-11.3781
▁apologise	-11.3781
▁churn	-11.3781
▁coriander	-11.3781
▁discount	-11.3781
▁healthcare	-11.3781
▁museum	-11.3781
▁operating	-11.3781
▁pattern	-11.3781
▁plastic	-11.3781
▁pregnant	-11.3781
▁regret	-11.3781
▁smoking	-11.3781
▁spark	-11.3781
▁understood	-11.3781
▁valley	-11.3781
▁valuable	-11.3781
▁venue	-11.3781
▁ಅಂತರ್ಜಲ	-11.3781
▁ಅಡ್ವಾಣಿ	-11.3781
▁ಅತ್ಯಗತ್ಯ	-11.3781
▁ಅಸಾಧಾರಣ	-11.3781
▁ಆತ್ಮವಿಶ್ವಾಸ	-11.3781
▁ಆರಾಧನೆ	-11.3781
▁ಉತ್ತರಾಖಂಡ	-11.3781
▁ಉಪನ್ಯಾಸ	-11.3781
▁ಕಬ್ಬಿಣ	-11.3781
▁ಕಿರುತೆರೆ	-11.3781
▁ಕೈಗೆತ್ತಿಕೊಂಡ	-11.3781
▁ಗಂಗೂಲಿ	-11.3781
▁ಗೌತಮ್	-11.3781
▁ಗ್ರೀಕ್	-11.3781
▁ಚಕಮಕಿ	-11.3781
▁ಡಬಲ್ಸ್	-11.3781
▁ತಿವಾರಿ	-11.3781
▁ದೌಡಾಯಿಸಿ	-11.3781
▁ನಿರ್ದೇಶನಾಲಯ	-11.3781
▁ಬೆಳಗಾವಿ	-11.3781
▁ಮತಗಟ್ಟೆ	-11.3781
▁ಮಾಯಾವತಿ	-11.3781
▁ರೆಸ್ಟೋರೆಂಟ್	-11.3781
▁ವಿಚ್ಛೇದನ	-11.3781
▁ಶಿವಮೊಗ್ಗ	-11.3781
▁ಶುಂಠಿ	-11.3781
▁ಸಾಮ್ರಾಜ್ಯ	-11.3781
▁ಸ್ಟ್ರೀಟ್	-11.3781
▁ಹೆಗ್ಡೆ	-11.3781
▁sky	-11.3781
▁ಶಾಮಕ	-11.3781
▁River	-11.3781
▁average	-11.3781
▁loud	-11.3781
▁puja	-11.3781
stream	-11.3781
▁Goyal	-11.3781
▁ಜಲಪಾತ	-11.3781
▁idol	-11.3781
▁neck	-11.3781
▁ರಘು	-11.3781
▁ANI	-11.3781
▁diabetes	-11.3781
▁outfit	-11.3781
▁rebel	-11.3781
▁sworn	-11.3781
▁ರೋಚಕ	-11.3781
▁ದೋಣಿ	-11.3781
▁ಮಂಗಳವಾರ	-11.3781
▁Blue	-11.3781
▁ಅಶ್ವಶಕ್ತಿ	-11.3781
▁Urban	-11.3781
▁acid	-11.3781
▁Vishwanath	-11.3781
▁genuine	-11.3781
▁ತರ್ಕ	-11.3781
▁Tourism	-11.3781
▁Ambani	-11.3781
▁ಅಂಬಾನಿ	-11.3781
▁ವಾರ್ನರ್	-11.3781
▁ರಶ್ಮಿಕಾ	-11.3781
▁Peace	-11.3781
▁ಪ್ರಮೋದ	-11.3781
▁ಸುಭಾಷ್	-11.3781
▁Rishab	-11.3781
▁ಉಂಟಾಯಿತು	-11.3781
▁sufficient	-11.3781
▁ಖಾದ್ಯ	-11.3781
▁ಚರಣ್	-11.3781
▁terminal	-11.3781
▁ಬೆಚ್ಚಗಿನ	-11.3781
▁ವರಿಷ್ಠಾಧಿಕಾರಿ	-11.3781
▁ಸಡಿಲ	-11.3781
▁ರಾಷ್ಟ್ರಾಧ್ಯಕ್ಷ	-11.3781
▁Luke	-11.3781
▁Martin	-11.3781
▁ಫೋಟೊ	-11.3781
▁ಪ್ಲಾನ್	-11.3781
▁ಲೂಕ	-11.3781
▁acquire	-11.3781
▁division	-11.3781
▁reserved	-11.3781
▁ಸೆಲ್ಫಿ	-11.3781
▁ಟ್ಯಾಬ್	-11.3781
▁ಮೂಲತಃ	-11.3782
▁locked	-11.3782
▁Cauvery	-11.3782
▁ತಂತಿ	-11.3782
▁Shakti	-11.3782
▁ತಿಂಡಿ	-11.3782
▁ಸಮಾಧಿ	-11.3782
▁interrogation	-11.3782
▁Deepak	-11.3782
▁ಗುಹೆ	-11.3782
▁exposed	-11.3782
▁ರಿಯಲ್	-11.3782
▁vast	-11.3782
▁ಬೀಚ್	-11.3782
▁ರಾಮನಗರ	-11.3782
▁Bhushan	-11.3782
▁ಉತ್ತೇಜನ	-11.3782
▁Cook	-11.3782
▁scale	-11.3782
▁mass	-11.3782
▁ಹೇಳುವುದಾದರೆ	-11.3782
▁ಶಾಂತಿಯುತ	-11.3782
▁package	-11.3782
▁Multi	-11.3782
ಾಗಲು	-11.3782
▁footage	-11.3782
▁ತಾಜಾ	-11.3782
▁Kumble	-11.3783
▁coverage	-11.3783
▁ನಡೆಸಲಾಗುತ್ತಿದೆ	-11.3783
▁harmful	-11.3783
▁Yash	-11.3783
▁ಕಿರಣ	-11.3783
ತಕ್ಕದ್ದು	-11.3783
▁Light	-11.3783
▁judiciary	-11.3783
▁Sunny	-11.3783
▁ನಡೆಸಲಾಗುವುದು	-11.3783
▁ಪತ್ತೆಯಾಗಿಲ್ಲ	-11.3784
▁GPS	-11.3784
▁beaten	-11.3784
▁ಒಲಿಂಪಿಕ್ಸ್	-11.3784
▁nationalism	-11.3784
▁3.5	-11.3784
▁Rio	-11.3784
bhai	-11.3785
▁Prof	-11.3785
▁ಎಂಜಿನಿಯರ್	-11.3785
▁ನೌಕಾಪಡೆ	-11.3785
▁ಸಮರ್ಥನೆ	-11.3785
▁ಜೋಡಣೆ	-11.3785
▁chillies	-11.3785
▁ನಡೆಯುತ್ತಿವೆ	-11.3785
▁ತಿಳಿಯಿರಿ	-11.3785
▁ಶಮಿ	-11.3785
▁battery	-11.3785
▁villagers	-11.3785
▁ಸೈನ್ಸ್	-11.3786
▁ಪ್ರತ್ಯುತ್ತರವಾಗಿ	-11.3786
▁Iyer	-11.3786
▁Veer	-11.3786
▁Kota	-11.3786
▁ಇರುವುದರಿಂದ	-11.3786
▁ಪ್ಯಾಕೇಜ್	-11.3786
CD	-11.3786
▁ಕಣ್ಣಿನ	-11.3786
▁ಸೇವಕನ	-11.3787
▁ಮಸಾಲೆ	-11.3787
ಫೈ	-11.3787
▁ಪಕ್ಕಾ	-11.3788
▁unveiled	-11.3788
▁shouted	-11.3788
▁alternative	-11.3789
▁cope	-11.3789
▁ನಡೆಯಲಿವೆ	-11.3789
▁Protection	-11.3789
▁recovery	-11.3789
▁ಉಪಗ್ರಹ	-11.379
▁ಫಿಟ್	-11.379
▁ಕಾಣುತ್ತಿದೆ	-11.379
▁ಎಲ್ಲೆಲ್ಲಿ	-11.379
▁ಹೆಚ್ಚುತ್ತಿದೆ	-11.379
▁ನಿಮ್ಮೆಲ್ಲರ	-11.379
▁ಸ್ಫೋಟಕ	-11.3791
▁ನೀಡಿದ್ದೇನೆ	-11.3791
connected	-11.3791
▁outrage	-11.3791
▁ತಾಲೂಕು	-11.3791
▁ವಿಜಯಪುರ	-11.3792
▁ಬಯೋ	-11.3792
▁ನಿಮಗಾಗಿ	-11.3792
▁suggested	-11.3792
▁Land	-11.3793
▁ignored	-11.3793
▁PV	-11.3793
▁ಮುಂದಾಗಿದೆ	-11.3793
▁ಎಂಎಸ್	-11.3794
▁appreciated	-11.3794
▁ಖರೀದಿಸಲು	-11.3794
▁punished	-11.3794
▁Heart	-11.3795
▁Friday	-11.3796
▁TDP	-11.3796
▁ಟೌನ್	-11.3796
▁classes	-11.3796
▁ಬಸವರಾಜ	-11.3796
▁nucle	-11.3796
▁ಬೆಂಬಲಿತ	-11.3796
▁convicted	-11.3796
▁planned	-11.3797
▁2005	-11.3797
▁effectively	-11.3797
▁sincere	-11.3797
▁ಹೇಳಿಕೊಂಡಿದ್ದಾರೆ	-11.3797
▁ಗಮನಿಸಿದ	-11.3798
▁ಹಾಲ್	-11.3799
▁ಶಿಸ್ತು	-11.3799
▁ಸಾಗಣೆ	-11.3799
▁ತೊಳೆದು	-11.3799
▁Navy	-11.38
▁Benefits	-11.38
▁ಬರಬಹುದು	-11.38
▁ಟೈಮ್	-11.3801
▁ನಡೆಯಲಿಲ್ಲ	-11.3801
▁ಬೈಬಲನ್ನು	-11.3801
▁height	-11.3802
▁carefully	-11.3802
kant	-11.3802
▁mat	-11.3802
▁signal	-11.3803
▁ಗಂಟೆಗೆ	-11.3803
▁achieved	-11.3803
▁midst	-11.3803
▁hide	-11.3803
▁ಓದಲು	-11.3804
▁ನಳಿನ	-11.3804
ವೆಲ್ಲ	-11.3804
▁ಪಾಲಕರು	-11.3804
▁ಆರಂಭಿಸಿದ	-11.3805
▁ಏನೆಂದು	-11.3805
▁throne	-11.3805
▁ಕಾವೇರಿ	-11.3805
▁Source	-11.3805
▁larger	-11.3806
urav	-11.3806
▁assigned	-11.3807
▁ಇರಲಿದೆ	-11.3808
▁ಎಂಬುದಕ್ಕೆ	-11.3808
▁catch	-11.3808
▁ಖಂಡಿತವಾಗಿ	-11.3809
▁reasonable	-11.3809
ತೊಡಗಿತು	-11.381
▁lying	-11.3811
▁ಮಣ್ಣಿನ	-11.3811
▁Training	-11.3811
▁ತರಕಾರಿಗಳು	-11.3811
▁ಕಡಿಮೆಯಾಗಿದೆ	-11.3811
▁pit	-11.3812
▁ಬರಬೇಕು	-11.3813
kya	-11.3813
▁ಸಂಯೋಜಿಸ	-11.3813
▁ಹೊರಡಿಸಿ	-11.3813
▁ಓಟ	-11.3814
▁Championships	-11.3814
▁recommendations	-11.3814
ಡೊ	-11.3815
▁ಸೇವಿಸ	-11.3815
▁ನಾಯ್ಡು	-11.3815
▁ಡಿಕೆ	-11.3818
▁ಅನುಕೂಲಗಳು	-11.3818
▁ನಿರ್ಧರಿಸಿದೆ	-11.3818
▁ತಾಳ	-11.382
▁ಮನಸ್ಸಿಗೆ	-11.382
▁ಗ್ರಂಥ	-11.3822
▁metal	-11.3822
▁ಮೈನ	-11.3823
▁corner	-11.3823
▁ಕಾರ್ಯಾಚರಣೆಯಲ್ಲಿ	-11.3824
▁Tab	-11.3825
▁Captain	-11.3825
▁900	-11.3825
▁commanded	-11.3827
▁ಕುಸಿದು	-11.3828
▁voted	-11.3828
▁Data	-11.3828
▁miss	-11.383
▁ನಿಲ್ದಾಣದಲ್ಲಿ	-11.383
ಸೂ	-11.383
▁ಉಳಿದಿದೆ	-11.3831
▁Nag	-11.3834
▁ವಹಿಸಬೇಕು	-11.3834
ರ್ಮ	-11.3835
ೆಚ್ಚಿನ	-11.3836
▁Real	-11.3838
▁ಇಳಿಯ	-11.3839
▁ನೆನಪಿನಲ್ಲಿ	-11.384
ಿಕ್ಸ್	-11.384
▁expecting	-11.3841
▁ಅದಕ್ಕಿಂತ	-11.3843
▁ಸಂಗತಿಗಳು	-11.3843
▁ಅಭಿಷಿಕ್ತ	-11.3843
▁representatives	-11.3844
▁Romans	-11.3844
▁ಪೇಟೆ	-11.3845
▁monthly	-11.3845
▁ಕಾರಣಕ್ಕಾಗಿ	-11.3847
▁approached	-11.3847
ಖಿಲ್	-11.3849
▁ಹಾಕಿದ್ದಾರೆ	-11.3849
▁ಮೇಲೂ	-11.385
▁stepp	-11.385
▁designed	-11.3852
▁ಹಳ್ಳಿಗಳ	-11.3852
▁ಅನ್ನೋದ	-11.3854
▁commissioner	-11.3858
▁ಕತ್ತಿ	-11.3858
ಂದ್ರ	-11.3858
▁ಜೆಟ್	-11.3858
▁ವಿದ್ಯಾರ್ಥಿನಿ	-11.3859
▁parking	-11.386
▁ಯಜ್ಞ	-11.3862
▁ದೇಹವನ್ನು	-11.3864
▁island	-11.3864
▁ಪತ್ರದಲ್ಲಿ	-11.387
ಂದೆ	-11.3873
▁provisions	-11.3873
▁ಪರಿಸ್ಥಿತಿಯಲ್ಲಿ	-11.3874
▁ಚಟುವಟಿಕೆಗಳನ್ನು	-11.3875
▁ಯುವಕರು	-11.3878
▁disc	-11.3878
ಮಂತ್	-11.3881
▁ಸ್ತ್ರೀಯ	-11.3884
Pawan	-11.3885
ಗೂಡ	-11.3886
▁ಬಳಕೆದಾರರು	-11.3886
ಪಟ್ಟ	-11.3887
▁gained	-11.3889
ER	-11.3891
▁ತಗಲ	-11.3892
og	-11.3895
▁ಉಂಟಾದ	-11.3901
▁ಕಿಡಿಕಾರಿದ	-11.3904
▁ವಿಷಯಗಳಲ್ಲಿ	-11.3906
hit	-11.3907
▁ವಾಸಿಸ	-11.3907
ಮೌ	-11.3908
uit	-11.3908
▁searching	-11.3909
▁ಅವಲಂಬಿಸ	-11.391
IT	-11.3912
ವಾಗುವುದು	-11.3912
▁ಪಾಲ್ಗೊಳ್ಳ	-11.3914
ಮೈ	-11.3914
▁ಚಟ	-11.3914
▁demanding	-11.3915
▁calling	-11.3918
▁locations	-11.3918
ray	-11.392
MA	-11.3922
▁ಪದಾರ್ಥಗಳ	-11.3923
▁prophets	-11.3926
▁ಹೋಗುತ್ತಿದ್ದ	-11.3926
▁ನಿಕಟ	-11.3927
▁ಕ್ರಿಕೆಟಿಗರ	-11.3927
▁ತೆರಳ	-11.3928
▁ವೈಶಿಷ್ಟ್ಯ	-11.3928
▁ಹಾನಿಯ	-11.3928
▁ಅಂಗವಾಗಿ	-11.3929
▁Electronics	-11.3929
▁ಬೆನ್ನು	-11.3932
ಲಿಯಾ	-11.3932
ಿಬಿಡ	-11.3933
▁lessons	-11.3934
▁poster	-11.394
▁ಸಂಶೋಧನೆಯ	-11.394
▁ನೀವೆಲ್ಲ	-11.3942
▁pet	-11.3945
▁ಗೊತ್ತೇ	-11.3946
▁ED	-11.395
09	-11.395
ೀತ್	-11.3954
▁ಹುಟ್ಟು	-11.3955
ೌಟ್	-11.3955
▁ಮಾಡ್	-11.3957
▁ನಗರಗಳ	-11.396
▁ಪ್ರತಿಕ್ರಿಯಿಸಿದ	-11.396
▁meal	-11.396
▁ಮೇಲ್	-11.3966
ಗೈ	-11.3967
ಾಲ್	-11.3969
▁ಮೂಲಕವೇ	-11.397
▁ಕಡಲ	-11.397
▁ಕಾರ್ಪೊರೇ	-11.3973
▁ರವರು	-11.3974
yr	-11.3974
ಬೇಕೆ	-11.3975
▁Ganga	-11.3981
▁ವ್ಯಾಪಾರಿ	-11.3983
▁ನೊಂದ	-11.3987
▁ಸೇರುವ	-11.3989
▁ಬೆಳೆಸಿಕೊಳ್ಳ	-11.3992
AN	-11.3992
▁teachings	-11.3993
▁Tap	-11.3993
ಕ್ಟರ್	-11.3999
▁ಅಪಘಾತದ	-11.4
▁limits	-11.4001
▁ಧಾ	-11.4003
▁resulted	-11.4006
ಲ್ಲಿದ್ದ	-11.4008
▁ಸಂಗಾತಿಯ	-11.4009
▁ಶಾಕ್	-11.401
▁se	-11.4014
▁fi	-11.4014
▁Gul	-11.4016
▁signs	-11.4016
ಕಾರ್	-11.4019
▁articles	-11.4023
▁ಚಿತ್ರರಂಗದ	-11.4024
▁donate	-11.4027
200	-11.4031
ಲ್ಲದೇ	-11.4032
್ವಿನ್	-11.4033
ಭಕ್ತ	-11.4034
▁ವಸ್ತುಗಳು	-11.4035
ಗೇರಿ	-11.4036
▁ಗಿಲ್	-11.4039
▁practices	-11.404
▁ಆಯ್ಕೆಗಳನ್ನು	-11.4044
RC	-11.4045
ಳ್ಳಿ	-11.4049
aiah	-11.4049
▁ಜೈಲ	-11.4056
▁ಅಷ್ಟುಮಾತ್ರವಲ್ಲ	-11.4059
titled	-11.4059
▁ಕಾಯಿ	-11.406
ಯೊಬ್ಬರ	-11.4063
▁ಸಮರ್ಪಕವಾಗಿ	-11.4064
500	-11.4065
▁ಉಚಿತವಾಗಿ	-11.4065
eshwara	-11.4069
▁Snap	-11.4072
▁Times	-11.4073
▁ಬೆನ್ನ	-11.4074
atch	-11.408
▁ಆಕಾರ	-11.408
.35	-11.4081
▁prob	-11.4082
mall	-11.4083
ಸೆಲ್	-11.4085
▁letters	-11.4091
▁ಹೊತ್ತುಕೊಂಡ	-11.4091
▁ಯಾರನ್ನ	-11.4094
▁ಶಿವರಾಜ	-11.4095
▁Shar	-11.4097
▁ರೆಡಿ	-11.41
▁ಅಮಾನತು	-11.41
▁ಸೈ	-11.4101
lon	-11.4107
ಗಾರರ	-11.411
ರ್ಕ್	-11.411
▁ನುಡಿದ	-11.4113
jo	-11.4114
▁center	-11.4115
▁pages	-11.4121
▁ಇರಿ	-11.4122
▁sins	-11.4123
68	-11.4126
▁Mit	-11.4129
bha	-11.4131
▁pair	-11.4132
▁ಮಕ್ಕಳಲ್ಲಿ	-11.4136
ದಂತ	-11.4138
ಪುರದ	-11.4138
▁ಆರಿಸಿ	-11.4141
▁ಅವರಿಗ	-11.4143
ಎಂಎ	-11.415
▁ದಟ್ಟ	-11.4151
ಗಳೆಲ್ಲ	-11.4156
qui	-11.4157
▁ಅರಿತ	-11.4158
▁ಪ್ರಿ	-11.4159
pathy	-11.4168
ಕರ್ಣ	-11.4171
ಬೇಕೇ	-11.4176
ಿತಾ	-11.4176
▁ಉಪಕರಣ	-11.4182
▁ಅಟ	-11.4184
▁ಮುಂಭಾಗದಲ್ಲಿ	-11.4184
▁ನಂತೆ	-11.4186
▁ಲೇಖಕ	-11.419
▁o	-11.4194
ಸರಿ	-11.4197
▁Sub	-11.4198
▁ತಿಳಿದುಕೊಂಡ	-11.42
ರಿನಲ್ಲಿ	-11.4205
▁ಶಿಕ್ಷೆಯ	-11.4209
▁160	-11.4209
▁ಅಡಗಿ	-11.4213
▁ಉಪದೇಶ	-11.4217
app	-11.422
▁ಇವೆಲ್ಲವ	-11.422
ಮತಿ	-11.4221
▁ಬಾಗಲ	-11.4221
want	-11.4224
▁Dad	-11.4227
ಮತ್ತು	-11.4228
hana	-11.4229
▁ಸೇವೆಯ	-11.4238
ಾಯ್ತು	-11.4238
▁ತಿಳಿಸಿದ	-11.4239
espite	-11.4239
▁ಪ್ರೀತಿಸುವ	-11.4244
dent	-11.4246
▁handl	-11.4247
▁ಸಹಯೋಗ	-11.4253
ಕಾಲೇಜುಗಳ	-11.4257
gha	-11.4258
ನೈ	-11.4261
▁ಕೇಂದ್ರಗಳು	-11.4262
▁16-	-11.4263
▁ನಾಗರಿಕರ	-11.4265
▁ಭೂಮಿಯಲ್ಲಿ	-11.4265
ction	-11.4268
him	-11.4273
ಾಪುರ	-11.4277
▁ಸುಧಾರಿ	-11.428
▁ಜೀವಂತ	-11.4281
ವಾಗಿರುವುದು	-11.4281
▁ಮೈತ್ರಿಕೂಟ	-11.4283
ಮುಂದುವರೆಸಿದ್ದಾರೆ	-11.4283
▁ಹಾರಿ	-11.4284
▁creat	-11.4285
ದ್ದವು	-11.4286
▁ಖಾ	-11.4291
▁ಅಪಾಯದ	-11.4291
▁ನೀರವ	-11.4293
▁ಸುದ್ದಿಗೋಷ್ಠಿಯ	-11.4294
▁ಮಂಗಳೂರಿನ	-11.4294
▁ಬೆಲೆಯ	-11.4296
▁ಗಂಟೆ	-11.4299
▁ಪರಿಣಾಮಕಾರಿ	-11.43
▁En	-11.4304
▁ದಾನ	-11.4305
▁ಜೇ	-11.4306
▁ಸವಾಲ	-11.4306
ಇಲ್ಲ	-11.4309
▁Pad	-11.431
▁ಕಳೆದು	-11.431
ಾಗಿರಬಹುದು	-11.4311
▁84	-11.4313
board	-11.4316
▁ಪುಸ್ತಕದಲ್ಲಿ	-11.4317
▁speaks	-11.4318
ಸ್ಕ	-11.4319
ಕಾಶ್ಮೀರ	-11.4323
▁ಅಂಬ	-11.4324
wag	-11.4324
▁ನೋಟುಗಳ	-11.4325
▁gr	-11.4327
ವಿಗೆ	-11.4331
್ನ	-11.4333
▁ಪಾಲಿ	-11.4333
ಂತಾಗಿದೆ	-11.4334
rant	-11.4334
▁ಬಳಲ	-11.4335
▁ಜಯಂತಿ	-11.4336
▁ನಿರ್ದೇಶಕರಾಗಿ	-11.4337
▁ಪದಾರ್ಥ	-11.434
▁ಹರಿಯ	-11.434
▁ಹಿಂತಿರುಗಿ	-11.4343
▁ರಾಜು	-11.4346
್ಸ್	-11.4348
ಸಿಲ್	-11.4348
57	-11.4349
ವಾಯ್ತು	-11.4354
▁ಪತನ	-11.4355
▁ab	-11.4362
ಟೀ	-11.4362
▁ಕೋರ್	-11.4363
ಅಪ್	-11.4366
▁ಕಚ್ಚ	-11.4366
▁contribut	-11.4366
▁Sing	-11.4369
▁ಸಮ್ಮತಿ	-11.4376
▁ಭೀತಿ	-11.4377
ಿನ್ನೂ	-11.4381
ಡುವ	-11.4385
ಿಸುವಂತೆ	-11.4386
▁kings	-11.439
than	-11.4392
▁ಅಭಿವೃದ್ಧಿಪಡಿಸ	-11.4397
▁ತಮಗ	-11.4399
▁Los	-11.44
ಕುಮಾರ	-11.4401
hin	-11.4405
▁defend	-11.4405
▁bow	-11.4408
▁gra	-11.4408
‍ಗಳು	-11.4414
▁Anant	-11.442
▁ಪೇತ್ರ	-11.4421
▁ಪ್ರವಾದಿಗಳ	-11.4422
ಪಟ್ಟಣ	-11.4423
▁ನಡೆದು	-11.4423
Name	-11.4423
ಮಕ್ಕಳ	-11.4424
▁ಮಾನ್ಯ	-11.4424
ಗಾಂಧಿ	-11.4424
ಪಕ್ಷ	-11.4425
▁ವಿಮಾನದಲ್ಲಿ	-11.4425
[	-11.4425
ಯೆಹೋವನ	-11.4426
▁ಇತಿಹಾಸದ	-11.4431
PM	-11.4431
▁ಬ್ಯಾಂಕ	-11.4435
▁quarter	-11.4447
▁import	-11.4447
▁ಬೀ	-11.4448
shant	-11.445
▁ಹಚ್ಚಿ	-11.445
ಅದು	-11.4451
▁error	-11.4451
▁provision	-11.4452
▁manufacturer	-11.4453
▁instruction	-11.4453
▁preparation	-11.4453
mail	-11.4454
shed	-11.4455
▁ಬೆನ್	-11.4457
▁ತೆರ	-11.4458
uri	-11.4463
ಉದಾ	-11.4464
▁ಮಾಡಿಕೊಳ್ಳುವ	-11.4466
If	-11.4467
▁ಕನ್	-11.448
43	-11.4481
▁ಮಾನ	-11.4483
▁profit	-11.4485
▁ತಳ್ಳಿಹಾಕ	-11.4486
▁ಮೂಡಿಸುವ	-11.4486
▁resident	-11.449
▁ತೇಜ	-11.449
▁Low	-11.449
▁ಮೊಟ್ಟೆ	-11.449
▁Mal	-11.4491
▁ದೇವಿ	-11.4491
PO	-11.4494
▁ಆಮ್	-11.4496
▁ಆಪರೇಟ	-11.4499
88	-11.4502
ದೇಶೀಯ	-11.4503
▁ಭಕ್ತರ	-11.4503
ake	-11.4515
▁Ag	-11.4515
▁ವಿಷ್ಣು	-11.4516
▁chilli	-11.4516
▁ಪಟ್ಟಣದಲ್ಲಿ	-11.4518
▁ಬಿಜೆಪಿಯಲ್ಲಿ	-11.4519
▁ಪರಾರಿಯಾಗ	-11.452
▁recommend	-11.4522
ಂಬುದು	-11.4522
▁likes	-11.4523
ವೊಂದರ	-11.4524
▁ಪ್ರವೇಶಿಸುವ	-11.4526
▁ಆಸ್ಟ್ರೇಲಿಯಾದ	-11.4528
aka	-11.4528
▁ಹಾದು	-11.4529
▁Train	-11.453
▁ಬುದ್ಧಿವಂತ	-11.453
▁ಗಣೇಶ	-11.4531
▁ಗಂಗಾ	-11.4533
▁ವಿದ್ಯು	-11.4535
▁ಉದ್ಯಾನವನ	-11.4535
▁urge	-11.4536
▁ಸಮ್ಮೇಳನ	-11.4537
▁ಸ್ತನ	-11.4538
chan	-11.4539
▁ಪ್ರತಿಷ್ಠ	-11.454
▁ವೀಕ್ಷಿಸ	-11.454
▁quick	-11.4542
ಬಲ್ಲರು	-11.4542
▁ಪ್ರಾಯೋಗಿಕ	-11.4542
▁ಸಂಸತ್	-11.4544
ase	-11.4544
▁ದುರುಪಯೋಗ	-11.4545
▁devote	-11.4546
ೋಪಾದಿ	-11.4547
▁ಗಮನಹರಿಸ	-11.4547
ಾಡುವ	-11.4548
▁ದುಬೈ	-11.4548
ಐಸಿ	-11.4549
▁refresh	-11.4549
elief	-11.4549
redit	-11.4549
ecutive	-11.455
▁Vidya	-11.455
▁ಪ್ರತಿಭಟನಾ	-11.455
▁Agarwal	-11.455
▁Ballari	-11.455
▁Buddhist	-11.455
▁Computer	-11.455
▁Edition	-11.455
▁Elijah	-11.455
▁Employees	-11.455
▁Festival	-11.455
▁Gautam	-11.455
▁Gehlot	-11.455
▁ICIC	-11.455
▁Kapil	-11.455
▁Marathi	-11.455
▁Mayawati	-11.455
▁Prithvi	-11.455
▁Revenue	-11.455
▁Smriti	-11.455
▁Think	-11.455
▁Thursday	-11.455
▁Travel	-11.455
▁Wednesday	-11.455
▁accurate	-11.455
▁beneficiaries	-11.455
▁dedication	-11.455
▁demise	-11.455
▁demonstrate	-11.455
▁integrat	-11.455
▁miracle	-11.455
▁patience	-11.455
▁poison	-11.455
▁prohibit	-11.455
▁secular	-11.455
▁ಆಭರಣ	-11.455
▁ಆಲೂಗಡ್ಡೆ	-11.455
▁ಆವಿಷ್ಕಾರ	-11.455
▁ಕಡಿವಾಣ	-11.455
▁ಚಂಡಮಾರುತ	-11.455
▁ಜಂಕ್ಷನ್	-11.455
▁ಟೀಸ್ಪೂನ್	-11.455
▁ಧಾರವಾಡ	-11.455
▁ನೋಕಿಯಾ	-11.455
▁ಪಂಜಾಬಿ	-11.455
▁ಪಾಕವಿಧಾನ	-11.455
▁ಪಿತೃಗಳ	-11.455
▁ಪೃಥ್ವಿ	-11.455
▁ಫಡ್ನವೀಸ್	-11.455
▁ಫೇಸ್ಬುಕ್	-11.455
▁ಭಾವನಾತ್ಮಕ	-11.455
▁ಮುಂಜಾಗ್ರತ	-11.455
▁ಮುಷ್ಕರ	-11.455
▁ಮೆಟ್ರೋ	-11.455
▁ಯೋಸೇಫನ	-11.455
▁ವಾಗ್ವಾದ	-11.455
▁ವಾಟ್ಸಾಪ್	-11.455
▁ವಿಡಿಯೊ	-11.455
▁ಸತೀಶ್	-11.455
▁ಹಿಮಾಚಲ	-11.455
▁Daniel	-11.455
▁Dravid	-11.455
▁afternoon	-11.455
▁auction	-11.455
▁overcome	-11.455
▁taluk	-11.455
▁typical	-11.455
▁ಉಡಾವಣೆ	-11.455
▁ಕತ್ರಿನಾ	-11.455
▁ಕಾಮಿಡಿ	-11.455
▁ಕುದುರೆ	-11.455
▁ಚಕ್ರವರ್ತಿ	-11.455
▁ಬೌಂಡರಿ	-11.455
▁ಮಿಲಿಟರಿ	-11.455
▁ಹೊಡೆತ	-11.455
▁Unfortunately	-11.455
▁carbon	-11.455
▁disperse	-11.455
▁ಜರ್ಮನ್	-11.455
▁ವರದಿಯಾಗಿಲ್ಲ	-11.455
▁ಹಿಂಬಾಲಿಸ	-11.455
ಬಿಎಚ್ಪಿ	-11.455
▁Talk	-11.455
▁ದುರ್ಘಟನೆ	-11.455
▁ಹುಬ್ಬಳ್ಳಿ	-11.455
▁brown	-11.455
▁outcome	-11.455
▁Penal	-11.455
▁switch	-11.455
▁ಶತ್ರುಗಳ	-11.455
▁ಸಿಕ್ಕಾಪಟ್ಟ	-11.455
▁Kodagu	-11.455
▁stick	-11.455
▁ಚೇತರಿಕೆ	-11.455
chell	-11.455
▁divorce	-11.455
▁ಕೊಬ್ಬು	-11.455
▁ರಿಲಯನ್ಸ್	-11.455
▁ಶೃಂಗ	-11.455
▁ಸೇತುಪತಿ	-11.455
▁nurs	-11.455
▁2-0	-11.455
▁Aaron	-11.455
▁fishermen	-11.455
▁ಸೋಮವಾರ	-11.455
▁apology	-11.455
▁ವೇರಿಯ	-11.455
▁Samuel	-11.455
▁Dakshin	-11.455
▁chopped	-11.455
▁collision	-11.455
▁software	-11.455
▁ವರ್ಲ್ಡ್	-11.455
▁ಉದ್ಯಾನ	-11.455
▁ಕುಸ್ತಿ	-11.455
▁coffee	-11.455
▁fashion	-11.4551
▁ಪ್ರಖ್ಯಾತ	-11.4551
▁remand	-11.4551
▁permitted	-11.4551
▁ಬೆಳಕು	-11.4551
▁Nehru	-11.4551
▁Left	-11.4551
▁Shrad	-11.4551
▁ಶಕ್ತಿಶಾಲಿ	-11.4551
▁ಬೋರ್ಡ್	-11.4551
▁Sardar	-11.4551
▁motion	-11.4551
▁amendment	-11.4551
▁illustration	-11.4551
▁ರಾವತ್	-11.4551
▁greetings	-11.4551
▁ಸದುಪಯೋಗ	-11.4551
▁ಸಂಪಾದಿಸ	-11.4551
▁exclusive	-11.4551
▁Cooperation	-11.4551
▁Visit	-11.4551
▁mining	-11.4551
▁ನಾಗೇಂದ್ರ	-11.4551
▁clue	-11.4551
▁confusion	-11.4551
▁master	-11.4551
▁ಸಂಗಮ	-11.4551
▁ತುತ್ತಾಗ	-11.4551
▁ಗುಂಡೂರಾವ್	-11.4551
▁fray	-11.4551
▁northern	-11.4551
ಸಂಖ್ಯಾತ	-11.4551
▁ರ‍್ಯಾ	-11.4551
ಸಂಘಟಿತ	-11.4551
▁smart	-11.4551
▁Syria	-11.4551
▁Kishan	-11.4551
▁Federation	-11.4551
▁ಒಳಗೊಂಡಿರುತ್ತದೆ	-11.4551
▁ಶಾಸಕಾಂಗ	-11.4551
▁ಚೌಧ	-11.4551
▁advocate	-11.4551
▁ವಿಂಗಡಿಸ	-11.4551
▁unclean	-11.4552
▁ಪ್ರತೀಕಾರ	-11.4552
▁ಕುತೂಹಲಕಾರಿ	-11.4552
▁ಕಾರ್ಯತಂತ್ರ	-11.4552
▁herself	-11.4552
▁ಫಂಡ್	-11.4552
▁ಆಂಗ್ಲ	-11.4552
▁sick	-11.4552
▁ಪ್ರಮಾಣಪತ್ರ	-11.4552
▁ಪೇಸ್ಟ್	-11.4552
▁ಸಂಗ್ರಹಣೆ	-11.4552
▁ಅಸಾಮಾನ್ಯ	-11.4552
▁ಅರ್ಥಶಾಸ್ತ್ರ	-11.4552
▁ಬಿಂಬಿಸ	-11.4552
▁ಮಾಸ್ಟರ್	-11.4552
ತಿಳಿಯುತ್ತಿದ್ದಂತೆ	-11.4552
▁demon	-11.4552
▁grace	-11.4552
▁Kiran	-11.4552
▁4.0	-11.4553
▁ಸಿಪಿಐ	-11.4553
▁urgent	-11.4553
▁countrys	-11.4553
▁Match	-11.4553
▁ರಂಜನ	-11.4553
ಬರ್ಗ್	-11.4554
▁Store	-11.4554
▁asserted	-11.4554
▁ವುಡ್	-11.4554
▁Select	-11.4554
▁ಕಾಣುತ್ತಿಲ್ಲ	-11.4554
▁mercy	-11.4554
▁ಕಲ್ಪಿಸಲಾಗಿದೆ	-11.4554
▁ವೈರಿಗಳ	-11.4555
▁ಮಾಡುವಂತಿಲ್ಲ	-11.4555
▁exit	-11.4555
▁ಸಾಧ್ಯವಾಯಿತು	-11.4555
▁Lalu	-11.4555
▁ಮುಂಬಯಿ	-11.4555
▁ಕಾರಣವಾಗಬಹುದು	-11.4555
▁ವಿಧಿಸಲಾಗಿದೆ	-11.4555
▁ಸೆರೆಯಾಗಿದೆ	-11.4555
▁lucky	-11.4556
▁Saul	-11.4556
▁ride	-11.4556
▁ವಿನಯ	-11.4556
▁abandoned	-11.4556
▁behalf	-11.4556
▁believers	-11.4556
▁ನ್ಯಾಯಪೀಠ	-11.4556
▁Sanskrit	-11.4556
▁ಅತ್ಯಧಿಕ	-11.4556
▁ಕಾಡುತ್ತಿದೆ	-11.4556
▁ಮೆಗಾಪಿಕ್ಸೆಲ್	-11.4556
▁ಆಗಮನ	-11.4556
▁ನೆರವಾಗುತ್ತದೆ	-11.4557
▁ಕಲಿಯ	-11.4557
▁Port	-11.4557
▁motivated	-11.4557
▁ಸರಬರಾಜು	-11.4557
▁ಫಿಕ್ಸ್	-11.4557
▁ಹಾನಿಯಾಗಿದೆ	-11.4557
ಟಿಎಂ	-11.4557
▁Nathan	-11.4557
▁1,500	-11.4557
▁bold	-11.4557
▁ಪಂಡಿತ್	-11.4557
▁replaced	-11.4557
ಷೆ	-11.4557
▁trailer	-11.4558
▁Sidd	-11.4558
▁ಮೊಸರು	-11.4558
▁ವಿಫಲವಾಗಿದೆ	-11.4558
▁ಮುಲಾ	-11.4558
▁ಸೂಚಿಸಲಾಗಿದೆ	-11.4558
▁ರೋಹ	-11.4558
▁trick	-11.4559
▁ಗದಗ	-11.4559
▁ಮಾಡುವುದರಿಂದ	-11.4559
▁ಸಂಭವಿಸುತ್ತದೆ	-11.4559
▁researchers	-11.4559
▁ಉಂಟಾಗುತ್ತದೆ	-11.4559
▁ಎಂಬುದೇ	-11.4559
▁endure	-11.456
▁ಶಾಸನ	-11.456
▁examined	-11.456
▁ಲೋಪ	-11.456
▁Teach	-11.4561
▁ಏನಾಗುತ್ತದೆ	-11.4561
▁ಸೂಚಿಸಿದರು	-11.4562
▁ಮುಂದುವರೆದಿದೆ	-11.4562
▁ಹೋಗುವುದಿಲ್ಲ	-11.4562
▁Cost	-11.4562
▁ingredients	-11.4562
▁ರಾಯಲ್ಸ್	-11.4562
▁ರೋಗಿಯ	-11.4563
▁cloth	-11.4563
▁Pet	-11.4563
▁Date	-11.4564
▁Hold	-11.4564
▁Ranji	-11.4564
▁ಮಾಡಿಕೊಳ್ಳಬೇಕು	-11.4564
▁ಪಡೆಯಲಾಗಿದೆ	-11.4565
▁dam	-11.4565
▁ಶ್ರೀನಿವಾಸ್	-11.4565
▁ವಿಮಾನದ	-11.4565
▁ಸದಸ್ಯತ್ವ	-11.4566
ೀರಾ	-11.4566
▁Obama	-11.4566
▁ಸ್ಮೃತಿ	-11.4566
▁consideration	-11.4566
▁August	-11.4566
▁ಎಂಜಿ	-11.4567
▁Prashant	-11.4567
▁ಘೋಷಿಸಿದ್ದಾರೆ	-11.4568
▁ಕಾಯಿದೆ	-11.4569
▁ನೀಡಲಿಲ್ಲ	-11.457
▁ಷರ	-11.457
▁miles	-11.457
▁ಕಿಡಿ	-11.4571
▁Punjabi	-11.4571
▁ಕೋರಿದ್ದಾರೆ	-11.4571
▁observed	-11.4571
▁ನೆಟ್ಟ	-11.4572
▁honest	-11.4572
▁processor	-11.4573
▁420	-11.4573
▁20,000	-11.4573
ಂಗತ	-11.4573
▁ತಿನ್ನಲು	-11.4573
▁ಅಭಿನಂದನೆಗಳು	-11.4575
▁ಅವರೆಲ್ಲರ	-11.4576
▁operational	-11.4576
▁supporters	-11.4576
▁245	-11.4576
▁109	-11.4576
▁ಸ್ವಾಮ್ಯದ	-11.4577
▁circuit	-11.4577
▁artist	-11.4578
▁Boy	-11.4578
▁components	-11.4578
▁ಬೇಸ್	-11.4579
▁ಪ್ರತಿಯಾಗಿ	-11.458
▁ಕಂದು	-11.458
tone	-11.458
▁ದೇವೇಗೌಡರ	-11.458
▁ತೋರಿಸಲು	-11.4581
▁stronger	-11.4581
ರ್ವ	-11.4581
▁ಕೋಟಿಗೂ	-11.4582
▁ಜೀವಿಸುವ	-11.4582
▁sixes	-11.4583
ಿಸುವಂಥ	-11.4583
▁ಅನುವು	-11.4583
▁ಕೊಟ್ಟಿಲ್ಲ	-11.4585
▁ಎಂತಹ	-11.4585
ಘಾ	-11.4587
▁ಧ್ವಜ	-11.4587
▁ಗಳಿಸಿದರು	-11.4587
▁ಭ್ರಷ್ಟ	-11.4587
▁ನವೀಕರಿಸ	-11.4588
▁Ratna	-11.4588
▁ವಿಜ್ಞಾನಿಗಳು	-11.4589
▁format	-11.459
▁ಸಿನಿ	-11.4591
▁ಕಣ್ಣೀರ	-11.4591
timate	-11.4592
▁ಪಡೆಗಳ	-11.4593
▁ಬಿದ್ದಿದೆ	-11.4593
▁ಹಸ್ತ	-11.4593
▁ಜೈಪುರ	-11.4594
ಿಸಲಾಗುತ್ತದೆ	-11.4594
▁spending	-11.4596
▁107	-11.4597
▁ತೊಡಗಿಸಿಕೊಂಡ	-11.4599
▁Higher	-11.46
▁ಜೋಳ	-11.46
▁ಬಿಹೆಚ್	-11.4601
▁ಸ್ಟೋರ್	-11.4601
▁wearing	-11.4602
ಬ್ಬರಿ	-11.4604
▁ನೋಟ್	-11.4604
lood	-11.4604
▁ಮಧ್ಯಪ್ರದೇಶದ	-11.4604
▁tank	-11.4605
▁mighty	-11.4605
▁ಅಗತ್ಯವಾಗಿದೆ	-11.4607
▁planted	-11.4607
▁closely	-11.4607
▁younger	-11.4608
▁Padma	-11.4608
▁ಗುರುತಿಸಿ	-11.4609
▁refuse	-11.4609
▁ಉತ್ತೇಜಿಸ	-11.461
▁decades	-11.461
▁weapons	-11.461
▁ಆಲಯ	-11.4611
▁ಅರಿಯ	-11.4611
▁ಸುಂದರ್	-11.4611
▁ಗೋಲ್ಡ	-11.4612
mba	-11.4612
ೀಮ್	-11.4613
▁ಶ್ರೀನಗರ	-11.4613
AM	-11.4614
▁ಬರೆಯುವ	-11.4615
ವರ್ಗ	-11.4615
▁graduate	-11.4617
▁ಕತ್ತರಿಸಿದ	-11.4617
▁manager	-11.4618
▁ನೆಲದಲ್ಲಿ	-11.462
▁ಕಾದು	-11.462
▁ಆಧಾರದಲ್ಲಿ	-11.4621
▁Heat	-11.4625
ಕೈ	-11.4625
▁Zil	-11.4626
▁ಯೋಜನೆಯಡಿ	-11.4627
▁ಕಲಾವಿದರು	-11.4628
▁ಅನಾವರಣಗೊಳಿಸ	-11.4633
▁ಅಂದುಕೊಂಡ	-11.4633
▁maintaining	-11.4633
▁angels	-11.4634
Tech	-11.464
▁Sadanand	-11.464
▁1.5-	-11.4642
▁ಸಮಸ್ಯೆಗಳಿಗೆ	-11.4645
▁grate	-11.4646
ಕ್ತ	-11.4649
್ರಿ	-11.4653
OR	-11.4657
mala	-11.4661
▁ಬತ್ತ	-11.4662
▁ಆಗಲ್ಲ	-11.4662
▁ಹಿಂದ	-11.4664
▁ಅನುಭವಿಸುವ	-11.4664
aking	-11.4665
▁ಬಳಸಲಾಗ	-11.4665
▁ತಿಮೊಥೆಯ	-11.4668
▁Put	-11.4668
▁stores	-11.4675
▁ಪಾಲ್ಗೊಳ್ಳಲ	-11.4676
▁ಆಯಾ	-11.4682
rap	-11.4682
▁partners	-11.4682
▁walls	-11.4682
▁ಪ್ರೀತಿಸಿ	-11.4683
▁Raghu	-11.4684
ಬೊ	-11.4684
▁ಮೂಲೆ	-11.4687
▁ನವೀನ	-11.469
▁ತಂದು	-11.4691
▁ವಿಹಾರ	-11.4691
▁skills	-11.4694
ಟಿವ್	-11.4699
▁ಹಕ್ಕುಗಳನ್ನು	-11.4702
▁ವಾಚ	-11.4703
awa	-11.4705
ಸೆಂಟ್	-11.4707
▁ಸಂತೋಷ್	-11.4708
▁ಸುರಿದ	-11.4708
▁ಕುಂದ	-11.4712
ಸಾಧ್ಯವಾಗುತ್ತಿಲ್ಲ	-11.4712
ಾಗುವಂತೆ	-11.4714
linked	-11.4717
▁135	-11.4717
▁ಬಿಲಿಯನ	-11.4718
▁ಕೋಣೆ	-11.472
ಬಾರ್	-11.4721
▁ಬಣ್ಣಗಳು	-11.4722
▁mountains	-11.4723
▁ಬಿಜೆಪಿಯಿಂದ	-11.4723
▁ಪ್ರಧಾನಿಯಾಗ	-11.4724
▁ಮೊಳ	-11.4724
ಚರಣ	-11.4725
▁ನಡೆಸುವಂತೆ	-11.4726
▁ಪರಿಣಾಮಗಳು	-11.473
▁ಭಾಷಣದ	-11.4732
Holy	-11.4734
▁ಉಳಿಸಲ	-11.4734
▁banking	-11.4735
▁Kol	-11.4739
▁doubles	-11.4739
ppa	-11.474
▁1)	-11.474
▁ಯಾಜಕ	-11.474
nder	-11.474
▁ಅವಲಂಬಿಸಿರುತ್ತ	-11.4741
▁advantages	-11.4742
▁Dhar	-11.4743
ಗಾರನ	-11.4746
apur	-11.4746
▁heading	-11.4749
▁Expo	-11.4749
ಲಾಗಿರುವ	-11.4754
ಜಾತ	-11.4758
▁ಪ್ರಯಾಣಿಕ	-11.4762
▁facilitate	-11.4762
▁ನಾಲ್ಕ	-11.4766
▁ಬಾಣ	-11.4767
99	-11.4769
▁ಪ್ರದೇಶಗಳು	-11.477
▁ದೇಶಿ	-11.477
▁ಅಪೊಸ್ತಲರ	-11.4774
not	-11.4775
▁ನಟಿಸಿ	-11.4788
low	-11.4788
▁Officers	-11.4789
lor	-11.479
▁ಕಾದ	-11.479
▁faces	-11.4795
▁ಕೀಳ	-11.4797
▁Vikas	-11.4797
▁ಸಭೆಯನ್ನು	-11.48
▁ಡಿಸಿ	-11.4804
▁ಅಧಿಕಾರವನ್ನು	-11.4804
▁ಉಲ್ಲಂಘಿಸ	-11.4805
ನಿಗ	-11.4817
▁ವಿಷಾದ	-11.4823
▁ರೋಮ	-11.4824
▁ಪ್ರವೃತ್ತಿ	-11.4825
▁ಸಾಧ್ಯವಿದೆ	-11.4827
▁ನಾದ	-11.483
nce	-11.483
▁ಗುಪ್ತಾ	-11.4831
argil	-11.4832
ುದಿಲ್ಲ	-11.4834
▁ಸಿಗುತ್ತ	-11.4836
▁ಸ್ಥಾನಗಳು	-11.4838
ನೆಂಬ	-11.4842
ಂತಿಲ್ಲ	-11.4843
▁ವಿಫಲ	-11.4845
▁FC	-11.4846
ಟದ	-11.4848
▁ಭಯಪಡ	-11.4858
▁ಬಂಧು	-11.4865
▁ಉರುಳಿ	-11.4866
bu	-11.4872
▁ಮುಖ್ಯವಾದ	-11.4874
▁ಮೈಕ್ರೊ	-11.4878
▁ನೋಡಿಕೊಳ್ಳ	-11.4878
▁newly	-11.4879
▁bless	-11.4882
ದಿದ್ದರೂ	-11.4892
▁ಮಾರ್ಗಸೂಚಿ	-11.4896
len	-11.4896
ಕೊಂಡರು	-11.4897
ಯಾದರೆ	-11.4899
▁ಮನು	-11.4904
ತೆಗಳ	-11.4907
▁ಸುತ್ತಿನ	-11.4907
ಾವರ	-11.4916
▁ಕೊಂದು	-11.4919
▁sw	-11.492
▁constitution	-11.492
▁ಹೆಚ್ಚಾಗುವ	-11.4921
ಂದೂ	-11.4927
▁ಡಿಸ್ಕ್	-11.4931
ility	-11.4936
▁ಸಾಮರ್ಥ್ಯದ	-11.4937
▁ಕಳುಹಿಸಿ	-11.4937
ಪಡಿಸಲು	-11.4939
▁ಅಂ	-11.4941
ಮಸ್	-11.4942
▁ಸಂಪುಟದ	-11.4943
▁liked	-11.4944
▁ಯುದ್ಧದ	-11.4944
▁apps	-11.4947
▁ಪೋಷಕ	-11.4949
▁paint	-11.4955
ಾಂಕ	-11.4956
▁ಸ್ತ್ರೀಯರ	-11.4958
▁ಮಾಡಿಕೊಟ್ಟ	-11.4959
ಾಚೆ	-11.4961
ama	-11.4961
▁Sur	-11.4961
▁ಬಂಧಿಸುವ	-11.4962
▁Harsh	-11.4967
▁ಪರಮ	-11.4969
SS	-11.497
▁ಬಸ	-11.4972
▁ಅಧ್ಯಕ್ಷರ	-11.4973
▁Sho	-11.4974
▁hasn	-11.4975
13	-11.4975
▁Bh	-11.4975
▁ಕಾಜ	-11.4989
▁ಲಕ್ಷದ	-11.4997
ವಾರು	-11.5
ಡಬೇಕು	-11.5002
ದ್ದಾಳೆ	-11.5015
▁ಇರುವಂತೆ	-11.5015
ಲ್ಲದ	-11.5021
▁Nand	-11.5021
▁initiate	-11.5024
▁ಆಲಿ	-11.5027
ನಾಳ	-11.5029
▁generate	-11.5033
▁ನ್ಯಾಯಾಧೀಶ	-11.5035
▁ಪಾಕಿಸ್ತಾನದಲ್ಲಿ	-11.5038
lal	-11.5039
ುತ್ತಿದ್ದಾನೆ	-11.504
dri	-11.5042
▁ಗುಂಪುಗಳ	-11.5042
▁ಕಂಪೆನಿಗಳ	-11.5047
ಲ್ಡ್	-11.5055
▁ಹಂಚ	-11.5057
▁ಇಲ್ಲಿಯ	-11.506
rew	-11.5062
▁releases	-11.5062
gy	-11.5063
ಫೆ	-11.5064
▁ತಗ್ಗ	-11.5065
▁verse	-11.5068
್ತೀನಿ	-11.5068
▁ನಡೆಯುತ್ತ	-11.5072
▁ಮಜ	-11.5076
ಕೊಂಡಿದ್ದ	-11.5079
Fi	-11.5079
ೇಶ್ವರ್	-11.508
▁values	-11.5086
ficial	-11.5088
ವಾಲ್	-11.509
▁ನಿರಾಸೆ	-11.5097
▁ಧರ್ಮಗಳ	-11.51
▁ಉತ್ತಮವಾದ	-11.5104
▁ಹಿಂಸ	-11.5106
▁ren	-11.5107
ದಾರರ	-11.5109
▁ಮಾತನಾಡಲ	-11.5114
ಲಾಲ್	-11.5116
▁feels	-11.512
▁ಸಂಗಾತಿ	-11.5122
▁ನಡೆಸಿರುವ	-11.5122
▁ಬಾಗ	-11.5123
▁ಬಯಸಿದ	-11.5123
▁ದಲಿತರ	-11.5125
ಾಗುತ್ತಿದೆ	-11.5127
▁ಹಿರಿಯರ	-11.5129
▁ಕೂಗಿದರ	-11.513
ರಂತೆ	-11.5133
▁ಖಂಡಿಸ	-11.5134
▁ನಂದಿಸುವ	-11.5135
▁ಬಳಿಯ	-11.5139
▁ಯುವಕ	-11.5142
armed	-11.5142
▁ಉಲ್ಲೇಖಿಸ	-11.5143
tel	-11.5145
▁ದುರ್ಬಲ	-11.5147
▁ಒಳ್ಳೇದ	-11.5148
22	-11.5149
ಕೂ	-11.5162
ಿಯಾಗಿದ್ದ	-11.5164
▁ವರುಷಗಳ	-11.517
DS	-11.5173
▁ಪಕ್ಕದಲ್ಲಿ	-11.5176
▁ಅನುವಾದ	-11.518
ಿತರ	-11.5181
bus	-11.5183
ುತ್ತಾರೋ	-11.5188
inda	-11.5189
ಾದರೆ	-11.5194
▁controll	-11.52
▁ಸ್ವರ	-11.52
ೇಡ್	-11.5201
▁ಸ್ಥಿತಿಯ	-11.5201
▁ಪ್ರಕೃತಿಯ	-11.5205
lay	-11.5205
▁ಭರಿಸ	-11.5208
▁ಕುಳಿತ	-11.5211
jan	-11.5211
▁ಮಂಜೂರು	-11.5213
overall	-11.5222
xis	-11.5222
▁ಲ್ಯಾ	-11.5224
▁ಗುಂಪ	-11.523
ಬೇಕಾಗಿತ್ತು	-11.5231
new	-11.5237
ಾಗಿದ್ದರೆ	-11.524
▁accidents	-11.524
,''	-11.5242
▁ವಜಾ	-11.5242
▁ದೇವತೆ	-11.5244
▁ಪರಿಗಣಿಸಲ	-11.5245
▁tend	-11.5248
▁ಯೋಜಿಸ	-11.5249
state	-11.5249
wood	-11.5252
‘	-11.5252
cylinder	-11.5252
▁ದ್ವಾರ	-11.5254
member	-11.5255
▁ಪ್ರಮುಖವಾಗಿ	-11.5255
ade	-11.5256
ಸ್ಥಿತಿ	-11.5256
ಸ್ಟೇಟ್	-11.5257
ವೈರಸ್	-11.5257
▁ನಾಯಕನ	-11.5258
ಮೀಟರ್	-11.5258
Pakistan	-11.5258
ರೆಡ್ಡಿ	-11.5258
▁ಮಂಡಲ	-11.5258
ಕ್ಯಾ	-11.5258
ನಮಗೆ	-11.5259
house	-11.5259
high	-11.526
ಮಣಿ	-11.5266
▁89	-11.5268
▁ಸ್ಪರ್ಧಿಸುತ್ತ	-11.5269
▁ಪೋಸ್ಟರ	-11.527
iest	-11.5279
▁ಉದ್ಘಾಟನ	-11.5279
▁slave	-11.5281
▁aspect	-11.5283
▁ಬೇರ	-11.5283
▁Olympic	-11.5284
▁initiative	-11.5285
▁arrangement	-11.5285
▁ಜೀವಿಗಳ	-11.5286
▁affair	-11.5286
▁ಬರುತ್ತಿದ್ದ	-11.5286
▁ಪ್ರತಿಮೆ	-11.5287
▁Student	-11.5287
▁ಮಹಿಳೆಯರಲ್ಲಿ	-11.5287
▁allegation	-11.5288
▁parent	-11.5289
ಾಕ್	-11.5291
▁Right	-11.5291
▁ಖರ್ಚ	-11.5295
rounder	-11.5299
▁ನಡ	-11.5299
comm	-11.53
▁ಸಂಸ್ಕೃತಿಯ	-11.5304
▁ಎಂದಿದ್ದ	-11.5305
▁institute	-11.5305
▁manag	-11.5308
▁ಕೋಶ	-11.531
▁ಹಿಂದೂಗಳ	-11.5311
▁ವೀ	-11.5311
▁ಕೂದಲ	-11.5311
▁ಒಂದಾಗಿ	-11.5313
ೀಲ್	-11.5315
▁engines	-11.5316
ಾಗುತ್ತಾರೆ	-11.5319
▁ಪಡಿಸಿ	-11.5321
ತ್ರಿ	-11.5325
▁Natur	-11.5325
▁ಯೆರೂಸಲೇಮ	-11.5327
▁ಕ್ರಿ	-11.5327
▁ಪ್ರತಿಭಟನಾಕಾರರ	-11.5329
ವಿಧ	-11.533
▁ಸಿನಿಮಾಗಳ	-11.5331
▁ಕುರಿ	-11.5331
▁ಪ್ರತಿಭೆ	-11.5332
▁ಕಟ್	-11.5336
▁ವೃದ್ಧ	-11.5338
▁profession	-11.5342
▁tear	-11.5344
▁resist	-11.5347
ರಂಗದಲ್ಲಿ	-11.5349
▁distress	-11.5355
ಮೆನ್	-11.5356
ational	-11.5356
▁recall	-11.5356
▁3)	-11.5359
▁ಬಾಲಕನ	-11.5359
ಕ್ಯ	-11.536
▁ಕುಸಿದ	-11.536
▁ಚಾಲೆಂಜ	-11.5363
ವೇಂದ್ರ	-11.5363
▁ಅರ್ಜುನ	-11.5365
law	-11.5365
▁cry	-11.5366
▁shame	-11.5367
▁ಪ್ರೋತ್ಸಾಹಿಸ	-11.5368
▁ವಿಮರ್ಶೆ	-11.5369
ಿಂದಾಗಿ	-11.537
▁smile	-11.5371
ಬಂಡೆ	-11.5372
▁ಶೇಕಡ	-11.5372
▁determine	-11.5372
▁approve	-11.5372
▁divide	-11.5372
▁Prepar	-11.5373
▁possibl	-11.5374
▁ju	-11.5374
▁ಆಕಾಶದ	-11.5375
▁ತಾತ್ಕಾಲಿಕ	-11.5376
,999	-11.5377
▁ಸ್ತುತಿ	-11.5377
▁ಗುಡ್	-11.5378
▁ಪ್ರಚೋದಿಸ	-11.5381
▁stab	-11.5382
▁ಹಗರಣದ	-11.5383
ಗಣನೆ	-11.5383
ಭೂಷಣ	-11.5383
ordinary	-11.5383
ಡಬ್ಲ್ಯು	-11.5384
▁Ahmad	-11.5384
▁compassion	-11.5384
▁ಫರೋಹನ	-11.5384
▁ಮೋಟಾರು	-11.5384
▁ಸಾಂತ್ವನ	-11.5384
KSRTC	-11.5384
▁AIIMS	-11.5384
▁Animal	-11.5384
▁BBMP	-11.5384
▁Bhopal	-11.5384
▁Disaster	-11.5384
▁Ladakh	-11.5384
▁Masjid	-11.5384
▁Naidu	-11.5384
▁Pratap	-11.5384
▁Rashmik	-11.5384
▁Sabarimala	-11.5384
▁Steel	-11.5384
▁Venugopal	-11.5384
▁beneficial	-11.5384
▁breast	-11.5384
▁brigade	-11.5384
▁categories	-11.5384
▁coconut	-11.5384
▁conclusion	-11.5384
▁consequences	-11.5384
▁context	-11.5384
▁enemy	-11.5384
▁execute	-11.5384
▁exhort	-11.5384
▁experiment	-11.5384
▁funeral	-11.5384
▁improving	-11.5384
▁overseas	-11.5384
▁paddy	-11.5384
▁plain	-11.5384
▁plot	-11.5384
▁policies	-11.5384
▁possibility	-11.5384
▁pride	-11.5384
▁properties	-11.5384
▁psalmist	-11.5384
▁repay	-11.5384
▁sanctuary	-11.5384
▁silent	-11.5384
▁smashed	-11.5384
▁sovereignty	-11.5384
▁spouse	-11.5384
▁strategi	-11.5384
▁studied	-11.5384
▁surprising	-11.5384
▁swallow	-11.5384
▁territory	-11.5384
▁ಇಂತಿವೆ	-11.5384
▁ಏಷ್ಯನ್	-11.5384
▁ಕಛೇರಿ	-11.5384
▁ಕಿರೀಟ	-11.5384
▁ಕುಂಬ್ಳೆ	-11.5384
▁ಕೊನೆಯುಸಿರೆಳೆದ	-11.5384
▁ಕೌಟುಂಬಿಕ	-11.5384
▁ಕ್ಷಿಪಣಿ	-11.5384
▁ಚಳವಳಿ	-11.5384
▁ತೂರಾಟ	-11.5384
▁ದಶಕಗಳ	-11.5384
▁ದಿನನಿತ್ಯ	-11.5384
▁ದೇಗುಲ	-11.5384
▁ದ್ರಾವಿಡ್	-11.5384
▁ಧೋರಣೆ	-11.5384
▁ನಕಾರಾತ್ಮಕ	-11.5384
▁ಫಲಾನುಭವಿಗಳ	-11.5384
▁ಭಯಾನಕ	-11.5384
▁ಮನೋರಂಜನೆ	-11.5384
▁ಮಹತ್ತರ	-11.5384
▁ಮೆಟ್ಟಿಲು	-11.5384
▁ಮೈಕ್ರೋ	-11.5384
▁ಮ್ಯೂಸಿಯಂ	-11.5384
▁ರಾಧಿಕಾ	-11.5384
▁ಲಡಾಖ್	-11.5384
▁ವಿಪರೀತ	-11.5384
▁ವಿಭಜನೆ	-11.5384
▁ವಿಮರ್ಶಕರ	-11.5384
▁ಸಂಚಲನ	-11.5384
▁ಸಂಭಾವನೆ	-11.5384
▁ಸಬಲೀಕರಣ	-11.5384
▁ಸೆಲ್ಸಿಯಸ್	-11.5384
▁ಸೌತೆಕಾಯಿ	-11.5384
▁Chandrayaan	-11.5384
▁Nokia	-11.5384
▁ಕನಿಷ್ಟ	-11.5384
▁ಲಘು	-11.5384
mbulance	-11.5384
▁Jonas	-11.5384
▁Self	-11.5384
▁True	-11.5384
▁comprehensi	-11.5384
▁tennis	-11.5384
▁ಸ್ಟಾಗ್ರಾಂ	-11.5384
▁Living	-11.5384
▁strain	-11.5384
▁ಬ್ರಾಡ್	-11.5384
▁ಮಡಿಕೇರಿ	-11.5384
▁yoga	-11.5384
▁ಕ್ರಮೇಣ	-11.5384
▁Cancer	-11.5384
▁breakfast	-11.5384
▁ದರೋಡೆ	-11.5384
▁ಮಿಚೆಲ	-11.5384
▁ವಿರಳ	-11.5384
▁ನರಸಿಂಹ	-11.5384
▁harvest	-11.5384
▁ಸ್ಕೋಡಾ	-11.5384
▁Harikrishna	-11.5384
▁ಗುತ್ತಿಗೆ	-11.5384
▁ಹುರುಪ	-11.5384
ಾರೂಢ	-11.5384
▁chariot	-11.5384
▁complicated	-11.5384
▁conscience	-11.5384
▁shrine	-11.5384
▁Manjunath	-11.5384
▁cattle	-11.5384
▁extensive	-11.5384
▁league	-11.5384
▁multitude	-11.5384
▁connectivity	-11.5384
▁ಬಿತ್ತನೆ	-11.5384
▁stability	-11.5384
▁ಆಶಯ	-11.5384
▁Vishnu	-11.5384
▁ಸಿಡ್ನಿ	-11.5384
▁ರಂಗಭೂಮಿ	-11.5384
▁ಅಪಹರಣ	-11.5384
://	-11.5384
▁ಎಫ್ಐಆರ್	-11.5384
▁ಬ್ರಹ್ಮ	-11.5384
▁ಕಳಪೆ	-11.5384
▁ಹೆಸರುವಾಸಿಯಾಗಿ	-11.5384
epeat	-11.5384
▁draft	-11.5384
▁turmeric	-11.5384
▁governance	-11.5384
▁ಚಂದ್ರಯಾನ	-11.5384
▁exciting	-11.5384
▁ಪಾಸ್ವಾನ್	-11.5384
▁ಮಹಮ್ಮದ್	-11.5384
▁Memorial	-11.5384
▁ಟ್ರಾನ್ಸ್	-11.5384
▁entrance	-11.5384
▁ಬ್ರಾಂಡ್	-11.5384
▁Energy	-11.5384
▁combination	-11.5384
▁keen	-11.5384
▁trace	-11.5384
▁Body	-11.5384
▁intensified	-11.5384
▁Canada	-11.5384
▁collaboration	-11.5384
▁Coast	-11.5384
▁equivalent	-11.5384
▁Oct	-11.5384
▁fond	-11.5384
▁Hassan	-11.5384
▁Sugar	-11.5384
▁ಪಾನೀಯ	-11.5384
▁ಟ್ಯಾಕ್ಸಿ	-11.5384
▁Full	-11.5384
▁Charan	-11.5384
▁ಸ್ನಾನ	-11.5384
▁Sagar	-11.5384
▁ತಲಪ	-11.5384
▁ಕಾಲಾವಕಾಶ	-11.5385
▁gear	-11.5385
▁attach	-11.5385
▁ಲೋಕೇಶ್	-11.5385
▁tight	-11.5385
▁altar	-11.5385
▁currency	-11.5385
▁estate	-11.5385
▁ಅಶ್ವ	-11.5385
▁email	-11.5385
▁ದೈವಿಕ	-11.5385
▁ಸ್ಮರಿಸ	-11.5385
▁poetry	-11.5385
▁pitch	-11.5385
▁outbreak	-11.5385
▁ಹೆಗಲ	-11.5385
▁NRC	-11.5385
▁ಬೆಂಬಲಿಗರ	-11.5385
▁chest	-11.5385
▁persist	-11.5385
▁ಜಗತ್ತಿನಾದ್ಯಂತ	-11.5385
▁ಬೆಸ್ಟ್	-11.5385
ಿಸಿದರೆ	-11.5385
angana	-11.5385
▁lifestyle	-11.5385
▁Shivaji	-11.5385
▁fitness	-11.5385
▁friendship	-11.5385
▁fever	-11.5385
▁citizenship	-11.5385
▁ವಿವಿಧೆಡೆ	-11.5386
▁metres	-11.5386
▁ಮುಂಗಾ	-11.5386
▁ಮಿಷನ್	-11.5386
▁telephone	-11.5386
▁ಅಂತೀರಾ	-11.5386
▁ಸಮತೋಲನ	-11.5386
▁ಆಯಾಮ	-11.5386
▁Mission	-11.5386
▁airline	-11.5386
▁ಕೊಡಗು	-11.5386
▁Sharif	-11.5386
▁ಇಮೇಲ್	-11.5386
▁deleted	-11.5386
▁ಹೊಂದಿರುತ್ತವೆ	-11.5386
▁ಕಟೀಲ್	-11.5386
▁reign	-11.5386
▁illness	-11.5386
▁ನೀಡಬೇಕೆಂದ	-11.5387
▁Saint	-11.5387
▁Rajkumar	-11.5387
▁implementation	-11.5387
▁selection	-11.5387
▁Kush	-11.5387
▁Ground	-11.5388
▁painful	-11.5388
▁Creator	-11.5388
▁rapidly	-11.5388
▁ಮೂರನೆಯ	-11.5388
▁ಬೆಲೆಯು	-11.5388
▁approximately	-11.5388
▁ಪ್ರಜಾ	-11.5388
▁ಹೇಗಾದರೂ	-11.5388
▁Parishad	-11.5388
ಶಿಯಲ್	-11.5388
▁ನೀಡುತ್ತಿಲ್ಲ	-11.5389
▁ಮರಾಠಿ	-11.5389
▁fallen	-11.5389
▁primar	-11.5389
▁tired	-11.5389
▁ಹಾಜಿ	-11.5389
▁Alto	-11.5389
▁ಕಪಿಲ	-11.539
▁ಗೇಮ್ಸ್	-11.539
ಸೊ	-11.539
▁ಪೆಟ್ರೋಲಿಯಂ	-11.539
▁ಕ್ಲೀನ್	-11.539
▁ಕಾಪಾಡಲು	-11.539
▁ವಿಷ್ಯ	-11.539
▁ದಿನದಂದು	-11.539
▁ಹಾಗಿಲ್ಲ	-11.539
akesh	-11.5391
▁popularity	-11.5391
tech	-11.5391
▁disk	-11.5391
▁coastal	-11.5391
▁everyday	-11.5391
▁consist	-11.5391
ನ್ನೊಳಗೊಂಡ	-11.5391
▁ಗೊತ್ತಿತ್ತು	-11.5392
▁ಹೊಂದಿದ್ದರೆ	-11.5392
▁ತಿಳಿದುಕೊಳ್ಳಲು	-11.5392
▁disaster	-11.5392
▁ಕಳುಹಿಸಲಾಗಿದೆ	-11.5392
▁rid	-11.5393
▁unfortunate	-11.5393
▁difficulties	-11.5393
▁arch	-11.5393
▁ಟೈಮ್ಸ್	-11.5393
ವಿದ್ದು	-11.5393
▁ಹೊಣೆಗಾರಿಕೆ	-11.5393
▁deity	-11.5394
▁quoted	-11.5394
▁ಹುಡುಗಿಯ	-11.5395
ೆಬಿಟ್	-11.5395
▁Wa	-11.5395
▁retired	-11.5395
▁ಸಿಖ್	-11.5396
▁ತಕ್ಕೊಂಡು	-11.5396
▁attraction	-11.5396
▁acceptable	-11.5396
▁ಏನಾಯಿತು	-11.5396
▁ಗುರಿಯಾಗಿದೆ	-11.5396
▁ಕಂಡುಬಂದಿದೆ	-11.5396
▁Bike	-11.5396
▁ಸಂಸ್ಥಾಪಕ	-11.5397
▁Champions	-11.5397
▁triggered	-11.5397
[...]
